▁් 1373089
▁. 308181
▁න 167647
▁, 151138
▁? 88655
▁මම 69040
▁- 58364
▁ඔයා 52692
▁නේ 49476
▁මට 43938
▁කරන 43693
▁... 41942
▁! 34364
▁ඒක 33390
▁එක 33050
▁නෑ 32500
▁මේ 29913
▁ඉන 27906
▁අපි 27374
▁නෙ 26626
▁ද 26300
▁කියලා 25920
▁∙ 24784
▁ඔයාට 24231
▁වෙන 24215
▁නම 24003
▁යන 23375
▁ඒ 22795
▁ක 22536
▁කියන 20508
▁.. 20223
▁මගේ 19791
▁ම 19566
▁ප 19399
▁ස 18369
; 18342
▁& 18336
▁එයා 17550
▁ට 17160
▁දන 17059
▁හරි 15351
▁ගැන 14827
quot 14772
▁දැන 14559
▁ගන 14161
▁නවා 13132
▁නැහැ 12924
▁දෙන 12597
▁මං 12591
▁මේක 12413
▁ව 12314
▁වගේ 11346
▁තියෙන 11224
▁අපිට 11216
▁එන 11116
▁ත 11037
▁ඒත 10626
▁ඇත 10018
▁ඔයාගේ 9981
▁පුළුවන 9529
▁දෙයක 9265
▁තමයි 9195
▁කිව 9140
▁මොකද 8876
▁බලන 8756
▁ඕන 8540
▁ය 8485
▁හිතන 8354
▁එපා 8350
▁තා 7875
▁එකක 7859
▁ඔව 7834
▁වෙලා 7810
▁ඕනේ 7667
▁තියෙනවා 7579
▁සහ 7541
▁මාව 7360
▁ඔහු 7344
▁ඇති 7183
▁කරනවා 7138
▁ගේ 7112
▁වෙනවා 7091
▁කියල 7002
▁ඇයි 6891
▁ගත 6813
▁ඔවුන 6754
▁පස 6679
▁මොකක 6676
▁කතා 6636
▁කෙනෙක 6485
▁එහෙම 6484
▁සම 6444
▁අපේ 6366
▁නැත 6229
▁ඔබ 6158
▁කොහොමද 6129
ක 6109
▁එයාට 6093
▁ඔයාව 5973
▁පුලුවන 5915
▁වන 5791
▁වා 5786
▁ඔයාගෙ 5739
▁වල 5709
▁දේ 5675
▁තාත 5673
▁විශ 5501
▁ගොඩක 5436
▁බෑ 5389
▁ල 5350
▁සර 5306
▁තේ 5197
▁හැම 4955
යි 4951
▁ඇය 4924
▁කරලා 4861
▁සන 4780
▁ඉතින 4749
▁වැඩ 4749
▁නිසා 4729
▁උන 4675
▁අර 4671
▁මිනිස 4646
▁මෙතන 4557
▁කලින 4510
▁අම 4503
▁බ 4463
▁වලට 4433
▁සු 4412
▁නේද 4389
▁අත 4383
▁මා 4298
▁තව 4265
▁කාර 4262
▁ලා 4257
▁ග 4226
▁අල 4225
▁ආරක 4218
▁තටම 4181
▁එයාව 4180
▁කර 4149
▁හොඳයි 4106
▁සේ 4093
▁නැති 4087
▁වේ 4076
▁යනවා 4048
▁ඩ 4021
▁වගේම 4011
▁නෙවෙයි 4004
▁අන 3967
. 3938
▁රශ 3902
▁දැක 3863
ද 3857
▁චර 3848
▁( 3844
▁) 3823
▁දේවල 3796
▁අද 3785
▁විතරයි 3760
▁එකට 3757
▁බන 3708
▁ආපහු 3689
▁හා 3677
▁වඩා 3634
▁ලි 3629
▁උදව 3621
▁නා 3600
▁උත 3575
apos 3562
▁ඉක 3542
▁ඔක 3534
ට 3527
▁ධ 3527
▁වෙනුවෙන 3525
▁කවුද 3518
▁අහන 3496
▁ගිහින 3462
▁තර 3461
▁ටිකක 3459
▁නවත 3457
▁ඕනෙ 3404
ත 3386
▁නද 3354
▁ඔය 3334
▁තියන 3332
▁වාස 3326
▁තු 3318
▁මොනවද 3312
▁නවද 3308
▁එයාගේ 3269
▁ඒකට 3259
▁එහෙනම 3239
▁මහත 3228
▁: 3226
▁මන 3177
▁හොඳ 3162
▁කිසිම 3158
▁වුනා 3158
▁මගෙ 3157
▁කන 3151
▁නැ 3124
▁තමා 3113
▁පැත 3113
▁එයාලා 3108
▁දාන 3108
▁නමුත 3097
▁මොන 3094
▁හදන 3072
ව 3057
▁නැද 3057
▁පත 3053
▁දුන 3049
▁හම 3015
▁පෙන 3014
▁ඒවා 3003
▁දක 2992
▁කවදාවත 2947
▁අය 2935
▁සල 2934
▁නව 2931
▁වර 2918
▁තිබ 2915
ම 2914
▁උඹ 2911
▁කලා 2910
▁කට 2888
▁කොල 2860
▁ර 2852
▁කෙල 2837
▁එකේ 2827
▁ඕනා 2801
▁වෙනස 2778
▁වෙයි 2778
▁ලොකු 2747
▁කරගන 2736
▁ටර 2736
▁එතකොට 2723
▁ඔබට 2717
▁ලන 2711
▁ගෙ 2705
▁ගෙදර 2704
▁පොඩි 2687
▁වත 2674
▁කැමති 2654
▁සමාවෙන 2598
ය 2595
▁ගෙන 2594
▁කම 2592
▁වලින 2591
▁එනවා 2537
▁එය 2536
▁කොම 2533
▁සෙ 2519
▁ඉස 2503
▁කල 2494
▁හරියට 2486
▁තම 2481
ෙන 2480
▁අවුරුදු 2469
▁මෙහෙ 2461
▁බැහැ 2454
▁තත 2443
▁ටික 2414
▁තැන 2412
▁මාර 2412
▁නයි 2404
▁හිටියේ 2403
▁හොයාගන 2397
▁ඔයාලා 2392
▁ගියා 2374
▁තට 2373
▁අවශ 2368
▁තියනවා 2367
▁එයාල 2352
▁කා 2340
▁කලේ 2300
ින 2298
▁පටන 2286
ේ 2283
යක 2259
▁බව 2248
▁හොදයි 2240
▁කළා 2215
▁කොහෙද 2213
▁විදිහට 2206
▁ආවේ 2199
▁ෂා 2191
▁කිරීම 2183
▁එකම 2178
▁හොද 2172
▁ච 2155
▁වැඩක 2150
▁දැනගන 2129
න 2125
▁පේන 2124
▁ඔබේ 2121
▁නෙමෙයි 2113
▁ෆ 2104
▁වුනේ 2103
▁සඳහා 2092
▁ති 2091
▁කරපු 2089
▁ඔහුට 2086
▁යමු 2080
▁සුන 2080
▁පරීක 2071
▁සිද 2064
▁ගමන 2062
යට 2061
▁විදියට 2052
▁ශ 2049
ී 2026
▁වෙ 2026
ෙ 2010
▁ඇවිත 1998
▁උනා 1998
▁තන 1989
▁අපිව 1987
▁දී 1987
▁ඕනි 1986
▁සෙල 1981
▁හැමෝම 1977
▁එලියට 1960
▁අරගෙන 1955
▁නැතුව 1951
▁කොච 1950
▁තරම 1946
▁තෙ 1940
▁කරා 1938
▁ලක 1924
▁බැරි 1923
▁ලස 1922
▁තවත 1917
▁පොඩ 1914
▁පිස 1909
ි 1906
▁කෙනා 1901
▁මතක 1899
▁දවස 1893
- 1892
▁අරන 1884
▁මක 1883
▁ඔහ 1876
▁අවස 1874
▁එයාගෙ 1873
▁අනේ 1852
ගේ 1836
කට 1831
▁හිටියා 1815
▁රස 1784
▁හෝ 1780
▁තුවක 1779
▁හ 1779
▁වය 1778
▁කියනවා 1773
▁මත 1770
යේ 1761
▁කණ 1758
▁මරන 1758
▁චි 1757
▁ඒකෙන 1755
▁අතර 1748
▁රෑ 1745
▁ෂ 1745
▁ඉල 1730
▁හරිද 1726
▁කැමතියි 1709
▁එත 1707
යන 1704
▁බය 1695
▁හේයි 1690
▁බල 1687
▁මෙන 1687
▁ඩක 1684
ු 1683
▁සමහර 1679
▁විද 1678
▁තේරුම 1677
▁නැවත 1668
▁දකින 1665
▁දි 1664
▁පර 1662
ස 1660
▁ඊට 1658
▁වාර 1656
▁ටන 1647
ිය 1646
▁බර 1645
▁එයාලට 1644
ල 1641
▁විට 1641
▁සමහරවිට 1641
▁නත 1632
▁ලම 1628
▁නියම 1626
▁විස 1624
▁දිහා 1619
▁අනිත 1618
ලා 1614
▁විය 1606
▁ලෝ 1602
▁දු 1601
▁ණ 1599
▁මෙම 1582
▁වෙඩි 1574
▁ඇයට 1571
▁ලෙස 1562
▁ඔහුව 1561
▁වැඩේ 1556
▁ජීවත 1541
▁නිර 1535
▁ඔහුගේ 1528
▁කියලද 1523
▁ලබා 1523
▁එකෙන 1521
▁එතන 1515
▁වැඩි 1506
▁ඕක 1498
වත 1490
▁ආ 1488
▁පාර 1488
▁වෙලාව 1486
▁ආවා 1485
▁දා 1480
▁නරක 1469
නේ 1467
▁නියමයි 1465
▁ලේ 1456
▁යා 1451
▁පූර 1450
▁ඇස 1448
▁මෙහේ 1445
▁යයි 1445
▁ඇතුලට 1444
▁ඔයාලට 1444
▁නෙමේ 1442
ර 1429
▁දාලා 1427
ුත 1425
යෙන 1418
▁දැම 1416
▁බලාගන 1413
▁අලුත 1405
▁වීම 1405
▁මාත 1404
▁නන 1403
▁එච 1401
ගෙ 1398
▁අමතක 1397
▁සත 1396
▁වේවි 1394
▁කෝ 1388
▁හොඳින 1385
▁මොනාද 1384
▁අප 1375
▁උනේ 1375
▁ලෙක 1375
▁පන 1359
▁ශක 1355
ෝ 1350
▁කමක 1349
▁හිතනවා 1343
▁♪ 1338
▁තිය 1335
ගෙන 1332
▁තමුන 1324
▁කෑම 1323
▁තාම 1318
▁පාවිච 1318
▁නයක 1312
▁මල 1310
▁දෙනවා 1308
▁අයින 1305
▁ඔයාල 1305
▁ඇයව 1304
▁වැදගත 1304
▁අදහස 1302
▁හොයන 1301
▁\ 1289
▁හරිම 1277
▁මොනවා 1276
▁හොදින 1273
▁සෙන 1272
▁වෙනව 1271
▁ඒයි 1270
▁බොරු 1270
▁ඉවරයි 1269
▁වූ 1265
▁මැරෙන 1264
▁කු 1261
▁දෙකක 1260
▁ඌ 1258
▁උබ 1253
▁නැතිව 1251
▁මනට 1251
▁තියාගන 1249
▁ජැක 1245
▁ඉවර 1244
▁තියෙනවද 1244
▁කළ 1243
▁ෂක 1236
▁ඔහේ 1234
▁කරුණාකරලා 1226
▁ඉඩ 1225
▁දර 1224
▁පුතා 1212
▁බලාපොරොත 1211
▁ඉතිං 1198
▁ඒවගේම 1197
▁කෝල 1193
▁තැනක 1192
▁ගහන 1190
▁සේරම 1188
▁විසින 1187
▁යක 1185
▁ලොක 1181
▁කරල 1180
ටම 1175
▁බලාගෙන 1174
▁කරයි 1173
▁හොයාගත 1172
▁විනාශ 1168
▁සාමාන 1167
▁ඔයත 1165
▁තුතියි 1158
▁හිතුවේ 1156
▁විතරක 1155
▁3 1154
▁කොට 1150
▁තෙන 1149
ුයි 1147
▁උඹට 1145
▁මේකට 1144
▁වද 1143
▁මෙයා 1141
▁සටන 1141
▁තූතියි 1138
▁විතර 1138
▁ඔන 1137
▁නිකන 1136
▁තමන 1135
▁දෙවියන 1134
ප 1128
▁වැරදි 1123
▁ඇන 1112
▁දුර 1112
▁ගුවන 1110
▁කවුරු 1108
▁බා 1108
▁* 1105
▁වෙලාවක 1105
▁තුන 1104
▁කිසි 1102
ුව 1101
▁කරේ 1101
▁දවසක 1100
▁මෙහෙට 1099
▁නට 1098
▁රාත 1092
▁අධ 1090
▁ගියේ 1090
▁තියනව 1089
▁ජ 1086
▁ඉදන 1085
▁කොටස 1082
▁2 1079
▁මාස 1079
▁මෙහෙම 1078
▁එකතු 1076
▁මුලින 1076
▁ගාව 1075
▁අනික 1073
▁එල 1072
▁මිනිහා 1069
▁රී 1069
▁සාක 1069
▁පල 1066
▁පැය 1063
▁වුණා 1063
▁මුළු 1055
▁අහ 1054
යා 1052
▁කාලය 1050
▁10 1049
ා 1047
▁කරනව 1045
▁පාලනය 1043
▁පින 1043
▁හැමදේම 1039
▁එළියට 1038
▁යම 1038
▁දුව 1035
▁මෙතනින 1029
▁රාජ 1027
▁මමයි 1026
▁ටිය 1023
▁නිදහස 1023
දි 1021
▁මිනිහෙක 1021
▁කරගෙන 1020
▁පොරොන 1020
▁තද 1017
▁ගිය 1015
▁පිට 1014
ියක 1013
▁පුද 1007
▁වෙත 1006
▁හරියටම 1006
▁තාමත 1005
▁මිස 1004
▁මධ 1003
▁කළේ 999
▁මුකුත 995
▁මුල 993
▁තිබුනා 992
▁හින 992
වල 991
▁හෙට 991
▁දින 990
▁1 988
▁ආදරය 988
ගන 985
▁කරමු 985
▁කද 978
▁ඉඳන 977
▁දිගටම 975
කින 973
▁ෂණ 972
▁වතුර 970
▁උඩ 968
▁ඇවිල 967
▁හිටියෙ 967
බ 965
▁කාලයක 962
▁තක 962
▁5 960
▁මගෙන 960
▁ලැබෙන 957
▁කිරීමට 956
▁චිත 955
▁ලෑස 954
▁වී 952
▁පොලිස 950
▁සමග 950
▁අස 949
ාව 945
දී 935
ග 934
▁යය 930
▁කරනවද 928
▁හැකි 928
▁මනුස 925
▁අ 924
▁යි 921
▁හොඳට 921
▁රහස 919
▁විනාඩි 919
▁සංස 918
▁රධාන 914
▁සිදු 911
▁තයා 910
▁යවන 910
▁කාන 909
▁එම 907
▁කතාකරන 907
▁නවනේ 907
▁දෙක 903
▁සි 903
ික 901
▁මේවා 900
▁උදේ 898
▁මෙච 898
ුන 897
▁ගල 897
ීම 896
▁වුනත 896
▁මෙ 892
▁ආවෙ 891
▁වස 891
▁ටු 890
▁නෙක 890
▁උස 889
▁මහ 889
▁කවුරුහරි 883
▁ආයෙත 881
▁හොයා 880
▁තිම 879
▁මටත 878
▁මොකුත 876
▁අවුලක 874
▁අඩු 871
▁යුතුයි 868
▁වුන 866
▁4 865
▁හිත 865
▁/ 864
▁රා 862
▁කොන 860
▁මමත 860
▁අනුව 859
නවා 857
▁ලගන 857
▁හිටපු 856
ුවා 855
▁කාටවත 854
▁හොඳම 852
හ 851
ිත 851
▁වෙලාවට 851
ඩ 849
ියට 845
වද 844
▁බේ 843
▁වැඩසටහන 843
වන 841
▁ධන 841
ියා 840
▁මයා 839
▁අවුල 837
යකට 836
▁ලග 833
▁සාහ 832
▁මොකටද 831
▁රිය 830
▁සෑම 828
▁පුංචි 824
▁අදහසක 823
▁ළඟ 823
▁අංක 821
▁බිම 821
▁දැනටමත 819
▁සුභ 819
▁පද 818
ූ 817
▁කොහොම 817
▁කැප 816
▁පැන 816
▁ඩායම 812
▁දැනගෙන 812
▁විශේෂ 810
▁සිට 809
▁ලින 807
-- 803
ෙක 801
▁පු 800
▁බොන 800
▁මිය 799
▁වට 798
▁කටයුතු 797
▁යුද 797
වා 795
▁වැරැද 795
▁ඔහොම 794
▁අරගන 793
▁අපට 789
▁බේරගන 789
▁ආයේ 787
▁ආදරෙයි 786
▁පහර 786
▁සට 786
▁මිලියන 784
▁පුදුම 783
▁දැනෙන 782
▁පාරක 782
▁තවමත 780
▁රන 780
ගත 779
▁තල 776
▁කවුරුවත 775
▁තුව 773
▁අවසන 771
ුම 770
▁තේරෙන 770
▁සැලැස 768
ිල 767
▁ඔබව 766
▁මනින 765
▁යාළුවා 764
▁පරණ 763
▁ආව 762
▁උනත 762
▁එයාලව 762
▁රු 760
▁හිතුවා 759
ුවේ 758
▁කියපු 758
▁ආදරේ 757
▁කවුරුත 757
▁ජීවිතය 757
▁මුදල 757
▁ඒකයි 754
▁ථානය 754
▁රත 754
▁ලො 753
▁නකෝ 752
ියන 749
▁සද 747
▁ඇල 746
▁පැනලා 746
▁තනියම 745
▁රික 744
▁පිටිපස 742
▁නතර 740
▁බෝම 740
▁ලද 740
▁ගෙනියන 739
▁අයට 737
▁ඔහුගෙ 737
▁ඒව 735
▁උඹේ 733
▁මීට 733
▁රියා 733
▁දැනගත 731
▁ඇතුල 728
▁කව 728
▁එකයි 727
▁හොදට 727
▁භ 725
▁රි 725
මම 724
▁මිනිසුන 724
▁වෛද 724
▁සිටින 724
▁දැකලා 723
▁ජීවිතේ 722
▁තුවේ 722
▁තොරතුරු 719
▁නි 719
▁බොහොම 718
▁ඇතුලේ 717
▁ටි 717
▁ඩොක 716
▁උදවු 715
▁සූදානම 715
▁සෑහෙන 714
▁හුඟක 712
▁යුතු 711
▁කේ 709
▁ඒකෙ 707
▁කරදර 706
▁දත 706
▁රියාත 704
▁හොරකම 704
▁ලට 703
▁වක 701
▁මගෝ 700
▁ඉවත 699
▁දොර 699
▁බවට 699
▁මස 699
▁රව 699
▁විශාල 699
▁තාක 697
▁බලා 697
▁යස 697
වෙන 696
▁ඉලක 695
පු 694
▁කතාව 694
කම 693
▁අක 693
▁කිට 693
▁ණයෙන 693
▁පරිස 693
▁මෙතනට 693
▁මයිකල 692
▁ගානක 691
▁හැමෝටම 690
▁බෙ 689
යෙක 686
▁වෙච 685
▁ඇගේ 684
▁දානවා 684
▁වශයෙන 684
ෙයි 682
▁ආරම 682
▁කි 682
▁කාල 680
▁පෙර 680
▁බුද 680
▁සැලසුම 679
▁ජීවිත 678
▁දෙනෙක 677
▁C 676
▁හිර 676
ාන 674
ියි 674
▁ඩොලර 674
▁පොත 674
▁තීරණය 673
▁අනිවාර 672
▁ආපු 672
▁තිබුනේ 672
▁ඔයාගෙන 671
▁තාව 671
▁ථාවක 669
▁බලමු 667
▁කියවන 663
නය 662
▁ගේන 661
▁දෙවියනේ 660
ියේ 658
▁ඔයයි 658
▁වයි 656
▁6 655
නම 654
▁බලය 654
▁මැරිලා 654
▁පවුල 652
ො 651
▁ආර 651
▁ඇඳුම 651
▁මර 651
▁කො 650
▁රේ 650
▁වාසයි 650
▁හැමදෙයක 650
▁නෙවේ 649
▁හිතෙන 649
▁දුම 648
ුවක 647
▁ගණන 647
▁දෙ 647
▁රක 646
▁හැබැයි 646
▁කරගත 642
▁යට 642
▁අරින 641
▁කෙනකේ 640
▁දුක 639
▁බෙන 639
▁උද 638
▁ගෙවන 638
▁මණ 638
▁තිස 637
▁ඔයාලගේ 636
▁තුළ 636
▁දොස 636
▁මග 636
▁මෝඩ 636
මට 634
▁නිව 633
ිස 631
▁තොත 631
ිම 629
ුනා 629
▁ලු 628
▁ගැනීම 627
▁මරලා 627
ණ 626
▁පරක 626
▁හායි 626
▁හිතුවෙ 626
▁ජාතික 625
යින 623
▁තිමත 622
▁පාට 622
▁ථාව 621
▁නිල 621
▁සහෝදරයා 621
▁තවම 620
▁ෂිත 620
▁ළමයි 620
ච 619
▁බැ 619
▁ලව 619
▁වැඩියි 619
▁වින 619
▁එ 618
▁ෙන 618
▁මාන 617
▁උඩට 615
▁කථා 615
▁ටම 614
▁ෂණය 614
▁හිටිය 614
▁පැහැදිලි 612
▁මෙහෙන 612
▁යනව 611
▁මොනා 609
යෝ 608
▁කොහෙන 608
කර 607
▁රය 607
▁හුස 607
▁ඉදිරිපත 606
▁ඕනද 606
▁20 605
▁මිත 605
▁යයෙන 604
▁හිස 603
▁එයි 602
▁පා 600
▁විරුද 600
▁අවුරුද 599
▁සින 599
▁B 598
▁එහි 598
▁ඉතා 596
▁නිකම 596
▁පිළිගන 596
▁කරනු 595
▁දුවන 595
ජ 593
▁වොත 593
ුවට 592
▁සතුටක 592
▁හේතුව 592
▁ඉදලා 591
▁තියෙනව 591
ුට 590
▁එකෙක 589
▁පහත 588
▁බාර 588
▁යාලුවා 588
ිව 586
▁මහා 586
▁වික 585
▁A 584
▁එකත 584
▁බඩු 584
▁ඔප 583
▁හරහා 583
▁හැර 583
▁සති 582
▁හොයාගෙන 582
▁ගිහිල 580
▁ගොඩ 580
▁තමුසේ 580
▁එහෙමයි 579
▁මේකෙන 579
▁නවතින 578
▁සතුටු 578
▁නෙත 576
▁එහෙ 574
▁චාර 574
▁තුනක 573
▁යමක 573
▁හැටි 573
▁බෙල 572
▁මැක 572
▁ලැබුනා 572
▁ඩර 571
▁පරික 570
▁කියා 569
▁ඉගෙන 568
▁වුණේ 568
▁12 567
▁කුව 567
▁අයිති 566
▁අළුත 566
▁ගොඩාක 566
▁සමඟ 566
▁අමාත 565
▁ණය 565
▁ලෝකය 565
▁උණ 564
යෙ 563
▁රිස 563
▁ගෙදරට 562
▁තියනවද 562
▁පසු 562
▁තිබෙනවා 561
▁දීලා 561
▁හැටියට 561
▁S 560
▁බිත 560
▁හිතනවද 557
▁ඉඳලා 556
▁කිය 555
▁ජේන 555
▁මිනිත 555
▁සනයි 555
ශ 554
▁ආත 553
▁එදා 553
▁සුබ 553
▁ගස 552
▁I 551
▁එයාලගේ 551
▁කෙලින 549
▁ධනය 549
▁ෆෝන 549
▁ථ 548
▁දාල 546
▁පෙට 546
▁වහන 546
▁ෂාව 546
▁අභ 545
▁පේනවා 545
▁ගය 544
▁මගින 543
▁කකුල 542
▁කිරීමේ 541
▁බෝට 541
▁පවත 540
▁ඔ 539
▁වෙලාවේ 539
▁D 538
▁ඉතුරු 538
▁ඒකේ 538
▁දිව 537
▁ජෝන 535
▁මොනව 535
යකින 534
▁වුනොත 534
ෂ 533
▁තුල 533
▁මෙහි 532
ං 531
▁මෙහෙයුම 531
▁කෘතික 530
▁සමාව 530
▁නීති 529
▁ටුව 528
▁ඕ 527
▁යටතේ 527
▁අපිත 526
▁ගම 526
▁මෙහාට 526
▁හොදම 526
ාර 525
▁ඊයේ 525
▁හැමදාම 525
▁වෙනි 524
▁හර 524
▁අමාරු 523
▁කතාවක 523
▁කසාද 523
යයි 522
▁ජිවත 522
▁නෑනේ 522
▁කාලේ 521
▁ලෙන 521
▁වම 521
0 520
▁රම 520
▁තැනට 519
▁කැමැත 518
▁කොයි 518
▁ගියොත 518
නා 517
▁තවදුරටත 516
▁වනවා 516
කරන 515
රි 515
ිට 515
▁කොටසක 515
▁බැල 515
▁හේ 515
▁8 514
▁M 514
▁ඕනෙද 513
▁මාරු 513
▁ලබන 513
▁උබට 511
▁තමේන 511
▁පැටියෝ 511
▁පුහුණු 511
ෆ 510
ියෙක 510
▁කොහේද 510
▁නිදාගන 510
▁සා 510
ඔයා 509
▁මෙයාව 509
▁7 508
වට 507
▁කරමින 507
▁කාරයෙක 507
▁මෙය 506
▁සිය 506
▁රෑන 505
▁වැඩිය 505
▁ෂි 505
▁විල 504
▁හෙලෝ 504
ීමට 503
▁15 503
▁ගලික 503
▁පුර 503
▁වෙනත 503
▁ඇ 502
▁චන 501
ුද 499
▁තියලා 499
▁ණයක 498
▁ඕනම 497
▁ටයි 497
▁වයක 497
ිද 496
▁කෙ 495
▁බස 495
▁සාර 495
▁සියල 495
▁හදවත 495
▁අමාරුයි 494
▁පිළිබඳ 494
▁ලෝක 494
▁30 493
▁ඩි 493
▁විකාර 493
▁ඔට 492
▁දෙපාර 492
▁♫ 492
▁ලඟ 491
▁තය 490
▁ඔබගේ 486
▁ඩන 486
▁මොනවහරි 486
▁වියදම 486
▁අවසාන 485
▁යාපෘතිය 485
▁වචන 484
ාට 483
ෙත 483
▁ඨ 483
▁පට 483
▁ඇයගේ 482
▁පිටත 482
▁වසර 482
▁එව 481
▁දිය 481
▁මානසික 481
▁තිබුණා 479
▁රැන 479
ෙනවා 478
▁සංවර 478
මයි 477
ැ 477
▁එවන 477
▁මයික 477
▁Mr 476
▁නෙවයි 476
▁කොහේ 475
ීන 474
▁හිතාගන 474
▁% 473
▁ගැනීමට 473
▁ලනේ 473
▁කලබල 472
▁හුගක 472
ාම 471
ීමක 470
▁කණගාටුයි 470
3 469
ළ 469
ාවක 469
▁යාව 469
ෙට 467
▁ගැනද 467
▁වගයක 467
▁වි 467
▁අවසර 466
▁කින 465
▁චරයි 465
▁නර 465
▁හදනවා 465
ුල 464
▁බලනවා 464
▁කොහදෙ 463
▁තියාගෙන 463
▁මොනවාද 463
▁ඌව 462
▁බොහෝ 462
▁මව 462
▁තාවක 461
▁මතකද 461
▁සිත 461
▁උපන 460
▁නො 460
▁සේවා 460
▁නින 459
▁තිබුන 457
▁මගුලක 456
▁මාණය 456
▁ඈත 455
▁යෙන 455
▁මුද 454
▁රට 454
▁වෙල 454
▁හොඳටම 454
▁කිරීමක 453
▁පළමු 453
▁11 452
▁නිෂ 451
▁සැන 450
▁තමුසෙ 448
▁ඕහ 447
▁වනේන 447
▁ධව 446
▁පෙම 446
▁P 445
▁ඇලෙක 444
▁සතුටුයි 444
▁ගරු 443
ටත 441
▁දුරකථන 441
▁හදිසි 441
▁මහන 440
ියෝ 439
▁තයි 439
▁දැනෙනවා 439
ාවට 438
▁මැද 438
▁මොනවත 438
▁ලාක 438
▁එනව 436
▁මරණය 435
▁මෙක 435
▁සදහා 435
ුනේ 434
▁පහල 434
▁මුහුණ 434
▁බිල 433
▁ඉදිරියට 432
▁උගන 432
ියෙන 431
▁කරුණාකර 431
▁තේරෙනවා 431
▁සියලු 430
▁සුද 430
▁හි 430
▁උසස 429
▁කරදරයක 429
▁පණ 429
▁මුන 429
▁හෙයි 429
ුර 428
ේට 428
▁තුවාල 428
▁සක 428
▁නිකං 427
▁සැක 427
ීමේ 426
▁අනතුරු 426
▁අයියා 426
▁කවද 426
▁දැනුම 426
▁බායි 426
▁උනොත 424
▁නුඹ 424
▁මිල 424
▁අයියෝ 422
▁අතට 421
▁කරවන 420
▁නවනෙ 420
▁ආයුධ 419
▁විදිහ 419
▁යානය 418
▁රණ 417
▁වාහන 417
▁හැදුවා 417
▁ආහ 416
▁එයත 416
▁ධයෙන 416
▁බැරිද 416
▁එහේ 414
▁කාටද 414
▁තරුණ 414
▁දවසේ 414
▁නගරය 414
ේම 413
▁අපරාධ 413
▁දාගන 413
▁විවාහ 413
ුවෙන 412
▁කරාවි 412
▁යොමු 412
▁ඇදුම 411
▁අතන 410
▁දීම 410
▁පහලට 410
▁බවෙන 410
▁වීමට 410
▁ඉතිරි 409
▁කළු 409
▁රතු 409
▁වයස 409
▁හැදුවේ 409
▁ඔයාලගෙ 408
▁ශබ 408
▁හේතුවක 408
▁100 407
▁ඉද 407
▁මින 406
▁විනෝද 406
ුවන 405
▁නිතරම 405
▁එහා 404
▁මැඩම 404
▁වැටෙන 404
▁ශන 404
▁ළමයෙක 404
ෙව 403
▁ගින 403
▁සෞඛ 403
▁අව 402
▁භාෂා 402
▁වෙනකම 402
▁දකුණු 401
▁බෑග 401
▁&#91; 400
▁50 400
▁ඉවරයක 400
▁ඔයාටත 400
▁අපොයි 399
▁අශ 399
▁එතනට 399
▁නාස 399
▁නොහැකි 399
▁සතුටින 399
1 398
▁අතේ 398
▁රතික 398
▁H 397
▁වීමක 397
මේ 396
රා 396
▁රෑට 396
▁ආචාර 395
▁හදලා 395
▁ඔත 394
▁දිග 394
▁පෞද 394
▁අඩි 393
▁රැ 393
▁රැස 393
▁ථාන 392
▁මුණ 392
▁G 391
▁පවුලේ 391
▁ලගට 391
▁මහතා 389
▁&#93; 388
▁ධයක 388
▁මරණ 388
▁යනවද 388
▁සෙම 388
▁හැක 388
▁තෑග 387
▁භයානක 387
▁.... 386
▁අයිස 386
▁මි 386
▁අණ 385
▁නිශ 385
▁පහක 385
▁මොනාහරි 385
▁ලිපිනය 385
කොට 384
වේ 384
ොන 384
▁ඊටපස 384
▁කිහිපයක 384
▁ධය 384
▁ගාවට 383
▁බං 383
▁ලෝකේ 383
▁විත 383
ාල 382
▁පිලිගන 382
මින 381
▁ආච 381
▁කුරුල 381
▁සහිත 381
▁හමුවෙන 381
යම 380
▁+ 380
▁අනතුරක 380
▁the 379
▁{ 379
▁} 379
▁ඇතුලත 379
▁ඇවිදින 379
▁නිසයි 379
▁මැරුවා 379
▁යුත 379
▁තිමට 378
ඒක 377
▁කුඩා 377
▁ජන 377
▁රමයක 377
▁කලොත 376
▁පලවෙනි 376
නෙ 375
▁පියා 375
▁මේකේ 375
▁9 374
▁R 374
▁ටින 374
▁තහවුරු 374
▁විදිය 374
▁අදාළ 372
▁ඔයාලව 372
▁බෙහෙත 372
▁සුදු 372
▁හැමවෙලේම 372
▁ආදර 371
▁කැමතිද 371
▁ජින 371
▁නමක 371
▁වාසද 371
▁සුපිරි 371
ාවෙන 370
▁අඩුම 370
▁අදින 370
▁බැන 370
▁කාමරේ 369
▁මගුල 369
▁දුෂ 368
▁දෙයියනේ 368
▁විවෘත 368
▁හිම 368
▁ආපසු 367
▁හැකියාව 366
▁මූල 365
▁ෂය 365
▁T 364
▁ඒකත 364
▁කිවුවා 364
▁සහතික 364
ුවෙ 363
▁ඩායමක 363
▁තැනකට 363
▁නල 363
▁නැව 363
▁යාලය 363
▁රයක 363
▁වෙනවද 363
▁94 362
▁ලදී 362
▁එනකම 361
ෝන 360
▁මී 360
▁මුලු 360
▁වාසය 359
යේදී 358
▁අතුරුදහන 358
▁අමුත 358
▁කෑල 358
▁ලබාගන 358
▁ලෙ 358
▁හෙල 358
වක 357
▁you 357
▁නැගිටින 357
▁පසුව 357
▁වගෝ 357
ලට 356
▁උබේ 356
▁නං 356
▁රෝ 356
▁වගේද 356
▁සී 356
▁ඩු 355
▁මෙයාට 355
ෙල 354
▁උඹව 354
▁ජරා 354
▁නගින 354
▁බිරිඳ 354
වෙලා 353
▁දැනට 353
▁ළමයින 353
▁කඩ 352
▁පුරුදු 352
▁මය 352
▁අහලා 351
▁ඔලුව 351
▁දිස 351
▁ලී 351
▁සාව 351
▁ඔස 350
▁ථක 350
▁දාගෙන 350
▁මයි 350
▁මිනිහෝ 350
▁සමාජ 350
වර 349
▁ඔතන 349
▁කය 349
▁තිබෙන 349
▁යාත 349
▁වෙනුවට 349
ාවන 348
▁ඩා 348
▁නැතිනම 348
▁මුර 348
▁කාරක 347
▁නෝනා 347
▁අයව 346
▁තකට 346
▁විදියක 346
▁සාම 346
▁කෑ 345
▁කී 345
▁පවා 345
▁FBI 344
▁ඇද 344
▁ගිණුම 344
▁දේශ 344
▁සපත 344
ති 343
▁උපකරණ 343
▁මරනවා 343
▁රසිද 343
▁හෙන 343
▁ලගෙන 342
▁හෙ 342
වයි 341
ුක 341
▁ගමු 341
▁මූණ 341
▁යාන 341
▁හරියන 341
▁දරුණු 340
▁සමාගම 340
▁අංකය 339
▁නැවතත 339
▁පළවෙනි 339
▁13 338
▁F 338
▁අවධානය 338
▁ඇතුලෙ 338
▁ජර 338
▁නැන 338
▁ලෝකයේ 338
▁වෙනකොට 338
▁-- 337
▁නික 337
▁ලංකා 337
▁වෙද 337
▁සෝ 337
▁යාවි 336
▁රිද 336
▁සරහට 336
හරි 335
▁එහාට 335
▁පනින 335
▁වැරදියි 335
සන 334
▁ආහාර 334
▁ගොල 334
▁තමුසෙට 334
▁වෛර 334
▁සභාව 334
වලට 333
ුනු 333
▁අතින 333
▁ඉ 333
▁මීටර 333
▁වාහනේ 333
▁සමාන 333
▁හන 333
දෙන 332
▁ආයෙ 332
▁ලගත 332
ුණු 331
▁අඩංගුවට 331
▁නිසාද 331
▁ටුවක 330
▁නකොට 330
▁නය 330
▁ලැබෙනවා 330
▁ලියන 330
▁නොකර 329
▁වරෙන 329
▁ළමයා 329
මන 328
▁කුවක 328
▁ගිනි 328
▁තියේ 328
▁ටියක 327
▁නොත 327
▁බැලුවා 327
▁කෙන 326
▁නු 326
▁පක 326
▁යටත 326
▁ලං 326
▁වැ 326
▁විදිහක 326
ේන 325
▁ගොඩනැගිල 325
▁වනේ 325
▁හොදටම 325
ියෙ 324
▁ආයතන 324
▁ඌට 324
▁යැව 324
▁වතාවක 324
▁එකා 323
▁නවාද 323
▁නොවන 323
▁ලැජ 323
ඩි 322
▁ඉර 322
▁ජෝ 322
▁නොවේ 322
▁මචං 322
▁මැරුණා 322
▁රජ 322
ුස 321
▁ඇට 321
▁ඊළඟ 321
▁දෙනවද 321
▁විහිළුවක 321
▁වෙස 321
කේ 320
▁අනෙක 320
▁උඩින 320
▁එයාලගෙ 320
▁දනෙ 320
▁වයට 320
▁වැඩකරන 320
▁විසි 320
▁සාදරයෙන 320
▁සොයා 320
ිප 319
ියම 319
▁උප 319
▁තියා 319
▁පැවැත 319
▁බෝ 319
▁මතකයි 319
▁මුහුදු 319
▁ලනවා 319
▁හිට 319
▁හිතලා 319
ැන 318
▁ඩලය 318
▁දම 318
▁මාගේ 318
▁මු 318
▁වෙනසක 318
මත 317
ුණ 317
▁ථා 317
▁රාම 317
▁වාසනාවන 317
▁වැඩකට 317
▁විශිෂ 317
▁හද 317
පන 316
ුවත 316
▁අරක 316
▁ආවරණය 316
▁කෝච 316
▁පොලිසිය 316
යො 315
▁අමුතු 315
▁ගයක 315
▁නටන 315
▁නිලධාරීන 315
▁පොල 315
▁උඹලා 314
▁කාට 314
▁බේර 314
▁වැනි 314
▁ඔහේට 313
▁පුතේ 313
▁බි 313
▁භාවිතා 313
▁වෙයිද 313
▁හලෝ 313
ෑ 312
▁L 312
▁උ 312
▁ශනය 312
▁ශිෂ 312
▁K 311
▁එනවද 311
▁කගෙන 311
▁දැනන 311
තා 310
▁ආඩම 310
▁ආයතනය 310
▁ගේම 310
▁යුතුය 310
▁වාද 310
▁හතර 310
▁අගය 309
▁මූ 309
▁වැටිලා 309
▁හිතේ 309
▁— 309
වම 308
▁සයෙක 308
2 307
4 307
▁ඇහුම 307
▁ඔච 307
▁කියනව 307
▁ජයග 307
▁දිනන 307
▁බෝල 307
▁අග 306
▁කේස 306
▁මොකෝ 306
▁හමුදාව 306
▁කියලයි 305
▁කුමක 305
▁පී 305
▁ඇහෙන 304
▁ඕනෑම 304
▁ලැයිස 304
ලි 303
ාවේ 303
ීට 303
▁; 303
▁කාරයා 303
▁ටාර 303
▁නගරයේ 303
▁මික 303
▁සටහන 303
ාද 302
ේද 302
▁තූර 302
අ 301
කය 301
වෙ 301
▁කෝපි 301
▁ගාන 301
▁මැරෙනවා 301
▁යාලුවෙක 301
▁අතාරින 300
▁නස 300
▁බයක 300
▁මැර 300
▁මෝඩයෙක 300
▁ලේකම 300
යාට 299
▁24 299
▁ඩේ 299
▁නෑනෙ 299
▁සිටිනවා 299
▁හොල 299
වි 298
▁ආසන 298
▁ඊ 298
▁කාමර 298
▁පේනවද 298
▁මො 298
▁යද 298
5 297
6 297
ුමක 297
▁නියෝජිත 297
▁පියවර 297
▁බදින 297
▁වරද 297
▁බබෝ 296
▁බී 296
▁ලේසි 296
ලේ 295
ුරු 295
▁එකකට 295
▁නැවැත 295
▁යේෂණ 295
▁සාකච 295
ීය 294
▁ඒගොල 294
▁ජිම 294
▁දේම 294
8 293
වනවා 293
▁කීපයක 293
▁පි 293
ිලා 292
▁කිවුවේ 292
▁ගර 292
▁ජිවිත 292
▁දැං 292
▁පාසල 292
▁මෑන 292
▁යාල 292
▁රෙඩ 292
කාර 291
▁එඩ 291
▁නොවෙන 291
▁පණපිටින 291
▁සරහ 291
▁කරුණාකරල 290
▁ගියාම 290
▁පිරිමි 290
▁රාක 290
▁ලිව 290
▁වෙලාවෙ 290
▁කියනවද 289
▁පීටර 289
▁යාපාර 289
▁සඳහන 289
▁උණුසුම 288
▁ගෝ 288
▁ජා 288
▁ටිකට 288
▁ගෑණු 287
▁තනි 287
▁දේට 287
▁රයන 287
▁සේවය 287
▁ෆිල 287
▁ආවොත 286
▁තියක 286
▁මද 286
▁මිනිහ 286
▁රවර 286
▁වීර 286
▁හදාගන 286
▁දුවක 285
▁දෙකකට 285
▁දෙය 285
▁බයයි 285
▁ලඟට 285
▁හිතෙනවා 285
▁කොහොමත 284
▁වචනයක 284
▁ෙවන 284
ිර 283
▁කාලෙ 283
▁මුණගැහෙන 283
▁අතරේ 282
▁කලාද 282
යිද 281
ාත 281
▁ 281
▁අහු 281
▁තෙක 281
▁පරිවර 281
▁භාණ 281
▁මේව 281
▁රෙන 281
▁රේස 281
▁වඩාත 281
▁සියලුම 281
▁හදපු 281
ුණා 280
▁ඊලග 280
▁එකඟ 280
▁කරද 280
▁තිබුනෙ 280
▁රණවිරු 280
ලු 279
▁කීයක 279
▁ටත 279
▁සකස 279
ඳ 278
හම 278
▁කැල 278
▁යයන 278
▁රියක 278
ෙදි 277
▁ගහනවා 277
▁පොදු 277
▁මනුෂ 277
▁යුධ 277
▁හට 277
කි 276
හා 276
▁පෙනෙන 276
▁බට 276
▁වගෙ 276
▁හමුදා 276
▁හීන 276
S 275
ණය 275
▁14 275
▁එයාගෙන 275
▁කිරි 275
▁ලේන 275
▁වැස 275
▁වෙනකන 275
▁සියළුම 275
වීම 274
▁කඩන 274
▁ධි 274
▁නකො 274
▁මේකයි 274
▁හමු 274
ෙම 273
▁25 273
▁ටෝ 273
▁බලලා 273
▁රමය 273
▁රෝස 273
▁සංසුන 273
ොත 272
▁අයත 272
▁ඇදලා 272
▁ඉහල 272
▁උල 272
▁තරහ 271
▁බිය 271
▁මිනිහව 271
▁හොයනවා 271
▁අහගන 270
▁බිඳ 270
▁මාධ 270
▁ලෝන 270
▁වලා 270
▁වැය 270
යත 269
▁18 269
▁E 269
▁එහෙට 269
▁කාලෙකට 269
▁කැමරා 269
▁පහසුකම 269
▁ෂයේ 269
A 268
▁එවා 268
▁ඒකනම 268
▁ගක 268
▁ගැහුවා 268
▁තෙල 268
▁පනා 268
▁පවතින 268
▁පළ 268
▁මෙතැන 268
පල 267
මක 267
▁ඇතුළත 267
▁ඇමතුම 267
▁එහෙමද 267
▁දඩයම 267
▁සිහින 267
▁ඊයෙ 266
▁කාඩ 266
▁ගනන 266
▁නිවැරදි 266
▁පදනම 266
▁වහල 266
▁වෘත 266
▁හිරේ 266
ීව 265
▁2011 265
▁40 265
▁ගෙනත 265
▁නාට 265
▁පොලිසියට 265
▁වුණත 265
▁කොළ 264
▁ඩායමේ 264
▁දවල 264
▁හො 264
තක 263
▁a 263
▁එකද 263
▁ගැල 263
▁නිරීක 263
▁පමණක 263
▁රාන 263
▁ලර 263
▁ෂණයක 263
ඔව 262
▁අහනවා 262
▁උතුරු 262
▁උපදෙස 262
▁ටොම 262
▁බිරිද 262
▁රකාශ 262
▁හැප 262
යාගේ 261
▁ආස 261
▁ඔයාම 261
▁කුණු 261
▁16 260
▁අඩ 260
▁ඇහැ 260
▁කෙනෙකුට 260
▁පැතුම 260
▁බලවත 260
▁මඟ 260
▁යතුර 260
▁සිස 260
▁හැමතිස 260
▁ශා 259
ියාව 258
▁s 258
▁හැරී 258
▁කිවා 257
▁තනතුර 257
▁දයක 257
▁නයිට 257
▁පෙනුම 257
▁ලැබ 257
▁වැරද 257
▁හැරෙන 257
▁දෙවෙනි 256
▁ධතිය 256
▁පහ 256
▁රති 256
▁ලිස 256
▁වැට 256
▁ෂිතයි 256
▁සතුට 256
7 255
▁ගහ 255
▁ගානේ 255
▁ගැහැණු 255
▁තියි 255
▁පරිදි 255
▁එළියේ 254
▁ජේම 254
▁වැඩියෙන 254
▁සුදානම 254
වලා 253
▁එස 253
▁බොත 253
▁ලදි 253
▁වාඩි 253
▁17 252
▁අංශය 252
▁අයි 252
▁ධිමත 252
▁වැඩිපුර 252
▁වේගයෙන 252
▁හතරක 252
හන 251
▁ටුවේ 251
▁තරයක 251
▁පහුගිය 251
▁මයිල 251
▁විකල 251
▁විවේක 251
▁හාන 251
ඒ 250
▁කූපර 250
▁ගෙවල 250
▁දෙකයි 250
▁මාමා 250
▁වැන 250
▁වුනාට 250
C 249
▁2014 249
▁පාත 249
▁පැනල 249
▁බඳින 249
▁මනටම 249
▁යාළුවෙක 249
▁වටේ 249
▁සිම 249
▁සිර 249
▁හොර 249
▁to 248
▁උදෑසනක 248
▁එහෙත 248
▁වැඩට 248
▁වුනාම 248
▁සලකුණු 248
▁සුව 248
වී 247
▁අපෙන 247
▁ලැබුන 247
▁ලිය 247
▁විදුලි 247
▁ඉංග 246
▁ඉහළ 246
▁තිද 246
▁දිල 246
▁පාන 246
▁බද 246
▁මායා 246
▁වැල 246
▁උගේ 245
▁ධිය 245
▁පියන 245
▁බඩ 245
▁මචෝ 245
▁මිනිහට 245
▁මේකෙ 245
▁රුපියල 245
▁ලෝකෙ 245
▁වග 245
▁විශේෂයෙන 245
▁වීරයෙක 245
▁සංකීර 245
▁හදිස 245
ාවත 244
▁අනුමාන 244
▁පැනගන 244
▁පිරිසිදු 244
▁බබා 244
▁රාර 244
▁වීඩියෝ 244
▁අරං 243
▁කෑලි 243
▁කෙටි 243
▁ගමේ 243
▁බහින 243
▁මැ 243
▁මූලික 243
▁රැක 243
▁වනු 243
▁සුදුසු 243
▁හයි 243
ුගේ 242
▁අයියේ 242
▁ආශ 242
▁තෝ 242
▁දෙනා 242
▁රේම 242
නයක 241
මු 241
▁2012 241
▁අහකට 241
▁ඇතුළු 241
▁එසේ 241
▁කරුවන 241
▁ගෑනු 241
▁දික 241
▁නොකරන 241
▁මෝඩයා 241
▁රීය 241
▁ලැබීම 241
▁වේගය 241
▁සංඛ 241
▁හත 241
▁හිතාගෙන 241
o 240
▁ගහලා 240
▁ගැ 240
▁භය 240
▁යාංශය 240
▁ලකුණු 240
▁ලොකුම 240
▁විනාඩියක 240
▁ඇරෙන 239
▁නීතිය 239
▁බේරෙන 239
▁වැඩේට 239
▁දහස 238
▁දෙකම 238
▁නගර 238
▁නිවාස 238
▁බොස 238
▁සොල 238
▁හිනා 238
▁හොයලා 238
කන 237
වෙනවා 237
▁ආදායම 237
▁කරොත 237
▁තිබුණ 237
▁මාළු 237
▁රහ 237
▁රාජකාරිය 237
▁හරින 237
අපි 236
යකේ 236
ෙස 236
▁ජය 236
▁ජීවිතයක 236
▁ඩී 236
▁දරුවා 236
▁දිනය 236
▁දෙමව 236
▁පුරාම 236
▁යාළුවො 236
▁සිල 236
I 235
▁ඇහෙනවද 235
▁කියයි 235
▁දෙයි 235
▁නෙපා 235
▁යතුරු 235
▁යානා 235
▁යෝ 235
▁ළඟට 235
▁ගැට 234
▁ඩල 234
▁තූති 234
▁මනස 234
▁යනු 234
▁වේගවත 234
▁සතුන 234
රක 233
▁ජනය 233
▁තිබිලා 233
▁පණිවිඩයක 233
▁පොර 233
▁භාර 233
▁වනෙ 233
▁සැබෑ 233
E 232
ංග 232
එක 232
ඟ 232
▁ඒකා 232
▁කාමරය 232
▁ටා 232
▁නිම 232
▁සහය 232
▁හැඟීම 232
ගෝ 231
භ 231
▁තුති 231
▁රජයේ 231
▁ලියුම 231
ැක 230
▁අනාගතය 230
▁ආවම 230
▁ඇතුළට 230
▁ගැලපෙන 230
▁ගෞරවය 230
▁ථානයක 230
▁දීමේ 230
▁මගෙත 230
▁රැගෙන 230
▁ලකේස 230
▁විෂ 230
▁කපන 229
▁කවදා 229
▁දමන 229
▁නංගි 229
▁පිළිබඳව 229
▁මාවත 229
▁යාපෘතියේ 229
▁රෙස 229
▁වරුනි 229
▁වුනාද 229
▁ෂර 229
▁ෂේප 229
▁සං 229
▁සැතපුම 229
කයක 228
▁අපේක 228
▁ඇර 228
▁ඇහුවා 228
▁එතනින 228
▁කාරයෝ 228
▁මටයි 228
▁වලදි 228
▁වහලා 228
▁විච 228
▁සිටි 228
▁හිටියොත 228
D 227
▁W 227
▁අයිතිය 227
▁නැහැනේ 227
▁යකෝ 227
▁වටින 227
▁සේරා 227
ිමක 226
▁උනාට 226
▁කැන 226
▁කේන 226
▁තහනම 226
▁නියෝග 226
▁පවුලක 226
▁බේරගත 226
▁මෝ 226
▁ලෙඩ 226
▁විහිළු 226
▁වේල 226
ලය 225
සි 225
▁ආක 225
▁ආසයි 225
▁ඔයාද 225
▁කිසිවක 225
▁තං 225
▁යුක 225
▁වෙලාද 225
▁සැරයක 225
▁එයින 224
▁කඩා 224
▁කේට 224
▁දට 224
▁නාන 224
▁නුවා 224
▁වගෙයි 224
9 223
R 223
ටද 223
බර 223
▁කයි 223
▁කොහොමහරි 223
▁පමණයි 223
▁යාපෘති 223
▁රතිකාර 223
▁රතිපත 223
▁සහෝ 223
▁සීයා 223
▁හැකියි 223
00 222
ඩා 222
යාව 222
▁ගයේ 222
▁රෝග 222
▁හැමතැනම 222
දා 221
පත 221
වලින 221
▁ඉඳල 221
▁කස 221
▁ජි 221
▁තරඟ 221
▁දැකල 221
▁මැන 221
▁වොට 221
▁b 220
▁කාටහරි 220
▁තදින 220
▁තේරුනා 220
▁ශිල 220
▁හඳුන 220
කා 219
ලෝ 219
ීර 219
▁19 219
▁කෝට 219
▁බාගයක 219
▁විවිධ 219
▁හැන 219
කරනවා 218
ීත 218
▁කියපන 218
▁තකින 218
▁තියනෙවා 218
▁පාස 218
▁බීම 218
▁මැජික 218
▁වෝල 218
▁කියවෙන 217
▁තීරණයක 217
▁දාපු 217
▁පාරේ 217
▁සරහා 217
▁සුවඳ 217
▁ගේට 216
▁තරමේ 216
▁පයින 216
▁බලපත 216
▁වරක 216
▁වහගන 216
▁වේගෙන 216
▁සව 216
▁ඇදගෙන 215
▁උනන 215
▁පයක 215
▁බවක 215
▁මැස 215
▁මොක 215
▁හැදුවෙ 215
ධ 214
▁ආකර 214
▁ඒවි 214
▁කෝප 214
▁ජරාව 214
▁දැකපු 214
▁නරකයි 214
▁පරයක 214
▁පැ 214
▁භයානකයි 214
▁මදි 214
▁රවෘත 214
▁ෂේත 214
▁හඩ 214
ආ 213
දර 213
විද 213
▁an 213
▁ආවද 213
▁උපරිම 213
▁කඳු 213
▁ජේක 213
▁නිසැකවම 213
▁මිට 213
▁හහ 213
▁ඉඩම 212
▁ඔහේගේ 212
▁දරුවන 212
▁බිස 212
▁වරදක 212
▁වෙලාවෙම 212
ොක 211
▁ගනින 211
▁බොරුවක 211
▁යකඩ 211
▁ලබ 211
▁වගෝම 211
▁හැ 211
▁ඉටු 210
▁ඕනෙම 210
▁කැ 210
▁ධයි 210
▁පාරෙන 210
▁රයා 210
▁ලැබේ 210
▁වරුන 210
▁සයිඩ 210
▁හයියෙන 210
කෝ 209
▁දෙවන 209
▁පුරා 209
▁පොලීසිය 209
▁වචනය 209
▁විකුණන 209
▁හැසිරෙන 209
▁ගැනයි 208
▁ථානයේ 208
▁පාලන 208
▁බියර 208
▁ලලා 208
▁වේවා 208
▁ශාක 208
▁සැ 208
▁සුළු 208
▁හාර 208
▁John 207
▁අවසානය 207
▁එයට 207
▁ගිහිං 207
▁දුරකථනය 207
▁දූපත 207
▁නමයි 207
▁පෙ 207
▁පේ 207
▁වතාවට 207
▁වලදී 207
▁විමර 207
ාවල 206
ීස 206
▁අහල 206
▁ඔනේ 206
▁තරේ 206
▁තිබුණේ 206
▁නිකුත 206
▁ෂයි 206
ෙද 205
▁00 205
▁අරගත 205
▁කැත 205
▁කෙනාට 205
▁ගෞරව 205
▁ඩය 205
▁තැනැත 205
▁තුවෙන 205
▁පලයන 205
▁මඟුල 205
▁මණට 205
▁යානයේ 205
▁රින 205
▁වීමේ 205
▁සලකන 205
▁සලා 205
▁හමුවීම 205
▁හැකිය 205
P 204
T 204
වුන 204
ාවි 204
▁ඇඟිලි 204
▁ගලවන 204
▁ජල 204
▁නැතිවෙලා 204
▁නියමෙට 204
▁බැරිවුනා 204
▁යාවක 204
▁වයේ 204
▁විනාස 204
▁හිටියද 204
ලන 203
▁කරත 203
▁තරමට 203
▁ථානයට 203
▁පාදනය 203
▁මෙයාගේ 203
▁වාසනාව 203
▁විහිලු 203
▁ෂණික 203
▁සෙක 203
කරලා 202
▁22 202
▁ඇමතුමක 202
▁දය 202
▁රේෂ 202
▁සීමාව 202
▁හදා 202
▁හිතනව 202
▁අවංක 201
▁නඩු 201
▁නැග 201
▁පිය 201
▁මිනිසා 201
▁හවුල 201
▁ඒකද 200
▁කෑමට 200
▁තික 200
▁පච 200
▁පහළ 200
▁බාධා 200
▁බිමට 200
▁රැල 200
▁රියේ 200
▁ලැබෙයි 200
▁සුවක 200
කල 199
ාගෙන 199
▁අදාල 199
▁අසල 199
▁ඈ 199
▁කෙනාව 199
▁ගෙනාවා 199
▁ජිවිතේ 199
▁තගේ 199
▁නියමිත 199
▁නිවේදන 199
▁නෝ 199
▁පලා 199
▁මාමේ 199
▁ලිපි 199
▁හේතු 199
▁අහිංසක 198
▁ඇනා 198
▁ඇරලා 198
▁ඇවිද 198
▁ඔවු 198
▁ගෙව 198
▁ජේ 198
▁ටක 198
▁තබා 198
▁නොව 198
▁පාදන 198
▁පිටපත 198
▁බයවෙන 198
▁රොන 198
▁ලැබුණා 198
▁විකාරයක 198
ගම 197
▁J 197
▁N 197
▁ඇම 197
▁ගෙදරින 197
▁දැකීම 197
▁නාවික 197
▁පය 197
▁පාරවල 197
▁පාලම 197
▁බොබ 197
▁ලයි 197
▁ලැබුනේ 197
▁ලූ 197
▁වගකීම 197
▁වටිනා 197
▁අංශ 196
▁ඒකම 196
▁කප 196
▁කාලා 196
▁ගා 196
▁ඝ 196
▁ඩෙන 196
▁තනය 196
▁තප 196
▁මඩ 196
▁ලැබිලා 196
▁හඬ 196
▁අනිවා 195
▁ඔබලා 195
▁ඔළුව 195
▁ගිල 195
▁තරග 195
▁රජු 195
▁ෙ 195
ාවෙ 194
▁ඒකි 194
▁කුඩු 194
▁බුන 194
▁මංකොල 194
▁රමාණය 194
▁රොබෝ 194
▁ලුවා 194
▁දේකට 193
▁පැමිණ 193
▁රෑම 193
▁වයසක 193
▁වොල 193
▁සදහටම 193
▁සාවක 193
ුනොත 192
ෝර 192
▁fs 192
▁ආධාර 192
▁දෙනව 192
▁පිටින 192
▁බෙදා 192
▁යාලයේ 192
▁ලයිට 192
▁හු 192
▁හෙව 192
ගැන 191
ාක 191
ේවි 191
▁කාමරයට 191
▁චිය 191
▁තාර 191
▁පොලීසියට 191
▁බුනා 191
▁මැරුවේ 191
▁යෂ 191
▁ලැස 191
cHFF 190
ලක 190
ුවෙක 190
▁අට 190
▁අනන 190
▁ඇග 190
▁ගණනක 190
▁ටුවට 190
▁නක 190
▁නරකම 190
▁පිල 190
▁රතිචාර 190
▁වතාවේ 190
▁සාප 190
O 189
ේදී 189
ොල 189
▁අසමත 189
▁ඉම 189
▁කක 189
▁කොත 189
▁ගැනම 189
▁ගැස 189
▁තේරුමක 189
▁නොවෙයි 189
▁පිච 189
▁පුත 189
▁බැට 189
▁සයා 189
▁හය 189
▁හයක 189
රන 188
ියො 188
▁ආරංචියක 188
▁ඊලඟ 188
▁නිදා 188
▁පව 188
▁බෙලා 188
▁යාපන 188
▁යෝජනා 188
▁රාහුල 188
▁හෝම 188
තාව 187
මා 187
▁500 187
▁උනාද 187
▁කරපන 187
▁කළින 187
▁කැස 187
▁දාමු 187
▁මහාචාර 187
▁රමාණවත 187
▁වෑන 187
කරුවන 186
පා 186
ැම 186
ොස 186
▁ආන 186
▁ඇඟ 186
▁ඔයගොල 186
▁තමුසෙගෙ 186
▁නවනම 186
▁භීත 186
▁යේ 186
▁රධානියා 186
▁වයින 186
ුවද 185
▁අතරින 185
▁අමුතුයි 185
▁උනාම 185
▁ඒජන 185
▁කොහෙ 185
▁ජනතාව 185
▁තැනම 185
▁තීන 185
▁පැට 185
▁බටහිර 185
▁බරපතල 185
▁මේකත 185
▁රෝහල 185
▁සාජන 185
▁සැම 185
▁අරමුදල 184
▁ඉඩදෙන 184
▁ඒවට 184
▁කිවුවෙ 184
▁ඡා 184
▁දකුණට 184
▁දුරටත 184
▁පුතාට 184
▁ලමක 184
▁ලියලා 184
▁වුණ 184
▁හාදයා 184
▁හෙමින 184
දෙ 183
සා 183
ෑන 183
▁ඇහුනා 183
▁කැම 183
▁කොහෙවත 183
▁ගැහෙන 183
▁ටෙක 183
▁දීල 183
▁පුතාව 183
▁රිතාන 183
▁රොක 183
▁වේදනාව 183
▁සිං 183
ණයක 182
දිම 182
නෑ 182
▁අයගේ 182
▁ආයුබෝවන 182
▁තරය 182
▁තේර 182
▁දැ 182
▁පෙනී 182
▁සතියේ 182
s 181
ිකා 181
ිලි 181
▁අරමුණ 181
▁ජනාධිපති 181
▁නැගෙනහිර 181
▁පණිවිඩය 181
▁පාලක 181
▁ලමයි 181
ුවොත 180
▁අමතන 180
▁කරාද 180
▁ගනීවි 180
▁ගහගෙන 180
▁දයි 180
▁දැඩි 180
▁දෛවය 180
▁නාම 180
▁පමණ 180
▁බාල 180
▁යාග 180
▁විදින 180
▁වුනු 180
▁සංඥා 180
▁සමින 180
▁හැකියාවක 180
ඹ 179
වුනා 179
ුණේ 179
▁i 179
▁කාව 179
▁කිවේ 179
▁දුරට 179
▁බැස 179
▁බොක 179
▁රටේ 179
▁රීඩා 179
▁ලැක 179
▁වදින 179
ලින 178
ොර 178
▁තලා 178
▁නටම 178
▁නායකයා 178
▁නැගිට 178
▁මෙනවිය 178
▁යත 178
▁යයක 178
▁යාම 178
▁රීසි 178
▁වු 178
▁වෙලේම 178
▁සරල 178
cHFFFFFF 177
▁CIA 177
▁and 177
▁of 177
▁ඇමරිකානු 177
▁එකතුව 177
▁චෙක 177
▁දහයක 177
▁පිටවෙන 177
▁පුවත 177
▁මානව 177
▁මායි 177
▁හරවන 177
▁ගාණක 176
▁තරු 176
▁නැතිවෙන 176
▁යාලයට 176
▁වටිනවා 176
▁වාව 176
▁ෂයෙක 176
▁සයිමන 176
▁හවස 176
▁හැමවෙලාවෙම 176
වනේ 175
▁O 175
▁අහස 175
▁ඩෝ 175
▁බලයක 175
▁මරපු 175
▁මෝඩයෝ 175
▁වතාව 175
▁හැංගෙන 175
වනම 174
ිනවා 174
▁කියෙව 174
▁කේත 174
▁තයේ 174
▁දෙකෙන 174
▁පරම 174
▁පාරට 174
▁මනෝ 174
▁රාදේශීය 174
▁රේන 174
▁හීනයක 174
▁කේක 173
▁මඟුලක 173
▁මූන 173
▁ලොන 173
▁සෙට 173
▁හිටගෙන 173
▁හිතුනා 173
▁හිරවෙලා 173
තන 172
බල 172
රෙන 172
ොව 172
ෝම 172
▁ආවට 172
▁ඉගැන 172
▁උපසිරැසි 172
▁කැමතිම 172
▁කුල 172
▁ජේසන 172
▁ටුයි 172
▁තයෝ 172
▁බිලියන 172
▁මෙහ 172
▁රදර 172
▁ෂාවට 172
ෙහි 171
▁අමතර 171
▁ඇහුවේ 171
▁ඉමු 171
▁ඊලඟට 171
▁උවමනා 171
▁එනකන 171
▁කත 171
▁චීන 171
▁තියනේනෙ 171
▁දුවට 171
▁ධර 171
▁පටිගත 171
▁රහාර 171
▁ලීම 171
▁වැටුනා 171
▁සැමියා 171
▁එකකින 170
▁ඕනෑ 170
▁කරු 170
▁කිසිදෙයක 170
▁කුයි 170
▁ගමනක 170
▁තරහා 170
▁දුරස 170
▁දුවව 170
▁නැතිවුනා 170
▁පරිගණක 170
▁මාණ 170
▁වෙමු 170
දීම 169
යව 169
හි 169
▁ඉඳගෙන 169
▁එලවන 169
▁චෝදනා 169
▁ජලය 169
▁නමින 169
▁පුදුමයි 169
▁බදු 169
▁සැලකිල 169
▁හරිගස 169
L 168
දේ 168
ුවම 168
▁01 168
▁200 168
▁අඩුවෙන 168
▁අපගේ 168
▁ආයෙමත 168
▁එකිනෙකා 168
▁කනේ 168
▁දුරක 168
▁මැරුණ 168
▁රෙ 168
▁වගේමයි 168
▁සියළු 168
▁හමුව 168
බි 167
▁is 167
▁අනතුර 167
▁අමන 167
▁කෙරෙන 167
▁කොහෙත 167
▁ගියාද 167
▁ජී 167
▁තියල 167
▁නිවස 167
▁රීන 167
▁ලත 167
▁වසරේ 167
▁විදියටම 167
▁හරිනේ 167
▁හල 167
▁හැංගිලා 167
▁එතැන 166
▁තොර 166
▁නැතත 166
▁නුඹේ 166
▁නොදන 166
▁බැංකු 166
▁මාටින 166
▁යහපත 166
▁ලාස 166
▁සැපයුම 166
▁හිරු 166
ඩු 165
▁එරෙහිව 165
▁ඔයාගෝ 165
▁ඔල 165
▁කුලියට 165
▁ගනී 165
▁දැනුවත 165
▁දිනයක 165
▁ධාන 165
▁නිලධාරියෙක 165
▁පලමු 165
▁පළාත 165
▁මොලේ 165
▁රජය 165
▁රපට 165
▁රයේ 165
▁රවට 165
e 164
ැල 164
ේක 164
ෝට 164
▁අතුරුදන 164
▁ඒකකය 164
▁ගෙම 164
▁චෙස 164
▁තයක 164
▁තිබේ 164
▁නැතිවෙයි 164
▁නොම 164
▁පිටසක 164
▁පියාඹන 164
▁බාහිර 164
▁මිනී 164
▁යෝක 164
▁රීම 164
▁ලයින 164
▁වාම 164
▁සැර 164
▁හැගීම 164
▁හැඩ 164
▁හොරෙන 164
B 163
හැ 163
ිහ 163
▁$ 163
▁අකමැති 163
▁අඳින 163
▁අහිමි 163
▁එනකොට 163
▁ගොස 163
▁තේරුණා 163
▁දේව 163
▁නායක 163
▁බලපන 163
▁මරා 163
▁මැරෙයි 163
▁යනකොට 163
▁විදිහේ 163
▁සතෙක 163
▁සුම 163
▁ෙත 163
ඔයාට 162
ෙකට 162
▁එද 162
▁කනවා 162
▁ගියාට 162
▁ඡන 162
▁මටම 162
▁රථ 162
▁විවාහය 162
▁ෂන 162
▁හිතට 162
▁හිනාවෙන 162
යෙහි 161
▁60 161
▁ඕනදෙ 161
▁කාලයේ 161
▁ජස 161
▁නපුරු 161
▁ලොව 161
▁ලොස 161
▁වාසයක 161
▁ෂික 161
▁හානියක 161
i 160
වෙනි 160
ොට 160
▁31 160
▁අනුකම 160
▁එරික 160
▁ඒවගේ 160
▁කපලා 160
▁කියලවත 160
▁කුස 160
▁කොණ 160
▁ගාස 160
▁ජෙනී 160
▁තිබුණු 160
▁තියේවි 160
▁පණිවිඩ 160
▁රමාණයක 160
▁රයි 160
▁වදවෙන 160
ියයි 159
ිරි 159
ුප 159
▁ආරංචි 159
▁ඔයාටයි 159
▁කපිතාන 159
▁ටමේ 159
▁ඩයක 159
▁තේරුනාද 159
▁පෙළ 159
▁යාළුවෝ 159
▁ලෑන 159
▁වනේනෙ 159
▁සිරුර 159
ඉ 158
▁U 158
▁කහ 158
▁කාගේ 158
▁කැට 158
▁ගනුදෙනු 158
▁බැංකුව 158
▁භෞතික 158
▁මොනවාහරි 158
▁රහසක 158
▁වෙයන 158
▁හිතුව 158
▁හිතුවද 158
බා 157
▁ආරාධනා 157
▁ඉතාමත 157
▁තුලින 157
▁දැනටම 157
▁නිවේදනය 157
▁මරල 157
▁රැජිණ 157
▁ලැන 157
▁සනට 157
▁සහා 157
▁හැමෝවම 157
a 156
ගැනීම 156
පර 156
ැස 156
▁in 156
▁අසනීප 156
▁ඇහුන 156
▁එළ 156
▁කළොත 156
▁කොටම 156
▁ගැනීමේ 156
▁ණයි 156
▁තිර 156
▁පමන 156
▁පවුලෙ 156
▁බො 156
▁මගේම 156
▁රෝන 156
▁ලේසියෙන 156
▁හැදිලා 156
▁හෑන 156
M 155
ඇ 155
ජන 155
වීමක 155
ිකයන 155
▁V 155
▁අධික 155
▁කෙවින 155
▁තුනකට 155
▁තුනයි 155
▁දියුණු 155
▁බිද 155
▁මොකවත 155
▁රමාද 155
▁වටිනාකම 155
▁වැද 155
▁විම 155
▁හානි 155
▁හෙලිකොප 155
කරු 154
ණි 154
ෝව 154
▁ඇක 154
▁ඇහෙනවා 154
▁ගි 154
▁තීරණ 154
▁තුර 154
▁ධතා 154
▁පහු 154
▁පැල 154
▁බින 154
▁භක 154
▁මතකය 154
▁මුත 154
▁සහයක 154
▁සහෝදර 154
▁සිතියම 154
රික 153
විට 153
▁අවි 153
▁ඇබ 153
▁උතුමාණෙනි 153
▁එලියේ 153
▁කරුණු 153
▁කියමු 153
▁කෝටි 153
▁ජීවිතයේ 153
▁දැනුනා 153
▁දිගේ 153
▁මේස 153
▁මොහොත 153
▁ශුද 153
▁සැප 153
G 152
එයා 152
හල 152
හේ 152
▁23 152
▁අධිරාජ 152
▁අසරණ 152
▁ඉඳ 152
▁ඒකනේ 152
▁ඔහේව 152
▁ඕවා 152
▁කඩේ 152
▁කරනකොට 152
▁කැඩ 152
▁ගොන 152
▁තනවා 152
▁තුවා 152
▁මරණයට 152
▁මිනීමැරුම 152
▁යවකාශ 152
▁ලැ 152
▁සතියක 152
▁සවන 152
▁සූ 152
▁අති 151
▁ආණ 151
▁ආලෝකය 151
▁ඇඳ 151
▁ගැනත 151
▁ජොබ 151
▁තෙත 151
▁දෙස 151
▁නඩුව 151
▁පදවන 151
▁පසුගිය 151
▁පුළුවනි 151
▁මඟින 151
▁රේක 151
▁ලැබූ 151
▁වෙලාවකට 151
ීවි 150
▁අනාගත 150
▁අඳුරු 150
▁ඇඩ 150
▁ඉදගන 150
▁උයන 150
▁එවිට 150
▁කලාට 150
▁කැලේ 150
▁කුමන 150
▁ගිවිසුම 150
▁ඩාර 150
▁තාට 150
▁තියාගත 150
▁දානව 150
▁පහළට 150
▁පුච 150
▁බිලී 150
▁බිව 150
▁ලොකුයි 150
▁වසන 150
▁වැටෙනවා 150
▁හැද 150
රම 149
වෙයි 149
ානේ 149
ියකට 149
ියනේ 149
ීමෙන 149
▁t 149
▁ඉඳගන 149
▁කෝලේ 149
▁ගලයා 149
▁ගෞරවයක 149
▁ටයින 149
▁ඩේවිඩ 149
▁ථනා 149
▁නගරයට 149
▁පැරණි 149
▁බලපෑම 149
▁මාල 149
▁මොහොතක 149
▁වෙමින 149
▁ෂකයෙක 149
එ 148
ානම 148
▁අනුගමනය 148
▁අළු 148
▁එයයි 148
▁ඔයාත 148
▁චක 148
▁තියෙද 148
▁දඬුවම 148
▁රහණය 148
▁සමෙන 148
▁සයෝ 148
▁සහකාර 148
▁සාධාරණ 148
▁සැකයක 148
▁හියුගෝ 148
▁හුවමාරු 148
මි 147
ැද 147
▁ඉගෙනගන 147
▁එහනෙම 147
▁ඔයාවත 147
▁කිරිම 147
▁ජෝර 147
▁දරන 147
▁දොරවල 147
▁පුහුණුව 147
▁මුම 147
▁යාලුවෝ 147
▁රල 147
▁රිචඩ 147
▁රොස 147
ේස 146
▁= 146
▁කාලීන 146
▁ගලයෙක 146
▁තියෙයි 146
▁දුරින 146
▁දෙවැනි 146
▁නිලධාරී 146
▁පැහැදිලියි 146
▁පුස 146
▁මණින 146
▁මෙතෙන 146
▁සංගීත 146
▁සො 146
▁හංගන 146
ලයි 145
හැකි 145
▁me 145
▁ඇතිවෙන 145
▁ඒකාබද 145
▁කලිසම 145
▁කාමරයක 145
▁කීවේ 145
▁තාන 145
▁තුමා 145
▁තෝර 145
▁දෙපාරක 145
▁දේවි 145
▁නවට 145
▁පාද 145
▁රංශ 145
උ 144
කලා 144
ගෙයි 144
ටන 144
ුවෙලා 144
▁අනුමත 144
▁ඔහෙට 144
▁ජාතියේ 144
▁ඩෙ 144
▁දිගු 144
▁දෙවල 144
▁නිලධාරි 144
▁පො 144
▁පොතක 144
▁බයවෙලා 144
▁විදියේ 144
▁සිජන 144
▁සීතල 144
මය 143
ියත 143
▁21 143
▁l 143
▁ඇමති 143
▁කරුවෙක 143
▁ගනියි 143
▁ගියෙ 143
▁චෝ 143
▁ජනප 143
▁දායි 143
▁දීප 143
▁දේශීය 143
▁නාකි 143
▁නැටුම 143
▁නිය 143
▁පෝ 143
▁මැරුනා 143
▁ලූතර 143
▁හිල 143
▁ළ 143
කමක 142
▁අඩන 142
▁එවුන 142
▁ඒකක 142
▁ඔහුත 142
▁කැමරාව 142
▁කිරීමෙන 142
▁කොහෙටද 142
▁ගෙනාවේ 142
▁ජංගම 142
▁ජාන 142
▁ටෙඩ 142
▁තොප 142
▁නොමැති 142
▁මැරිල 142
▁මුඛ 142
▁රේඩියෝ 142
▁වළ 142
▁සමත 142
▁සූර 142
▁සෙත 142
▁– 142
නි 141
ලාව 141
ිවල 141
▁අහුවෙන 141
▁ඇයත 141
▁ඇලස 141
▁කීවා 141
▁ටී 141
▁ටොන 141
▁තොරව 141
▁ධෛර 141
▁නෙවි 141
▁පූජා 141
▁මචන 141
▁මුස 141
▁රවේශ 141
▁රෙද 141
▁වහාම 141
▁සවය 141
▁හොරෙක 141
▁ෆොටෝ 141
මෙ 140
ිමින 140
▁කාරණය 140
▁ඩික 140
▁තරා 140
▁තාප 140
▁දවසට 140
▁නුබ 140
▁පහසු 140
▁මුහුද 140
▁යානයක 140
▁ලෑෂ 140
▁ලියක 140
▁ෂාවක 140
▁සලකා 140
▁සියදිවි 140
▁හැදෙන 140
▁000 139
▁අසාමාන 139
▁කාමරේට 139
▁ගියපු 139
▁ජාත 139
▁තියෙනවාද 139
▁තුරු 139
▁දහ 139
▁නාද 139
▁නෙන 139
▁පැහැදිලිවම 139
▁බීලා 139
▁බෙරී 139
▁යොදා 139
▁ලබාගත 139
▁ලානා 139
▁වහගෙන 139
▁විහිලුවක 139
▁සමීප 139
▁සැත 139
ඉන 138
කයන 138
ාගන 138
ියස 138
▁අතරතුර 138
▁ඇඳුමක 138
▁ඉදිරියේ 138
▁ඔයාටම 138
▁කඩුව 138
▁කාවවත 138
▁තයට 138
▁තරමක 138
▁තාගේ 138
▁තිබුණි 138
▁තොරතුරක 138
▁දුප 138
▁පිරිසක 138
▁බාන 138
▁මිනිසෙක 138
▁වතා 138
▁වයන 138
▁වැදිලා 138
▁ෂියක 138
er 137
රු 137
▁අතරමං 137
▁අවම 137
▁කැඩිලා 137
▁ඛාන 137
▁දෑ 137
▁පැයක 137
▁රීඩ 137
▁විදිහටම 137
▁සිටියා 137
▁හදුන 137
යිට 136
ිං 136
▁DNA 136
▁ඉවසන 136
▁එකෙ 136
▁ඒවගෝම 136
▁ඔෆිස 136
▁කුමාර 136
▁දරුවෙක 136
▁දෙවියෝ 136
▁පුව 136
▁ලබාදෙන 136
▁වනෙවා 136
ටි 135
බන 135
ොම 135
▁The 135
▁ඇප 135
▁ඔනෙ 135
▁කවදද 135
▁චාල 135
▁ටල 135
▁දඩුවම 135
▁දෙකකින 135
▁නීත 135
▁පවුලට 135
▁බවයි 135
▁වගන 135
▁වාන 135
▁වෙට 135
▁සලස 135
F 134
තාවය 134
ෑම 134
ිකයෙක 134
ුනෙ 134
▁කලු 134
▁කේතය 134
▁ටීව 134
▁තාවන 134
▁දකිනවා 134
▁නිදි 134
▁පාරෙ 134
▁පුතෙක 134
▁යටින 134
▁රාස 134
▁ලිමේන 134
▁ලේසියි 134
▁සුප 134
ගේම 133
ුවනේ 133
▁එකග 133
▁කාමරයේ 133
▁ඝාතනය 133
▁තෝමස 133
▁තෝරගන 133
▁දයකෝ 133
▁දව 133
▁දේපල 133
▁නිස 133
▁ඵ 133
▁මළ 133
▁රපටි 133
▁ලගින 133
▁සතුරන 133
▁හොය 133
ාස 132
▁ඇයගෙ 132
▁එහෙනං 132
▁කසාදෙ 132
▁කාලෙක 132
▁කාවද 132
▁කෙර 132
▁ගැබ 132
▁තගන 132
▁තගෙ 132
▁තිබුණෙ 132
▁තියනෙ 132
▁ථය 132
▁දණ 132
▁දීපු 132
▁නනවා 132
▁නියෝජිතයෙක 132
▁පසුපස 132
▁පිරි 132
▁බබ 132
▁මිලදී 132
▁මිසයිල 132
▁රසායන 132
▁රේමන 132
▁වහ 132
▁විප 132
▁සභාවේ 132
▁හිතපු 132
N 131
කයෙක 131
▁අනතුරේ 131
▁අනුග 131
▁අබ 131
▁අයගෙන 131
▁අහගෙන 131
▁ඊටත 131
▁කවර 131
▁කළාද 131
▁ඩායමට 131
▁තරංග 131
▁නකම 131
▁පැමිණෙන 131
▁පිරිස 131
▁බයික 131
▁මරු 131
▁ලාගෙන 131
▁සාස 131
en 130
y 130
කයා 130
ියානු 130
ීක 130
▁ආයුධයක 130
▁ඉඩක 130
▁ඉතිහාසය 130
▁උබලා 130
▁එඩී 130
▁කියනවනම 130
▁කෙළ 130
▁ගොඩනැගිලි 130
▁ගොනු 130
▁චය 130
▁චාන 130
▁චිකිත 130
▁ජනයක 130
▁නැවතිලා 130
▁නොවී 130
▁පාල 130
▁පැහැර 130
▁ලැබේවි 130
▁වමට 130
▁වලක 130
▁විදුලිය 130
▁විවේකයක 130
▁සනීප 130
▁සමන 130
▁සැරේ 130
ඔ 129
ගස 129
ැට 129
ියව 129
ෙයක 129
ෝද 129
▁it 129
▁අවසානයේ 129
▁කිසිදු 129
▁ගඳ 129
▁දෙමු 129
▁නිලධාරිවරයා 129
▁පදක 129
▁පුදුමයක 129
▁මතකයන 129
▁මයක 129
▁මේකද 129
▁රාණ 129
▁රෙක 129
▁ලැහැස 129
▁විනිශ 129
▁සුර 129
▁සුවා 129
▁හදල 129
▁ෆර 129
▁෴ 129
U 128
l 128
කාරයා 128
ියකින 128
▁Dr 128
▁ඇපල 128
▁කරාට 128
▁කවුන 128
▁ගෑස 128
▁ගෙවීම 128
▁තිෙයන 128
▁තුලට 128
▁භාවිත 128
▁මෙයාල 128
▁ලැබුණ 128
▁වවිද 128
▁වැදුනා 128
▁සපයන 128
▁සේප 128
▁හුරු 128
ගල 127
ලද 127
ුවල 127
ුවෝ 127
▁ඊස 127
▁ඌන 127
▁කීප 127
▁ගො 127
▁ටෝන 127
▁ථික 127
▁ථිර 127
▁දීමට 127
▁නෙවෙයිද 127
▁නෝර 127
▁පටි 127
▁බොරුවට 127
▁මලා 127
▁මාම 127
▁යකා 127
▁රණය 127
▁ලැබිය 127
▁සහෝදරිය 127
වාගෙන 126
හෙන 126
ුරා 126
ෙකින 126
ෙර 126
ෝස 126
▁අඩුයි 126
▁අතීතය 126
▁අවලංගු 126
▁ආයතනයේ 126
▁ඉදිකිරීම 126
▁එකනේ 126
▁ඔලුවට 126
▁කිහිපයකට 126
▁ගිලන 126
▁ජරාවක 126
▁ටෙ 126
▁පරාජය 126
▁බරයි 126
▁භාගයක 126
▁රොම 126
▁ලගේ 126
▁වෙතට 126
▁ශනයක 126
▁සලකුණක 126
▁සිංහල 126
▁හයියක 126
▁හෝව 126
ඕ 125
ටර 125
තින 125
සේ 125
▁අධිකාරිය 125
▁අයේ 125
▁අවංකවම 125
▁අසාර 125
▁ආයුධය 125
▁උපදේශක 125
▁චූ 125
▁ජෙනරල 125
▁ජොනී 125
▁ණත 125
▁තෝරගත 125
▁දාගත 125
▁දෙසැම 125
▁නැවතුම 125
▁නෙවත 125
▁පරද 125
▁පරිත 125
▁පිරිලා 125
▁පෙති 125
▁මරයි 125
▁මොහොතේ 125
▁රූප 125
▁සටනක 125
▁හමුදාවේ 125
ගා 124
දන 124
පං 124
▁ඉදිරි 124
▁උෂ 124
▁ගණනය 124
▁ගණුදෙනු 124
▁ගානකට 124
▁ඩොන 124
▁තරං 124
▁දරාගන 124
▁පොළ 124
▁බම 124
▁භාෂාව 124
▁මෝටර 124
▁යයෙක 124
▁යාමට 124
▁ලාර 124
▁වෝ 124
▁ෂිතව 124
▁සැල 124
▁සියක 124
බී 123
සර 123
ුළ 123
▁300 123
▁අපරාධයක 123
▁උමං 123
▁ඔතනින 123
▁කපා 123
▁කාම 123
▁නිද 123
▁පීට 123
▁බවත 123
▁යෝර 123
▁වයෙන 123
▁ශරීර 123
▁සහගත 123
▁හැසිරීම 123
▁හිතා 123
▁ළග 123
ෝල 122
▁2015 122
▁ඇරොන 122
▁ඉව 122
▁ඕනනම 122
▁කෙසේ 122
▁ජීව 122
▁දෙමාපියන 122
▁පවසන 122
▁බෙක 122
▁මමම 122
▁මිසක 122
▁රූ 122
▁රේල 122
▁ලැබුණු 122
▁ලියේ 122
▁ලෝයි 122
▁විතරද 122
▁වුණොත 122
▁වෙබ 122
▁වෙයින 122
▁සිගරට 122
▁සිහි 122
▁සොයාගත 122
▁හමුවෙමු 122
ුග 121
ේෂ 121
▁අංශයේ 121
▁අවදානම 121
▁ආදරණීය 121
▁ඇඟිල 121
▁උං 121
▁කාරණාව 121
▁ගාඩ 121
▁ගුරුත 121
▁ථානාධිපති 121
▁දකට 121
▁නැවේ 121
▁පාටයි 121
▁බැද 121
▁මවා 121
▁මෙයාගෙ 121
▁රාව 121
▁ලිට 121
▁ශාන 121
▁ශාප 121
▁සබ 121
▁සෛල 121
▁සොයාගන 121
කරුවෙක 120
▁කවදාහරි 120
▁කියලත 120
▁ගඟ 120
▁ගහගන 120
▁ඩිස 120
▁දේසි 120
▁නාව 120
▁පනත 120
▁පැහැදිලිව 120
▁පිටුව 120
▁පිර 120
▁පුපුරවන 120
▁බේරා 120
▁භූත 120
▁යනකම 120
▁රාජු 120
▁රූම 120
▁ලමයින 120
▁වැටුන 120
▁වැටුප 120
▁හිටියත 120
ිමු 119
▁අවහිර 119
▁ඇතිව 119
▁ඇහුනද 119
▁ඉදල 119
▁ඔහුගෙන 119
▁කාත 119
▁කෑමක 119
▁චැපී 119
▁තානාපති 119
▁තුවට 119
▁දියත 119
▁නනම 119
▁නිලධාරියා 119
▁පනය 119
▁පැද 119
▁පැහැරගෙන 119
▁පිළිතුරු 119
▁පොලිසියේ 119
▁මකයි 119
▁මෝර 119
▁යයිද 119
▁රහාරයක 119
▁වීරයා 119
▁සංග 119
▁සභාපති 119
▁සිව 119
or 118
රය 118
▁ආකාරය 118
▁ඊලගට 118
▁එකෝ 118
▁ඕෙන 118
▁කුට 118
▁චා 118
▁ටැක 118
▁ණයයි 118
▁ථාපනය 118
▁දරුවෝ 118
▁දෙසට 118
▁පති 118
▁පෝල 118
▁බලාගත 118
▁මේඩ 118
▁වංචා 118
▁වැරදියට 118
▁විසඳ 118
▁සමාගමේ 118
▁සිටිය 118
▁හැමෝගෙම 118
වුනේ 117
ොයි 117
▁අනෙකුත 117
▁උබව 117
▁එලියෙ 117
▁කලාම 117
▁කොස 117
▁ගහල 117
▁ගුඩ 117
▁ජුලියට 117
▁තමුසෙව 117
▁තියට 117
▁පීඩනය 117
▁මිශ 117
▁රිප 117
▁රොබ 117
▁වාඩිවෙන 117
▁වෙනකල 117
▁ශණ 117
▁ෂෝ 117
▁සිප 117
▁හාද 117
▁ෆැක 117
වරුන 116
▁26 116
▁42 116
▁අතුරු 116
▁අවදි 116
▁ගණ 116
▁ගෝල 116
▁තාරකා 116
▁තැ 116
▁තියේද 116
▁තේරෙනවද 116
▁දිවි 116
▁දෙවියනි 116
▁ධාවන 116
▁නිදාගත 116
▁පාසලේ 116
▁මරණවා 116
▁මෙයාලා 116
▁රථම 116
▁ලෝකයට 116
▁වගකීමක 116
▁වාතය 116
▁වෙලේ 116
▁ශිත 116
▁ෂයා 116
▁සියේ 116
▁සේවක 116
▁හමුදාවක 116
▁හරිය 116
▁හැඟීමක 116
K 115
▁80 115
▁ආදරයක 115
▁ඇඳගෙන 115
▁ඒවාට 115
▁කණගාටු 115
▁කුකුල 115
▁ගනිමින 115
▁චෙන 115
▁ජොන 115
▁ටියම 115
▁තිමේදි 115
▁තූරයක 115
▁නගරයක 115
▁නිත 115
▁බලං 115
▁බැලුවේ 115
▁මතු 115
▁මේකනම 115
▁මේජර 115
▁මොකෙක 115
▁රතිඵල 115
▁රයිව 115
▁රැයක 115
▁වගකියන 115
▁වහනවා 115
▁වැඩිදියුණු 115
▁විර 115
▁විලියම 115
▁සිදුවීම 115
▁හඳුනා 115
▁හස 115
u 114
එන 114
ටෙ 114
විල 114
ියල 114
ුවෙනවා 114
▁අයිතියක 114
▁උඹලට 114
▁ඔලිවර 114
▁ඕව 114
▁කලත 114
▁කලෝ 114
▁කෝවිල 114
▁ගිම 114
▁ගොදුරු 114
▁ඩෙල 114
▁තනියෙන 114
▁දලා 114
▁දවසෙ 114
▁නග 114
▁නුඹට 114
▁පුරුද 114
▁පූ 114
▁මනමාල 114
▁මෙහෙයුමක 114
▁යාළුවන 114
▁රග 114
▁ලේස 114
▁වලයි 114
▁ශරීරය 114
▁සංගීතය 114
▁හැකියාවන 114
කරගන 113
ගර 113
ගැනීමට 113
ඩෝ 113
දෙි 113
වීමට 113
ානු 113
ිමේ 113
▁You 113
▁ඉත 113
▁උහ 113
▁එහෙමනම 113
▁කිහිප 113
▁ඡායාරූප 113
▁තැනින 113
▁තේරුණාද 113
▁තොට 113
▁දිත 113
▁පියාසර 113
▁බාත 113
▁මගුලේ 113
▁යහ 113
▁ලමයෙක 113
▁වතිය 113
▁වෙළඳ 113
▁සංඥාව 113
▁සාමය 113
▁සුරාබදු 113
හු 112
ේදි 112
▁for 112
▁අවට 112
▁කවුරුන 112
▁කාරය 112
▁කිවුව 112
▁කීර 112
▁කුලී 112
▁ගුල 112
▁ගෙනල 112
▁තියෙනවනම 112
▁දීපන 112
▁පහරක 112
▁පිටුපස 112
▁පිත 112
▁බවුනා 112
▁මිනිහගේ 112
▁මුදලක 112
▁මොවුන 112
▁යයා 112
▁රදේශ 112
▁රසන 112
▁රීස 112
▁රෝයි 112
▁වායු 112
▁සතියකට 112
▁සුරකින 112
කො 111
ටයි 111
යේදි 111
හර 111
ියර 111
▁28 111
▁අවේ 111
▁ඉදගෙන 111
▁එලිය 111
▁ඔහෙ 111
▁කරනවාද 111
▁කෝලෙ 111
▁ගැහුවේ 111
▁ගියත 111
▁ජාල 111
▁නනේ 111
▁නිදන 111
▁නෙම 111
▁පරි 111
▁පැවත 111
▁පුලූවන 111
▁පෙක 111
▁පේනව 111
▁බනින 111
▁බනේ 111
▁මෙතෙක 111
▁වයංක 111
▁වාහනය 111
▁සැහැල 111
▁සිහිය 111
▁සීමා 111
▁සුවද 111
කරණ 110
යකු 110
ිනම 110
ුවකට 110
ූර 110
▁අතිරේක 110
▁අභියෝග 110
▁අලි 110
▁අවන 110
▁ආශිර 110
▁කතාකර 110
▁කරුනාකරල 110
▁කික 110
▁කෙරෙහි 110
▁කෝම 110
▁ගණුදෙනුවක 110
▁ගෙයක 110
▁චරක 110
▁ඡ 110
▁ටේලර 110
▁නෝන 110
▁පෑන 110
▁පීනන 110
▁පුරවන 110
▁මචේචර 110
▁යානයට 110
▁රිකා 110
▁ලෝකයක 110
▁වෙනම 110
▁සිවිල 110
▁සුක 110
▁හිටියනම 110
▁හේතුවෙන 110
▁ළමා 110
කරල 109
විලා 109
ිකර 109
▁අතහැර 109
▁අපිටත 109
▁කගනෙ 109
▁කියද 109
▁කොළඹ 109
▁ගලිකව 109
▁තබන 109
▁නිවාඩු 109
▁පරාද 109
▁පැමිණිලි 109
▁පියෙක 109
▁පුරාවටම 109
▁යවනවා 109
▁රිෂ 109
▁ලිම 109
▁ලුවේ 109
ar 108
ංක 108
කාරයෙක 108
රිස 108
ීල 108
▁අජේ 108
▁අතක 108
▁අනුමැතිය 108
▁අයිතිවාසිකම 108
▁ආකාරයට 108
▁ආදරවන 108
▁ආදරෙන 108
▁ඉංජිනේරු 108
▁ඊළඟට 108
▁උදේට 108
▁ඕකට 108
▁ඕනිද 108
▁කියාවි 108
▁ගබඩා 108
▁ගිණි 108
▁චරම 108
▁තිමේදී 108
▁දූපතට 108
▁දෙව 108
▁පැයකට 108
▁පිළිගත 108
▁බක 108
▁මැල 108
▁රෝහලේ 108
▁වයර 108
▁වාදනය 108
▁වැඩසටහනක 108
▁විඩ 108
▁වේලායුධම 108
▁වේවිද 108
▁ශීත 108
▁හොඳද 108
▁ෆයිල 108
ලෙන 107
වස 107
ාගත 107
▁අංකයක 107
▁ඇවිදගෙන 107
▁ඈතට 107
▁ගද 107
▁ජීවතුන 107
▁ථාවේ 107
▁දූ 107
▁නේනැ 107
▁නොස 107
▁බැඳ 107
▁බැරිවෙයි 107
▁මෙහෙයවන 107
▁මොනවගේ 107
▁ලිගෙ 107
▁විධියට 107
▁සිරාවටම 107
▁හාහ 107
▁හී 107
▁හෙලවෙන 107
කාරයෝ 106
යෙදි 106
ලම 106
සම 106
ාප 106
ුරක 106
▁අරිනවා 106
▁ඉදිරියෙන 106
▁ඉහලට 106
▁එකතුවෙලා 106
▁එතෙන 106
▁එමෙන 106
▁කරුනාකරලා 106
▁කුර 106
▁කුවේ 106
▁කෙස 106
▁ගෙයි 106
▁ටියට 106
▁පරන 106
▁මොනතරම 106
▁යෝධ 106
▁ලාභ 106
▁සිදුවන 106
▁සුරක 106
තේ 105
විය 105
ළි 105
ැර 105
ිනි 105
ුකාර 105
ොද 105
▁ඉපදුනේ 105
▁එකිනෙකාට 105
▁කඳවුර 105
▁කරවනවා 105
▁කාගෙන 105
▁කෑන 105
▁කියලාද 105
▁කීයද 105
▁චෞද 105
▁දවසම 105
▁දුවනවා 105
▁දුවේ 105
▁නැට 105
▁පිටතට 105
▁බේරිලා 105
▁බොබී 105
▁මාට 105
▁රාජකීය 105
▁රැජින 105
▁ලල 105
▁ලැබුවා 105
▁වාගෙන 105
▁විදේශ 105
▁විරහිත 105
▁වේදනාවක 105
▁ෂම 105
▁ෂෙරිෆ 105
▁සංවිධානය 105
▁සාමාජිකයන 105
▁සිග 105
▁හමුදාවට 105
H 104
ගමු 104
තුරු 104
බේ 104
බෝ 104
වරු 104
වීමේ 104
හෙ 104
ාජ 104
ියනි 104
▁45 104
▁48 104
▁my 104
▁අංශක 104
▁අමාරුවෙන 104
▁ඇහුවෙ 104
▁උඹල 104
▁එකපාරක 104
▁ඕනවට 104
▁ඕනේද 104
▁කළේය 104
▁කෑවා 104
▁තිෙයනවා 104
▁දොරට 104
▁නවතිනවා 104
▁නාඩ 104
▁නිදහසේ 104
▁නිදාගෙන 104
▁පවතිනවා 104
▁පාඩම 104
▁පිහිට 104
▁පුපුර 104
▁බවෙලා 104
▁බහ 104
▁බාරගන 104
▁බුක 104
▁මගන 104
▁මිද 104
▁යයනය 104
▁යාපනය 104
▁රවණ 104
▁රිත 104
▁ලඟින 104
▁ලාන 104
▁ලුම 104
▁විඳින 104
▁ෂකයින 104
▁සතා 104
▁සතු 104
▁සිඩ 104
තික 103
ලයක 103
වනෙ 103
ළු 103
ානා 103
ිකාව 103
ූන 103
▁02 103
▁90 103
▁අංකල 103
▁අඬන 103
▁ඉගෙනගත 103
▁උතුම 103
▁ඔබත 103
▁කෙට 103
▁චාලි 103
▁ජනපද 103
▁ඩිම 103
▁තරගය 103
▁තේරෙනව 103
▁දෙනාම 103
▁දෙමළ 103
▁දෝ 103
▁ධති 103
▁නොහැක 103
▁පැටවුන 103
▁බෙර 103
▁මංගල 103
▁මහෙෙ 103
▁යොදාගන 103
▁රදේශය 103
▁සරහින 103
ථ 102
වගන 102
ුළු 102
ේශ 102
▁27 102
▁71 102
▁අතෑරලා 102
▁අරමුණු 102
▁අහම 102
▁ඉතාම 102
▁ඉඳීවි 102
▁උපකරණය 102
▁ඔර 102
▁කොලේජ 102
▁කොහාටද 102
▁ගනුදෙනුව 102
▁ගේනවා 102
▁චරිත 102
▁තිබූ 102
▁ධියක 102
▁නැනේ 102
▁නොහැකියි 102
▁පෙල 102
▁බඩගින 102
▁බලල 102
▁බුනේ 102
▁මටනම 102
▁යෙ 102
▁රගතිය 102
▁ලාහ 102
▁ලුතිනන 102
▁වතුරට 102
▁විෂය 102
▁වුඩ 102
▁ෂනය 102
▁සාරා 102
▁හොඳක 102
ඩන 101
බව 101
වපු 101
▁අතරෙ 101
▁එකේදි 101
▁ඔයට 101
▁කළමනාකරණ 101
▁කියවනවා 101
▁කීපයකට 101
▁ඩේව 101
▁තනම 101
▁තරඟය 101
▁තීය 101
▁දද 101
▁දියමන 101
▁නිලධාර 101
▁පැහැරගත 101
▁පුපුරන 101
▁මැරුන 101
▁මොල 101
▁යයේ 101
▁යාජ 101
▁රයෝජනවත 101
▁රවාහන 101
▁වලටත 101
▁ශණය 101
▁සීනු 101
▁සීය 101
▁හදවතේ 101
▁හැට 101
in 100
ගය 100
තුර 100
පෙන 100
▁2013 100
▁අධි 100
▁ඔබතුමා 100
▁කොක 100
▁කොමසාරිස 100
▁ගැඹුරු 100
▁ජීවිතයට 100
▁ජීවිතේට 100
▁ජෝයි 100
▁දමා 100
▁දුපතේ 100
▁දොරෙන 100
▁නිකී 100
▁නොමිලේ 100
▁පිලිබද 100
▁භිද 100
▁යෙද 100
▁රදේශයේ 100
▁රැකියාව 100
▁රිදවන 100
▁රිදෙනවා 100
▁ලෝකෙට 100
▁වුවමනා 100
▁ශර 100
▁සාද 100
▁සීයේ 100
-4 99
වාද 99
හට 99
ුවලට 99
ෙමින 99
▁# 99
▁70 99
▁cH 99
▁අධීක 99
▁අවා 99
▁අහපු 99
▁ඇනී 99
▁ඇරල 99
▁එහ 99
▁කයක 99
▁ගමට 99
▁ඩින 99
▁තෙම 99
▁දීර 99
▁නිකමට 99
▁නෝනාවරුනි 99
▁භයක 99
▁රැකියා 99
▁රැවුල 99
▁වයං 99
▁සය 99
▁හදාගත 99
▁හරියයි 99
▁හැමවිටම 99
▁හුරතල 99
තුමා 98
ෂා 98
ියකේ 98
ිෂ 98
▁03 98
▁04 98
▁32 98
▁35 98
▁can 98
▁අතහරින 98
▁අවදානමක 98
▁ආගමික 98
▁ඊළගට 98
▁ඔබෙ 98
▁කූ 98
▁ගැලපෙනවා 98
▁ගෝන 98
▁චිප 98
▁ටෙන 98
▁ටොමී 98
▁ධතියක 98
▁නලා 98
▁පදින 98
▁පාඩුවේ 98
▁පොතේ 98
▁බේස 98
▁යමුද 98
▁රොබට 98
▁රෝම 98
▁විලවුන 98
▁ශයිඩ 98
▁සමානයි 98
▁සිදුව 98
▁හැඳුනුම 98
ඇයි 97
එල 97
පාර 97
මං 97
වු 97
ැයි 97
ිකයි 97
ෘ 97
▁අධිකරණ 97
▁ඉරණම 97
▁ඉහලින 97
▁එහෙදි 97
▁කටයුත 97
▁කැරක 97
▁ගෙදරක 97
▁ටේ 97
▁දිනේ 97
▁දුපත 97
▁නගරේ 97
▁නාමය 97
▁පිම 97
▁පිහියක 97
▁බැලුවොත 97
▁බුල 97
▁බේරාගන 97
▁බොල 97
▁භන 97
▁යං 97
▁රමණය 97
▁වාහනයක 97
▁හාස 97
▁හැකිද 97
ගයක 96
ුවො 96
▁05 96
▁අනකේ 96
▁අයිය 96
▁ඇලිස 96
▁එකටම 96
▁එහෙමත 96
▁එළිය 96
▁ඕනලු 96
▁කං 96
▁කුමරිය 96
▁ගුරු 96
▁ජිවිතය 96
▁ටිකකින 96
▁දොරක 96
▁නැවක 96
▁නිවැරදියි 96
▁නොමැත 96
▁පියවරක 96
▁බයෙන 96
▁මුහුන 96
▁මෙලෝ 96
▁මොහු 96
▁යවස 96
▁යූ 96
▁රො 96
▁ලීමක 96
▁වාසු 96
▁සමරන 96
▁සහභාගි 96
▁සිනා 96
▁හැච 96
▁හිමිකම 96
▁හොරා 96
ඒත 95
පස 95
ියාට 95
▁this 95
▁අනවශ 95
▁අහුවුනා 95
▁ආවරණ 95
▁ඇගිලි 95
▁උතුමාණන 95
▁උපකරණයක 95
▁උඹත 95
▁ඔරලෝසුව 95
▁කඩාගෙන 95
▁කරණය 95
▁ගලවලා 95
▁තරන 95
▁දායක 95
▁නුම 95
▁නොදැන 95
▁පාපන 95
▁බයගුල 95
▁යශ 95
▁යාඥයෙක 95
▁රජතුමා 95
▁රඳවා 95
▁රෙග 95
▁ලපු 95
▁ලේඛන 95
▁වගේනේ 95
▁වාසියක 95
▁විදිහකට 95
▁වුනානම 95
▁වේග 95
▁සමස 95
▁සයි 95
▁සීල 95
▁හැනා 95
▁ෆි 95
▁ෆේන 95
ඩී 94
ණු 94
දින 94
බලන 94
යිනේ 94
යෙකු 94
වින 94
හක 94
▁0 94
▁1000 94
▁X 94
▁අපව 94
▁ඇදගන 94
▁උගුලක 94
▁උතුමාණනි 94
▁උදෑසන 94
▁උපක 94
▁එයාලගෙන 94
▁කතන 94
▁කමාන 94
▁කරනවට 94
▁කාරයො 94
▁කොටු 94
▁කොහ 94
▁චෑන 94
▁ජු 94
▁ටිකයි 94
▁තුවෙ 94
▁නොවැම 94
▁නොසලකා 94
▁බලු 94
▁බෑන 94
▁භූ 94
▁මොට 94
▁රචණ 94
▁සමාවනේන 94
▁සුපර 94
▁හතක 94
▁හිතල 94
▁හෝටල 94
al 93
රව 93
ිකව 93
ුනි 93
▁that 93
▁අටක 93
▁අමතරව 93
▁ඇහ 93
▁උරුම 93
▁කැඳ 93
▁කැලෑ 93
▁ගාල 93
▁ගෙවනවා 93
▁දිගින 93
▁දිලා 93
▁නගරෙ 93
▁පෝට 93
▁බොනවා 93
▁මානය 93
▁මැදිහත 93
▁මැරුව 93
▁මුරණ 93
▁රෙදි 93
▁රෝද 93
▁වැඩියා 93
▁වැඩෙන 93
▁විශේෂිත 93
▁වීමෙන 93
▁සීසර 93
▁හොදද 93
▁ෙකෙනක 93
චාර 92
පිය 92
විත 92
ිකම 92
ිවන 92
▁UTI 92
▁අදුරු 92
▁අඳුන 92
▁අපෝ 92
▁එකකුත 92
▁ඔළුවට 92
▁කිල 92
▁ගණනාවක 92
▁ටවුන 92
▁ටිකකට 92
▁ටෝර 92
▁තරුව 92
▁තොල 92
▁දනේන 92
▁දාස 92
▁නපුර 92
▁පිටු 92
▁බැඳලා 92
▁බොට 92
▁මගහැර 92
▁මිසිස 92
▁යතා 92
▁යමින 92
▁රහසිගත 92
▁වරු 92
▁වාඩිවෙලා 92
▁සංවිධාන 92
▁සිහ 92
▁හැදුව 92
කරා 91
ගනේ 91
ගැනීමක 91
දැන 91
නක 91
රිලා 91
සක 91
ැත 91
ිගේ 91
▁අවසානයක 91
▁ඇලිසන 91
▁එංගලන 91
▁එයාලත 91
▁ඔලුවේ 91
▁කරයිද 91
▁කාරණයක 91
▁කිස 91
▁කුණාටුව 91
▁ගෙනියනවා 91
▁ඝන 91
▁ජීන 91
▁තේරුනේ 91
▁නෙට 91
▁නොතිබුණි 91
▁පිටි 91
▁පූජ 91
▁බත 91
▁බැහැලා 91
▁මෙතනම 91
▁රියාමාර 91
▁රියාව 91
▁රූපවාහිනී 91
▁රෝහලට 91
▁ලියාපදිංචි 91
▁ලෝහ 91
▁වැරදීමක 91
▁විකාශය 91
▁විභාග 91
▁සතුටෙන 91
▁සියි 91
▁සොරකම 91
▁හරියේ 91
▁හිතමු 91
▁හිනාව 91
▁හිරේට 91
▁ෆින 91
අපිට 90
කරණය 90
නේන 90
ැති 90
ිකාර 90
ිණ 90
ිනේ 90
ීයි 90
ුඩ 90
ොප 90
▁අමාරුවක 90
▁ආයිත 90
▁ඔයාලත 90
▁ඕස 90
▁කුළුණ 90
▁ගයා 90
▁ගහක 90
▁ජෙනරාල 90
▁ටූ 90
▁ඩැනියල 90
▁දවසකට 90
▁දායකත 90
▁දෙකට 90
▁දෙයකට 90
▁ධතාවය 90
▁නවාතැන 90
▁නැගලා 90
▁පවතී 90
▁බෙදාගන 90
▁මැඩ 90
▁මැරුණු 90
▁මිනිහකේ 90
▁මේල 90
▁රපටියක 90
▁රුසියානු 90
▁වඩ 90
▁වැසියන 90
▁විකිණ 90
▁ශල 90
▁සංකල 90
▁සනවා 90
▁සහායක 90
▁සාදයක 90
▁සීනි 90
▁හැරිලා 90
▁හොට 90
යිල 89
වලු 89
ුකම 89
▁අච 89
▁අපෙ 89
▁උණා 89
▁එමිලි 89
▁එවැනි 89
▁කරණ 89
▁කැමැති 89
▁කෑගහන 89
▁ගලක 89
▁ගූ 89
▁දකුණ 89
▁දැනුනේ 89
▁දිර 89
▁නංගිව 89
▁නැතිවෙනවා 89
▁පාපොච 89
▁පැහැදිළි 89
▁පිටුවහල 89
▁පුල 89
▁පූජක 89
▁පොහොසත 89
▁බලෙන 89
▁බැගින 89
▁බේන 89
▁මැරුනේ 89
▁මිතුරන 89
▁මූව 89
▁මේකා 89
▁යාංශයේ 89
▁යාලුවො 89
▁රකින 89
▁රජා 89
▁රසවත 89
▁රේචල 89
▁ලඟා 89
▁වනේනේ 89
▁සිසුන 89
▁හඳ 89
▁හැමදේටම 89
පාට 88
මේක 88
යිනෙ 88
වුම 88
ැව 88
ෛ 88
▁අඩුව 88
▁අතරට 88
▁අපහු 88
▁අසම 88
▁ඉවස 88
▁උණු 88
▁උර 88
▁ඔයාගෙම 88
▁තෝරා 88
▁ථාපිත 88
▁දස 88
▁දාම 88
▁නාල 88
▁නිආ 88
▁නිතර 88
▁පතක 88
▁පරිසර 88
▁බවෙමු 88
▁රබල 88
▁රාජකාරි 88
▁රියාකාරකම 88
▁ලබයි 88
▁ලෙහාට 88
▁වැඩිම 88
▁වැලි 88
▁සංක 88
▁සදහන 88
▁හැඟ 88
ඛ 87
තම 87
වරයා 87
ිච 87
ිමට 87
ිවලට 87
▁එසේම 87
▁ඒකිව 87
▁කියව 87
▁ගණුදෙනුව 87
▁ගහපු 87
▁ටීවී 87
▁ටෝනි 87
▁ඩුව 87
▁තෝරාගත 87
▁දාහක 87
▁දැනෙනව 87
▁දිවුරනවා 87
▁නිවන 87
▁පරිච 87
▁පාක 87
▁පික 87
▁පිණිස 87
▁පොලිසියෙන 87
▁බැරිනම 87
▁මයො 87
▁යාලුවනේ 87
▁යොදවන 87
▁රියාවක 87
▁රෝහී 87
▁ලීස 87
▁ලෙයර 87
▁ලෙයාර 87
▁වතාවෙ 87
▁වාරය 87
▁වැලන 87
▁වුණාම 87
▁ෂකයා 87
▁සාමන 87
▁සැකයි 87
▁හදුනා 87
▁හැරිස 87
▁හෙමීට 87
on 86
කාරී 86
ගනෙ 86
ගමන 86
ගෙම 86
වය 86
ාවකට 86
ිග 86
ෙනව 86
▁are 86
▁your 86
▁ඊතන 86
▁කරනවනම 86
▁ගෙනිච 86
▁ජාවක 86
▁ජැනට 86
▁ටෙස 86
▁ටේන 86
▁ඩිලන 86
▁තමුසෙලා 86
▁තරුවක 86
▁ථානගත 86
▁දුරකතන 86
▁නළ 86
▁පහසුවෙන 86
▁බලප 86
▁බලයන 86
▁බු 86
▁භාජනය 86
▁යබහුල 86
▁රයිම 86
▁රහලෝක 86
▁රැඩ 86
▁ලුයිස 86
▁ලේක 86
▁වලස 86
▁වාසි 86
▁වෙහෙස 86
▁වොන 86
▁වොයර 86
▁ෂෝන 86
▁සමහරු 86
▁සමා 86
▁සේවකයෙක 86
▁හරක 86
▁හැඳින 86
▁ෙවනවා 86
මොකද 85
රී 85
වෙල 85
ාග 85
ාණ 85
ිකයා 85
ෝක 85
▁..... 85
▁will 85
▁ඇහුණා 85
▁ඉවරද 85
▁උපාධි 85
▁එහෙන 85
▁ඔබයි 85
▁කඩවසම 85
▁කතාකලා 85
▁ගලා 85
▁ගැහැනු 85
▁ජෛව 85
▁ටාෆ 85
▁ටුවෙන 85
▁දඩයක 85
▁දුකයි 85
▁නඩත 85
▁නහ 85
▁නියෝජ 85
▁පසුම 85
▁පාඩමක 85
▁පාලකය 85
▁පැමිණීම 85
▁බබෙක 85
▁බාබ 85
▁බැදලා 85
▁බේරුවා 85
▁බොම 85
▁මහජන 85
▁මෙල 85
▁යවරයා 85
▁යාපාරයක 85
▁යාලුවන 85
▁රුධිර 85
▁ලාගන 85
▁ලෝගන 85
▁වාසනාවක 85
▁විසන 85
▁වුවත 85
▁වෛරස 85
▁සංරක 85
▁සහිතව 85
▁සාමාජික 85
▁හප 85
චර 84
යද 84
ානෙ 84
▁37 84
▁49 84
▁TV 84
▁අකුරු 84
▁ආරංචිය 84
▁ආවරණයක 84
▁එතරම 84
▁එහායින 84
▁කරුණාවන 84
▁කසාදේ 84
▁ගෝවා 84
▁චරද 84
▁ටයර 84
▁ටිස 84
▁ඩිත 84
▁තමාන 84
▁නගෙන 84
▁පහරදෙන 84
▁පැමිණි 84
▁පිරිම 84
▁පිහිටි 84
▁බැලුවෙ 84
▁බොහෝම 84
▁මාසයක 84
▁මොළ 84
▁මෝඩයි 84
▁රතිපාදන 84
▁රවාහනය 84
▁රෝගීන 84
▁වචනේ 84
▁වේදනා 84
▁ෂණයට 84
▁සංඥාවක 84
▁සඳ 84
▁සහජ 84
▁සහයෝගය 84
▁ළමය 84
.00 83
f 83
ගිය 83
පාල 83
පි 83
පුර 83
යනේ 83
හස 83
ළක 83
ිකාවක 83
ුනට 83
ුනත 83
ෙවන 83
▁33 83
▁අසිපත 83
▁ඉට 83
▁උපකාර 83
▁එකපාරටම 83
▁ඔබෙන 83
▁ඕෆ 83
▁කටු 83
▁කමෝන 83
▁කරාම 83
▁කීයටද 83
▁කූඩුව 83
▁ගානෙ 83
▁ගී 83
▁ගුණ 83
▁ඩග 83
▁ථාවර 83
▁දේශප 83
▁ඳ 83
▁පරිපූර 83
▁පැමින 83
▁බඩගිනි 83
▁බලද 83
▁මේරි 83
▁මේවගේ 83
▁යාඥ 83
▁රකාශන 83
▁රතිසංස 83
▁රහය 83
▁රිදෙන 83
▁රියාවලිය 83
▁ලුවිස 83
▁වයසට 83
▁විකුනන 83
▁වෙරළ 83
▁සංචාරය 83
▁සහාය 83
▁සුල 83
▁සේවයේ 83
▁හිතුවට 83
▁හෘද 83
,000 82
r 82
කරුවා 82
භාවය 82
මගේ 82
මාව 82
යාම 82
යාර 82
ුනාම 82
▁75 82
▁ආගන 82
▁ඇතුලෙන 82
▁ඇහැර 82
▁ඉතිහාසයේ 82
▁ඊජිප 82
▁උගෙ 82
▁එබ 82
▁ඔබන 82
▁කැක 82
▁කියලනේ 82
▁කුම 82
▁කොතරම 82
▁කොහේවත 82
▁ගැනීමක 82
▁ගෑණ 82
▁ගෙනාව 82
▁චරිතය 82
▁චීස 82
▁තිබිල 82
▁තිව 82
▁දිනුම 82
▁දුවගේ 82
▁දෙයින 82
▁නායු 82
▁නොගත 82
▁පැමිණිල 82
▁පිරිතාල 82
▁පොක 82
▁බැටරි 82
▁මලක 82
▁මැරුම 82
▁මෙතැනින 82
▁මොඩ 82
▁යාංශ 82
▁රහිත 82
▁රැකියාවක 82
▁රිඩ 82
▁ලාම 82
▁ලෙහා 82
▁වරයා 82
▁සහන 82
▁සීයක 82
▁සෙනෙට 82
▁සේනා 82
▁හමුවෙලා 82
▁හැතැප 82
▁ෆේ 82
▁ෙවලා 82
කටත 81
කාරය 81
ගැනීමේ 81
නයට 81
හැර 81
ාවකින 81
ූට 81
▁අනාථ 81
▁අවසානයි 81
▁ආය 81
▁ඇතිවෙලා 81
▁ඇහුවොත 81
▁කාරයන 81
▁කියවලා 81
▁කෙනාගේ 81
▁ගානට 81
▁ගැනවත 81
▁ඩලයේ 81
▁තරහින 81
▁තුනකින 81
▁දිම 81
▁දියාවේ 81
▁දිහාට 81
▁දූපතේ 81
▁දෙයියන 81
▁ධවෙන 81
▁නඩුවක 81
▁නොවූ 81
▁පහයි 81
▁පාටි 81
▁පැහැරගන 81
▁පීන 81
▁මඟුලේ 81
▁මැරීන 81
▁මුහුණු 81
▁මොහොතකට 81
▁යටට 81
▁යාප 81
▁රටට 81
▁රියාකාරී 81
▁රෝගියා 81
▁ලිංගික 81
▁වෙනවට 81
▁ශාලාව 81
▁ශික 81
▁ෂයෝ 81
▁සමාගමක 81
▁සුරාජ 81
▁හාරන 81
▁“ 81
ගාර 80
සට 80
ිති 80
ුරන 80
ුවනම 80
▁36 80
▁අඩියක 80
▁අහුවෙලා 80
▁ආතල 80
▁ආදරයි 80
▁උපත 80
▁උම 80
▁ඒවගෙන 80
▁කඳ 80
▁කලක 80
▁කිලෝ 80
▁ගිවිස 80
▁චාරිත 80
▁චිකාගෝ 80
▁ජීවිතේම 80
▁ටිකත 80
▁තිබිය 80
▁නගරයෙන 80
▁නවානේ 80
▁නෙමී 80
▁නොප 80
▁පාව 80
▁පැනගත 80
▁පිළ 80
▁මගුලෙ 80
▁මහාමාර 80
▁මාලු 80
▁මිනිය 80
▁මොත 80
▁යර 80
▁යවලා 80
▁රිජ 80
▁වසා 80
▁වැඩිව 80
▁විසදන 80
▁සිනමා 80
▁සිපගන 80
▁සොහොන 80
12 79
ගහන 79
ඥ 79
තාවක 79
යර 79
වාගන 79
ළා 79
ාවය 79
ුනද 79
ෙයන 79
▁08 79
▁අපායට 79
▁ආපස 79
▁ඇතැම 79
▁එකේදී 79
▁එමගින 79
▁කවදහරි 79
▁කාලෙකින 79
▁ගනුදෙනුවක 79
▁ගෑන 79
▁ජාතියක 79
▁ජෙන 79
▁ටැන 79
▁තනේ 79
▁දරුණුයි 79
▁නාඩි 79
▁නුවේ 79
▁නොවුන 79
▁පැක 79
▁පැටියා 79
▁පොට 79
▁බැහැර 79
▁මහල 79
▁මුහුදට 79
▁යව 79
▁යාලුව 79
▁රඟ 79
▁ලැබුනද 79
▁ලිලා 79
▁වයා 79
▁වයෙි 79
▁වැටිල 79
▁විදියකට 79
▁වුණු 79
▁වේන 79
▁සංචාර 79
▁සහභාගී 79
▁සොයන 79
▁හදවතට 79
▁හරස 79
V 78
an 78
ඔහු 78
දාන 78
දෙයක 78
ිකරන 78
ිවි 78
ෙවා 78
ෙි 78
▁අඳුර 78
▁අවසරය 78
▁ඇදුමක 78
▁උපකල 78
▁එවනවා 78
▁කාලකන 78
▁කාලෙම 78
▁කැපිටල 78
▁කැමතී 78
▁චොකලට 78
▁ටොප 78
▁තහම 78
▁දැනෙනවද 78
▁නැගී 78
▁නීමෝ 78
▁පතන 78
▁පාටියක 78
▁පාප 78
▁පැටල 78
▁පිපිර 78
▁මකව 78
▁මරණයේ 78
▁මැරුවෙ 78
▁මෙතනයි 78
▁මොස 78
▁යවරයෙක 78
▁යාළුවනේ 78
▁රැව 78
▁රොඩ 78
▁ලබනවා 78
▁ලික 78
▁වධ 78
▁වාසනාවට 78
▁වැසි 78
▁සගෙන 78
▁සුදුසුකම 78
▁හපන 78
කරපු 77
යකි 77
හෝ 77
ියාවේ 77
▁150 77
▁ආගම 77
▁ආම 77
▁ආයෙම 77
▁ඇතිද 77
▁ඇලන 77
▁එකනම 77
▁කඩලා 77
▁කාගෙ 77
▁කැරන 77
▁ගනු 77
▁ගැණු 77
▁ගෝත 77
▁ජාවාරම 77
▁තුක 77
▁තොපි 77
▁දරා 77
▁දුවා 77
▁නායකත 77
▁නැගිටලා 77
▁පිටුපසින 77
▁පිහිය 77
▁බුව 77
▁බෙද 77
▁භාවය 77
▁මසුන 77
▁මාංචු 77
▁මිනි 77
▁මේවට 77
▁යාඥා 77
▁යාය 77
▁රතිලාභ 77
▁රයෝජන 77
▁ලියා 77
▁වටෙන 77
▁විසඳන 77
▁වේඩ 77
▁සංදර 77
▁සිතන 77
▁ෙක 77
ගහ 76
ගින 76
ඩම 76
ණිය 76
පිට 76
රිය 76
ුවකේ 76
ෙනි 76
▁29 76
▁43 76
▁Y 76
▁අදුර 76
▁ආබාධිත 76
▁ඇගෙ 76
▁ඇඟේ 76
▁ඉපද 76
▁උඔ 76
▁එවලා 76
▁ඒගැන 76
▁කදු 76
▁කියනදේ 76
▁කෙනයි 76
▁තෑගි 76
▁තීර 76
▁තෝරන 76
▁දෙනෙකුට 76
▁නිවසට 76
▁පඩි 76
▁පුරාවට 76
▁මියගිය 76
▁මෝස 76
▁ලැප 76
▁ලිත 76
▁ලියකියවිලි 76
▁වයෙක 76
▁වේගාස 76
▁හෝටලේ 76
දෙනෙක 75
යික 75
රල 75
රිල 75
ාරක 75
ිරීම 75
ුනක 75
ුෂ 75
ෙලා 75
▁2010 75
▁34 75
▁64 75
▁cHowllye 75
▁අතුල 75
▁අනු 75
▁අමාර 75
▁ඇමරිකාවේ 75
▁කළමනාකරණය 75
▁කාණ 75
▁කැසිනෝ 75
▁කිසියම 75
▁ගව 75
▁චුට 75
▁ජිව 75
▁ජෙස 75
▁ටීවන 75
▁ඩෲ 75
▁තෙර 75
▁දියාව 75
▁දිහාවට 75
▁නිවසේ 75
▁නිසාම 75
▁නොදෙන 75
▁පැතිර 75
▁බහිනවා 75
▁මාකස 75
▁මැරිච 75
▁යමය 75
▁යාර 75
▁රාජා 75
▁රැවට 75
▁රීඩාව 75
▁රීති 75
▁ලියපු 75
▁ලියුමක 75
▁විනෝදයක 75
▁විවර 75
▁වෙක 75
▁වෙඩිතියන 75
▁සැහෙන 75
▁සිකෝ 75
▁හමුවක 75
▁හැබෑ 75
▁හැමේම 75
▁හිතවත 75
ing 74
m 74
ංච 74
කාල 74
ගී 74
ධාර 74
පුවා 74
ලව 74
ියෙදි 74
ුලා 74
▁අංග 74
▁අරගනෙ 74
▁එෙහම 74
▁ඔයාලගෙන 74
▁ඔයිට 74
▁කඩදාසි 74
▁කරුණ 74
▁කලිනුත 74
▁කාරණ 74
▁කියක 74
▁කෙනෙකු 74
▁ගතකරන 74
▁ගොදුර 74
▁ජෙ 74
▁ටො 74
▁තුළින 74
▁දනය 74
▁දහම 74
▁දාපන 74
▁දුකක 74
▁දෙකේ 74
▁දෙයයි 74
▁දෙවනි 74
▁නිපද 74
▁පහකට 74
▁පාලනයක 74
▁පැටියෙක 74
▁පැටියේ 74
▁පැති 74
▁පුන 74
▁පෙත 74
▁බැංකුවේ 74
▁මාක 74
▁මුගේ 74
▁මුහුදේ 74
▁මුළුමනින 74
▁මෙහෙමයි 74
▁යානුකූල 74
▁රථයක 74
▁රයට 74
▁රේට 74
▁ලංකාවේ 74
▁ලුහුබඳින 74
▁වළක 74
▁විසද 74
▁වුවා 74
▁වෙතත 74
▁සජීවී 74
▁සමර 74
▁සිටී 74
▁සූදානමින 74
▁හතරයි 74
▁හැකිව 74
▁හැමද 74
▁හෙලන 74
▁ළමයෝ 74
.2 73
අන 73
යුතු 73
රයක 73
ානය 73
ායක 73
▁Charles 73
▁අහසේ 73
▁ඇවිදිනවා 73
▁ඉදියි 73
▁ඉවතට 73
▁ඉහත 73
▁උපාය 73
▁උසයි 73
▁එග 73
▁ඔනි 73
▁කාලි 73
▁කැළ 73
▁කොටසේ 73
▁ගරාජ 73
▁ගෑ 73
▁ජනතාවට 73
▁ජිවිතයක 73
▁ණයට 73
▁තරගයක 73
▁තො 73
▁දේශපාලන 73
▁නකන 73
▁නමට 73
▁නියෝගයක 73
▁පතනවා 73
▁පප 73
▁පිටට 73
▁පොන 73
▁පොරක 73
▁පෝසත 73
▁බැටරිය 73
▁භූම 73
▁භූමිය 73
▁මායාවක 73
▁මොළේ 73
▁රමණ 73
▁රැම 73
▁ලිප 73
▁වටිනාකමක 73
▁වනෙුවනේ 73
▁වාක 73
▁විගණන 73
▁විධායක 73
▁වූයේ 73
▁වොෂින 73
▁සතුව 73
▁සමහරක 73
▁සමහරවෙලාවට 73
▁සවි 73
▁සැලකිලිමත 73
▁සියයට 73
▁සිරුරු 73
▁සෝදිසි 73
▁හිතයි 73
▁හිමි 73
▁හොරු 73
▁ළමයව 73
-1 72
p 72
රේ 72
ැහැ 72
ිකන 72
ිනා 72
ියද 72
ොඩ 72
▁_ 72
▁අදියර 72
▁අපහසු 72
▁අපේම 72
▁අයදුම 72
▁අවබෝධ 72
▁අවුලෙන 72
▁ආදරයෙන 72
▁ආසම 72
▁උගුල 72
▁එකතුවෙන 72
▁ඔබලාට 72
▁කතාවට 72
▁කොකා 72
▁කොර 72
▁ගතියක 72
▁ගෙවා 72
▁ජේකබ 72
▁ටේප 72
▁තනිවම 72
▁තුවාලයක 72
▁දෙවි 72
▁දොරටුව 72
▁නහය 72
▁නායකයෙක 72
▁නොකියා 72
▁නොලැබ 72
▁පියෝ 72
▁බලනව 72
▁බලපෑමක 72
▁බාධකය 72
▁බැරිව 72
▁බැලුවම 72
▁බැවින 72
▁බූ 72
▁බෝතල 72
▁මගෙයි 72
▁මාරක 72
▁මැලි 72
▁යතාව 72
▁යුතුව 72
▁යෝග 72
▁රෙඩින 72
▁ලේෂණය 72
▁වටේට 72
▁වීදුරු 72
▁ෂිය 72
▁සරලයි 72
▁හොදක 72
▁හොයාගමු 72
▁හෝල 72
▁ෆෙඩරල 72
20 71
ගට 71
තය 71
රාජ 71
ුරේ 71
ුලු 71
ුවර 71
ෙය 71
▁99 71
▁@ 71
▁Oh 71
▁අණදෙන 71
▁අධිවේගී 71
▁අනතුරට 71
▁අනාවරණය 71
▁ආවහම 71
▁ඇමත 71
▁උපාධිය 71
▁උරහිස 71
▁එලිස 71
▁එළවන 71
▁ඕගොල 71
▁කටවහගන 71
▁කීන 71
▁චියක 71
▁ජයිකාන 71
▁ඤ 71
▁ටෙල 71
▁ඩම 71
▁දැල 71
▁නෑනා 71
▁නිළ 71
▁නීනා 71
▁නේය 71
▁පයිප 71
▁පරිපාලන 71
▁පැහැ 71
▁පූස 71
▁බොර 71
▁බෝංචි 71
▁භා 71
▁මජ 71
▁මාද 71
▁මාසේ 71
▁මේසෙ 71
▁මොනම 71
▁රගපාන 71
▁රඟපාන 71
▁රවුම 71
▁රොකට 71
▁ලගෙ 71
▁ලඟම 71
▁ලැබුනොත 71
▁ලෝකෙම 71
▁ලෝඩ 71
▁වනාන 71
▁විකා 71
▁විකිරණ 71
▁වුණාට 71
▁ශාලා 71
▁ශිව 71
▁සිතියමක 71
▁සිතුවිල 71
▁හදවතින 71
▁හමුවුනා 71
▁හැරල 71
▁හොයල 71
▁හොස 71
▁ෙහාදයි 71
at 70
n 70
කයින 70
කිරීම 70
ඩේ 70
ඬ 70
පට 70
මොකක 70
රකම 70
වූ 70
ිටි 70
ුවකින 70
▁2000 70
▁400 70
▁St 70
▁අජ 70
▁අපියි 70
▁අවධානම 70
▁අවධානයෙන 70
▁අවාසනාවට 70
▁අහපන 70
▁ඇතිනේ 70
▁ඉබ 70
▁එනම 70
▁එළියෙ 70
▁ඔලිම 70
▁කටහඬ 70
▁කතාකරනවා 70
▁කෙළින 70
▁කොප 70
▁කොයිතරම 70
▁ඛණ 70
▁ගැලවෙන 70
▁ජාතිය 70
▁තැපැල 70
▁තෝරාගන 70
▁දැනෙයි 70
▁දිනුවා 70
▁දේශපාල 70
▁නොද 70
▁නෝවා 70
▁පවර 70
▁පහන 70
▁බැක 70
▁මකර 70
▁මතය 70
▁මැදිරිය 70
▁යුදෙව 70
▁රජුගේ 70
▁රදායික 70
▁රමුඛ 70
▁රිට 70
▁රොජර 70
▁ලොයිඩ 70
▁වෘක 70
▁සග 70
▁සභ 70
▁සමාලෝචිත 70
▁සහයකයා 70
▁සාමාජිකයෙක 70
▁සැග 70
▁සිසිල 70
▁හැමදාටම 70
▁හිටියට 70
▁ෆිට 70
X 69
t 69
කරගෙන 69
යකෝ 69
යගෙ 69
වරයෙක 69
වාර 69
ාය 69
ුබ 69
ෙහ 69
▁38 69
▁47 69
▁අගුළු 69
▁අතහැරලා 69
▁අනතුරුදායක 69
▁අයෙක 69
▁ආල 69
▁ඇදන 69
▁ඊළග 69
▁උදාහරණයක 69
▁ඔයානම 69
▁ඔහොමම 69
▁ඖෂධ 69
▁කිවුවොත 69
▁කොපමණ 69
▁ගයෙන 69
▁ගලන 69
▁ගලයන 69
▁ගිබ 69
▁ගියානම 69
▁චින 69
▁ජලීස 69
▁ජැකට 69
▁තැම 69
▁ථකත 69
▁දුවෙක 69
▁දෙදෙනා 69
▁නියමුවා 69
▁පසුබිම 69
▁පැටලෙන 69
▁මියගියා 69
▁මූට 69
▁මූණට 69
▁මෙයාලට 69
▁මොනහරි 69
▁යාපාරය 69
▁රටවල 69
▁රථය 69
▁රැකගන 69
▁රීක 69
▁ලෝකයම 69
▁වාමියා 69
▁විකුණ 69
▁ශේෂ 69
▁ෂකයන 69
▁සංචාරක 69
▁සැපයීම 69
▁සිකුරාදා 69
▁සියට 69
▁සීන 69
▁සීමාවක 69
▁හයෙි 69
▁හරිනම 69
▁හැදුවොත 69
▁හිටපන 69
▁හිරිහැර 69
කයො 68
ජී 68
ඩියා 68
දිය 68
වාදී 68
සික 68
හේයි 68
ිශ 68
ීගේ 68
ුණොත 68
ුදු 68
▁1206 68
▁අනින 68
▁ආප 68
▁ඇදල 68
▁ඇහුනේ 68
▁ඉපදෙන 68
▁උතුර 68
▁කාරණා 68
▁කැමතිනම 68
▁කියාගන 68
▁කුන 68
▁කුමර 68
▁ගනිමු 68
▁චාරණය 68
▁ඡානුග 68
▁ජාලයක 68
▁ජීවන 68
▁ටමක 68
▁ඩෑන 68
▁තනිවෙලා 68
▁තබ 68
▁තැනකින 68
▁දිනට 68
▁දෙනු 68
▁ධකම 68
▁ධාර 68
▁නවම 68
▁නිවුන 68
▁නීතිඥ 68
▁නොයන 68
▁පනපිටින 68
▁පෘථිවියේ 68
▁පොප 68
▁බලනවද 68
▁බළලුන 68
▁බැර 68
▁මතකයක 68
▁මමද 68
▁මාග 68
▁යයයි 68
▁යු 68
▁රහාරය 68
▁ලභ 68
▁ලවා 68
▁වරයෙක 68
▁වලද 68
▁විහිද 68
▁වූවා 68
▁වෙළද 68
▁වො 68
▁ශාව 68
▁ශාස 68
▁සංවේදී 68
▁සමගින 68
▁සිංහම 68
▁සිටීම 68
▁සිතුවිලි 68
▁හදාගෙන 68
▁හයිඩ 68
▁හිඟ 68
▁හිරගෙදර 68
▁ළඟින 68
▁ළම 68
▁ෙවයි 68
▁” 68
h 67
අම 67
උන 67
ගාව 67
ඩිය 67
දුන 67
මද 67
මොන 67
යිස 67
ිකල 67
ුනම 67
▁අඩිය 67
▁අවුස 67
▁ඇමුණුම 67
▁ඈස 67
▁උපද 67
▁උබල 67
▁උවමනාවක 67
▁එපැයි 67
▁ඔයානේ 67
▁කබා 67
▁කරමුද 67
▁කරෝ 67
▁කාවේ 67
▁කිම 67
▁කුමාරයා 67
▁ඛන 67
▁චී 67
▁ඩයි 67
▁තමුසෙල 67
▁තරමටම 67
▁තවද 67
▁තිරණය 67
▁තුමනි 67
▁දයකෙ 67
▁දරු 67
▁දිවා 67
▁ධනාගාර 67
▁නැතිද 67
▁නැවට 67
▁නැවුම 67
▁නී 67
▁නෙමේද 67
▁නොතිබ 67
▁පාසැල 67
▁පිරික 67
▁පුජ 67
▁පුදුමාකාර 67
▁පුනරුත 67
▁පුළුල 67
▁බාග 67
▁මැසේජ 67
▁මිනීමරුවෙක 67
▁මිලර 67
▁මීයෙක 67
▁යවශ 67
▁යාගාර 67
▁යාවත 67
▁රං 67
▁රමෝනා 67
▁රාග 67
▁රිකට 67
▁රෝක 67
▁ලවුඩා 67
▁ලැබුනෙ 67
▁ලිද 67
▁ලෙඩක 67
▁වෙරල 67
▁සලකුණ 67
▁සහිතයි 67
▁සැලසුමක 67
▁ළමයට 67
us 66
ටනම 66
නං 66
ඳු 66
පාත 66
පොල 66
යටත 66
ුහ 66
ෘත 66
▁72 66
▁on 66
▁අඟවන 66
▁අතීත 66
▁එකී 66
▁එතනදි 66
▁එප 66
▁එහෙමම 66
▁කපූර 66
▁කාලයට 66
▁කෘත 66
▁කෙනාම 66
▁කෙලී 66
▁කොලින 66
▁ගති 66
▁චයක 66
▁ජනාධිපතිතුමා 66
▁තඩි 66
▁තිත 66
▁දල 66
▁දැනුයි 66
▁දියන 66
▁දෘෂ 66
▁නංගිට 66
▁නයෙන 66
▁නාමයෙන 66
▁නැතිවුන 66
▁පාහර 66
▁පැටියො 66
▁පෑ 66
▁පිළිබද 66
▁පෙනුමක 66
▁බෑනේ 66
▁බිග 66
▁බේරුනා 66
▁මමනම 66
▁මීර 66
▁මෙසේ 66
▁මොරියාටි 66
▁යයට 66
▁යාවශ 66
▁යාළ 66
▁යාළුව 66
▁රාජධානිය 66
▁රිම 66
▁රියදුරු 66
▁රෝගියෙක 66
▁රෝහ 66
▁ලියට 66
▁ලුස 66
▁ලුහු 66
▁ලොකුවට 66
▁වටහා 66
▁විඳ 66
▁සමට 66
▁සියෙන 66
▁සේර 66
▁සේවාවන 66
▁හදවතක 66
▁හාවඩ 66
▁හූ 66
50 65
W 65
es 65
ඇත 65
කටද 65
ගැ 65
දම 65
දු 65
යනවා 65
හත 65
ිකයෝ 65
ිතුමා 65
ීයයි 65
ුරට 65
▁09 65
▁5000 65
▁අනිවාරෙන 65
▁අයිතිකාරයා 65
▁අරමුණක 65
▁අරයා 65
▁ආපිට 65
▁ඇටකටු 65
▁ඇඳට 65
▁ඇරන 65
▁ඉතිහාස 65
▁උතුරට 65
▁උදවුවක 65
▁උදෙසා 65
▁උනානම 65
▁ඔයගේ 65
▁ඕයි 65
▁කනගාටුයි 65
▁කළාට 65
▁කාළ 65
▁කිර 65
▁කිසිවෙක 65
▁කුරුමිට 65
▁ගනනක 65
▁ගෝතම 65
▁ඝාතන 65
▁ටව 65
▁ටිකෙන 65
▁ටෝරියා 65
▁ඩියුක 65
▁ඩූක 65
▁තයෙක 65
▁තවාදියෙක 65
▁තාවකාලික 65
▁තිමේ 65
▁දහයයි 65
▁දිගට 65
▁දිනාගන 65
▁දෙනෙකු 65
▁නකේ 65
▁නෙයි 65
▁නෝට 65
▁පම 65
▁පිටපතක 65
▁පිරිමියෙක 65
▁පුරාවෘත 65
▁පෘථිවිය 65
▁බටර 65
▁බබාව 65
▁බේත 65
▁භාග 65
▁මාරයි 65
▁මිලට 65
▁මුදුන 65
▁මූලස 65
▁යකෙක 65
▁යථාර 65
▁යමන 65
▁රණවිරුවන 65
▁රූස 65
▁ලමයා 65
▁ලියම 65
▁ලෝරි 65
▁වලල 65
▁වැරදිලා 65
▁විමස 65
▁ශතවර 65
▁සමාජය 65
▁සවයට 65
▁හැසිර 65
▁ළගට 65
▁ෆැරඩේ 65
ffff 64
x 64
කටවත 64
කාරයො 64
වුනු 64
ාමය 64
▁be 64
▁අගවන 64
▁අගෝස 64
▁අයවැය 64
▁අවසානයේදී 64
▁අහංකාර 64
▁ඇරලවන 64
▁ඈන 64
▁උදා 64
▁එයාර 64
▁කුක 64
▁කුණාටුවක 64
▁කෝඩ 64
▁කෝන 64
▁ගුස 64
▁ජූලි 64
▁ජො 64
▁ටීෆන 64
▁දඩ 64
▁දෙදෙනෙක 64
▁ධත 64
▁නගන 64
▁නමෙේ 64
▁නසා 64
▁පථය 64
▁පනයක 64
▁පාඨමාලා 64
▁පැවර 64
▁පිලිප 64
▁ඵල 64
▁බඩුවක 64
▁බේරන 64
▁භාව 64
▁මියා 64
▁මෘදුකාංග 64
▁මෙවැනි 64
▁මෙහේට 64
▁මොකට 64
▁යාලයෙන 64
▁රසකැවිලි 64
▁රිදී 64
▁රේෂණය 64
▁රොට 64
▁වගා 64
▁වඳ 64
▁විදිහෙ 64
▁විරෝධ 64
▁වෙලාවල 64
▁වෝද 64
▁සිංහ 64
▁සික 64
▁සියුම 64
▁සේරටම 64
▁හිටි 64
▁හුදෙක 64
▁ළමයකේ 64
▁ෆා 64
▁ෙනවේ 64
ඝ 63
ලෙ 63
වාස 63
හොත 63
ිකයින 63
▁06 63
▁39 63
▁අයගෙ 63
▁අවාසනාවන 63
▁ආයෝජනය 63
▁ඇතුව 63
▁ඇරියා 63
▁ඉකුත 63
▁එනකල 63
▁එයාටත 63
▁ඕනෙනම 63
▁කටක 63
▁කටහඩ 63
▁කනෙකෝ 63
▁කලුවර 63
▁කැමර 63
▁කැමරාවක 63
▁කුඩ 63
▁කෙරේ 63
▁ගෑනි 63
▁ගුටි 63
▁ගුහාව 63
▁ජෙම 63
▁ටුවා 63
▁ටුවෙ 63
▁තවාදී 63
▁තින 63
▁දාවි 63
▁ධතියට 63
▁නොගන 63
▁පනතේ 63
▁පැර 63
▁පැරිස 63
▁පිලි 63
▁බනෙ 63
▁බැග 63
▁බැලුව 63
▁බිහ 63
▁බොරුව 63
▁භූමි 63
▁මූලාශ 63
▁මෙයාලව 63
▁මෙහෙදි 63
▁යතාවය 63
▁යතුමා 63
▁යාවේ 63
▁රජයට 63
▁රියාකාරිත 63
▁රෙගුලාසි 63
▁වටා 63
▁වයිරස 63
▁වුවද 63
▁සහෝදරය 63
▁සීතලයි 63
▁සුදුසුයි 63
▁සුළුයි 63
▁හයකට 63
▁හැංග 63
▁හිතුවොත 63
▁හුගාක 63
re 62
ri 62
වගෙන 62
හැම 62
ිරිය 62
▁Fischer 62
▁II 62
▁ආතර 62
▁ආයුද 62
▁ආලෝක 62
▁ඇතුළුව 62
▁ඉගන 62
▁ඉලෙක 62
▁එනිසා 62
▁ඒකකයක 62
▁ඒවත 62
▁ඔරලොසුව 62
▁ඕකෙන 62
▁ඕනිම 62
▁ඕවර 62
▁කලෙින 62
▁කාලයකට 62
▁කෙහෙල 62
▁ගලවා 62
▁ගෙනාවෙ 62
▁චරිතයක 62
▁චියට 62
▁චුම 62
▁ජෙරී 62
▁ඩෝරි 62
▁තියද 62
▁ථාවන 62
▁දානවද 62
▁නියා 62
▁පශ 62
▁පැළ 62
▁පිහියෙන 62
▁බොහොමයක 62
▁බොහෝවිට 62
▁බෲස 62
▁මතයි 62
▁මැරුවොත 62
▁මුහ 62
▁මෘදු 62
▁මෙතනදි 62
▁මෙයින 62
▁මෙෙහ 62
▁මේසේ 62
▁මොනවටද 62
▁මෝල 62
▁යාලු 62
▁රසිකයෙක 62
▁රේණු 62
▁රෝව 62
▁ලිගේ 62
▁වනය 62
▁වභාවික 62
▁වාට 62
▁විග 62
▁විරෝධී 62
▁වුල 62
▁වෙනුවනේ 62
▁වේලා 62
▁ශැනොන 62
▁ශීර 62
▁ශෝක 62
▁සටහනක 62
▁සහතිකයි 62
▁සැලකිය 62
▁සේවාදායක 62
▁හැරලා 62
▁හොටෙල 62
▁ළඟා 62
▁ෆොක 62
.5 61
ගාන 61
ජනක 61
ටික 61
ඩර 61
තාවයක 61
රණ 61
▁07 61
▁41 61
▁අනතුරුව 61
▁අභිප 61
▁අයිතියි 61
▁ඇඟට 61
▁ඇණ 61
▁ඇරත 61
▁එකකුයි 61
▁එවපු 61
▁ඒයා 61
▁කරනකම 61
▁කරෙ 61
▁කිප 61
▁කොනී 61
▁ගහපන 61
▁ගීත 61
▁ගු 61
▁ටස 61
▁ටිග 61
▁තටාක 61
▁තනිව 61
▁තයන 61
▁තිබුනත 61
▁තිබුනු 61
▁තියනේනේ 61
▁දාර 61
▁දුකින 61
▁දුග 61
▁දුවලා 61
▁නගරාධිපති 61
▁නැහැයි 61
▁නිවාඩුවක 61
▁පකිස 61
▁පාරටම 61
▁පැයකින 61
▁පොම 61
▁බිරිඳට 61
▁භාවිතය 61
▁මරණයෙන 61
▁මැරයෙක 61
▁මිනිහෙකුට 61
▁මෙතරම 61
▁යොදාගත 61
▁රතිඵලයක 61
▁රවුමක 61
▁රසායනික 61
▁ලයිසන 61
▁ලැබුණේ 61
▁වභාවය 61
▁වයසේ 61
▁විනාශය 61
▁වෙමි 61
▁වෙලත 61
▁වොඩ 61
▁සනම 61
▁සළකුණු 61
▁සිටියේ 61
▁සිදුවෙන 61
▁සිහිනය 61
▁සිහිනයක 61
▁සුත 61
▁සූසන 61
▁හැගීමක 61
▁හැමොම 61
▁හොයනව 61
▁ෆේබියස 61
et 60
ie 60
is 60
එහෙම 60
ඔහ 60
තුම 60
නාවක 60
යගේ 60
ලී 60
වගත 60
ිතා 60
▁love 60
▁අතිශයින 60
▁අනර 60
▁අපහසුයි 60
▁අපා 60
▁අපූරු 60
▁අභිරහස 60
▁අරුන 60
▁ආවත 60
▁ඉෂ 60
▁එරිකා 60
▁කපනවා 60
▁කරහන 60
▁කලාව 60
▁කාටත 60
▁කෙසේද 60
▁ඛ 60
▁ගැටළුවක 60
▁චල 60
▁චලනය 60
▁ජූනි 60
▁ටයිම 60
▁තරඟයක 60
▁තවාදීන 60
▁තැබීම 60
▁තී 60
▁දෝෂ 60
▁ධවල 60
▁නඟින 60
▁නයට 60
▁නරඹන 60
▁නාසා 60
▁නැතිකරගන 60
▁නිලධාරින 60
▁නොක 60
▁නොකළ 60
▁පටල 60
▁පයි 60
▁පිළිස 60
▁පීසා 60
▁පුරුෂ 60
▁පුහුණ 60
▁බලධාරීන 60
▁බෝතලයක 60
▁මැණික 60
▁රපටිය 60
▁රැඳී 60
▁වනෙස 60
▁විධිවිධාන 60
▁විලා 60
▁විශාලතම 60
▁වෙඩිල 60
▁වෛදය 60
▁ෂුවර 60
▁සාන 60
▁හතරකට 60
▁හයිය 60
▁හරිත 60
▁හැතැක 60
▁හැමදාමත 60
▁හුඟාක 60
▁ළං 60
▁ෙබන 60
.1 59
c 59
උඹ 59
කං 59
සී 59
ියගේ 59
ියාගේ 59
ූල 59
▁65 59
▁We 59
▁all 59
▁m 59
▁අඩංගු 59
▁අධිකාරී 59
▁අනුකූල 59
▁අයටත 59
▁අලුතෙන 59
▁අවවාද 59
▁ආදී 59
▁ආභරණ 59
▁ඈතින 59
▁ඉරිදා 59
▁ඕනෙලු 59
▁කඩේට 59
▁කපිතන 59
▁කලෙක 59
▁කළාම 59
▁කැබ 59
▁කෙනකේට 59
▁ගතිය 59
▁ගුර 59
▁ගුරුවරයෙක 59
▁ගෘ 59
▁ජෙට 59
▁ඩැන 59
▁ඩියා 59
▁ඩෙස 59
▁තයො 59
▁තරහෙන 59
▁තිකාරම 59
▁තුනට 59
▁ථාවට 59
▁දළ 59
▁දිගා 59
▁දියක 59
▁දේකින 59
▁දොරටු 59
▁ධාවනය 59
▁නපු 59
▁නියමු 59
▁නොකල 59
▁නොකියන 59
▁පතින 59
▁පනෙ 59
▁පරදින 59
▁පැවති 59
▁පිහිටා 59
▁පෙබරවාරි 59
▁පේනවනේ 59
▁පොලීසියෙන 59
▁පෝන 59
▁බඳවා 59
▁බලයෙන 59
▁බැරී 59
▁බීල 59
▁බෲක 59
▁මයට 59
▁මැයි 59
▁මැරුණේ 59
▁මිනීමරුවා 59
▁මේසය 59
▁මොකාද 59
▁රාහක 59
▁රොනන 59
▁රොනී 59
▁රෝගය 59
▁ලබාදුන 59
▁වයිට 59
▁වරදින 59
▁වාගේ 59
▁විශේෂයි 59
▁වෙනකං 59
▁සමාගමට 59
▁සාපේක 59
▁සීම 59
▁සුලී 59
▁සෙනසුරාදා 59
▁සේරු 59
▁සොයාගෙන 59
▁හැල 59
▁ෆෙල 59
▁ෙකාෙහද 59
15 58
ol 58
os 58
අයි 58
ඔබ 58
ගුණ 58
පී 58
බිම 58
සු 58
හයි 58
හිත 58
ාලය 58
ැබ 58
ිවී 58
ුරුම 58
ුවීම 58
ූව 58
▁55 58
▁911 58
▁අඟල 58
▁අඬ 58
▁අනුස 58
▁අඳුරන 58
▁අලෙවි 58
▁අවනත 58
▁අහක 58
▁ආයෝජන 58
▁ඇතුළ 58
▁ඇහුව 58
▁ඉවරවෙන 58
▁එයාම 58
▁කපල 58
▁කාවහරි 58
▁කැරැල 58
▁කූප 58
▁කෙක 58
▁කෙනක 58
▁කොපි 58
▁කොහෙහරි 58
▁ගැළපෙන 58
▁චම 58
▁චරටම 58
▁ඩැනියෙල 58
▁තකාල 58
▁තාද 58
▁තැපෑල 58
▁දෂ 58
▁දැකගන 58
▁දැනුන 58
▁දියාවට 58
▁දූෂණය 58
▁නාමෙට 58
▁නිදියන 58
▁නිවසක 58
▁නොදී 58
▁පලි 58
▁පිපිරීම 58
▁බලකාය 58
▁මනී 58
▁මැරනෙ 58
▁යමං 58
▁යාගයක 58
▁යාවට 58
▁රච 58
▁රද 58
▁රයිලි 58
▁රසයි 58
▁රිකාව 58
▁රියාකාර 58
▁රෝල 58
▁වගුව 58
▁වලත 58
▁වැඩකරනවා 58
▁විසික 58
▁වීන 58
▁ශශී 58
▁සනේ 58
▁සිංදු 58
▁සිදුවෙනවා 58
▁සුළඟ 58
▁හැරෙනවා 58
▁ෙස 58
-2 57
ia 57
අත 57
ගොඩ 57
ජර 57
මාර 57
වෙච 57
ශීලී 57
ිටින 57
ූත 57
ේර 57
▁52 57
▁815 57
▁අකමැතියි 57
▁අධිපති 57
▁අයන 57
▁අවලම 57
▁ආකල 57
▁ආසාදනය 57
▁ඇතුලු 57
▁ඇහැට 57
▁ඇහුණ 57
▁ඒකකයේ 57
▁කනට 57
▁කයිල 57
▁කයේ 57
▁කරලද 57
▁කවි 57
▁කසාදෙට 57
▁කාටර 57
▁කානම 57
▁කාරණේ 57
▁කැර 57
▁කෑමකට 57
▁කිරිමට 57
▁කීදෙනෙක 57
▁කෝක 57
▁ගෙනාපු 57
▁ජීවින 57
▁ඩොරති 57
▁තරහක 57
▁තවාද 57
▁තියයි 57
▁තුනේ 57
▁දුටු 57
▁දෙපැත 57
▁නබි 57
▁නිතිය 57
▁නිදහසට 57
▁නීතියක 57
▁පැමිණියා 57
▁පිං 57
▁පිහි 57
▁පීඩ 57
▁බඳ 57
▁බයි 57
▁බවුනේ 57
▁මුදා 57
▁මෙයත 57
▁යුනිට 57
▁රහක 57
▁රොප 57
▁ලැබිල 57
▁ලැබෙනව 57
▁ලැරී 57
▁වටපිට 57
▁වතුරෙන 57
▁වරුණි 57
▁වෙලර 57
▁වේද 57
▁සංවාද 57
▁සතියෙ 57
▁සමය 57
▁සමාලෝචනය 57
▁සලර 57
▁සහෝදරයෙක 57
▁සාදය 57
▁සැලක 57
▁සීනුව 57
▁සුභපැතුම 57
▁සෙරෙප 57
▁හදනව 57
▁හැස 57
-7 56
ඩින 56
තිය 56
දය 56
මෙන 56
වේවි 56
ශය 56
සිට 56
සිය 56
ළේ 56
ිතිය 56
ිවත 56
▁අංශයට 56
▁අනතුරකින 56
▁අමාරුවේ 56
▁අරුශ 56
▁ඇගිල 56
▁ඇහැක 56
▁උඹගේ 56
▁ඌගේ 56
▁එකපාරම 56
▁එයාගෙම 56
▁ඒනිසා 56
▁ඔටුන 56
▁ඔහේගෙ 56
▁කතාවේ 56
▁කමට 56
▁කලාතුරකින 56
▁කාරෙක 56
▁කැබින 56
▁කූඩු 56
▁ගැම 56
▁චියේ 56
▁චෝද 56
▁ජිවිතයේ 56
▁ජූන 56
▁ජෙනිෆර 56
▁ජෙෆ 56
▁තමුසෙගේ 56
▁තැබ 56
▁තිබුනොත 56
▁ථි 56
▁දාදුවෙක 56
▁දේශපාලනය 56
▁ධනාත 56
▁නරකක 56
▁නැගිටිනවා 56
▁පපුව 56
▁පාටිය 56
▁පුවේ 56
▁පූල 56
▁පොලව 56
▁බයේ 56
▁බලනකොට 56
▁බවුණා 56
▁බේරාගත 56
▁බොරුකාරයෙක 56
▁බෝඩ 56
▁මායාකාර 56
▁මැරේවි 56
▁මැෂින 56
▁මෙයට 56
▁යකර 56
▁යනේ 56
▁රතිඵලය 56
▁රදවා 56
▁රීඩාවක 56
▁රුධිරය 56
▁රොබින 56
▁ලැබී 56
▁ලිබ 56
▁වගෝද 56
▁වලටයි 56
▁වාභාවික 56
▁වාමි 56
▁විතරමයි 56
▁විදුහල 56
▁විහින 56
▁වුණාද 56
▁ශාපය 56
▁සතුරා 56
▁සප 56
▁සමු 56
▁සීර 56
▁සුලු 56
▁සොම 56
▁හෝදන 56
අර 55
කයෝ 55
කිය 55
ගි 55
ටා 55
නයෙන 55
වගේ 55
වනේන 55
වැනි 55
ායන 55
ාවර 55
ැනි 55
ුගෙ 55
ූප 55
ෙඩ 55
ෝප 55
▁Alicia 55
▁And 55
▁Chitti 55
▁Z 55
▁him 55
▁අගනුවර 55
▁අඳුනගන 55
▁අපත 55
▁අවධානමක 55
▁ඇණවුම 55
▁ඊර 55
▁උක 55
▁උපායක 55
▁එමෙට 55
▁එයාත 55
▁ඒකිට 55
▁කතාකරලා 55
▁කදවුර 55
▁කලාප 55
▁කාළය 55
▁කාළයක 55
▁කියනකොට 55
▁කිලෝමීටර 55
▁කුඹ 55
▁ගාණ 55
▁ගිවිසුමක 55
▁ගෙවලා 55
▁චිට 55
▁ජිල 55
▁ජේස 55
▁ජෝජ 55
▁ඥ 55
▁ටිකෝ 55
▁ටීම 55
▁ටුවර 55
▁ටෙඩි 55
▁ඩැරන 55
▁ඩොස 55
▁තටු 55
▁තුත 55
▁තේරෙනවනේ 55
▁දුසිම 55
▁නැවතුනා 55
▁නිලූ 55
▁නොමැතිව 55
▁පදාර 55
▁පහරදීම 55
▁පාහරයා 55
▁පිටවීම 55
▁පිටස 55
▁පිසාච 55
▁පුවක 55
▁බරක 55
▁බැලීම 55
▁මකබෑ 55
▁මනසේ 55
▁මූණක 55
▁මූණු 55
▁මෙහෙදී 55
▁මොර 55
▁යනය 55
▁යවර 55
▁රටක 55
▁රාජකාරියක 55
▁රාහකයා 55
▁රොත 55
▁ලුසී 55
▁වදයක 55
▁විකට 55
▁විකෘති 55
▁විටම 55
▁වෙලාවකම 55
▁වේච 55
▁ෂයට 55
▁සතුරු 55
▁සදා 55
▁සවුත 55
▁සුළ 55
▁සොර 55
▁සෝපාන 55
▁හංගලා 55
▁හිතනවාද 55
▁හුඟ 55
▁හෝරස 55
▁ෆේස 55
▁ෙකාෙහාමද 55
ed 54
el 54
ංශ 54
එකක 54
ඔයාගේ 54
ඩුව 54
යස 54
යාගෙන 54
යෙි 54
විම 54
ාලා 54
▁77 54
▁Shaw 54
▁have 54
▁අඟ 54
▁අඟහරු 54
▁අඩුමගානේ 54
▁අතිරික 54
▁ඇතිතරම 54
▁උදේම 54
▁එකේද 54
▁කපට 54
▁කමිටුව 54
▁කැඩුවා 54
▁කුරු 54
▁කෙරෙව 54
▁කොතනද 54
▁කොමිෂන 54
▁ගායනා 54
▁ගැටළු 54
▁ගැටුම 54
▁ගුහා 54
▁චතුර 54
▁චාලට 54
▁චූටි 54
▁ජග 54
▁ජයි 54
▁ජාලය 54
▁ටරයක 54
▁ඩස 54
▁ඩොනල 54
▁ඩොල 54
▁තනිකඩ 54
▁තියපු 54
▁තුම 54
▁තේරීම 54
▁දරුව 54
▁දවසෙම 54
▁දැමීම 54
▁දිනනවා 54
▁දූවිලි 54
▁දෙවියෙක 54
▁දොරේ 54
▁ධතියේ 54
▁නඩ 54
▁නාක 54
▁නාර 54
▁නැඟිටින 54
▁නිමැවුම 54
▁නියමුවෙක 54
▁නියෝගය 54
▁නිවර 54
▁නුවර 54
▁නෙවෙයිනේ 54
▁නොවීම 54
▁නෝමන 54
▁පාටියට 54
▁පාවක 54
▁පැටලිලා 54
▁පුහුණුවක 54
▁පොලීසියේ 54
▁බලශක 54
▁බහු 54
▁බාධාවක 54
▁බැලුවද 54
▁බුර 54
▁බූම 54
▁බෙදන 54
▁බෙනට 54
▁මගීන 54
▁මාවම 54
▁මිලියනයක 54
▁මෙහෙය 54
▁යනකන 54
▁යාගන 54
▁යොදන 54
▁රවය 54
▁රියට 54
▁ලාගත 54
▁ලිෆ 54
▁ලොට 54
▁ලොම 54
▁වතුරේ 54
▁වනම 54
▁වැටුනේ 54
▁විශේෂයක 54
▁වෛරසය 54
▁ශාලාවේ 54
▁ෂයක 54
▁ෂාකරන 54
▁සවයක 54
▁සැඟ 54
▁සීට 54
▁හමුවේ 54
▁හීනෙන 54
▁හෙක 54
-0 53
J 53
ir 53
කයේ 53
ඳින 53
මුද 53
ලත 53
වරක 53
හිට 53
ාලු 53
ියාවට 53
ිවෙන 53
▁2009 53
▁අඳුරගන 53
▁අමාරුව 53
▁ඇතුළේ 53
▁ඇරඹ 53
▁ඉදිද 53
▁ඉඳලම 53
▁ඉපදුන 53
▁උනුසුම 53
▁උපා 53
▁ඌරු 53
▁එහෙමනේ 53
▁කඳවුරු 53
▁කමකට 53
▁කරදරේ 53
▁කලාපය 53
▁කියහන 53
▁කොහේහරි 53
▁ගයට 53
▁ගියහම 53
▁ගෘහ 53
▁ඝට 53
▁ජමින 53
▁ජාති 53
▁ජාතියෙ 53
▁ඥාති 53
▁ටරය 53
▁ඩෙක 53
▁තණ 53
▁දිහ 53
▁දෙකටම 53
▁ධතාව 53
▁නමත 53
▁නිසාවෙන 53
▁නිසි 53
▁නිහඩ 53
▁පඩ 53
▁පයිඩර 53
▁පරිගණකය 53
▁පාරම 53
▁පැටව 53
▁පැයට 53
▁පිටවෙලා 53
▁පිරුණු 53
▁පිහිටුවන 53
▁පුරුදුයි 53
▁බැහි 53
▁බෑවුම 53
▁බිලා 53
▁මගපෙන 53
▁මගහරින 53
▁මඟහැර 53
▁මතුපිට 53
▁මයේ 53
▁මරුවා 53
▁මැදින 53
▁මේර 53
▁යාච 53
▁යාපාරික 53
▁රොෆෙසර 53
▁ලාබ 53
▁ලිපිගොනු 53
▁ලියනවා 53
▁ලේෂ 53
▁ලෝරා 53
▁වාසිය 53
▁වැඩිහිටියන 53
▁වීදුර 53
▁වෙඩිත 53
▁ශුක 53
▁ෂොට 53
▁සැකකරු 53
▁සෙබලෙක 53
▁හයිද 53
▁හැරි 53
▁හිතුන 53
▁හිතුනේ 53
▁හිතෙනව 53
▁හෙළ 53
▁හොදේ 53
▁ෙහාදින 53
-6 52
ic 52
um 52
කරයි 52
කාරයන 52
කාරි 52
ඨ 52
රයි 52
රියන 52
වකෝ 52
ාවයි 52
ාවෙලා 52
ිමි 52
ිසි 52
ුනාද 52
ේටර 52
▁not 52
▁we 52
▁අවු 52
▁ඇගට 52
▁ඇගයීම 52
▁ඇඳන 52
▁ඇමරිකන 52
▁ඇමරිකාව 52
▁උඩු 52
▁ඔයාගෙයි 52
▁ඔසවන 52
▁කතාබහ 52
▁කඳුළු 52
▁කරපුවා 52
▁කැසී 52
▁කියනු 52
▁කියමනක 52
▁කීයටවත 52
▁ගමනේ 52
▁ගයන 52
▁ගිටාර 52
▁ගෙවිය 52
▁ගොඩනැග 52
▁ගෝපදේශ 52
▁චිලා 52
▁ජනපදය 52
▁ජාව 52
▁ටවුම 52
▁ටිම 52
▁තපන 52
▁තොග 52
▁දරාගෙන 52
▁දියණිය 52
▁දුකෙන 52
▁දුඹුරු 52
▁නියෝජනය 52
▁නුඹලා 52
▁නෙමෙයිද 52
▁පානය 52
▁පැකේජය 52
▁පැණි 52
▁බෑනා 52
▁භට 52
▁මනමාලයා 52
▁මයිලි 52
▁මිහ 52
▁මුතු 52
▁යාපෘතියක 52
▁යායාම 52
▁රජයෙන 52
▁රතිචාරයක 52
▁රයිවර 52
▁රවී 52
▁රාහ 52
▁රියාන 52
▁රෝඩ 52
▁ලුව 52
▁වගෙම 52
▁වෙලාවයි 52
▁ෂුද 52
▁ෂෙල 52
▁සංවත 52
▁සමබර 52
▁සස 52
▁සුරි 52
▁සේම 52
▁සේවකයන 52
▁හදනවද 52
▁හමුදාවෙ 52
▁ළමයිනේ 52
▁ළමුන 52
10 51
k 51
ඔවුන 51
කරගත 51
ටමයි 51
ටු 51
දෙනවා 51
යල 51
ෙප 51
ෝග 51
▁57 51
▁Rango 51
▁~ 51
▁අගුල 51
▁අනාගතයක 51
▁අපරාද 51
▁අභියාචනා 51
▁අරනෙරි 51
▁අවමාන 51
▁අහිංසකයි 51
▁අෙප 51
▁ආයි 51
▁ආහාරයට 51
▁ඉංජිනේරුවෙක 51
▁උපදේශ 51
▁උපරිමයෙන 51
▁එකඟයි 51
▁එකපාර 51
▁එහිදී 51
▁ඔයාලාට 51
▁කටෝ 51
▁කථ 51
▁කථාකරන 51
▁කඳවුරට 51
▁කබාය 51
▁කලෙ 51
▁කළුවර 51
▁කොලේ 51
▁ගබඩාව 51
▁ගැහ 51
▁ගුණයක 51
▁ගෙනාවද 51
▁ගෝර 51
▁ටද 51
▁ටියන 51
▁ටෙලි 51
▁ඩලයට 51
▁ඩුවක 51
▁ඩොම 51
▁ඩොයිල 51
▁තාවේ 51
▁තූතිවන 51
▁තෙරුම 51
▁දිනක 51
▁දිරා 51
▁දුට 51
▁ධියේ 51
▁පරණයි 51
▁පළිගන 51
▁පිපුරුම 51
▁පූසෙක 51
▁බඩවැල 51
▁බීජ 51
▁මකට 51
▁මණටම 51
▁මැනී 51
▁මැරිලද 51
▁මැරෙනව 51
▁මෙතැනට 51
▁මේන 51
▁යනවනම 51
▁යෑම 51
▁යෝජනාව 51
▁රඳ 51
▁රවේශය 51
▁රියතම 51
▁රොනික 51
▁ලඟදි 51
▁ලාල 51
▁ලිසී 51
▁ලොර 51
▁වභාව 51
▁වයිද 51
▁වාදය 51
▁විජ 51
▁විධිමත 51
▁විශාලම 51
▁වෙඩික 51
▁සමුද 51
▁සමූහ 51
▁සීයට 51
▁සුවෙන 51
▁සූට 51
▁සේව 51
▁හානිය 51
▁හිරෙන 51
▁හුග 51
▁හොයමින 51
▁ෙහාද 51
ha 50
අප 50
ගොඩක 50
නු 50
වේදී 50
ානුවන 50
ෑර 50
ීප 50
ුමන 50
ුළුවන 50
ේනම 50
▁DNP 50
▁with 50
▁අපහාස 50
▁අරලිය 50
▁අලින 50
▁අලුතින 50
▁අවංකව 50
▁ආකාර 50
▁ආකාරයේ 50
▁ආයතනයක 50
▁ඇතිකරන 50
▁ඇනකින 50
▁ඉප 50
▁උඹලගේ 50
▁උසාවි 50
▁එයාද 50
▁එළදෙන 50
▁ඔඩ 50
▁ඔබලාගේ 50
▁ඔයාවයි 50
▁ඔෆ 50
▁කටෙ 50
▁කරනවනේ 50
▁කිරණ 50
▁කිහිපයකින 50
▁කුරුම 50
▁ගෑණි 50
▁ගෞරවයෙන 50
▁චාරු 50
▁ජනපදයේ 50
▁ජැකී 50
▁ජීවීන 50
▁ඩත 50
▁තනිකරම 50
▁තරමෙ 50
▁තේඩියස 50
▁දමලා 50
▁දවසකින 50
▁දවෙන 50
▁දාඩිය 50
▁දැවැන 50
▁දිශ 50
▁දීමක 50
▁දුවයි 50
▁දෙනයි 50
▁නගරෙට 50
▁නගිනවා 50
▁නැතුවම 50
▁නැම 50
▁නිළධාරියෙක 50
▁නේක 50
▁නොකරපු 50
▁පතුල 50
▁පලාත 50
▁පලිගන 50
▁පහලින 50
▁පෙනුනේ 50
▁පොඩියි 50
▁බාධක 50
▁බුණා 50
▁මරණයක 50
▁මාතෘ 50
▁මිනිහො 50
▁රජාව 50
▁රජෙක 50
▁රථමාධාර 50
▁රදේශයක 50
▁රිව 50
▁රුක 50
▁ලඟයි 50
▁ලමට 50
▁ලාච 50
▁ලීසා 50
▁වදිනවා 50
▁වලහෙක 50
▁වානේ 50
▁වීදිය 50
▁වෙනවාද 50
▁ශාලාවට 50
▁ෂණිකව 50
▁ෂාවෙන 50
▁ෂිට 50
▁සහනයක 50
▁සාධක 50
▁සැළසුම 50
▁හමුවන 50
▁හලක 50
▁හසුරවන 50
▁හැමදේකටම 50
▁හෙමිට 50
▁හෝද 50
▁ෆොල 50
13 49
z 49
ඉතින 49
කුත 49
ගැස 49
නාව 49
පය 49
යී 49
වේද 49
ෆර 49
ාගාර 49
ානයේ 49
ිකරණය 49
ිතයි 49
ුවයි 49
ෙණ 49
▁It 49
▁MI 49
▁ve 49
▁අඛණ 49
▁අතාරිනවා 49
▁අතිශය 49
▁අධිකාරියේ 49
▁අයෙත 49
▁අලංකාර 49
▁අවදානය 49
▁අහවල 49
▁ආරාධ 49
▁ඇමෙරිකානු 49
▁උපරිමය 49
▁උබෙ 49
▁උරුමය 49
▁එකාව 49
▁ඔයාවම 49
▁ඔලු 49
▁කටුස 49
▁කඩයක 49
▁කතෘ 49
▁කපු 49
▁කරගැනීම 49
▁කාලගුණ 49
▁කුමරු 49
▁කුයිල 49
▁කොටසට 49
▁ගඟට 49
▁ගනෙියන 49
▁ගානකින 49
▁ගුරුවරයා 49
▁ගොත 49
▁ගොවිපල 49
▁චැනල 49
▁තිබුනද 49
▁තූරය 49
▁ථකයි 49
▁ථනය 49
▁දමෙව 49
▁දරුවට 49
▁දිලිසෙන 49
▁දෙට 49
▁නිති 49
▁නිළධාර 49
▁නීතිමය 49
▁නීතියට 49
▁නුඹව 49
▁නෙල 49
▁නේවාසික 49
▁නොන 49
▁නොනැවතී 49
▁පපුවේ 49
▁පයර 49
▁පහකින 49
▁පාඤ 49
▁පාඩුවෙ 49
▁පාදක 49
▁පාවා 49
▁පාසලට 49
▁පුතාගේ 49
▁පෙළඹ 49
▁බාධ 49
▁බැංකුවක 49
▁බැරිවුණා 49
▁භාෂාවෙන 49
▁මාසෙකට 49
▁මීමැස 49
▁මීරා 49
▁මුක 49
▁මුලික 49
▁මෙට 49
▁යාකූල 49
▁යානාව 49
▁යැයි 49
▁යේධ 49
▁රගන 49
▁රවේශම 49
▁රසම 49
▁රාජකාර 49
▁රාධා 49
▁රෙවර 49
▁ලිංගිකව 49
▁ලිඛිත 49
▁ලේයර 49
▁ලෝස 49
▁වයසයි 49
▁වැටුණා 49
▁විකුන 49
▁විනාශයක 49
▁වුනෙ 49
▁වෘ 49
▁වෙඩින 49
▁ෂයන 49
▁සංජේ 49
▁සියා 49
▁හංග 49
▁හඳුනාගන 49
▁හාව 49
60 48
as 48
id 48
එයාට 48
චන 48
තර 48
තැන 48
නව 48
බු 48
රින 48
රෝ 48
ලයට 48
වුර 48
වෙද 48
ශීලි 48
හො 48
ාරි 48
ාවෙනවා 48
ියොත 48
ුදෙන 48
ුවුනා 48
ෙනෙක 48
▁61 48
▁අගෞරව 48
▁අනිච 48
▁අයියට 48
▁ආවාම 48
▁ඇගෙන 48
▁ඇතිවන 48
▁ඇඳේ 48
▁උච 48
▁උතුරේ 48
▁එකිනෙකට 48
▁එනිස 48
▁එයාලාට 48
▁එයාවත 48
▁එහමයි 48
▁කටින 48
▁කටුව 48
▁කතාකලේ 48
▁කථාව 48
▁කදිම 48
▁කබායක 48
▁කඹ 48
▁කරගැනීමට 48
▁කලකිර 48
▁කවත 48
▁කවුරැ 48
▁කාපාත 48
▁කැද 48
▁කැලේට 48
▁කිරිල 48
▁කීපදෙනෙක 48
▁ගාර 48
▁ගුරුතුම 48
▁ගෙඩියක 48
▁ජනා 48
▁ටනවා 48
▁ටියව 48
▁ඩකට 48
▁තැනකම 48
▁තියෙනවනේ 48
▁තුකාරයෙක 48
▁තේරීමක 48
▁දඟලන 48
▁දවසකම 48
▁දාදුවන 48
▁දුවත 48
▁දෙනකේ 48
▁දේවු 48
▁ධතාවයක 48
▁නියත 48
▁පාවෙන 48
▁පැරිෂ 48
▁පිළිපදින 48
▁බදුල 48
▁බලපාන 48
▁බෙරි 48
▁බෝර 48
▁භාරගන 48
▁මාංශ 48
▁මැරුනොත 48
▁මැරුවද 48
▁මිනීමැරුමක 48
▁මිර 48
▁මුට 48
▁මෙටා 48
▁මෝදී 48
▁යමාන 48
▁රඩ 48
▁රතිශක 48
▁රමාන 48
▁රියදුරා 48
▁රේඩාර 48
▁රෝහන 48
▁ලකුණක 48
▁ලගම 48
▁ලැට 48
▁ලුණු 48
▁ලෙඩෙක 48
▁වගකිව 48
▁වගයි 48
▁වැළැක 48
▁විවාහයට 48
▁විශේෂත 48
▁විසඳගන 48
▁විහිල 48
▁වෙනවනම 48
▁වෙනිදා 48
▁වෙර 48
▁වෙවි 48
▁ශව 48
▁ශි 48
▁සංචාරයක 48
▁සංසද 48
▁සටනට 48
▁සභාවට 48
▁සැටලයිට 48
▁සිදුවූ 48
▁සුරංගනා 48
▁සුවිශේෂ 48
▁සේවයට 48
▁හතයි 48
▁හදමු 48
▁හැමකෙනෙක 48
▁හැමදෙනාම 48
▁හිටගන 48
▁හෙඩ 48
▁හෙතුව 48
▁හේත 48
▁හොලවන 48
▁ෙප 48
ark 47
han 47
im 47
ඊ 47
කරවන 47
ජි 47
දක 47
ධර 47
ධාන 47
නාත 47
භාව 47
සීම 47
සෝ 47
ානි 47
ිකරුවන 47
ිමත 47
ිවර 47
ුලේ 47
ුවලින 47
ෝඩ 47
▁250 47
▁44 47
▁ll 47
▁අතඅරින 47
▁අදට 47
▁අපරාධකාරයෙක 47
▁අපාය 47
▁අඹ 47
▁අයුරින 47
▁අරහේ 47
▁අවදිව 47
▁ආකාරයක 47
▁ආධුනික 47
▁ඇමරික 47
▁ඉතුරුවෙලා 47
▁ඉයන 47
▁ඉරි 47
▁ඉවරකරන 47
▁උග 47
▁උතුමානනි 47
▁උමග 47
▁එකටද 47
▁එමු 47
▁කදවුරට 47
▁කබල 47
▁කලන 47
▁කාලකණ 47
▁කියුබ 47
▁කුහර 47
▁කෙනාද 47
▁කේලබ 47
▁ගලිකත 47
▁ගිනික 47
▁ගුණාත 47
▁ඤා 47
▁ටැග 47
▁ටෙට 47
▁ඩව 47
▁තරණය 47
▁තීරනය 47
▁තොරතුර 47
▁දනවා 47
▁දියානු 47
▁නගේ 47
▁නයේමි 47
▁නසාගන 47
▁නායි 47
▁පනිනවා 47
▁පමණි 47
▁පරයකට 47
▁පවුම 47
▁පවුලම 47
▁පාමර 47
▁පාලනයෙන 47
▁පැමිණෙනවා 47
▁පෙදෙස 47
▁පොද 47
▁බාස 47
▁බැඳිලා 47
▁බූරුවා 47
▁භාෂ 47
▁භූමියට 47
▁මාවයි 47
▁මිළ 47
▁මෙයයි 47
▁යෝජනාවක 47
▁රජන 47
▁රණයක 47
▁රප 47
▁රමයට 47
▁රමයෙන 47
▁රවේශපත 47
▁රියාවට 47
▁ලාගේ 47
▁වචනෙ 47
▁වටපිටාව 47
▁වලම 47
▁වැටීම 47
▁වැදුන 47
▁වැම 47
▁විනෝදයි 47
▁විශාලයි 47
▁ශාරීරික 47
▁ෂකයෝ 47
▁ෂාකාරී 47
▁සමලිංගික 47
▁සයිට 47
▁සහෝදරයෝ 47
▁සැපය 47
▁සිංදුව 47
▁සිදුරු 47
▁සිනහ 47
▁සුරතල 47
▁සුවේ 47
▁සොරි 47
▁හාපර 47
▁හැමෝ 47
▁හිමින 47
-3 46
-9 46
11 46
am 46
ay 46
ජනය 46
ණී 46
නවාද 46
බලා 46
රට 46
රණය 46
වේවා 46
ාධ 46
ැදි 46
ුමා 46
▁DEA 46
▁Frodo 46
▁Nash 46
▁අදම 46
▁අවකාශය 46
▁අවයව 46
▁ආංශික 46
▁ආහාරය 46
▁ඇවටර 46
▁ඉති 46
▁ඉඳියි 46
▁ඉහලම 46
▁ඊවෝ 46
▁උසාවියට 46
▁එකකේ 46
▁එකිනෙකාව 46
▁එනගමන 46
▁ඒකමයි 46
▁කටට 46
▁කඩු 46
▁කමු 46
▁කරුවා 46
▁කළත 46
▁කාපු 46
▁කැතයි 46
▁කැරී 46
▁කියනකම 46
▁කියපුවා 46
▁කෝර 46
▁ගැටලු 46
▁ගැහිලා 46
▁ගුරුවරුන 46
▁ජනවාරි 46
▁ටමට 46
▁ටයා 46
▁ටවත 46
▁ටාක 46
▁ටීන 46
▁ඩැඩී 46
▁ඩේල 46
▁තබාගන 46
▁තයෙන 46
▁තරුණයි 46
▁තාවකාලිකව 46
▁දකුනු 46
▁දවන 46
▁දානිෂ 46
▁දැමුවා 46
▁දුවෙන 46
▁දෙනාට 46
▁දේපලක 46
▁දේපළ 46
▁දේවා 46
▁දොල 46
▁නංගිගේ 46
▁නලෙ 46
▁නවීන 46
▁නිහඬ 46
▁නෙමයි 46
▁නෙර 46
▁නොමග 46
▁පටක 46
▁පටවන 46
▁පැවස 46
▁පිහ 46
▁පිළිකුල 46
▁පීඩනයක 46
▁බරෙ 46
▁බැදපු 46
▁බිදින 46
▁බිමින 46
▁බුදුන 46
▁බෙට 46
▁බොහෝදුරට 46
▁මලු 46
▁මායාව 46
▁මැච 46
▁මැනේජර 46
▁මිදෙන 46
▁මිරැන 46
▁මුදු 46
▁මෙහා 46
▁මෙහිදී 46
▁යල 46
▁යවරුන 46
▁යාගය 46
▁රකාශයට 46
▁රසාද 46
▁රහනය 46
▁රිල 46
▁රුහරි 46
▁ලිපිය 46
▁ලෝකයෙන 46
▁ලෝකෙන 46
▁වයිල 46
▁වාසකරන 46
▁වැඩවලට 46
▁විශේෂඥ 46
▁විශේෂඥයෙක 46
▁විසිකරන 46
▁වීරයන 46
▁වුනහම 46
▁වෙලාවෙදි 46
▁වෙළෙන 46
▁වේලාව 46
▁ෂැම 46
▁සටර 46
▁සලක 46
▁සහගතයි 46
▁සෘජු 46
▁සෙබළ 46
▁සෙයි 46
▁සේට 46
▁සේවකයින 46
▁හංගගෙන 46
▁හසු 46
▁හැරියා 46
▁හැරුනා 46
▁හිටන 46
▁ෙපන 46
-5 45
.3 45
ad 45
om 45
ඃ 45
එපා 45
කරමින 45
ඩියක 45
පුව 45
බෑ 45
රිම 45
ලගේ 45
ෂන 45
හාන 45
හෙම 45
ිවෙල 45
ිහින 45
ුනාට 45
ෟ 45
▁2008 45
▁GPS 45
▁අඩුමගානෙ 45
▁අදර 45
▁අරාබි 45
▁ආකෘති 45
▁ආදරණිය 45
▁ඇමරිකාවට 45
▁ඇයගෙන 45
▁ඇරෝ 45
▁ඉතන 45
▁උදාර 45
▁උඹෙ 45
▁එරෙහි 45
▁ඔතනම 45
▁ඔහෙලා 45
▁කනෙ 45
▁කරක 45
▁කරගමු 45
▁කළබල 45
▁කැරකෙන 45
▁කිවුවද 45
▁කුබෝ 45
▁කෝෆීල 45
▁ගහනව 45
▁ගෙනිය 45
▁ගොඩනගන 45
▁ගොවිප 45
▁ඝාතක 45
▁ඟ 45
▁ජලිස 45
▁ටයිලර 45
▁ටැංකි 45
▁ටෙරී 45
▁ඨයි 45
▁ඩයනා 45
▁ඩැනී 45
▁ඩිවීඩි 45
▁ණයගැති 45
▁තනන 45
▁තියනවාද 45
▁තිරය 45
▁තුමාට 45
▁තේරෙයි 45
▁ථානයකට 45
▁දමනවා 45
▁දරත 45
▁දහය 45
▁දැකිය 45
▁දිනයේ 45
▁දේසියක 45
▁දො 45
▁නාගේ 45
▁නාඩෝ 45
▁නාමෙන 45
▁නැතිවයි 45
▁නිරාවරණය 45
▁නීතීඥ 45
▁නූල 45
▁නේම 45
▁නොකිව 45
▁නොපෙනී 45
▁පණගන 45
▁පතු 45
▁පියක 45
▁පිවිස 45
▁පිහාටු 45
▁පිහින 45
▁පිළිකාවක 45
▁පුපුරණ 45
▁පෘථිවියෙ 45
▁බාබා 45
▁බිරිදට 45
▁භුම 45
▁මතට 45
▁මමී 45
▁මාලිග 45
▁මැට 45
▁මිතුර 45
▁මීනම 45
▁මුණගැස 45
▁මුහුණට 45
▁මෙහෙයුමට 45
▁මේසන 45
▁මොකකින 45
▁යතුරක 45
▁යනවාද 45
▁රයෝ 45
▁රයෝජනයට 45
▁රැවටිල 45
▁රියාකාරීත 45
▁රියාවන 45
▁රිවර 45
▁ලගයි 45
▁ලඩ 45
▁ලනව 45
▁ලය 45
▁ලුවෙන 45
▁ලුහුබැඳ 45
▁ලොත 45
▁වතුන 45
▁වයකට 45
▁වරාය 45
▁විනිසුරු 45
▁විපරම 45
▁විභ 45
▁ශී 45
▁ශේ 45
▁සංගම 45
▁සාවෙන 45
▁සීමාසහිත 45
▁සුදුස 45
▁සේවාව 45
▁සෝවියට 45
▁හමුදාවෙන 45
▁හවසට 45
▁හැදුනුම 45
▁හැරිසන 45
▁හැරීම 45
▁හිතමින 45
▁හිරිහැරයක 45
▁හෙම 45
▁ෆයින 45
▁ෙව 45
.30 44
කලේ 44
දිත 44
යුත 44
සල 44
සුන 44
හාර 44
ැඩ 44
ියෙම 44
▁59 44
▁Q 44
▁e 44
▁one 44
▁what 44
▁අංජලී 44
▁අඩංගුවේ 44
▁අතනට 44
▁අතිකාල 44
▁අදහන 44
▁අදුන 44
▁අදුරගන 44
▁අනුන 44
▁අපරාධකාරයෝ 44
▁අපහසුත 44
▁අයිරීන 44
▁අවාසනාව 44
▁අසුන 44
▁ඇලී 44
▁ඉදපන 44
▁එපිට 44
▁එලාම 44
▁ඒරන 44
▁කඩුවක 44
▁කපටි 44
▁කමිස 44
▁කයට 44
▁කරනවානම 44
▁කරුන 44
▁කරුම 44
▁කලිං 44
▁කැරකෙනවා 44
▁කිසිකෙනෙක 44
▁කෙනී 44
▁කෙලවර 44
▁කෙළවර 44
▁ගණිත 44
▁ගනේ 44
▁ගබඩාවක 44
▁ගලයින 44
▁ගෑනියෙක 44
▁චෙෆ 44
▁චොපර 44
▁ජාතීන 44
▁ටඩ 44
▁ටිල 44
▁ටොර 44
▁ඩාගාර 44
▁ඩාන 44
▁ඩෙවන 44
▁ණෙ 44
▁තියනවො 44
▁තුමාණන 44
▁ථීර 44
▁දවසින 44
▁දියුණ 44
▁දෙබස 44
▁නගරෙන 44
▁නවක 44
▁නිලදාර 44
▁නිවහන 44
▁පංතියේ 44
▁පණිවුඩ 44
▁පදිංචි 44
▁පලතුරු 44
▁පහරදුන 44
▁පාටට 44
▁පැනි 44
▁පැරද 44
▁පැරදුනා 44
▁පියාට 44
▁පෙරල 44
▁පොටර 44
▁බරේ 44
▁බලාගනෙ 44
▁බැරිවෙන 44
▁බෝන 44
▁භායි 44
▁භූමියේ 44
▁මදුර 44
▁මනාල 44
▁මාච 44
▁මැගී 44
▁මැදට 44
▁මැලේස 44
▁මිතුරා 44
▁මීනා 44
▁මුදුනට 44
▁මොළය 44
▁ඹ 44
▁රටකජු 44
▁රටාව 44
▁රමාණ 44
▁රළු 44
▁රාය 44
▁රාවක 44
▁රැය 44
▁රෙට 44
▁රොහාන 44
▁රෝගී 44
▁ලබාගෙන 44
▁ලාහු 44
▁ලිපියක 44
▁ලියවිල 44
▁ලියෝ 44
▁වංශ 44
▁වැලක 44
▁විදේශීය 44
▁වීදුරුව 44
▁වේගෙ 44
▁ෂල 44
▁ෂව 44
▁සංකේත 44
▁සමාෙවන 44
▁සමුගන 44
▁සැකසීම 44
▁සැකසුම 44
▁සැලස 44
▁සිතුවම 44
▁සීයාගේ 44
▁සූද 44
▁සේවයක 44
▁සොයාගැනීම 44
▁සෝයී 44
▁හමුදාපති 44
▁හමුවීමක 44
▁හලේ 44
▁හවුස 44
▁හාදයෙක 44
▁හැදුවද 44
▁හැදෙනවා 44
▁හිතෙයි 44
▁හිරි 44
▁හේතුවකට 44
▁හෝඩුවාවක 44
▁ෙනමයි 44
▁ෙවනුෙවන 44
49 43
d 43
ංගම 43
ංශය 43
කමින 43
ගියා 43
පති 43
බද 43
යිනි 43
ලර 43
වැට 43
ාගාරය 43
ාගේ 43
ියනවා 43
ුකාරයා 43
ුකාරයෙක 43
ුගෙන 43
ුලක 43
ෞ 43
▁2006 43
▁Cobb 43
▁Mrs 43
▁NYPD 43
▁at 43
▁so 43
▁අදත 43
▁අදිනවා 43
▁අනතුරුදායකයි 43
▁අපිටම 43
▁අමර 43
▁අරුම 43
▁අවජාතක 43
▁අහුවුනොත 43
▁ආධ 43
▁ආයතනවල 43
▁ආශාව 43
▁ඇරිලා 43
▁ඉතුර 43
▁ඉදලම 43
▁ඉදී 43
▁ඉපදිලා 43
▁එලී 43
▁එළියක 43
▁ඒම 43
▁ඔතනට 43
▁කඩාකප 43
▁කරලයි 43
▁කීපයකින 43
▁කුවට 43
▁කෙතරම 43
▁ගවේෂණය 43
▁ගැඹුර 43
▁ගිර 43
▁ගුට 43
▁ගුප 43
▁ගොඩබිම 43
▁චෝටාලා 43
▁ජාලයට 43
▁ජීප 43
▁ටයිල 43
▁ටාන 43
▁ටෙඩී 43
▁ඩාංක 43
▁ඩො 43
▁ණා 43
▁තගෙන 43
▁තරයේ 43
▁තශාලා 43
▁තිමය 43
▁තුරයක 43
▁දැනිලා 43
▁දෑස 43
▁දෙමින 43
▁ධයට 43
▁නයේ 43
▁නරකද 43
▁නාහ 43
▁නැවතුනේ 43
▁නිකංම 43
▁නිමා 43
▁නියපොතු 43
▁නුවණ 43
▁නොදකින 43
▁නොවුනොත 43
▁පහස 43
▁පහේ 43
▁පළාතේ 43
▁පාලකයා 43
▁පැටවා 43
▁පැස 43
▁පීලි 43
▁පුදුමයට 43
▁බලපු 43
▁බවුන 43
▁බාරදෙන 43
▁බිට 43
▁බීතොවෙන 43
▁බෙමු 43
▁බෝනික 43
▁මටෙෙ 43
▁මාණයක 43
▁මැරි 43
▁මැරෙණ 43
▁මිනිහගෙ 43
▁මුණගැ 43
▁මුවා 43
▁මේවත 43
▁මොලය 43
▁යටිතල 43
▁යෙෂ 43
▁රටින 43
▁රතිජීවක 43
▁රතිස 43
▁රමානයක 43
▁රයෙක 43
▁රයෙන 43
▁රලේඛ 43
▁රාපොලිස 43
▁රැදී 43
▁රැවැට 43
▁රීට 43
▁රෙඩි 43
▁රේසි 43
▁රෝහලකට 43
▁ලබාද 43
▁ලමයව 43
▁ලෙව 43
▁ලේඩ 43
▁වංච 43
▁වටය 43
▁විදිහටයි 43
▁විධාන 43
▁විභාගය 43
▁විසඳුමක 43
▁විසිනි 43
▁විසිර 43
▁වීට 43
▁ශූර 43
▁ශෝව 43
▁ෂණාගාර 43
▁සිටීමට 43
▁සිරි 43
▁සීසිල 43
▁හයේ 43
▁හරී 43
▁හාවෙක 43
▁හිටින 43
▁හොයාගනී 43
▁ෆරාස 43
▁ෙහා 43
000 42
82 42
w 42
එයාල 42
කරුවෝ 42
කියලා 42
කෙ 42
චක 42
ජේ 42
ටෝ 42
බාද 42
වරියක 42
විච 42
වුණා 42
හෙට 42
හෙයි 42
ෆි 42
ාරා 42
ැලි 42
ියේදී 42
ුණෙ 42
ුරුත 42
ුරුද 42
ොග 42
ෝලා 42
ෝෂ 42
▁46 42
▁67 42
▁Ar 42
▁RV 42
▁he 42
▁අඩුමතරමේ 42
▁අනාගතේ 42
▁අපතයා 42
▁අපහසුතාවයට 42
▁අමුතුම 42
▁අයිත 42
▁අයිරිෂ 42
▁අවධාන 42
▁අවබෝධයක 42
▁අවමන 42
▁අවසරයක 42
▁ආතත 42
▁ආවනම 42
▁ඇපලෝ 42
▁ඇහිලා 42
▁ඉරලා 42
▁ඉහළට 42
▁උඹයි 42
▁උසාවිය 42
▁එලි 42
▁ඔහේලා 42
▁කඩල 42
▁කනවද 42
▁කරදරේක 42
▁කරුණක 42
▁කාගෙද 42
▁කාද 42
▁කායි 42
▁කැරලිකාර 42
▁කිරිමක 42
▁කෘතඥ 42
▁කෙටුම 42
▁කේඩ 42
▁කෝනර 42
▁කෞතුකාගාර 42
▁ගණිකාවක 42
▁ගයි 42
▁ගාලා 42
▁ගුහාවට 42
▁ගෙට 42
▁ගෙනයන 42
▁ගොට 42
▁ගොව 42
▁චු 42
▁ජනක 42
▁ජනයා 42
▁ටියේ 42
▁ඩිංගක 42
▁ඩුකාර 42
▁තරෙ 42
▁තාපසතුමන 42
▁තායි 42
▁තුනෙන 42
▁ථායි 42
▁ථිරයි 42
▁දරුවො 42
▁දශ 42
▁දැනුත 42
▁දැර 42
▁දිශාවට 42
▁දීමනා 42
▁දෙගුණ 42
▁දෙද 42
▁දෙයකින 42
▁දෙවියො 42
▁ධනයට 42
▁ධාවක 42
▁ධියට 42
▁නමවත 42
▁නිදර 42
▁නිදහසක 42
▁නොර 42
▁පටිය 42
▁පරෙස 42
▁පාළ 42
▁පැහැදිළිවම 42
▁පිටේ 42
▁පිරිසිදුයි 42
▁පිරිසිඳු 42
▁පිවිසුම 42
▁පීච 42
▁පුංච 42
▁පෝස 42
▁බලයට 42
▁බහුල 42
▁බැඳීම 42
▁බිරිදව 42
▁බූර 42
▁බෙනවා 42
▁බෝයි 42
▁මැරුණට 42
▁මිණ 42
▁මියයන 42
▁මුලා 42
▁මොකකටද 42
▁යුහ 42
▁රඳා 42
▁රයිෆල 42
▁රර 42
▁රැහැන 42
▁රිපල 42
▁රීයයි 42
▁ලිපින 42
▁වනවිට 42
▁වහම 42
▁වළල 42
▁වාසවන 42
▁වැඩසටහනේ 42
▁වැරදිකාර 42
▁වැසියෙක 42
▁වේටර 42
▁වොලස 42
▁ශාර 42
▁ශිතයි 42
▁ශේප 42
▁සඳුදා 42
▁සභාපත 42
▁සමගම 42
▁සමාජීය 42
▁සයිබර 42
▁සෙව 42
▁හඳුනාගත 42
▁හමුවුනේ 42
▁හාල 42
▁හුර 42
▁ෆෝ 42
80 41
ab 41
ur 41
ගමෙ 41
ගයි 41
ජය 41
නේට 41
රත 41
රෙනවා 41
වෙත 41
හිර 41
ෑස 41
ිටර 41
ිතුමනි 41
ිනෙ 41
ියිද 41
ුකමක 41
ුලන 41
ෘතිය 41
ෙනා 41
▁Car 41
▁like 41
▁අකුණු 41
▁අපූර 41
▁අයද 41
▁අවසානයට 41
▁ඇඟවීමක 41
▁ඇනවුම 41
▁ඇමරිකානුවන 41
▁ඇලඩින 41
▁ඇහුණද 41
▁ඇහෙනව 41
▁ඉංජිනේර 41
▁ඉදීවි 41
▁ඉවසීම 41
▁ඉහළින 41
▁ඊතල 41
▁උගත 41
▁උඹගෙ 41
▁උරා 41
▁උෙඕ 41
▁එකටත 41
▁එකටයි 41
▁ඒවායේ 41
▁ඔයාගනේ 41
▁ඕනෑවට 41
▁කටම 41
▁කඩනවා 41
▁කනගාටු 41
▁කමිටු 41
▁කමින 41
▁කරලත 41
▁කලබලයක 41
▁කාගෙවත 41
▁කාලයත 41
▁කාලයෙන 41
▁කාලෙදි 41
▁කැඩිල 41
▁කැලෝ 41
▁කෑදර 41
▁කිරුළ 41
▁කූල 41
▁කෙනෙකුගේ 41
▁කෙලවන 41
▁කොතන 41
▁කොලුවෝ 41
▁කොහෙදිද 41
▁කොහොමවත 41
▁ගලවනවා 41
▁ගාම 41
▁ගැහුව 41
▁ගැහුවෙ 41
▁ගෙදරදි 41
▁චාද 41
▁චාව 41
▁ඡේද 41
▁ජුන 41
▁ජූල 41
▁ජෙලි 41
▁ටයිප 41
▁ඩිය 41
▁ඩෝවර 41
▁තටමද 41
▁තඹ 41
▁තුවාලයි 41
▁තුළට 41
▁තූන 41
▁තෝබර 41
▁ථයක 41
▁දැඩිව 41
▁දෑත 41
▁දෙතුන 41
▁දොත 41
▁දොළ 41
▁ධයේ 41
▁නවතම 41
▁නැගිටපන 41
▁නැඟිට 41
▁නැහැනෙ 41
▁නිවා 41
▁නීතිඥයෙක 41
▁නොපෙනෙන 41
▁පරාදයි 41
▁පාලුයි 41
▁පාසලක 41
▁පැතිරෙන 41
▁පියාගේ 41
▁පිලිබඳ 41
▁පිහිටීම 41
▁පිළිවෙල 41
▁පුටුවක 41
▁පෙනුනා 41
▁පොස 41
▁බඩගිනියි 41
▁බණ 41
▁බාගදා 41
▁බෙහෙතක 41
▁බේබද 41
▁බේබි 41
▁බොනවද 41
▁මගනේ 41
▁මදිවට 41
▁මනසට 41
▁මහලේ 41
▁මැග 41
▁මියගිහින 41
▁මුණගැහ 41
▁මූඩ 41
▁මෝඩයො 41
▁යාඥයින 41
▁යාවන 41
▁යුහය 41
▁යො 41
▁රමාණයේ 41
▁රමික 41
▁රාකේෂ 41
▁රාජධානියේ 41
▁රැද 41
▁රියේදී 41
▁රේසර 41
▁ලයොර 41
▁ලාට 41
▁ලියාගන 41
▁ලිහ 41
▁ලෙසට 41
▁වංචාකාර 41
▁වනවො 41
▁වරම 41
▁වහලේ 41
▁වාත 41
▁වානරයන 41
▁වාමිනි 41
▁වාරයක 41
▁වැඩසටහනට 41
▁වැඩී 41
▁විශේශ 41
▁වීදි 41
▁වුවමනාවක 41
▁වූහ 41
▁වේදිකාව 41
▁ශේෂය 41
▁සභා 41
▁සමීක 41
▁සලාම 41
▁සහායකයා 41
▁සාගර 41
▁සාවට 41
▁සාහසික 41
▁සිමන 41
▁සීකර 41
▁හමුවීමට 41
▁හයයි 41
▁හැදුනේ 41
▁හිය 41
▁හිලක 41
▁හෙද 41
▁ෙෂ 41
AN 40
කොහොමද 40
ගු 40
ජා 40
ටිය 40
ඩුවක 40
තාත 40
නැහැ 40
පොඩ 40
රිට 40
වැන 40
වෝ 40
හගත 40
හිල 40
ැප 40
ිකරණ 40
ිමය 40
ෙනක 40
▁287 40
▁Sana 40
▁re 40
▁අකමැත 40
▁අඩුගානෙ 40
▁අඩුගානේ 40
▁අතැරලා 40
▁අපතයෙක 40
▁අබිරහස 40
▁අමිත 40
▁අයයි 40
▁ආයතනයට 40
▁ඇමෙරික 40
▁ඇරගෙන 40
▁ඇරපන 40
▁ඇහැරෙන 40
▁ඉවසිල 40
▁උපදෙසක 40
▁එකගත 40
▁ඕකේ 40
▁කඩාවැට 40
▁කවන 40
▁කළමණා 40
▁කාමරෙන 40
▁කාලසටහන 40
▁කාස 40
▁කැරොල 40
▁කැලි 40
▁කුරුස 40
▁කුරුළු 40
▁කූඩුවට 40
▁කෙම 40
▁කෙරුවා 40
▁කොහොමටවත 40
▁ගංග 40
▁ගගත 40
▁ගාවින 40
▁ගික 40
▁ගිණ 40
▁ගොඩබ 40
▁ගෝලය 40
▁චලා 40
▁චිකන 40
▁ජනතාවගේ 40
▁ජපන 40
▁ජිමී 40
▁ජෝෂ 40
▁ටගන 40
▁ටවන 40
▁ටීනා 40
▁ටේට 40
▁තවශයෙන 40
▁තාපල 40
▁තියෙ 40
▁තිරිංග 40
▁තේය 40
▁තොගේ 40
▁ථකව 40
▁ථානයෙන 40
▁දනා 40
▁දරයි 40
▁දරුණ 40
▁දැනං 40
▁දැනුමක 40
▁දිවුරන 40
▁දුයි 40
▁දේකටම 40
▁දේවස 40
▁නලු 40
▁නවන 40
▁නහර 40
▁නියෝජිතයන 40
▁නිරන 40
▁නිවැරදිව 40
▁නුව 40
▁නොකලොත 40
▁පඩිපෙල 40
▁පමනක 40
▁පමනයි 40
▁පරිණාමය 40
▁පැකේජ 40
▁පිලිවෙල 40
▁පිහිටයි 40
▁පුවරුව 40
▁බලපං 40
▁බිලි 40
▁මගුලයි 40
▁මාරාන 40
▁මිහිරි 40
▁මීන 40
▁මුනගැහෙන 40
▁මූලපත 40
▁මෙහෝ 40
▁යබහුලයි 40
▁යොද 40
▁යොම 40
▁රාතිහාර 40
▁රීඩකයෙක 40
▁රුම 40
▁රුස 40
▁රෙනාටස 40
▁ලගදි 40
▁ලනි 40
▁ලයිස 40
▁ලේලි 40
▁ලෝරන 40
▁වටයක 40
▁වැසුම 40
▁වැහිලා 40
▁විවිධත 40
▁විසදුමක 40
▁ශයක 40
▁ෂිප 40
▁සකසන 40
▁සගයා 40
▁සතිය 40
▁සතියකින 40
▁සමාවක 40
▁සේන 40
▁සෝඩා 40
▁හක 40
▁හතුරා 40
▁හදිසියක 40
▁හිසට 40
▁හුවමාරුව 40
▁හේවා 40
▁ෆොර 40
16 39
47 39
87 39
Y 39
ake 39
ard 39
b 39
od 39
ro 39
කියන 39
කොටම 39
ගෙට 39
ජිත 39
ණයන 39
ණීය 39
තරම 39
පද 39
පොළ 39
යු 39
ලිලා 39
වුනොත 39
වෙමින 39
සිංහ 39
ානුවෙක 39
ානුවෝ 39
ාලයක 39
ාවිද 39
ිවා 39
▁do 39
▁අතීතයේ 39
▁අදුරන 39
▁අධිකාර 39
▁අයරිස 39
▁අරමුදලේ 39
▁අවතාර 39
▁අවල 39
▁අහනව 39
▁අහුව 39
▁ආදරයේ 39
▁ආරියා 39
▁ඇකඩම 39
▁ඇඳගන 39
▁ඇමරිකාවෙ 39
▁ඉරිද 39
▁උබත 39
▁එකිනෙක 39
▁එපාද 39
▁එමලි 39
▁එවර 39
▁එෆ 39
▁ඕනේම 39
▁කරැණාකරලා 39
▁කාමුක 39
▁කැළය 39
▁කිරීමයි 39
▁කුටිය 39
▁කෞ 39
▁ගබඩාවට 39
▁ගැලප 39
▁ගැහැණියක 39
▁ගැහැන 39
▁ගොදුරක 39
▁චික 39
▁චෙ 39
▁ජලා 39
▁ටලා 39
▁ටිමස 39
▁ඩබ 39
▁ඩයිනසෝර 39
▁ඩියෝන 39
▁ඩිල 39
▁ඩීන 39
▁තදට 39
▁තරලා 39
▁තහ 39
▁තිබෙනව 39
▁තිවෙන 39
▁තිහ 39
▁ථන 39
▁දහසක 39
▁දිනා 39
▁දුරයි 39
▁දෙගුණයක 39
▁දෙගොල 39
▁නටනවා 39
▁නවයක 39
▁නැතිවුණා 39
▁නිපදවන 39
▁නියෝජිතයින 39
▁නිරවුල 39
▁නුවෙ 39
▁නොට 39
▁නොහිත 39
▁පඩිපෙළ 39
▁පාරිසරික 39
▁පාළු 39
▁පැහැදිල 39
▁පිංතූර 39
▁පිඩ 39
▁පුරවලා 39
▁බංකොලොත 39
▁බැංක 39
▁බැංකොක 39
▁බැරුව 39
▁බැහැරව 39
▁බිඳින 39
▁බිරිඳක 39
▁බූත 39
▁බේරුමක 39
▁මනක 39
▁මයන 39
▁මහළු 39
▁මානයක 39
▁මැතිව 39
▁මැරුනෙ 39
▁මිරාල 39
▁මූනට 39
▁මේකෙදි 39
▁මොනාවත 39
▁මොළයේ 39
▁යතාර 39
▁යුග 39
▁රකාශය 39
▁රතිවිපාක 39
▁රතුපාට 39
▁රාබාද 39
▁රිංග 39
▁රිශ 39
▁රීඩකයන 39
▁රුවල 39
▁රූගත 39
▁රෝමය 39
▁ලකෑම 39
▁ලැබුනු 39
▁ලියල 39
▁ලියි 39
▁ලුවොත 39
▁ලේඛ 39
▁ලේසර 39
▁වටිනව 39
▁වදේශ 39
▁වමනේ 39
▁වමින 39
▁වලෙේම 39
▁වහින 39
▁වාඩිව 39
▁වාරේ 39
▁විකාශන 39
▁විදිනවා 39
▁විනාඩියෙන 39
▁වියළි 39
▁විහිළ 39
▁වුනානේ 39
▁වෙනවනේ 39
▁වෛරය 39
▁ශේන 39
▁සංජනා 39
▁සංවේද 39
▁සනද 39
▁සාධාරණයි 39
▁සැමිය 39
▁සිංදුවක 39
▁සිදුවීමක 39
▁සිනහව 39
▁සිමස 39
▁සීමාවෙන 39
▁සුයි 39
▁සූදු 39
▁සූම 39
▁සේවයෙන 39
▁සෝලෝ 39
▁හතරවෙනි 39
▁හරිනෙ 39
▁හරියාවි 39
▁හිද 39
▁ෆෙරෙඩ 39
▁ෆෝඩ 39
▁ෙඩාන 39
17 38
25 38
30 38
85 38
ey 38
ue 38
ංගු 38
අහන 38
ඇය 38
කරුණාකර 38
ටවත 38
ඩියේ 38
වුමක 38
වුල 38
හරිනවා 38
ාලේ 38
ැරි 38
ිදා 38
ිමෙන 38
ිලිමත 38
ුරෝ 38
ෝධ 38
▁...... 38
▁1.2 38
▁But 38
▁Do 38
▁Dom 38
▁don 38
▁get 38
▁want 38
▁අගයක 38
▁අගුලු 38
▁අතකට 38
▁අපිවත 38
▁අමතනවා 38
▁අරූ 38
▁අවාසනාවකට 38
▁අසනීපයි 38
▁අහඹු 38
▁අහසට 38
▁ආද 38
▁ආයා 38
▁ඇබී 38
▁ඇමක 38
▁ඇහුවද 38
▁ඉදික 38
▁ඉරාක 38
▁ඊමේල 38
▁ඊශ 38
▁එකාට 38
▁එතැනදී 38
▁එනකං 38
▁එයාටම 38
▁එලා 38
▁එෙහනම 38
▁ඕකව 38
▁ඕනාවට 38
▁ඕනැ 38
▁ඕනෙක 38
▁කරනකන 38
▁කරවලා 38
▁කරුණාව 38
▁කාරයින 38
▁කාලෙට 38
▁කැඩුනා 38
▁කැමත 38
▁කියපං 38
▁කියවල 38
▁කුළුණු 38
▁කෘතිය 38
▁කොහෙට 38
▁ගලිකවම 38
▁ගැඹුරට 38
▁ගැලෙව 38
▁ගැහුවොත 38
▁ගෙඩිය 38
▁ගෙත 38
▁ගෙදරද 38
▁ගොයින 38
▁චාත 38
▁චාරිකාව 38
▁ජොනතන 38
▁ටයිටැනික 38
▁ටැංකිය 38
▁ටෝස 38
▁ඩරිස 38
▁ඩෝර 38
▁තනව 38
▁තැනටම 38
▁තිකාර 38
▁තිගැස 38
▁තියපන 38
▁තුකාර 38
▁තේරුණේ 38
▁දඟ 38
▁දැකීමක 38
▁දිනපතා 38
▁දිවුරුම 38
▁දුපතට 38
▁දුවගෙන 38
▁දේවලුත 38
▁ධනවත 38
▁නනව 38
▁නළුවෙක 38
▁නෑන 38
▁නිවාඩුව 38
▁නීතියෙන 38
▁නෙමි 38
▁නොගෙන 38
▁නොදුන 38
▁පහට 38
▁පළමුව 38
▁පළමුවෙන 38
▁පාටක 38
▁පාරයි 38
▁පාළුයි 38
▁පැවරුම 38
▁පැසිෆික 38
▁පිප 38
▁පියර 38
▁පිලිගත 38
▁පිලිබදව 38
▁පුරාණ 38
▁පෙනේ 38
▁පොළව 38
▁පෝෂ 38
▁බයද 38
▁බහිරවා 38
▁බළ 38
▁බාගෙට 38
▁බැටළ 38
▁බීසස 38
▁බූරුවෝ 38
▁බොරුකාර 38
▁බෝතලේ 38
▁භටයෙක 38
▁මඩකලපුව 38
▁මතුපිටට 38
▁මරාවි 38
▁මාලිගාව 38
▁මැදිරි 38
▁මිරිස 38
▁මුළ 38
▁මුළින 38
▁මෙහෙයුමේ 38
▁මේකි 38
▁මේයර 38
▁මොකකට 38
▁මොකා 38
▁මොනවගේද 38
▁යනවලා 38
▁යේෂ 38
▁යෝන 38
▁රහසේ 38
▁රැප 38
▁රිකාවේ 38
▁රොව 38
▁රෝහි 38
▁ලිපිනයක 38
▁ලුක 38
▁ලේම 38
▁ලේලන 38
▁ලොග 38
▁වගමෙ 38
▁වටිනවද 38
▁වදේදී 38
▁වපු 38
▁වරදවා 38
▁වශී 38
▁වැඩිහිටි 38
▁වැළ 38
▁විකාශනය 38
▁විකුණනවා 38
▁වීදුරුවක 38
▁වීරයෝ 38
▁වෘකයෙක 38
▁වෙතින 38
▁වෙරි 38
▁වෙලානේ 38
▁වෝඩ 38
▁ෂකයො 38
▁ෂණයන 38
▁සංවේදක 38
▁සභික 38
▁සමාලෝචන 38
▁සමුරායි 38
▁සරාගී 38
▁සහෝදරයට 38
▁සෑ 38
▁සියවස 38
▁සිරකරුවන 38
▁සුනේ 38
▁සුබපැතුම 38
▁හදිසියේම 38
▁හසුරුවන 38
▁හැග 38
▁හැතැම 38
▁හැදිල 38
▁හෙණ 38
▁හෙරොයින 38
▁හෙළි 38
▁ෆීල 38
.0 37
19 37
ac 37
ang 37
one 37
ong 37
ඔය 37
කෙනෙක 37
ගක 37
තනය 37
නැ 37
යකුත 37
වාදීන 37
විශ 37
ශක 37
ෆී 37
ාවේදී 37
ිකරලා 37
ිවලින 37
ිහා 37
ුකිරීම 37
ෙයින 37
ෙළ 37
▁He 37
▁Se 37
▁අරම 37
▁අවධානයට 37
▁අවුරැදු 37
▁අසන 37
▁ආකාශ 37
▁ආදරයට 37
▁ඇදගත 37
▁ඇෆ 37
▁ඉදිරිපිට 37
▁ඉරා 37
▁ඉසබෙල 37
▁උපදවන 37
▁උරුමක 37
▁ඌර 37
▁එකතුවක 37
▁එතකන 37
▁එර 37
▁එලෙව 37
▁එළියෙන 37
▁ඒන 37
▁ඔහුයි 37
▁ඔෙහගේ 37
▁කටුක 37
▁කටේ 37
▁කබ 37
▁කමිටුවේ 37
▁කරදරකාර 37
▁කලානේ 37
▁කලාපීය 37
▁කහපාට 37
▁කාලට 37
▁කාලෙටම 37
▁කැනඩ 37
▁කියලාවත 37
▁කිවුවනේ 37
▁කුසලතා 37
▁කෙනකේව 37
▁ගහයි 37
▁ගැලරිය 37
▁ගුරුතුමා 37
▁ගෘහස 37
▁ගෙනිහින 37
▁ගෝස 37
▁චීනය 37
▁ජෙඩයි 37
▁ජෝඩුවක 37
▁ටේෂන 37
▁ඩිකේට 37
▁ඩිප 37
▁ණනා 37
▁තටයි 37
▁තබනවා 37
▁තරෙන 37
▁තිමේට 37
▁තීරණේ 37
▁තෝස 37
▁දයාබර 37
▁දරම 37
▁දහන 37
▁දිද 37
▁දුරකතනය 37
▁දුරකථනයෙන 37
▁දෙම 37
▁ධනයක 37
▁නයිපර 37
▁නැතිවම 37
▁නිකමෙක 37
▁නියමම 37
▁නෙයිනා 37
▁නෙව 37
▁නේට 37
▁නේත 37
▁නොදැක 37
▁පටු 37
▁පථ 37
▁පිලා 37
▁පෙනෙනවා 37
▁පෝර 37
▁පෝෂණය 37
▁බදාදා 37
▁බයට 37
▁බලහත 37
▁බවෙයි 37
▁බහිමු 37
▁බැංකුවට 37
▁බැලුන 37
▁බෙයාර 37
▁බේරගෙන 37
▁භීතයි 37
▁මගහැරුනා 37
▁මනෝචිකිත 37
▁මවන 37
▁මාතර 37
▁මුදවා 37
▁මූත 37
▁මෙහෙමද 37
▁යාමක 37
▁යුරෝප 37
▁යොමුකරන 37
▁රටාවක 37
▁රණශූර 37
▁රයින 37
▁රෂ 37
▁රහසිගතයි 37
▁රැෆික 37
▁රියාවිරහිත 37
▁රීත 37
▁රෙකෝඩ 37
▁රේගු 37
▁රෝහලෙන 37
▁ලගා 37
▁ලෆුවර 37
▁ලැබුවේ 37
▁ලිලී 37
▁ලොකේ 37
▁ලෝකයෙ 37
▁වවුල 37
▁වාසන 37
▁වැසිකිල 37
▁විචාර 37
▁වුණෙ 37
▁වෙනකොටත 37
▁වෙලාවකින 37
▁වෙවී 37
▁ශනයට 37
▁ෂෝල 37
▁සතයක 37
▁සයිස 37
▁සායන 37
▁සිතා 37
▁සිදුක 37
▁සියෝ 37
▁සිරාවට 37
▁සිරුරක 37
▁සෙවනැලි 37
▁සොයමින 37
▁හතලිස 37
▁හමාර 37
▁හසුර 37
▁හැදුන 37
▁හුදෙකලා 37
▁හොලිවුඩ 37
▁ෆීලික 37
▁ෙකල 37
▁ෙකාච 37
67 36
g 36
it 36
le 36
ly 36
ome 36
un 36
උනා 36
කරනව 36
කරේ 36
කාම 36
ඟු 36
චි 36
ටනෙ 36
ඩක 36
ණා 36
දායක 36
දිලා 36
බට 36
භා 36
රනවා 36
වමින 36
වෙක 36
හද 36
හාට 36
ායි 36
ිකාවේ 36
ියටම 36
ීනා 36
ුණි 36
▁66 36
▁Mar 36
▁Sol 36
▁US 36
▁am 36
▁by 36
▁අංගන 36
▁අඟහරුවාදා 36
▁අනුරාධපුර 36
▁අමාරුම 36
▁අරමුණින 36
▁අරෙහෙ 36
▁අලාභ 36
▁ආතතිය 36
▁ආරංචියි 36
▁ආසාවෙන 36
▁ඇඬ 36
▁ඇව 36
▁ඇහුවම 36
▁ඉදිරිපස 36
▁ඉදිවි 36
▁ඉදිවී 36
▁උණේ 36
▁එකේම 36
▁එතැනට 36
▁එදාට 36
▁එමිල 36
▁එවරස 36
▁එහනමේ 36
▁එළි 36
▁ඔතැන 36
▁ඔනද 36
▁ඔබතුම 36
▁ඔයාලාගේ 36
▁ඔරලෝසුවක 36
▁ඔහුගෝ 36
▁ඕටෝබෝට 36
▁ඕඩර 36
▁කටවල 36
▁කටවහගෙන 36
▁කඳවුරක 36
▁කයන 36
▁කලවම 36
▁කාලයම 36
▁කාසි 36
▁කැඩෙන 36
▁කැතරින 36
▁කැරලි 36
▁කෑවේ 36
▁කියවනවද 36
▁කීපාරක 36
▁කුවෙන 36
▁කුහරය 36
▁කේතයක 36
▁කොලුවා 36
▁කොහොමවුනත 36
▁කෝෂ 36
▁ගජෙන 36
▁ගමනට 36
▁ගවේෂණ 36
▁ගැරි 36
▁ගුණාංග 36
▁ගොඩබාන 36
▁ගෝලීය 36
▁ජාඩ 36
▁ජූනියර 36
▁ටිකකුත 36
▁ටිව 36
▁ටොයිලට 36
▁ඩෙම 36
▁තනියෙම 36
▁තමාවියනි 36
▁තමුස 36
▁තරයට 36
▁තරුන 36
▁තලක 36
▁තිමටම 36
▁තුතිවන 36
▁තුරේ 36
▁තූරේ 36
▁දගලන 36
▁දරුවව 36
▁දහයකට 36
▁දාමරික 36
▁දාව 36
▁දැනීම 36
▁දූපෙතන 36
▁නඩුවට 36
▁නැතිවුනේ 36
▁නිකිල 36
▁නිගමනය 36
▁නීල 36
▁නෙවෙයිනෙ 36
▁නොවැ 36
▁පඹ 36
▁පරිශ 36
▁පාගන 36
▁පැටර 36
▁පැතිරිලා 36
▁පැළඳ 36
▁පිරමීඩ 36
▁පිවිසෙන 36
▁පිළිතුරක 36
▁පුවරු 36
▁පේජ 36
▁බටහිරට 36
▁බිර 36
▁බීප 36
▁භිත 36
▁මකරෙක 36
▁මකලා 36
▁මනසක 36
▁මයින 36
▁මාරම 36
▁මාළ 36
▁මෙත 36
▁මෙතනදී 36
▁මේසයක 36
▁මොලී 36
▁යතාවයක 36
▁යනවට 36
▁යමත 36
▁යමෙක 36
▁යවරු 36
▁යවල 36
▁යාධාර 36
▁යානාවක 36
▁යාලුවට 36
▁රජුට 36
▁රතිග 36
▁රධානම 36
▁රයිට 36
▁රයිස 36
▁රවාහ 36
▁රිකාවට 36
▁රිච 36
▁රුසියන 36
▁ලජ 36
▁ලබාදීම 36
▁ලයිනස 36
▁ලාභය 36
▁ලැබුණෙ 36
▁ලීසෙල 36
▁ලෙසින 36
▁වරෙළ 36
▁වාහනේට 36
▁වැඩිද 36
▁වැඩිපුරම 36
▁විකුණලා 36
▁විධියක 36
▁විනීත 36
▁විමක 36
▁විවාහයක 36
▁විසඳුම 36
▁විහ 36
▁වීප 36
▁වෝන 36
▁ෂෝක 36
▁සමාජයේ 36
▁සමාවන 36
▁සමෙ 36
▁සයට 36
▁සහෝදරී 36
▁සාධාර 36
▁සාධාරණය 36
▁හරිනවා 36
▁හැටන 36
▁හෙලි 36
▁හොඳේ 36
▁හොබිට 36
▁ෆීබී 36
.4 35
.7 35
ER 35
SA 35
ot 35
එහෙනම 35
ජනකයි 35
ඤ 35
ණයට 35
දෙනා 35
නෙවා 35
බෝල 35
රස 35
ලස 35
වෙනව 35
හං 35
හනේ 35
හය 35
ළට 35
ාමි 35
ාලයේ 35
ාවී 35
ැටි 35
ිණි 35
ිපත 35
ීමේදී 35
ුකූල 35
ුටු 35
ෘති 35
ෙලි 35
▁30,000 35
▁Erik 35
▁Professor 35
▁no 35
▁අධිකරණය 35
▁අනතුරකට 35
▁අනුක 35
▁අපතේ 35
▁අමාරුද 35
▁අවද 35
▁අවසානයේදි 35
▁අවුට 35
▁ඇඳලා 35
▁ඇමතිතුමා 35
▁ඇයයි 35
▁ඇයිද 35
▁ඇවිදලා 35
▁ඉදි 35
▁උකුස 35
▁උදෙන 35
▁උපාංග 35
▁උසාවියේ 35
▁එතනම 35
▁එනවාද 35
▁එයාලාව 35
▁එලිසබෙත 35
▁ඒකනං 35
▁ඔබලාව 35
▁ඔළු 35
▁ඕනේනම 35
▁කකුලට 35
▁කටකතා 35
▁කමයි 35
▁කවදාකවත 35
▁කසාදය 35
▁කහම 35
▁කාබන 35
▁කාමරයෙන 35
▁කිමිද 35
▁කිරන 35
▁කිසිදා 35
▁කීවෙ 35
▁කුළ 35
▁කේසි 35
▁කොමල 35
▁කොහේටද 35
▁ගණුදෙන 35
▁ගාණකට 35
▁ගුයින 35
▁ගෙඩි 35
▁ගොර 35
▁ජනෙල 35
▁ජම 35
▁ජාතිකයෙක 35
▁ජාලයේ 35
▁ටැංක 35
▁ඨික 35
▁ඩලස 35
▁ඩුක 35
▁ඩුයි 35
▁ඩුවට 35
▁ඩෙනිස 35
▁තඩංගුවට 35
▁තබාගැනීම 35
▁තමින 35
▁තරමින 35
▁තරාත 35
▁තලම 35
▁තලය 35
▁තෘණ 35
▁තොම 35
▁ථකාමී 35
▁දකම 35
▁දනෝන 35
▁දැනුනෙ 35
▁දැනේවි 35
▁දිනකට 35
▁දියර 35
▁දියා 35
▁දෙනවාද 35
▁දෙනාගේ 35
▁දෙනාටම 35
▁දොඩ 35
▁නමැති 35
▁නැක 35
▁නැනෝ 35
▁නිකොලස 35
▁නිළධාරීන 35
▁නේන 35
▁නේහා 35
▁නොල 35
▁පතල 35
▁පතුර 35
▁පනස 35
▁පසුත 35
▁පාඩු 35
▁පැටවු 35
▁පුලුවනි 35
▁පෙනෙයි 35
▁පේනහැටියට 35
▁ඵලකය 35
▁බලහන 35
▁බීමක 35
▁බෙත 35
▁බේරුණා 35
▁භාවිතයට 35
▁මදර 35
▁මරාගන 35
▁මුනගැ 35
▁මූර 35
▁මෙයාද 35
▁යටතට 35
▁යනකල 35
▁යමණ 35
▁යුන 35
▁රජාතන 35
▁රතිලාභීන 35
▁රභ 35
▁රහයක 35
▁රාශ 35
▁රිකුණාමලය 35
▁රියන 35
▁රොග 35
▁රෝවර 35
▁ලබාදෙනවා 35
▁වගකිවයුතු 35
▁වගර 35
▁වලහා 35
▁වහලෙක 35
▁වාකර 35
▁වාය 35
▁වාෂ 35
▁වැඩකාර 35
▁වැඩිවෙලා 35
▁වැලැක 35
▁විටත 35
▁විදි 35
▁විවේකය 35
▁වෙනුවන 35
▁වෙලයි 35
▁ශණයක 35
▁ශරීරයේ 35
▁ශාඛා 35
▁ශුර 35
▁ෂණයෙන 35
▁ෂින 35
▁ෂේ 35
▁ෂේක 35
▁සංදේශ 35
▁සනී 35
▁සබන 35
▁සයිබ 35
▁සහෝදරයන 35
▁සුට 35
▁සුස 35
▁සුහද 35
▁සුළං 35
▁සෙමින 35
▁සේනාව 35
▁හතුරන 35
▁හනී 35
▁හැපී 35
▁හැරෙව 35
▁හිටියනේ 35
▁හිමීට 35
▁හොදයිද 35
▁හොඳයිද 35
▁හොරක 35
▁ෆිය 35
all 34
ee 34
ell 34
v 34
ංගන 34
ඌ 34
කමට 34
කොල 34
ණයෙන 34
දීලා 34
බිල 34
යුතුයි 34
ලාට 34
ලාන 34
වනං 34
වමු 34
වැඩ 34
වික 34
සින 34
හෙනවා 34
ාටත 34
ාලි 34
ිරීමක 34
ීවී 34
ුවව 34
▁10,000 34
▁She 34
▁Taha 34
▁අගමැති 34
▁අගේ 34
▁අපායක 34
▁අභිම 34
▁අභියෝගයක 34
▁අයෙ 34
▁අරයව 34
▁අවකාශ 34
▁අවැසි 34
▁අවියක 34
▁අසරුවන 34
▁ඇදේ 34
▁ඇමරිකා 34
▁ඉඟ 34
▁ඉරාන 34
▁උපදේශකයෙක 34
▁උබලට 34
▁එලියෙන 34
▁එවල 34
▁ඔහුගේම 34
▁කනත 34
▁කනෙක 34
▁කාදම 34
▁කාරුණික 34
▁කාලගුණය 34
▁කිසිමදෙයක 34
▁කුණාටු 34
▁කුප 34
▁කුසලාන 34
▁කෙත 34
▁කෙසෙල 34
▁කොටි 34
▁කොව 34
▁ගංජා 34
▁ගඩොල 34
▁ගනිං 34
▁ගබ 34
▁ගිනිගන 34
▁ගුන 34
▁ගොඩනැඟිල 34
▁ජනාධිපතිතුම 34
▁ජෙල 34
▁තණකොළ 34
▁තරව 34
▁තාපස 34
▁තාවට 34
▁තැල 34
▁තියනෙවද 34
▁තියමු 34
▁තියුණු 34
▁තිරණයක 34
▁තුමේන 34
▁තෙරපුම 34
▁තේම 34
▁දගාමී 34
▁දාදුවෝ 34
▁දිහාද 34
▁දුරකට 34
▁දුරකථනයක 34
▁දූතයා 34
▁දෙකේම 34
▁දේත 34
▁ධකාරය 34
▁නඟ 34
▁නනෙ 34
▁නමු 34
▁නවයෙි 34
▁නැඟ 34
▁නැතිවීම 34
▁නැවෙන 34
▁නිකලස 34
▁නියමය 34
▁නිවෙස 34
▁නීච 34
▁නුවරඑළිය 34
▁නෙකුට 34
▁නෙඩ 34
▁නෙවේද 34
▁නොයා 34
▁පවිත 34
▁පහුවෙලා 34
▁පාළුව 34
▁පෑම 34
▁පිටවෙනවා 34
▁පිදුරු 34
▁පියානෝ 34
▁පියාපත 34
▁පිළි 34
▁පෘතුවිය 34
▁පෙරළ 34
▁ඵලදායී 34
▁බඩේ 34
▁බරපතලයි 34
▁බාරගත 34
▁බිරිඳව 34
▁බිහි 34
▁බෙකා 34
▁බොමු 34
▁මගක 34
▁මටද 34
▁මාලේ 34
▁මැදිරියට 34
▁මිකයෙක 34
▁මිනිමර 34
▁මුලස 34
▁මෙනෙවිය 34
▁මේකනේ 34
▁යවපු 34
▁යානුකූලව 34
▁යාස 34
▁යැවීම 34
▁යොදාගෙන 34
▁රජතුමනි 34
▁රතිප 34
▁රමවත 34
▁රවුන 34
▁රහලෝකය 34
▁රැට 34
▁රෑකම 34
▁රිකානු 34
▁රුත 34
▁රෙඩිට 34
▁රේමීන 34
▁ලටම 34
▁ලූකස 34
▁ලොකර 34
▁වගක 34
▁වනචාර 34
▁වරදකරු 34
▁වලාකුළු 34
▁වානර 34
▁වැහ 34
▁විටෙක 34
▁විතරනේ 34
▁විදියෙ 34
▁විධ 34
▁විනා 34
▁වීටර 34
▁වුවමන 34
▁වෙළඳාම 34
▁වේලාවක 34
▁ශාපයක 34
▁ෂනයක 34
▁සංගමය 34
▁සතුටුද 34
▁සමහරුන 34
▁සමීකරණ 34
▁සරස 34
▁සහතිකවම 34
▁සාමාජිකයින 34
▁සාහිත 34
▁සීමාවට 34
▁සීමාවන 34
▁සුඛ 34
▁සූක 34
▁සොයුර 34
▁සොෆී 34
▁සෝස 34
▁හංස 34
▁හතුරෙක 34
▁හිංසා 34
▁හිතුවත 34
▁හීනය 34
▁හෙවත 34
▁හොයාගනෙ 34
▁හෝන 34
▁ෙකා 34
▁● 34
FF 33
and 33
අනේ 33
එස 33
කරනය 33
ගණ 33
ගෙදර 33
ගොල 33
ඩිත 33
තකට 33
තිබ 33
තු 33
දායි 33
දිග 33
දුම 33
ධිපති 33
ඳුර 33
බස 33
යකෙ 33
යිඩ 33
වකො 33
වාදය 33
ශිල 33
ශී 33
ශීල 33
ෂර 33
හරින 33
ළුම 33
ාවලින 33
ියෙනි 33
ුටම 33
ුලට 33
ූම 33
ෙේ 33
ේසා 33
▁120 33
▁56 33
▁600 33
▁Gil 33
▁LJ 33
▁Man 33
▁here 33
▁was 33
▁අනාගතයට 33
▁අඳ 33
▁අපරාධය 33
▁අභිමානය 33
▁අමෙරික 33
▁අරගල 33
▁අවිශ 33
▁අහිමිව 33
▁ආපදා 33
▁ආබාධ 33
▁ආලෝකයක 33
▁ආසාවක 33
▁ඇබට 33
▁ඇරගන 33
▁ඇරෝන 33
▁ඇලඩීන 33
▁ඇහැගහගෙන 33
▁ඇහැරවන 33
▁ඉටිපන 33
▁ඉදලද 33
▁ඌත 33
▁ඌරො 33
▁එකඟතාව 33
▁ඒකව 33
▁ඒතරම 33
▁ඔබගෙ 33
▁ඔයායි 33
▁ඔලුවෙ 33
▁ඔෂියෑනික 33
▁ඔහෝ 33
▁ඕර 33
▁කඳවුරේ 33
▁කරපං 33
▁කලානම 33
▁කාරණාවක 33
▁කාරයකේ 33
▁කැඳවන 33
▁කුද 33
▁කූඩුවක 33
▁කෘෂිකර 33
▁කේවල 33
▁කොලොම 33
▁කෝලෙට 33
▁ගමුද 33
▁ගලවගන 33
▁ගවේශ 33
▁ගායි 33
▁ගැණ 33
▁ගැනීමෙන 33
▁ගැහුවද 33
▁ගියානේ 33
▁ගියේය 33
▁ගේල 33
▁ගොඩට 33
▁චිල 33
▁ජපාන 33
▁ජාලයෙන 33
▁ජේසුස 33
▁ජොර 33
▁ටාව 33
▁ටෝරි 33
▁ඩෝරියන 33
▁ණේ 33
▁තටද 33
▁තැටිය 33
▁තුවකට 33
▁තූ 33
▁තොටුපල 33
▁තොටුපලට 33
▁තෝන 33
▁දඩයමේ 33
▁දෑවක 33
▁දිනේවා 33
▁දූත 33
▁දෙනවනම 33
▁නකල 33
▁නවය 33
▁නාගරික 33
▁නිගමන 33
▁නිරුවත 33
▁නෙමෙයිනේ 33
▁පංත 33
▁පදිංච 33
▁පරිසරයක 33
▁පවුලෙන 33
▁පසුතැවෙන 33
▁පහසුයි 33
▁පාදිත 33
▁පැමිනෙන 33
▁පිපිරුම 33
▁පියයුරු 33
▁පියාණන 33
▁පියුටර 33
▁පිළිබදව 33
▁පීඩන 33
▁පීඩා 33
▁පුට 33
▁පුදුමාකාරයි 33
▁පුපුරලා 33
▁පුරුදුවෙලා 33
▁පුලුවම 33
▁පුළුවං 33
▁පෙනුමෙන 33
▁පෙනේවි 33
▁පේල 33
▁පොයින 33
▁පෞරාණික 33
▁බයානක 33
▁බරයක 33
▁බලකොට 33
▁බලකොටුව 33
▁බලයි 33
▁බලයේ 33
▁බසින 33
▁බාගේ 33
▁බෑනෙ 33
▁බීර 33
▁බෙලික 33
▁බෝලයක 33
▁බෝලේ 33
▁මැහුම 33
▁මෑතක 33
▁මිතුරෙක 33
▁මිලක 33
▁මීයෝ 33
▁මෙයාගෙන 33
▁මේවගෙන 33
▁මොහොතෙ 33
▁යටි 33
▁යාළු 33
▁යැපෙන 33
▁රංග 33
▁රඟපෑම 33
▁රනවා 33
▁රපටය 33
▁රමාදයි 33
▁රැකිය 33
▁රැඳ 33
▁රියයි 33
▁රියාවල 33
▁රෙනොල 33
▁රොෆ 33
▁රෝහලක 33
▁ලයක 33
▁වච 33
▁වසංගත 33
▁වහපන 33
▁විටදී 33
▁විධිය 33
▁විනෝදාත 33
▁විමට 33
▁වියලි 33
▁විලේ 33
▁වීඩියෝව 33
▁වූවන 33
▁වෙලාවෙද 33
▁වෙව 33
▁වේදිකාවට 33
▁ශකය 33
▁ෂෙන 33
▁සගන 33
▁සඟර 33
▁සචින 33
▁සමාවෙයන 33
▁සයව 33
▁සරහම 33
▁සලකලා 33
▁සවල 33
▁සහොදර 33
▁සාත 33
▁සාහයක 33
▁සැබවින 33
▁සිලා 33
▁සීයයි 33
▁සුරදූත 33
▁සුවිශේෂී 33
▁සූත 33
▁සෝවක 33
▁හඹා 33
▁හාදුවක 33
▁හිතනවනම 33
▁හිතින 33
▁හිතුනෙ 33
▁හිතුවක 33
▁හිසේ 33
▁හුක 33
▁හුදකලා 33
▁ෆයි 33
▁ෆැල 33
▁ෆොන 33
▁ෙබ 33
▁ෙසායාගන 33
▁∞ 33
23 32
65 32
Z 32
ig 32
j 32
ංකාර 32
එම 32
ඒකට 32
කවුද 32
කු 32
ගානක 32
ඥයෙක 32
ණියක 32
දැක 32
නේද 32
පාක 32
බො 32
මෙතන 32
සෙ 32
සො 32
ාමී 32
ිටිය 32
ිතාව 32
ුකලා 32
ෝනා 32
▁In 32
▁Is 32
▁Stacks 32
▁This 32
▁Watney 32
▁^ 32
▁go 32
▁there 32
▁අංශු 32
▁අටයි 32
▁අඩුපාඩු 32
▁අඩෙ 32
▁අතුග 32
▁අදෘශ 32
▁අධම 32
▁අපරාදේ 32
▁අපායේ 32
▁අයිරිස 32
▁අයුතු 32
▁අලෛහිව 32
▁අවිය 32
▁අසනීපෙන 32
▁අසභ 32
▁අසාධාරණයි 32
▁අහුවෙනවා 32
▁ආකෘතිය 32
▁ආසියානු 32
▁ඇඩම 32
▁ඇතුලෙදි 32
▁ඇදෙන 32
▁ඇහුනෙ 32
▁ඇහුවට 32
▁ඉතිරිව 32
▁ඊටවඩා 32
▁උඩටම 32
▁උණත 32
▁උදුර 32
▁උනහම 32
▁උලව 32
▁එකවත 32
▁එනවනම 32
▁එවගේම 32
▁ඒකනෙ 32
▁ඔබතුමාට 32
▁ඔම 32
▁ඔයාමයි 32
▁ඕනනේ 32
▁ඕනවුනේ 32
▁ඕනෙවට 32
▁කණුව 32
▁කනව 32
▁කමිසය 32
▁කරලම 32
▁කරාවිද 32
▁කවුරුද 32
▁කාලක 32
▁කැනේචර 32
▁කැබලි 32
▁කෑමත 32
▁කියනවට 32
▁කියාගෙන 32
▁කුනු 32
▁කූඩුවේ 32
▁කෙරෙනවා 32
▁කෙලව 32
▁කොකේන 32
▁කොමලා 32
▁කොරල 32
▁කොලයක 32
▁කොහොමටත 32
▁කෝතු 32
▁ගඳයි 32
▁ගලිකයි 32
▁ගිලෙන 32
▁ගෙනෙන 32
▁ගෙවත 32
▁ඝාතකයෙක 32
▁චිම 32
▁චේතන 32
▁චොක 32
▁ජීවිතයෙන 32
▁ජූලියා 32
▁ඥාත 32
▁ටනය 32
▁ටමින 32
▁ටමෙන 32
▁ටියත 32
▁ඩවුන 32
▁ඩසෝමන 32
▁ඩිසෙප 32
▁ඩුබායි 32
▁ඩූ 32
▁ඩෝග 32
▁තදබද 32
▁තදයි 32
▁තනතුරු 32
▁තයව 32
▁තයාගේ 32
▁තාගෙ 32
▁තිකර 32
▁තිබු 32
▁තුරුම 32
▁ථාවේදී 32
▁දකියි 32
▁දැයි 32
▁දිගයි 32
▁දිනපොත 32
▁දෘ 32
▁දෙමාපියෝ 32
▁දේසිය 32
▁දොඩවන 32
▁ධක 32
▁ධාත 32
▁නප 32
▁නවානම 32
▁නැතහොත 32
▁නියමෙටම 32
▁නෙමේනේ 32
▁නොකිය 32
▁පටෝට 32
▁පරයා 32
▁පරාව 32
▁පලයක 32
▁පලයල 32
▁පවුලත 32
▁පළි 32
▁පාකර 32
▁පාඨ 32
▁පැකට 32
▁පිටතින 32
▁පිටරට 32
▁පිරිතාලේ 32
▁පිළිගැනීමේ 32
▁පුනා 32
▁පුරව 32
▁ඵලදායි 32
▁බලතල 32
▁බාහු 32
▁බැම 32
▁බැයිද 32
▁බිරා 32
▁බුරුල 32
▁බුවක 32
▁බෘස 32
▁බේංචි 32
▁බේට 32
▁බෲනෝ 32
▁මංද 32
▁මකරා 32
▁මනේ 32
▁මාරුව 32
▁මාවතේ 32
▁මාළුන 32
▁මැඩපවත 32
▁මැරෙනකම 32
▁මැලේ 32
▁මීයා 32
▁මුණගැහුනා 32
▁මෙලෙස 32
▁යානයෙන 32
▁යුව 32
▁යෙදෙන 32
▁රදානය 32
▁රපාත 32
▁රභවය 32
▁රාජාල 32
▁රාථමික 32
▁රාෆ 32
▁රියදුරෙක 32
▁රුච 32
▁රෝප 32
▁ලංඝනය 32
▁ලෙකුට 32
▁ලෝකයා 32
▁වමු 32
▁වයිකින 32
▁වරල 32
▁වශ 32
▁වහනව 32
▁වාසයෙන 32
▁වැටහීමක 32
▁වැඩිවෙන 32
▁වැරදීමකින 32
▁විදිහකින 32
▁විව 32
▁විහිළුයි 32
▁වීදියේ 32
▁වීමයි 32
▁වුවහොත 32
▁වෙඩිතිබ 32
▁වෙලඳ 32
▁වෙසෙන 32
▁ශත 32
▁ශාලාවක 32
▁ෂණයේ 32
▁ෂබ 32
▁ෂී 32
▁සංයුක 32
▁සතුටට 32
▁සතුර 32
▁සතුරෙක 32
▁සමාගමෙන 32
▁සරා 32
▁සලකනවා 32
▁සිකානු 32
▁සිටිමි 32
▁සීමාවේ 32
▁සොන 32
▁හපා 32
▁හරවලා 32
▁හරවා 32
▁හරියනවා 32
▁හාම 32
▁හාවා 32
▁හැත 32
▁හිතනවට 32
▁හූඩි 32
▁හොරුන 32
▁හෝලි 32
▁ෆන 32
▁ෙපාඩි 32
.6 31
45 31
AR 31
OC 31
aven 31
ry 31
ආර 31
කාරක 31
තාක 31
තියි 31
තුව 31
තෙක 31
දිනවා 31
නමුත 31
පහ 31
පාය 31
ලාස 31
ෂය 31
ෂි 31
හුණ 31
ාකාර 31
ැය 31
ෑව 31
ියාවෙ 31
ිවෙලා 31
ුවාට 31
ුවාද 31
ෙනාත 31
▁1549 31
▁800 31
▁92 31
▁95 31
▁An 31
▁Le 31
▁Pam 31
▁Sam 31
▁Will 31
▁Zamani 31
▁අතනින 31
▁අතරම 31
▁අනාගතයේ 31
▁අඳුරේ 31
▁අපතයෝ 31
▁අපරාධකරුවන 31
▁අමනුෂ 31
▁අයදිනවා 31
▁අරය 31
▁අසා 31
▁අහයි 31
▁අෑත 31
▁ආධුන 31
▁ආවනේ 31
▁ඇඹ 31
▁ඉගෙනගෙන 31
▁ඉතාලි 31
▁උගුර 31
▁උගුලකට 31
▁උපයා 31
▁උමත 31
▁උඹෙන 31
▁ඒවයින 31
▁ඓතිහාසික 31
▁ඔයතරම 31
▁ඔයාගෙද 31
▁ඔළුවේ 31
▁ඕනේනැ 31
▁කකුලේ 31
▁කණගා 31
▁කතාකරමු 31
▁කබීර 31
▁කරනන 31
▁කරමි 31
▁කරවා 31
▁කලාපයේ 31
▁කලිසමක 31
▁කායික 31
▁කාලයයි 31
▁කැඩිච 31
▁කියවීම 31
▁කිහිපය 31
▁කීව 31
▁කීවොත 31
▁කුත 31
▁කෙනත 31
▁කෙනෙකුත 31
▁කෝෆි 31
▁ගතක 31
▁ගබඩාවේ 31
▁ගැනිම 31
▁ගැනුම 31
▁ගැහැණ 31
▁ගියර 31
▁ගුද 31
▁ගොනාට 31
▁ගෝණා 31
▁චාරිකාවක 31
▁චිගේ 31
▁ඡේදය 31
▁ජනගහනය 31
▁ජනේලෙන 31
▁ජලයේ 31
▁ජුර 31
▁ටයෙක 31
▁ටැල 31
▁ටිකන 31
▁ටොඩ 31
▁ඩබල 31
▁ඩාමු 31
▁ඩීසල 31
▁ඩොර 31
▁ණි 31
▁තනියමද 31
▁තරට 31
▁තාල 31
▁තියෙනවානේ 31
▁තුලදී 31
▁තෘ 31
▁දවෙ 31
▁දැයට 31
▁දිනයන 31
▁දීපං 31
▁දූපතක 31
▁දෘශ 31
▁දේමයි 31
▁දෛව 31
▁ධිමතෙක 31
▁නඩුවේ 31
▁නාසි 31
▁නැතිවේවි 31
▁නෑදෑ 31
▁නිධානය 31
▁නියමයිනේ 31
▁නිරූප 31
▁නිවේදනයක 31
▁නොනැසි 31
▁නොවිය 31
▁නොහැකිව 31
▁පණිවුඩය 31
▁පරාජිත 31
▁පහෙන 31
▁පාතාල 31
▁පැමිණීමට 31
▁පිද 31
▁පිපිරීමක 31
▁පිපුර 31
▁පිළිපැද 31
▁පුතත 31
▁පූසන 31
▁පෘථිවියට 31
▁බදාගන 31
▁බරෙන 31
▁බහුලයි 31
▁බාගත 31
▁බාධකයක 31
▁බාබු 31
▁බැංකුවෙන 31
▁බැරිවේවි 31
▁බූරු 31
▁මනහර 31
▁මවාගන 31
▁මානසිකව 31
▁මායාවන 31
▁මාලාවක 31
▁මාලිම 31
▁මාලුවෙක 31
▁මාසයේ 31
▁මාසික 31
▁මැව 31
▁මුදාහරින 31
▁මුව 31
▁මූද 31
▁මෘත 31
▁මේකව 31
▁මේතරම 31
▁මෝග 31
▁යනුවෙන 31
▁යලි 31
▁යවමු 31
▁යළි 31
▁යුතුකම 31
▁රගත 31
▁රදේශයට 31
▁රපටයක 31
▁රබන 31
▁රයිනා 31
▁රසය 31
▁රහාරක 31
▁රළ 31
▁රාකාර 31
▁රාප 31
▁රිචර 31
▁රියද 31
▁රොබර 31
▁ලබාගැනීමට 31
▁ලමයිනේ 31
▁ලයිකන 31
▁ලාව 31
▁ලැබීමට 31
▁ලිබි 31
▁ලියෙක 31
▁ලිල 31
▁ලුවෙ 31
▁ලූක 31
▁ලේඛනය 31
▁ලෝකෙක 31
▁ලෝම 31
▁ලෝර 31
▁වංචාකාරයෙක 31
▁වයකින 31
▁වරප 31
▁වලි 31
▁වසරකට 31
▁වායුගෝල 31
▁වැඩද 31
▁වැරදී 31
▁වෑල 31
▁විදියෙන 31
▁විනාසයි 31
▁විනෝදජනක 31
▁විරැද 31
▁විවා 31
▁වෙලාවටද 31
▁වේගන 31
▁ශීල 31
▁සනක 31
▁සනාථ 31
▁සපයා 31
▁සමී 31
▁සමූහාණ 31
▁සලකුනු 31
▁සහෝදරියක 31
▁සළකුණක 31
▁සාදයට 31
▁සාහය 31
▁සැළකිල 31
▁සෑද 31
▁සිනේ 31
▁සියළුදෙන 31
▁සුපුරුදු 31
▁සෘත 31
▁සෙවීම 31
▁සේවාදායකයා 31
▁හදගැස 31
▁හරියෙ 31
▁හාදයෝ 31
▁හැගෙන 31
▁හැමදේකින 31
▁හිං 31
▁හික 31
▁හිනාවෙනවා 31
▁හුළඟ 31
▁හෙවනැල 31
▁හෙළිදරව 31
▁හොබ 31
▁හෝටලයට 31
▁ළමයො 31
▁ෆී 31
▁ෆෙරේඩ 31
▁ෙතන 31
40 30
62 30
DA 30
RI 30
ak 30
az 30
ent 30
il 30
senpai 30
ut 30
ංජ 30
ඔයාගෙ 30
කක 30
ණක 30
මො 30
යාගන 30
රුව 30
වටත 30
වරයාගේ 30
වරිය 30
වාවි 30
වොත 30
හරිද 30
හුණු 30
හොඳ 30
ාරය 30
ිකිරීම 30
ිඩ 30
ුටි 30
ෙයිද 30
▁3000 30
▁79 30
▁85 30
▁Bender 30
▁IG 30
▁Ladyship 30
▁My 30
▁No 30
▁as 30
▁if 30
▁now 30
▁they 30
▁අකුර 30
▁අඩෝ 30
▁අතීතයට 30
▁අතෙන 30
▁අමතකද 30
▁ආදේශ 30
▁ආලෝකයට 30
▁ඇතිකරගන 30
▁ඇතිවුනා 30
▁ඇනන 30
▁ඇවිදන 30
▁ඉතිරිය 30
▁උකස 30
▁උනානේ 30
▁උපයන 30
▁උමතු 30
▁උඹලව 30
▁උවමන 30
▁එයිද 30
▁එලීස 30
▁ඒකෝ 30
▁ඔනා 30
▁ඔයි 30
▁ඔරං 30
▁ඔරලොසු 30
▁කකුලක 30
▁කදුළු 30
▁කරානම 30
▁කාබනික 30
▁කාලතුවක 30
▁කැමැතියි 30
▁කෑගැහ 30
▁කියලනම 30
▁කියවෙනවා 30
▁කිරීමේදී 30
▁කිසිවෙකුට 30
▁කුටියක 30
▁කෙලවගන 30
▁කෙෙනක 30
▁ගනුදෙන 30
▁ගමනාන 30
▁ගවේශනය 30
▁ගහනවද 30
▁ගැහෙනවා 30
▁ගිණුමක 30
▁ගුහාවක 30
▁ගෙරාඩ 30
▁ජනේලය 30
▁ජාවට 30
▁ජීවය 30
▁ජීවිතයම 30
▁ජීවිතෙන 30
▁ජුනි 30
▁ජෙනා 30
▁ටප 30
▁ටැ 30
▁ටෑන 30
▁ටිකේ 30
▁ටීල 30
▁ටෙම 30
▁ඩායමකට 30
▁ඩායමෙන 30
▁ණවත 30
▁තරයෙන 30
▁තිබුනනම 30
▁තියනවනේ 30
▁තුවකින 30
▁තේජ 30
▁තේරැම 30
▁තේරුන 30
▁තොටුප 30
▁ථාවෙන 30
▁දකීවි 30
▁දරුනු 30
▁දැනුණා 30
▁දුමක 30
▁දුරද 30
▁දූෂිත 30
▁දෙනෙත 30
▁දේවතාව 30
▁නගරයම 30
▁නලාව 30
▁නාවූ 30
▁නියෝජිතයා 30
▁නියෝජිතයෝ 30
▁නිවැරද 30
▁නීතීඥයා 30
▁නූ 30
▁නෙනෑ 30
▁නෝම 30
▁පටලැවිල 30
▁පටෙ 30
▁පරතරය 30
▁පරදිනවා 30
▁පලයං 30
▁පලියට 30
▁පැතිරෙනවා 30
▁පැහැති 30
▁පියතුමනි 30
▁පිළිතුර 30
▁පිළියෙල 30
▁පෙරහැර 30
▁පොටෝ 30
▁පොහොර 30
▁පොළඹ 30
▁බනම 30
▁බයකරන 30
▁බලකා 30
▁බලාගනියි 30
▁බැරන 30
▁බැරිවෙනවා 30
▁බිඳවැට 30
▁බිමක 30
▁බිෂොප 30
▁බෘක 30
▁බොරුකාරයා 30
▁භූතයා 30
▁මකරු 30
▁මගී 30
▁මනෝවිද 30
▁මයාට 30
▁මහද 30
▁මාටි 30
▁මායාකර 30
▁මැරුවට 30
▁මෑ 30
▁මීස 30
▁මුතුන 30
▁මුදලින 30
▁මුළුමුනින 30
▁මෘගයා 30
▁මෙව 30
▁මොකෙන 30
▁මොලයක 30
▁මෝරු 30
▁යාවිද 30
▁යාළුවකේ 30
▁යොන 30
▁රචාරය 30
▁රථයකට 30
▁රයෝජනය 30
▁රහල 30
▁රහසින 30
▁රාමුව 30
▁රීවා 30
▁රුවත 30
▁රේගල 30
▁රේෂණ 30
▁රෝගයක 30
▁රෝහියෙක 30
▁ලකට 30
▁ලැබයි 30
▁ලිහිල 30
▁ලුහුබඳිනවා 30
▁ලෙඩේ 30
▁ලෙවින 30
▁ලෙසත 30
▁ලෙසයි 30
▁ලොයි 30
▁වංචාවක 30
▁වකුටු 30
▁වතාවකට 30
▁වයිෆ 30
▁වරින 30
▁වරුනේ 30
▁වසරක 30
▁වාණිජ 30
▁වාධීන 30
▁වැව 30
▁විකුණුවා 30
▁විගණකාධිපති 30
▁විනාඩියකට 30
▁වියට 30
▁විසදුම 30
▁විසර 30
▁විහිළුව 30
▁වෙරළේ 30
▁වෙලාවත 30
▁වේදනාවෙන 30
▁වෛ 30
▁සපයනවා 30
▁සමාජයට 30
▁සයිකල 30
▁සරවෙලා 30
▁සරළ 30
▁සලාද 30
▁සහෝදරියන 30
▁සාමකාමී 30
▁සාමයෙන 30
▁සැකකාර 30
▁සැනස 30
▁සැරදේවා 30
▁සිලය 30
▁සිසිර 30
▁සීමිත 30
▁සුරැකුම 30
▁සේවාදායකයෙක 30
▁සෝම 30
▁හතුරෝ 30
▁හදිසියේ 30
▁හයවෙනි 30
▁හලෙන 30
▁හාදය 30
▁හැංගුවා 30
▁හැදෙයි 30
▁හීත 30
▁හීරෝ 30
▁හුකන 30
▁හුකර 30
▁හෙයින 30
▁හෝටලේට 30
▁ළඟටම 30
▁ළඟයි 30
▁ෆුට 30
▁ෆෙඩ 30
.10 29
.9 29
34 29
89 29
ON 29
ace 29
ap 29
ine 29
se 29
අද 29
කිරීමක 29
ගහලා 29
ගැනිම 29
ඞ 29
ඡ 29
ජාන 29
තුමනි 29
ධිපත 29
පාරක 29
මී 29
යනය 29
යේම 29
ලගෙ 29
ලෝක 29
ශයෙන 29
ශා 29
හනය 29
හින 29
ාගාරයේ 29
ාවම 29
ැසි 29
ිතික 29
ිතුම 29
ීටර 29
ීඩ 29
ුනහම 29
ුවාම 29
ෙමු 29
ෙරි 29
ේටම 29
ොවෙන 29
ොවේ 29
ොළ 29
ෲ 29
▁62 29
▁86 29
▁87 29
▁89 29
▁Arthur 29
▁has 29
▁out 29
▁අංගුලිමාල 29
▁අඩවිය 29
▁අතඇරලා 29
▁අදුනගන 29
▁අනාරක 29
▁අනියම 29
▁අනුවර 29
▁අපනයන 29
▁අපූරුයි 29
▁අමනය 29
▁අයර 29
▁අවධානයක 29
▁අසතුට 29
▁අසාධාරණ 29
▁අහුර 29
▁ආකෝ 29
▁ආයතනික 29
▁ආලූ 29
▁ආසාත 29
▁ඇදට 29
▁ඇඳුමට 29
▁ඇමෙරිකා 29
▁ඇහැරිලා 29
▁ඊවෝල 29
▁උදුරගන 29
▁උනු 29
▁උපය 29
▁උපයෝගී 29
▁එකින 29
▁එකෙත 29
▁එතකොටයි 29
▁එයාලාගේ 29
▁ඔයගෙ 29
▁ඔරලෝසු 29
▁ඔරි 29
▁ඔළුවෙ 29
▁කගත 29
▁කථාවක 29
▁කදිමයි 29
▁කයිලි 29
▁කලියෙන 29
▁කාච 29
▁කැඩපත 29
▁කියනවාද 29
▁කුටියට 29
▁කුටීරය 29
▁කුණාට 29
▁කුතුහල 29
▁කූඩ 29
▁කූඹ 29
▁කෘතිම 29
▁කෙරිණි 29
▁කේබ 29
▁කොංග 29
▁කොරිය 29
▁කොහොද 29
▁ගනිස 29
▁ගයාගේ 29
▁ගවේෂ 29
▁ගැහැණිය 29
▁ගිජ 29
▁ගිනුම 29
▁ගිලිහ 29
▁ගුරුවර 29
▁ගොඩබෑම 29
▁ඝාතකයා 29
▁චමත 29
▁චියර 29
▁ඡේදයක 29
▁ජනතා 29
▁ජනේල 29
▁ජේකොබ 29
▁ජොශ 29
▁ටයිටස 29
▁ටාට 29
▁ටැංකියක 29
▁ටැප 29
▁ටීචර 29
▁ටුඩියෝ 29
▁ටෝකියෝ 29
▁තකන 29
▁තැනිතලා 29
▁තිබනෙවා 29
▁තිහක 29
▁තුමාගේ 29
▁තුයි 29
▁තොරයි 29
▁තෝරාගැනීමක 29
▁තෝල 29
▁දනී 29
▁දාට 29
▁දාදුවා 29
▁දිනලා 29
▁දිවයින 29
▁දිශාව 29
▁දුසිමක 29
▁දෙනවට 29
▁දේශන 29
▁දේශය 29
▁දෝශ 29
▁නැගල 29
▁නිසානේ 29
▁නුවන 29
▁නේතන 29
▁නේනෑ 29
▁නේවත 29
▁නෝනට 29
▁පපුවට 29
▁පරාසය 29
▁පරාසයක 29
▁පරිපථ 29
▁පරිපාලනය 29
▁පසුපසින 29
▁පහතට 29
▁පළතුරු 29
▁පාඨමාලාව 29
▁පාඩ 29
▁පැංච 29
▁පැවසීය 29
▁පියාඹ 29
▁පිරිච 29
▁පිරිමින 29
▁පිරිසිදුව 29
▁පිරී 29
▁පිහිටුව 29
▁පිහිටුවීම 29
▁පීල 29
▁පුපුරවලා 29
▁පුවතක 29
▁පුවෙන 29
▁පෘෂ 29
▁පෙපර 29
▁පොතට 29
▁පොරව 29
▁බඳිනවා 29
▁බයෝ 29
▁බලගතු 29
▁බැහැල 29
▁බේරුනේ 29
▁බොරැ 29
▁මටවත 29
▁මතින 29
▁මරිකෝ 29
▁මවිත 29
▁මාකට 29
▁මායාකාරියන 29
▁මැදිරියේ 29
▁මැරියන 29
▁මිඩ 29
▁මුහුණක 29
▁මෙහෙද 29
▁මෙහෙවර 29
▁යනගමන 29
▁යසාර 29
▁යහළුවන 29
▁යාවෙනි 29
▁යැවුවා 29
▁යුගයේ 29
▁යෙහ 29
▁රකට 29
▁රකාශයක 29
▁රතිවාද 29
▁රදේශවල 29
▁රභා 29
▁රමානය 29
▁රයත 29
▁රවේසමෙන 29
▁රාජධාන 29
▁රායෝගික 29
▁රාවිඩ 29
▁රාහකයෙක 29
▁රැලි 29
▁රිකාවෙ 29
▁රුසියානුවන 29
▁රේඩියේ 29
▁රේණ 29
▁රොකී 29
▁රෝනල 29
▁රෝමයේ 29
▁රෝසා 29
▁ලකුණ 29
▁ලතින 29
▁ලබාදී 29
▁ලවය 29
▁ලැබීය 29
▁ලෙසම 29
▁වටිනාම 29
▁වටෙ 29
▁වතුරයි 29
▁වලෙ 29
▁වහා 29
▁වායුව 29
▁වැග 29
▁වැඩිහිට 29
▁විනිසුර 29
▁විනොද 29
▁විමසන 29
▁විලෝප 29
▁විවාද 29
▁වෙලාවටම 29
▁වෝව 29
▁ෂිණ 29
▁සංකිර 29
▁සංකේතය 29
▁සංවිධානයේ 29
▁සඟ 29
▁සතියට 29
▁සදාචාර 29
▁සබද 29
▁සමතුලිත 29
▁සලකනු 29
▁සළකුණ 29
▁සැකස 29
▁සිකන 29
▁සිටියේය 29
▁සිරගෙදර 29
▁සිරස 29
▁සෙබල 29
▁සේගේ 29
▁සොෆ 29
▁සෝන 29
▁හදද 29
▁හඳුනාගැනීම 29
▁හලට 29
▁හාදයව 29
▁හැදිලද 29
▁හැමවෙලා 29
▁හැමෝගෙන 29
▁හැසිරීමක 29
▁හීතල 29
▁හුත 29
▁හුල 29
▁හෝටලය 29
▁හෝටලයේ 29
▁ෆෝර 29
▁ෙනවයෙි 29
, 28
.08 28
RA 28
les 28
op 28
ort 28
ra 28
son 28
අහ 28
ගද 28
ගාම 28
ජැක 28
ජින 28
ණෙ 28
දියි 28
දීන 28
නාට 28
පැත 28
මනය 28
යකුට 28
යමු 28
ලාගේ 28
වතාවක 28
වාන 28
වුනාම 28
වෙම 28
ාවෙදි 28
ිතය 28
ිලිස 28
ුණත 28
ුවහම 28
▁007 28
▁2005 28
▁2016 28
▁68 28
▁69 28
▁91 28
▁Gandalf 28
▁LLC 28
▁Quinton 28
▁from 28
▁her 28
▁his 28
▁life 28
▁up 28
▁අගනුවරට 28
▁අගමැත 28
▁අගලවත 28
▁අඩිපාරවල 28
▁අඩුකරන 28
▁අඩුවක 28
▁අනාත 28
▁අනාවැකිය 28
▁අනුෂ 28
▁අඳුනන 28
▁අපකීර 28
▁අපිම 28
▁අලු 28
▁අලෙව 28
▁අලෛහිස 28
▁අවබෝධය 28
▁අසර 28
▁අහා 28
▁අහෝ 28
▁ආදි 28
▁ඇඟෙව 28
▁ඇතිවෙයි 28
▁ඇනලා 28
▁ඇරුනා 28
▁ඉඳං 28
▁උදාව 28
▁උදාසීන 28
▁උපකරන 28
▁උපදසෝ 28
▁උපස 28
▁උලෙළ 28
▁එතනදී 28
▁එහදෙි 28
▁එහාපැත 28
▁එහෙකටද 28
▁එළිදරව 28
▁ඒප 28
▁ඒමට 28
▁ඔරලොස 28
▁ඔරව 28
▁ඔරොත 28
▁ඕනමෙ 28
▁ඕනෙත 28
▁කරකවන 28
▁කරපල 28
▁කවදාද 28
▁කාරියක 28
▁කැමතියිද 28
▁කැලඹ 28
▁කුංග 28
▁කුකුලෙක 28
▁කුටි 28
▁කුණ 28
▁කුමාරිකාවක 28
▁කූඩාරම 28
▁කෘ 28
▁කොනේ 28
▁කෝමා 28
▁ඛනිජ 28
▁ගං 28
▁ගැටලුවක 28
▁ගැටෙන 28
▁ගැඹුරින 28
▁ගෑණියෙක 28
▁ගුරුතුමණි 28
▁ගොවි 28
▁ගෞරවනීය 28
▁චාලී 28
▁චැට 28
▁චුටි 28
▁චේද 28
▁ජීවිතෙත 28
▁ජීවිතේටම 28
▁ජීවී 28
▁ජුල 28
▁ජෙරල 28
▁ටය 28
▁ටිකකුයි 28
▁ඩිට 28
▁ඩෝලන 28
▁තදබල 28
▁තදයෙක 28
▁තමක 28
▁තයාට 28
▁තලට 28
▁තැට 28
▁තිරිසන 28
▁තුතිය 28
▁තොගයක 28
▁ථනාව 28
▁ථව 28
▁ථාවරයි 28
▁දඬ 28
▁දයකෝම 28
▁දවෙනවා 28
▁දාකින 28
▁දාපං 28
▁දියෙන 28
▁දුරකින 28
▁දුවද 28
▁දූවිල 28
▁දෙදි 28
▁දෙනකොට 28
▁දෙයියො 28
▁දෝෂයක 28
▁ධීකරණය 28
▁ධීවර 28
▁නංගී 28
▁නගරෙම 28
▁නමය 28
▁නාය 28
▁නැහැදිච 28
▁නෑලු 28
▁නිළධාරින 28
▁නුබට 28
▁පංති 28
▁පයන 28
▁පරාජිතයෙක 28
▁පරිමාණ 28
▁පවක 28
▁පවරන 28
▁පසුතැවිලි 28
▁පහරද 28
▁පහසුව 28
▁පාසලෙන 28
▁පිංතූරයක 28
▁පිඟන 28
▁පියතුම 28
▁පියාඹනවා 28
▁පිරිල 28
▁පිරිවැය 28
▁පිරෙන 28
▁පිළිවෙත 28
▁පීටා 28
▁පුටුව 28
▁පුනරාවර 28
▁පුරවැසියෙක 28
▁පුෂ 28
▁පුහුණුවීම 28
▁පූජාව 28
▁පොරොත 28
▁පොලොව 28
▁බංක 28
▁බයිසිකල 28
▁බරපතළ 28
▁බවෙනවා 28
▁බාරයි 28
▁බැටරියක 28
▁බැඳී 28
▁බැසිල 28
▁බැළ 28
▁බෙදිලා 28
▁බොරිස 28
▁භූතයෙක 28
▁මංදා 28
▁මරණව 28
▁මහෙ 28
▁මහෙස 28
▁මාලා 28
▁මැමත 28
▁මිකී 28
▁මිරික 28
▁මිසයිලයක 28
▁මුණගැහෙමු 28
▁මුලතිව 28
▁මෙතැනදී 28
▁මෙයාලගේ 28
▁මෙහෙයුමකට 28
▁මොරාන 28
▁මොලයේ 28
▁යාමේ 28
▁යායාත 28
▁යාලයක 28
▁යුතුද 28
▁රකාර 28
▁රතිපල 28
▁රතිවිරුද 28
▁රදා 28
▁රධානී 28
▁රබර 28
▁රයෝග 28
▁රාජකාරියට 28
▁රාට 28
▁රෑකෑම 28
▁රියල 28
▁රීතිමත 28
▁රෙයි 28
▁ලිංගා 28
▁ලීන 28
▁ලුසියා 28
▁ලොකට 28
▁වටේම 28
▁වතු 28
▁වතුරෙ 28
▁වතෙක 28
▁වදේදි 28
▁වනවද 28
▁වපන 28
▁වභාවධර 28
▁වසංගතය 28
▁වහලෙ 28
▁වාරික 28
▁වැටුනු 28
▁වැටෙයි 28
▁වැඩත 28
▁වැදුනේ 28
▁වැරදිද 28
▁වැරැදි 28
▁වැහුවා 28
▁විකෘත 28
▁විචල 28
▁විජේ 28
▁විදිහටද 28
▁විනිවිද 28
▁විවිධාකාර 28
▁විසදගන 28
▁විහිලුවට 28
▁වීක 28
▁වෙළ 28
▁වෙළඳපොළ 28
▁වේදන 28
▁වේලාසන 28
▁වේශ 28
▁ශය 28
▁ෂතාවය 28
▁ෂෙ 28
▁සංකේතයක 28
▁සංසිද 28
▁සගර 28
▁සතිඅන 28
▁සතුරෝ 28
▁සමඟින 28
▁සමනල 28
▁සසඳන 28
▁සාතන 28
▁සාල 28
▁සැමවිටම 28
▁සැරිස 28
▁සියෙ 28
▁සිරිත 28
▁සුදුමැලි 28
▁සුනඛ 28
▁සුරංගනාවි 28
▁සුරේෂ 28
▁සෙද 28
▁සෙවනැල 28
▁සෝව 28
▁හඳුනාගෙන 28
▁හපොයි 28
▁හමුද 28
▁හැකර 28
▁හැමොටම 28
▁හැසිරෙනවා 28
▁හිටලා 28
▁හිප 28
▁හිරකාරයෙක 28
▁හුරුබුහුටි 28
▁හෙදර 28
▁හෙර 28
▁හෙවන 28
▁හොරකන 28
▁හෝටලයක 28
▁ළඟම 28
▁ෆියෝනා 28
▁ෆෝස 28
▁ෙනා 28
35 27
CA 27
ash 27
ik 27
ow 27
st 27
ංස 27
ඇති 27
ඉක 27
උත 27
කරණයක 27
කරුවො 27
කාරියි 27
ජු 27
ඥා 27
ණයේ 27
තව 27
නයන 27
නයි 27
නී 27
පැ 27
බුන 27
මිනි 27
රියා 27
වයක 27
වැල 27
වීමෙන 27
හොදයි 27
හොඳයි 27
ානුවා 27
ානුවො 27
ාරී 27
ාරු 27
ිකට 27
ිකාවට 27
ියගෙ 27
ීමකට 27
ුණාම 27
ුරි 27
ුරුදු 27
ුවෙච 27
ෙකුට 27
ොලි 27
▁2017 27
▁Blackwell 27
▁Hey 27
▁SBE 27
▁VIP 27
▁robot 27
▁take 27
▁අංකෙ 27
▁අණක 27
▁අතරමන 27
▁අතිවිශාල 27
▁අදුනා 27
▁අනතුරෙන 27
▁අනවසරයෙන 27
▁අනුමානය 27
▁අපිරිසිදු 27
▁අමත 27
▁අමනයා 27
▁අමනාප 27
▁අමාරුවෙ 27
▁අයදින 27
▁අයැද 27
▁අයිතිකාර 27
▁අරයට 27
▁අවිනිශ 27
▁අහවර 27
▁ආකාරයකට 27
▁ආග 27
▁ආදරියේ 27
▁ආහාරයක 27
▁ඇගය 27
▁ඇතැයි 27
▁ඇතුලටම 27
▁ඇමෙරිකාව 27
▁ඉංදියාව 27
▁ඉච 27
▁ඉබේ 27
▁ඉලව 27
▁උට 27
▁උපතින 27
▁උපදේශන 27
▁එනතුරු 27
▁එබැවින 27
▁එමින 27
▁එයාගනේ 27
▁එලවනවා 27
▁එලෙස 27
▁ඒකනිසා 27
▁ඒකිගේ 27
▁ඔබගෙන 27
▁ඔබල 27
▁ඔෆිසර 27
▁ඕකම 27
▁ඕනවටත 27
▁ඕවන 27
▁කගේ 27
▁කපොල 27
▁කවමදාවත 27
▁කාලයේදී 27
▁කැවිලි 27
▁කෑව 27
▁කිපයක 27
▁කිලිනොච 27
▁කිසිදාක 27
▁කුලිය 27
▁කුහරයක 27
▁කෙටියෙන 27
▁කොළුවා 27
▁කෝමලී 27
▁ගඟේ 27
▁ගනිද 27
▁ගනෙ 27
▁ගඳක 27
▁ගමක 27
▁ගලයකු 27
▁ගහේ 27
▁ගාත 27
▁ගීකරණය 27
▁ගෙදරදී 27
▁ගෙනියනව 27
▁ගෙවීමක 27
▁ගොඩයි 27
▁ගොම 27
▁ඝණ 27
▁චාවේ 27
▁ඡාවක 27
▁ජිවිතයට 27
▁ජිවින 27
▁ජේසුනි 27
▁ජේසුනේ 27
▁ජෝඩු 27
▁ටයිට 27
▁ටිට 27
▁ටිනල 27
▁ටෝම 27
▁ඩනය 27
▁ඩාව 27
▁ඩැනි 27
▁ඩියොක 27
▁ඩෙව 27
▁ඩේට 27
▁තණකොල 27
▁තනිකර 27
▁තමට 27
▁තියාදු 27
▁තියෙයිද 27
▁තුගත 27
▁තූරෙ 27
▁තෝරගෙන 27
▁ථානවල 27
▁දණහිස 27
▁දමාවි 27
▁දරුවාව 27
▁දරේ 27
▁දශක 27
▁දැනටත 27
▁දැරිය 27
▁දිනයට 27
▁දූෂ 27
▁දොඩම 27
▁නංග 27
▁නතරකරන 27
▁නවල 27
▁නාමයක 27
▁නැගෙනහිරට 27
▁නැතිකරන 27
▁නියමුවන 27
▁නිරත 27
▁නිවාසය 27
▁නිළධාරියා 27
▁නුවොත 27
▁නූන 27
▁නෙවයිද 27
▁නොතේරෙන 27
▁නොපෙන 27
▁පතිත 27
▁පබ 27
▁පලිගැනීම 27
▁පවරා 27
▁පහරදීමක 27
▁පාඩුව 27
▁පාලනයට 27
▁පැනගෙන 27
▁පැමිනෙනවා 27
▁පැරොව 27
▁පිටවීමේ 27
▁පිපාස 27
▁පිපිරෙන 27
▁පියතුමා 27
▁පිරිතාලෙට 27
▁පීර 27
▁පුණ 27
▁පුතාගෙ 27
▁පුතාද 27
▁පුවර 27
▁පෙනවා 27
▁පේනවනෙ 27
▁පොරවල 27
▁පොලීස 27
▁පෞර 27
▁බඳිනව 27
▁බයවුනා 27
▁බරොව 27
▁බලමින 27
▁බාබේ 27
▁බැහැනේ 27
▁බියා 27
▁බිහිසුණු 27
▁බූරුවෙක 27
▁භයේ 27
▁භාෂාවක 27
▁මකා 27
▁මකින 27
▁මගහැ 27
▁මච 27
▁මනා 27
▁මරාද 27
▁මළසිර 27
▁මාරුවෙන 27
▁මාළුවා 27
▁මැකින 27
▁මිටර 27
▁මිනිමරුවෙක 27
▁මිනිසෙකු 27
▁මිනුම 27
▁මුණුපුර 27
▁මෙෙහට 27
▁මේතන 27
▁මොහුට 27
▁මොහොතකින 27
▁මෝඩකම 27
▁මෝසෙස 27
▁යාළුකම 27
▁යාළුවට 27
▁යෙක 27
▁රංචුවක 27
▁රදාන 27
▁රදීප 27
▁රයෝජනයක 27
▁රශංසා 27
▁රිකී 27
▁රියාවලියක 27
▁රූපවාහි 27
▁ලංකාව 27
▁ලගමු 27
▁ලබපු 27
▁ලයිඩන 27
▁ලිංගිකත 27
▁ලිහන 27
▁ලූකා 27
▁ලෙමින 27
▁ලේල 27
▁ලෝරල 27
▁වගාව 27
▁වදවෙනවා 27
▁වයඹ 27
▁වයලීන 27
▁වයිස 27
▁වරට 27
▁වරන 27
▁වාමීනි 27
▁වැඩිහිටියෙක 27
▁වැසියා 27
▁වැළඳ 27
▁විකාශ 27
▁විතීය 27
▁විදියටද 27
▁විදියටයි 27
▁විසිරිලා 27
▁වේගේ 27
▁වේවී 27
▁ශෝ 27
▁ෂතා 27
▁ෂපාතී 27
▁ෂයින 27
▁ෂැගී 27
▁ෂිකාර 27
▁සංවිධානයක 27
▁සතුටුදායක 27
▁සපයයි 27
▁සමගයි 27
▁සමරමු 27
▁සමානව 27
▁සමුදෙන 27
▁සරාග 27
▁සවාරි 27
▁සවේ 27
▁සාහා 27
▁සැකකරුවන 27
▁සැකකරුවෙක 27
▁සැකැස 27
▁සැඟවී 27
▁සිදුවේ 27
▁සෙනග 27
▁හරකා 27
▁හැගිම 27
▁හිමිකාර 27
▁හිෙතන 27
▁හෙත 27
▁හොයගන 27
▁හොරකං 27
▁හොරකමක 27
▁ෙසායාගත 27
▁ෙහායාගන 27
22 26
la 26
ou 26
ter 26
අපේ 26
එච 26
ඔක 26
ඔයාලා 26
කදි 26
කුයි 26
කේස 26
ඥයා 26
තී 26
බාධ 26
බැප 26
මේල 26
යාමට 26
රයේ 26
රුවා 26
ලියා 26
ලූ 26
වියන 26
වෙදි 26
හෙල 26
ෆා 26
ාගාරයක 26
ාගැනීම 26
ිතරම 26
ිසා 26
ුකමට 26
ුකුලව 26
ුවනවා 26
ෙමි 26
ෝවන 26
▁51 26
▁63 26
▁98 26
▁CO 26
▁Choong 26
▁DC 26
▁How 26
▁Jo 26
▁Lena 26
▁New 26
▁So 26
▁km 26
▁අංශයෙන 26
▁අකාර 26
▁අකැම 26
▁අඩනවා 26
▁අඩේ 26
▁අනවසර 26
▁අමාල 26
▁අරඹන 26
▁අරි 26
▁අවනම 26
▁අවොත 26
▁අහංකාරකම 26
▁අහමු 26
▁ආරන 26
▁ඇගෙව 26
▁ඇඟවීම 26
▁ඇසින 26
▁ඉතාල 26
▁ඉදිර 26
▁ඉනිම 26
▁ඉඳී 26
▁උපකාරයක 26
▁උපාධියක 26
▁උමගක 26
▁උඹලාට 26
▁උසාව 26
▁ඍ 26
▁එකකම 26
▁එයාපෝට 26
▁එලියක 26
▁එහෙමමයි 26
▁එළඹ 26
▁ඒවගෙ 26
▁ඔටං 26
▁ඔටෝබෝට 26
▁ඔලිව 26
▁ඔලුවෙන 26
▁ඔවන 26
▁ඔවුනට 26
▁ඔහේලට 26
▁ඕනිනම 26
▁ඕලන 26
▁කඳුකර 26
▁කරම 26
▁කරැ 26
▁කලාපයක 26
▁කලි 26
▁කවියක 26
▁කසල 26
▁කාරකම 26
▁කාරනාව 26
▁කාරයක 26
▁කාරයට 26
▁කාරිය 26
▁කැලී 26
▁කෑගසයි 26
▁කිමිදුම 26
▁කිවුවම 26
▁කීමි 26
▁කීරා 26
▁කුකුළ 26
▁කුටියේ 26
▁කුමාරිය 26
▁කුරුණෑගල 26
▁කෙනාගෙ 26
▁කෙලවෙයන 26
▁කොටසින 26
▁කොඩ 26
▁කොහාට 26
▁කොහොල 26
▁කෝපය 26
▁ගමනාගමන 26
▁ගමම 26
▁ගසා 26
▁ගාගෙන 26
▁ගානවා 26
▁ගැහැනියක 26
▁ගෑවිලා 26
▁ගිලින 26
▁ගිලෙනවා 26
▁ගොඩේ 26
▁චට 26
▁චිව 26
▁ජගත 26
▁ජජ 26
▁ජානමය 26
▁ජැන 26
▁ජීනියස 26
▁ජුඩ 26
▁ජේත 26
▁ජොල 26
▁ටෙරන 26
▁ඩාල 26
▁ඩිජිටල 26
▁ඩොමිනික 26
▁ණයේ 26
▁තටමයි 26
▁තනා 26
▁තනියමෙ 26
▁තරගයේ 26
▁තැග 26
▁තැත 26
▁තැඹිලි 26
▁තෑ 26
▁තියානි 26
▁තිල 26
▁තිවෙලා 26
▁තුනී 26
▁තූත 26
▁ථාපන 26
▁දකිද 26
▁දඩයමට 26
▁දනෙවා 26
▁දනේ 26
▁දරයක 26
▁දහවල 26
▁දාද 26
▁දැමීමට 26
▁දිනැති 26
▁දිරය 26
▁දිහාම 26
▁දුකට 26
▁දෙත 26
▁දේක 26
▁දේවරාජ 26
▁දේස 26
▁දොරකඩ 26
▁ධී 26
▁නපුරුයි 26
▁නාකියා 26
▁නාලය 26
▁නාශක 26
▁නැං 26
▁නැටුමක 26
▁නැණ 26
▁නැවති 26
▁නිදැල 26
▁නිබන 26
▁නෙද 26
▁නේප 26
▁නොඑන 26
▁නොමැරී 26
▁නොවේවි 26
▁ඳා 26
▁පටියක 26
▁පඩිය 26
▁පණිවිඩේ 26
▁පරදුවට 26
▁පරා 26
▁පලිය 26
▁පවසනවා 26
▁පහසුවක 26
▁පැටළ 26
▁පැවසුවා 26
▁පිඩෝ 26
▁පිඹින 26
▁පියාණෙනි 26
▁පියාන 26
▁පිරිනමන 26
▁පිහිද 26
▁පෘතුවියේ 26
▁පේශ 26
▁ඵක 26
▁බඩට 26
▁බදා 26
▁බලමුකෝ 26
▁බැඳල 26
▁බෙරිහන 26
▁බොටලේ 26
▁බොහෝමයක 26
▁භයානකම 26
▁භාරදෙන 26
▁භෝජන 26
▁මතුව 26
▁මනම 26
▁මරනය 26
▁මවයි 26
▁මහජනතාව 26
▁මහනුවර 26
▁මාතා 26
▁මානයේ 26
▁මාරියා 26
▁මාළුවෙක 26
▁මැදුර 26
▁මැරයන 26
▁මැරයි 26
▁මිනිමැරුම 26
▁මියාසකි 26
▁මිලි 26
▁මීයො 26
▁මුඩු 26
▁මුදාහැර 26
▁මුදුව 26
▁මේකප 26
▁මේහෙ 26
▁මොයි 26
▁යටපත 26
▁යවනව 26
▁යාඝ 26
▁යාපාරයේ 26
▁යාළුවව 26
▁යුර 26
▁යුරෝ 26
▁යෙහි 26
▁යෝධයා 26
▁රංගන 26
▁රගපෑම 26
▁රජතුමණි 26
▁රපුන 26
▁රවන 26
▁රවීණ 26
▁රශංස 26
▁රසංග 26
▁රාජලියා 26
▁රැකවලාගෙ 26
▁රැසැක 26
▁රිංගන 26
▁රියම 26
▁රියාකරන 26
▁රියෙන 26
▁රීසියෙන 26
▁රෙම 26
▁රේඩ 26
▁රෝමන 26
▁රෝහියා 26
▁ලංවෙන 26
▁ලමු 26
▁ලයනල 26
▁ලෑ 26
▁ලියකිවිලි 26
▁ලුහුබැන 26
▁ලෙට 26
▁ලෙඩින 26
▁ලේඛනයක 26
▁ලෝයර 26
▁වකුගඩු 26
▁වනන 26
▁වරදට 26
▁වලිනුයි 26
▁වලෙේ 26
▁වාගන 26
▁වාශ 26
▁වාසයිද 26
▁වැටුණ 26
▁වැඩිදුර 26
▁වැඩිමල 26
▁වැතිරිලා 26
▁වැදගැම 26
▁වැරදීම 26
▁වැසියෝ 26
▁විකිරණශීලී 26
▁විකුණුම 26
▁විධි 26
▁විරෝධය 26
▁විවාහක 26
▁විසිල 26
▁වීමකට 26
▁වීරයො 26
▁වීසා 26
▁වෙනද 26
▁වෙලාම 26
▁වේලක 26
▁ශාඛ 26
▁ශිට 26
▁ශීතල 26
▁සංචිත 26
▁සදාකාලික 26
▁සමතලා 26
▁සරෝජා 26
▁සහල 26
▁සහෝදරයව 26
▁සාධනය 26
▁සාරි 26
▁සැරස 26
▁සිංද 26
▁සිකුරාද 26
▁සිතියමේ 26
▁සිදුකරන 26
▁සිනාස 26
▁සිහියෙන 26
▁සීත 26
▁සුපිරියි 26
▁සුලඟ 26
▁සූඳානම 26
▁සෙඩ 26
▁සෙබළු 26
▁සේනාපති 26
▁සේවකයා 26
▁සොඩ 26
▁හංඟ 26
▁හතකට 26
▁හතුර 26
▁හදනකොට 26
▁හදයි 26
▁හැංඟ 26
▁හැටියෙම 26
▁හැදී 26
▁හැමතැන 26
▁හිතං 26
▁හිසකෙස 26
▁හීල 26
▁හුහ 26
▁හෙතුවක 26
▁හොදා 26
▁හොයනවද 26
▁හෝප 26
▁ළු 26
▁ෆිස 26
▁ෙතා 26
▁ෙෆ 26
,2 25
--- 25
33 25
ars 25
ler 25
ne 25
ord 25
ris 25
කයකේ 25
කවත 25
කළ 25
කළා 25
ගිහින 25
ඩියෝ 25
තල 25
තිකා 25
දේදි 25
නයේ 25
පාද 25
පුරුදු 25
පුවහම 25
පො 25
බත 25
භාග 25
වව 25
වෙනියට 25
වෙයන 25
සත 25
සිද 25
සියක 25
ානයක 25
ාරම 25
ාශ 25
ැටිය 25
ිකමක 25
ිනෝ 25
ියනම 25
ියෙකුට 25
ියේග 25
ිරිම 25
ිරිලා 25
ිහක 25
ිළි 25
ීතා 25
ුකූලව 25
ුවෙදි 25
ේත 25
ෝච 25
▁....... 25
▁011 25
▁74 25
▁76 25
▁El 25
▁Frank 25
▁Globodyne 25
▁Hank 25
▁MaI 25
▁Ne 25
▁Red 25
▁SSC 25
▁lp 25
▁n 25
▁අංගනය 25
▁අගල 25
▁අටවන 25
▁අතරමග 25
▁අතරමැද 25
▁අදක 25
▁අදහසට 25
▁අනාවැකි 25
▁අනුප 25
▁අපහස 25
▁අයියෙ 25
▁අවවාදයක 25
▁අසනීපයක 25
▁අසානෝ 25
▁අහසින 25
▁අළ 25
▁ආඥ 25
▁ආනන 25
▁ආයෝජ 25
▁ආරිෆ 25
▁ආරෝපණය 25
▁ආවරනය 25
▁ආවාට 25
▁ආවාද 25
▁ආසද 25
▁ආසාව 25
▁ඇටය 25
▁ඇදීම 25
▁ඇදුමට 25
▁ඇවිස 25
▁ඇසිඩ 25
▁ඉපදුනා 25
▁ඉරියව 25
▁ඉරිසියා 25
▁ඉවරවෙලා 25
▁උඩම 25
▁එකමයි 25
▁එකමුතු 25
▁එනමුත 25
▁එයලා 25
▁එහම 25
▁එළදෙනක 25
▁එෙකන 25
▁ඒකකයට 25
▁ඒෙකන 25
▁ඔයාග 25
▁ඔරලෝස 25
▁ඕල 25
▁ඕෙනද 25
▁කණට 25
▁කණිෂ 25
▁කතාකල 25
▁කදවුරු 25
▁කැපුවා 25
▁කැමරාවට 25
▁කෑමයි 25
▁කිමිදෙන 25
▁කිරීමත 25
▁කුවෙ 25
▁කෙනාගෙන 25
▁කෙලර 25
▁කෙලි 25
▁කෝපර 25
▁කෝබ 25
▁කෝවිලේ 25
▁ගජ 25
▁ගණිකාව 25
▁ගණිතය 25
▁ගනිවි 25
▁ගලනවා 25
▁ගැටලුව 25
▁ගැහැණුන 25
▁ගිණුමට 25
▁ගුයිලම 25
▁ගුරේරෝ 25
▁ගුහ 25
▁ගෙනවා 25
▁ගෙනියමු 25
▁ගොඩවල 25
▁චේ 25
▁ඡායා 25
▁ජනරාල 25
▁ජයේ 25
▁ජිවතුන 25
▁ජූඩි 25
▁ටැබ 25
▁ඩාගාරය 25
▁ණයගැතියි 25
▁තනවද 25
▁තමිල 25
▁තයෙ 25
▁තලේ 25
▁තහවුරුයි 25
▁තාවකට 25
▁තීමය 25
▁තුරුල 25
▁තුවත 25
▁තෙද 25
▁තේරනෙ 25
▁තේරිලා 25
▁තේරෙනවනෙ 25
▁ථිරවම 25
▁දැකීමට 25
▁දැනුනද 25
▁දැව 25
▁දිනාගත 25
▁දිශා 25
▁දෙමල 25
▁දෙමාප 25
▁දේටම 25
▁ධිත 25
▁ධිමතා 25
▁ධෙ 25
▁නිපැයුම 25
▁නියමිතයි 25
▁නියේ 25
▁නිසැකයෙන 25
▁නිහඩව 25
▁නීතිඥයා 25
▁නීතීඥයෙක 25
▁නුයි 25
▁නේකියලා 25
▁නොනැසී 25
▁පටං 25
▁පණිවුඩයක 25
▁පථයට 25
▁පදය 25
▁පනයට 25
▁පනහක 25
▁පරපුර 25
▁පරිඝනක 25
▁පරිසරය 25
▁පලමුව 25
▁පාණ 25
▁පාවාද 25
▁පැමිණියේ 25
▁පැළඳගෙන 25
▁පියාගෙන 25
▁පුඩි 25
▁පුපුරනවා 25
▁පෙගී 25
▁පෙළපාල 25
▁පොකට 25
▁පොඩිම 25
▁බලපා 25
▁බලමුද 25
▁බලාගාර 25
▁බලෝල 25
▁බාපු 25
▁බැජ 25
▁බැරල 25
▁බැළුවා 25
▁බෑණා 25
▁බිංදුවක 25
▁බිලාල 25
▁බීන 25
▁බුවෙන 25
▁බොලේ 25
▁භාරකාර 25
▁මගතේ 25
▁මගහැරෙන 25
▁මතකනේ 25
▁මතුරා 25
▁මයොව 25
▁මරනව 25
▁මලේ 25
▁මහේෂ 25
▁මාතෘකාව 25
▁මැත 25
▁මැතිසන 25
▁මැරුණෙ 25
▁මිණි 25
▁මිනියක 25
▁මිනිසාගේ 25
▁මුග 25
▁මෙකට 25
▁මෙතනද 25
▁මේච 25
▁මොනාටද 25
▁මොනිකා 25
▁මොබයිල 25
▁මොහ 25
▁මෝනා 25
▁යනවනේ 25
▁යූහ 25
▁රපටියේ 25
▁රමන 25
▁රමාංක 25
▁රයේජන 25
▁රසායනාගාර 25
▁රියෙ 25
▁රියෝ 25
▁රීඩකයා 25
▁රීඩකයින 25
▁රූක 25
▁රූකඩ 25
▁රෙඩී 25
▁රෙහෙල 25
▁රේඩියෝවෙන 25
▁රොබෝවෙක 25
▁රොල 25
▁රෝටීන 25
▁ලගුවාර 25
▁ලප 25
▁ලැබුණද 25
▁ලුන 25
▁ලෙනිහන 25
▁ලෝග 25
▁වගකීමෙන 25
▁වනව 25
▁වයෙ 25
▁වරූපය 25
▁වසීර 25
▁වාදයක 25
▁වාමිපුරුෂ 25
▁වැක 25
▁වැකුම 25
▁වැඩුනේ 25
▁වැදුණා 25
▁වැර 25
▁වැරදුනා 25
▁වැහි 25
▁විකෘතික 25
▁විකේතනය 25
▁විනාශයි 25
▁විමසුම 25
▁වියා 25
▁විරෝධතා 25
▁විලී 25
▁විහිලුව 25
▁වීමකි 25
▁වුව 25
▁වෙඩ 25
▁වෙඩිතැබ 25
▁වෙලාවේම 25
▁වෙළාවක 25
▁වෙළුම 25
▁ශරීරයට 25
▁ශේක 25
▁සටෝ 25
▁සතාව 25
▁සමාජයක 25
▁සයන 25
▁සරලවම 25
▁සහායකයෙක 25
▁සළුව 25
▁සිංහානියා 25
▁සිටියෙ 25
▁සිඩන 25
▁සිහිනැති 25
▁සුදීර 25
▁සුවඳක 25
▁සොබාද 25
▁සෝනාර 25
▁හඩක 25
▁හබ 25
▁හාඩ 25
▁හාවි 25
▁හිටියානම 25
▁හිනාවක 25
▁හිරගෙ 25
▁හුලං 25
▁හුවමාර 25
▁හෙමිහිට 25
▁හොඳමයි 25
▁ෆුලර 25
▁ෆෙ 25
▁ෙහලිෙකාප 25
24 24
43 24
DF 24
SP 24
ian 24
oc 24
අල 24
එකට 24
ඥාව 24
ඩො 24
ණයි 24
තියන 24
දුර 24
නීය 24
නො 24
පලා 24
පාන 24
පැන 24
පූ 24
බැල 24
බෙ 24
යටම 24
යාද 24
යාවි 24
යෝජන 24
රාජු 24
ලයේ 24
වනය 24
වානා 24
ශින 24
ෂණ 24
ෂණය 24
ෂයක 24
සාර 24
සුව 24
හාම 24
හුණා 24
ාගැන 24
ාටි 24
ාවයක 24
ාවලිය 24
ැදිර 24
ැවිල 24
ැවෙන 24
ැහැදිලි 24
ිනිය 24
ියාවක 24
ිවට 24
ීසි 24
ුණාද 24
ුනන 24
ුවෙයි 24
ුවෙල 24
ූවා 24
ෙබ 24
ේනියම 24
ේවා 24
ොයිස 24
ෞත 24
▁1,000 24
▁20,000 24
▁700 24
▁Ch 24
▁Chun 24
▁III 24
▁Keefe 24
▁Mockingjay 24
▁On 24
▁Ph 24
▁Qu 24
▁That 24
▁What 24
▁Wing 24
▁good 24
▁heart 24
▁ii 24
▁just 24
▁know 24
▁right 24
▁won 24
▁අකිලන 24
▁අඩුවෙලා 24
▁අඬනවා 24
▁අතවර 24
▁අතෑරියා 24
▁අතුගාලා 24
▁අධිපත 24
▁අනිද 24
▁අනුබල 24
▁අනුරූප 24
▁අපු 24
▁අමිහිරි 24
▁අරගෙනද 24
▁අරිනව 24
▁අවධානෙන 24
▁අවමංගල 24
▁අවර 24
▁අසාධාර 24
▁අහගෙනද 24
▁අහනවද 24
▁ආදරෙයිද 24
▁ආනයනය 24
▁ආරාධිත 24
▁ආසා 24
▁ඇතුලුව 24
▁ඇඳගත 24
▁ඇරිසෝනා 24
▁ඇලිලා 24
▁ඉංද 24
▁ඉගිලෙන 24
▁ඉතිහාසයක 24
▁ඉහ 24
▁ඉහළම 24
▁උගෙන 24
▁උපකාරී 24
▁උවද 24
▁උසට 24
▁උසම 24
▁එතෙකාට 24
▁ඔබටත 24
▁ඔබටයි 24
▁ඔයාගැන 24
▁ඔයාගෙත 24
▁ඕනකරන 24
▁කටත 24
▁කනස 24
▁කමිටුවක 24
▁කරනා 24
▁කරවයි 24
▁කරුවෝ 24
▁කලෝතින 24
▁කාලොස 24
▁කාශ 24
▁කැමට 24
▁කැරපොත 24
▁කැරි 24
▁කැලිෆෝන 24
▁කෑවද 24
▁කිරීමකට 24
▁කුටීර 24
▁කුරේෂි 24
▁කෘතීම 24
▁කෙඳ 24
▁කොමාන 24
▁කොමිසම 24
▁කොහනේද 24
▁කොහේදිද 24
▁කෝටෙස 24
▁ගරුත 24
▁ගහගත 24
▁ගිලිලා 24
▁ගෙවිලා 24
▁ගොඩනග 24
▁ගොඩබැස 24
▁ගෝනා 24
▁චලනයක 24
▁චිලී 24
▁ඡාව 24
▁ඡේදයේ 24
▁ජනපති 24
▁ජනාධිපතිතුමනි 24
▁ජයගන 24
▁ජැස 24
▁ජෛ 24
▁ටිප 24
▁ටෙජ 24
▁ටෙර 24
▁ටෙලර 24
▁ටෝබි 24
▁ඨයා 24
▁ඩනයේ 24
▁ඩැ 24
▁ඩෘ 24
▁තනී 24
▁තමාගේ 24
▁තමුසෙත 24
▁තයගෙ 24
▁තරකාර 24
▁තරහව 24
▁තලන 24
▁තැටි 24
▁තිකරු 24
▁තිබිණි 24
▁තිබීම 24
▁තියාගනින 24
▁තිරසාර 24
▁තෙරෙන 24
▁තෙරේසා 24
▁ථාවල 24
▁ථිකය 24
▁දයියනේ 24
▁දයෙන 24
▁දවසයි 24
▁දැකිම 24
▁දැනගනියි 24
▁දැනේ 24
▁දියානා 24
▁දියාවෙ 24
▁දියුණුවක 24
▁දිවින 24
▁දුවමු 24
▁දූප 24
▁දෙනාගෙන 24
▁දෙවෙනියා 24
▁දේයි 24
▁ධනේශ 24
▁නතේ 24
▁නරකට 24
▁නවානෙ 24
▁නාග 24
▁නාගෙන 24
▁නෑදෑයෝ 24
▁නියැල 24
▁නිරායුධ 24
▁නිරූපණ 24
▁නිශාන 24
▁නීතිපති 24
▁නූතන 24
▁නොග 24
▁නොගියොත 24
▁නොදැනුවත 24
▁නොබ 24
▁පතේ 24
▁පනිවිඩ 24
▁පනෙී 24
▁පරමාණුක 24
▁පරිඝණක 24
▁පහරවල 24
▁පාග 24
▁පාලා 24
▁පාලු 24
▁පාහේ 24
▁පැහැදිළියි 24
▁පිළිවෙලට 24
▁පුනර 24
▁පුරාවිද 24
▁පුරු 24
▁බංකර 24
▁බටන 24
▁බනිනවා 24
▁බබාගේ 24
▁බබාල 24
▁බාහුබල 24
▁බැලුවට 24
▁බිරිදක 24
▁බීට 24
▁බුට 24
▁බූට 24
▁බොඩ 24
▁භූතයි 24
▁මඟීන 24
▁මතයක 24
▁මනසින 24
▁මවපු 24
▁මාණශීලීත 24
▁මාරුකරන 24
▁මාළි 24
▁මැරීම 24
▁මැරුණම 24
▁මිදි 24
▁මිනිසාට 24
▁මිනිහාව 24
▁මුවහත 24
▁මුහුදෙ 24
▁මූලිකවම 24
▁මෘග 24
▁මෙවලම 24
▁මෙහනේ 24
▁මේගොල 24
▁මොනදේ 24
▁යතාවයන 24
▁යභාරය 24
▁යාවකාශ 24
▁යාළුවගේ 24
▁යුරෝපයේ 24
▁යෙදෙව 24
▁රංජනා 24
▁රඟපානවා 24
▁රඥ 24
▁රතා 24
▁රතිචාරය 24
▁රදාය 24
▁රමලේඛ 24
▁රසිකයන 24
▁රහාරයකට 24
▁රායෝගිකව 24
▁රැකවලා 24
▁රිකෝ 24
▁රෙව 24
▁රෝගියකු 24
▁රෝමියෝ 24
▁ලංසු 24
▁ලාංක 24
▁ලාරා 24
▁ලුවක 24
▁ලෙයි 24
▁වංකගිර 24
▁වනුයේ 24
▁වඳුරන 24
▁වඳුරෙක 24
▁වරෙල 24
▁වාරෙ 24
▁වාරෝහක 24
▁වැඩකලා 24
▁වැඩමුළුව 24
▁වැඩිමහල 24
▁වැසී 24
▁විගණනය 24
▁විභාගයක 24
▁විමසීම 24
▁වියන 24
▁විවරය 24
▁විසිකර 24
▁වීමත 24
▁වීසි 24
▁වෘකයින 24
▁වෙනමම 24
▁වෙයිබො 24
▁වේදනාකාරී 24
▁ශනයේ 24
▁ශිර 24
▁ශෙරිෆ 24
▁ෂකගේ 24
▁ෂිතම 24
▁සංගීතයක 24
▁සංඥ 24
▁සංශෝධ 24
▁සංසන 24
▁සජ 24
▁සටනකට 24
▁සඳුද 24
▁සපාටා 24
▁සපුර 24
▁සබඳතා 24
▁සමලිංගිකයෙක 24
▁සමුළ 24
▁සලකුනක 24
▁සහයෝග 24
▁සහොදරයා 24
▁සළක 24
▁සාමි 24
▁සෑන 24
▁සිංග 24
▁සිංහයා 24
▁සිතේ 24
▁සිදුවුන 24
▁සිපගත 24
▁සිමෙන 24
▁සියයක 24
▁සිරගත 24
▁සිවා 24
▁සුදුපාට 24
▁සුවිශේෂිතයා 24
▁සොක 24
▁සෝපානය 24
▁සෝයි 24
▁හංගපු 24
▁හමුදාමය 24
▁හයියනේ 24
▁හලෙිකොප 24
▁හැඩය 24
▁හැඩයි 24
▁හැදුනා 24
▁හිටපං 24
▁හිරකරලා 24
▁හෙය 24
▁ළමයගේ 24
▁ළමයාව 24
▁ෆයර 24
▁ෆැන 24
▁ෙකාම 24
-8 23
AT 23
RS 23
ack 23
ers 23
hi 23
ni 23
ond 23
ta 23
ty 23
ංගල 23
ආපහු 23
ආරක 23
ඇට 23
කදී 23
කිං 23
කිව 23
කොහෙද 23
ජනා 23
ඩල 23
ණනි 23
ණෙනි 23
තමු 23
තාම 23
තුරක 23
තුවක 23
ධිකාර 23
පතක 23
පෑවා 23
පිටිය 23
පුද 23
පොරොත 23
බහ 23
භූම 23
ඹින 23
යාන 23
යෙකුට 23
රණයක 23
රමින 23
වටම 23
වුනත 23
සටහන 23
සමාවෙන 23
හකට 23
හැක 23
හැටි 23
ෆින 23
ාගමු 23
ාවටම 23
ියාවෙන 23
ිරා 23
ිහට 23
ුගල 23
ුරාව 23
ුරුයි 23
ුලින 23
ුලුවන 23
ුවනෙ 23
ුළුව 23
ෙකා 23
ොෆ 23
ෝත 23
▁100,000 23
▁197 23
▁78 23
▁BAR 23
▁Beans 23
▁Bl 23
▁CDC 23
▁Hansen 23
▁IMF 23
▁Leito 23
▁NASA 23
▁Now 23
▁Palmer 23
▁RMI 23
▁Robert 23
▁Sy 23
▁TJ 23
▁WCKD 23
▁call 23
▁d 23
▁or 23
▁please 23
▁time 23
▁අකුණක 23
▁අඟුලු 23
▁අචාර 23
▁අණුක 23
▁අතරතුරේ 23
▁අතෑරල 23
▁අතු 23
▁අදාළව 23
▁අදුරේ 23
▁අනූ 23
▁අපගාම 23
▁අපරාධකාර 23
▁අබේ 23
▁අභිරහසක 23
▁අභිවර 23
▁අමරණීයත 23
▁අමු 23
▁අවුටිස 23
▁අසලින 23
▁අහුවෙයි 23
▁ආකෘත 23
▁ආදරේද 23
▁ආධිපත 23
▁ආයතේ 23
▁ආවර 23
▁ආසනය 23
▁ආසාද 23
▁ඇතිවෙනවා 23
▁ඇතුළුවෙන 23
▁ඇදිලා 23
▁ඇමෙරිකාවට 23
▁ඇයටත 23
▁ඇරියොත 23
▁ඇරිස 23
▁ඇලබාමා 23
▁ඇහි 23
▁ඇහුනනේ 23
▁ඉග 23
▁ඉඩදුන 23
▁ඉඹින 23
▁උඩදි 23
▁උඩේ 23
▁උදැසනක 23
▁උපදේශකයා 23
▁උය 23
▁ඍජු 23
▁එකගයි 23
▁එඩිතර 23
▁එතනයි 23
▁එපාම 23
▁එවයි 23
▁එළදෙනව 23
▁එෙහ 23
▁ඒකටයි 23
▁ඒඩ 23
▁ඒමි 23
▁ඒවායින 23
▁ඔබම 23
▁ඕනිවුනා 23
▁කකා 23
▁කටවහන 23
▁කඩි 23
▁කදවුරේ 23
▁කනගාට 23
▁කනම 23
▁කනෙෙක 23
▁කනො 23
▁කලබලෙන 23
▁කවුළු 23
▁කසාදයක 23
▁කළමනාකාර 23
▁කළුතර 23
▁කානු 23
▁කාරී 23
▁කාලේදී 23
▁කැණීම 23
▁කැබිනට 23
▁කැලෙ 23
▁කෑගල 23
▁කිඩ 23
▁කියයිද 23
▁කියාගත 23
▁කුණුගොඩ 23
▁කේතනය 23
▁කොඩි 23
▁කොලන 23
▁කෝකියෙක 23
▁කෝනි 23
▁කෝලා 23
▁කෝලෙන 23
▁කෝස 23
▁ගංඟ 23
▁ගගනගාම 23
▁ගනිල 23
▁ගලවපන 23
▁ගලවල 23
▁ගසන 23
▁ගැටළුව 23
▁ගැලවිලා 23
▁ගැලවුම 23
▁ගැසට 23
▁ගිණික 23
▁ගිවිසුමේ 23
▁ගෙදරම 23
▁ගෙනියයි 23
▁ගේනව 23
▁ගෞර 23
▁ගෞරවයට 23
▁ගෞරවාන 23
▁චිරාජු 23
▁චෝට 23
▁ජනමාධ 23
▁ජයවේවා 23
▁ජෙසී 23
▁ජෝඩුව 23
▁ටරේ 23
▁ටවර 23
▁ටැමි 23
▁ටිවි 23
▁ටොක 23
▁ටොෂ 23
▁ටෝරුව 23
▁ඩලික 23
▁ඩාක 23
▁ඩාම 23
▁ඩැනියලෝ 23
▁ඩැහැ 23
▁තකේ 23
▁තරගයට 23
▁තහඩු 23
▁තානාපතිතුමා 23
▁තාරුණ 23
▁තැති 23
▁තැරැව 23
▁තිකයන 23
▁තිමයා 23
▁තියනේෙන 23
▁තීරණාත 23
▁තෙකු 23
▁තොන 23
▁දවා 23
▁දාවක 23
▁දැනගැනීම 23
▁දිවුර 23
▁දුපතෙ 23
▁දූර 23
▁දෙදෙනෙකු 23
▁දෙනකම 23
▁දෙයට 23
▁දේශගුණ 23
▁දේශයේ 23
▁දෛවයට 23
▁ධනාගාරය 23
▁ධස 23
▁නංවන 23
▁නමේ 23
▁නයිඩර 23
▁නහම 23
▁නාගන 23
▁නාලිකාව 23
▁නැගෙන 23
▁නැටුමට 23
▁නැවතුමේ 23
▁නිමිත 23
▁නිරුවතින 23
▁නිවාඩුවකට 23
▁නිහතමාන 23
▁නුසුදුසු 23
▁නොකිරීම 23
▁නොලැබෙන 23
▁පටිපාටිය 23
▁පමනි 23
▁පරපෝෂිත 23
▁පරිගණකයක 23
▁පලායන 23
▁පාරාදීස 23
▁පාලමෙහි 23
▁පැදෙව 23
▁පැරැද 23
▁පිබිද 23
▁පිඹ 23
▁පියො 23
▁පිරිතාලෙ 23
▁පීකර 23
▁පුතුන 23
▁පුහුන 23
▁පූජනීය 23
▁පෙනුමට 23
▁පේනවාද 23
▁පොලො 23
▁බග 23
▁බනි 23
▁බබාට 23
▁බලපානවා 23
▁බලසම 23
▁බවද 23
▁බවුණේ 23
▁බාලා 23
▁බැටළු 23
▁බැරිඋනා 23
▁බැරිවෙලා 23
▁බැලිය 23
▁බිරිය 23
▁බුරන 23
▁බූන 23
▁බෝලය 23
▁භූමියක 23
▁මකරුන 23
▁මගුලකටද 23
▁මමමයි 23
▁මමවත 23
▁මයාගේ 23
▁මවත 23
▁මවල 23
▁මහලොකු 23
▁මාණාත 23
▁මාතාව 23
▁මාමෙ 23
▁මායිම 23
▁මාලාව 23
▁මාලිගාවට 23
▁මාෂල 23
▁මාසය 23
▁මිනිම 23
▁මිසිසිපි 23
▁මීදුම 23
▁මුණුබ 23
▁මුදලට 23
▁මුදලාලි 23
▁මූලධර 23
▁මෘදුකාංගය 23
▁මේඩයා 23
▁මේවයින 23
▁මේෆයර 23
▁මෝරා 23
▁යාපෘත 23
▁යුෂ 23
▁රංශයේ 23
▁රකුස 23
▁රදේශයෙන 23
▁රමණයක 23
▁රවේශමෙන 23
▁රහණයක 23
▁රහාරයට 23
▁රහාරයෙන 23
▁රාජකාරී 23
▁රාජද 23
▁රාතෝඩ 23
▁රායි 23
▁රාශියක 23
▁රැකවල 23
▁රැවය 23
▁රැවයේ 23
▁රිඩික 23
▁රිදෙනවද 23
▁රේවන 23
▁රෝට 23
▁රෝසි 23
▁ලතීෆ 23
▁ලැබෙනකන 23
▁ලිකාර 23
▁ලිපිගො 23
▁ලුහුබදින 23
▁වගේනෙ 23
▁වදන 23
▁වනයෙ 23
▁වනේෙන 23
▁වරූප 23
▁වැඩකර 23
▁වැඩම 23
▁විකිණීම 23
▁විදවන 23
▁විනිසුරුතුමනි 23
▁විරිත 23
▁විරූ 23
▁විලක 23
▁විලාසිතා 23
▁විවිද 23
▁වීද 23
▁වෙනුවෙනුත 23
▁වෙලද 23
▁වෙළඳපොල 23
▁වේරා 23
▁වෝකර 23
▁ශනීය 23
▁ෂකය 23
▁ෂාන 23
▁ෂොප 23
▁ෂෝව 23
▁සංවාදය 23
▁සදාකල 23
▁සනා 23
▁සමලිංග 23
▁සමුගැන 23
▁සයක 23
▁සයිලන 23
▁සයො 23
▁සරය 23
▁සවිස 23
▁සහජීවනය 23
▁සහෝදරයාගේ 23
▁සහෝදරියව 23
▁සාදන 23
▁සාදාර 23
▁සැතපුමක 23
▁සැමී 23
▁සැළක 23
▁සීස 23
▁සුලග 23
▁සූරි 23
▁සේක 23
▁සෝයා 23
▁සෝවා 23
▁හංගනවා 23
▁හඟ 23
▁හතරකින 23
▁හතුරො 23
▁හදුනාගන 23
▁හමන 23
▁හමුවට 23
▁හමුවුණා 23
▁හරියි 23
▁හසන 23
▁හැඟෙන 23
▁හැමන 23
▁හැමිල 23
▁හැරුණා 23
▁හිගන 23
▁හිතිලා 23
▁හිමිකර 23
▁හුසේන 23
▁හුළං 23
▁හොම 23
▁හොරාව 23
▁ෆකර 23
▁ෆෙලසිටි 23
▁ෙකාෙහ 23
▁ෙචාපර 23
▁ෙතාරතුරු 23
.06 22
.11 22
.20 22
.8 22
BM 22
IN 22
TS 22
ass 22
he 22
hen 22
ip 22
ity 22
na 22
oo 22
ඇල 22
එතකොට 22
ඔබට 22
කයට 22
කලින 22
කිරීමේ 22
ගහනවා 22
ගුල 22
ඥාවක 22
තාවයන 22
පහර 22
මණ 22
මාන 22
යකටද 22
යාගත 22
යාරූප 22
රියස 22
ලො 22
වඩා 22
වනේනෙ 22
වියක 22
වුණු 22
වේල 22
සහ 22
සාධ 22
හසක 22
හෙද 22
හොද 22
ානයෙන 22
ැඳ 22
ෑවා 22
ිදි 22
ියෙහි 22
ිවුනා 22
ුදායක 22
ුෙව 22
ෙදිම 22
ේදීම 22
ේල 22
ොබ 22
▁195 22
▁2007 22
▁Br 22
▁Branson 22
▁Can 22
▁Hob 22
▁King 22
▁Ok 22
▁Th 22
▁Vaseegaran 22
▁been 22
▁p 22
▁us 22
▁අංශයක 22
▁අගෙයි 22
▁අටකට 22
▁අතපස 22
▁අනුගාම 22
▁අපරිමිත 22
▁අපහසුවක 22
▁අභිලා 22
▁අරවින 22
▁අවජාතකයා 22
▁අවධි 22
▁අවෙ 22
▁අසාත 22
▁අහුවුනේ 22
▁අෑනා 22
▁ආයු 22
▁ඇතිකර 22
▁ඇදිල 22
▁ඇදෙනවා 22
▁ඇමෙරිකාවේ 22
▁ඇලෙන 22
▁ඇසුනා 22
▁ඇහෙනවාද 22
▁ඈතක 22
▁ඉගිල 22
▁ඉඩකඩ 22
▁ඉදිම 22
▁උපසිරසි 22
▁උමඟ 22
▁උඹම 22
▁උරහිසේ 22
▁උරාගන 22
▁එතකොටම 22
▁එපාවෙන 22
▁ඒකාව 22
▁ඒහෙම 22
▁ඔයාගේම 22
▁ඔයාලාව 22
▁ඔයිෂි 22
▁ඔරවන 22
▁ඕනිව 22
▁ඕවට 22
▁කඩියා 22
▁කයිලර 22
▁කරගනිමින 22
▁කරප 22
▁කරානේ 22
▁කරුනාකර 22
▁කලෙත 22
▁කවුරැත 22
▁කවුරැවත 22
▁කවුළුව 22
▁කසෝ 22
▁කළයුතු 22
▁කාක 22
▁කාපන 22
▁කාලෙන 22
▁කිත 22
▁කියමින 22
▁කිවෙ 22
▁කිසිවෙකු 22
▁කිහිපදෙනෙක 22
▁කුමරියනි 22
▁කුසල 22
▁කෙනකේද 22
▁කෙනඩි 22
▁කෙරී 22
▁කේප 22
▁කොඩිය 22
▁කොරියන 22
▁කෝණය 22
▁කෝවිලට 22
▁කෞතුකාගාරය 22
▁ඛිත 22
▁ගංගා 22
▁ගලයෙකු 22
▁ගැටළ 22
▁ගැනිමට 22
▁ගැසීම 22
▁ගැහුනා 22
▁ගිහ 22
▁ගීතයක 22
▁ගුයිනි 22
▁ගුවින 22
▁ගෙයින 22
▁ගෙවනවද 22
▁ගෙවයි 22
▁ගොවියෙක 22
▁චණ 22
▁චෙට 22
▁චෙල 22
▁ජතින 22
▁ජනේලේ 22
▁ජයවර 22
▁ජුනියර 22
▁ජොලි 22
▁ජෝනා 22
▁ටතම 22
▁ටනි 22
▁ටානා 22
▁ටෙරි 22
▁ටේල 22
▁ඩහර 22
▁ඩායමම 22
▁ඩැගට 22
▁ඩොනි 22
▁ඩෝෆ 22
▁තකත 22
▁තනික 22
▁තයයි 22
▁තරහයි 22
▁තානයට 22
▁තැනයි 22
▁තිබුණත 22
▁තීරු 22
▁තුඩ 22
▁තුනම 22
▁තුවම 22
▁තුවාලය 22
▁තුස 22
▁තෘප 22
▁තෝගි 22
▁තෝරාගැනීම 22
▁ථනාවන 22
▁දග 22
▁දහයකින 22
▁දාකිණ 22
▁දාදු 22
▁දැනගනී 22
▁දැනගනෙ 22
▁දිනපු 22
▁දිනුවොත 22
▁දිරයේ 22
▁දීපා 22
▁දීමෙන 22
▁දුනු 22
▁දුරකතනයෙන 22
▁දුල 22
▁දුවවන 22
▁දූතයෙක 22
▁දෙකින 22
▁දෙදෙනාම 22
▁දෙප 22
▁දෛවයේ 22
▁දෝර 22
▁ධවුනා 22
▁ධවෙලා 22
▁නංගිගෙ 22
▁නගා 22
▁නගෙ 22
▁නගෙම 22
▁නතරවෙන 22
▁නමෙ 22
▁නවයයි 22
▁නළුවා 22
▁නාත 22
▁නාදය 22
▁නැහ 22
▁නෑවිත 22
▁නිකට 22
▁නිකේ 22
▁නිට 22
▁නිරෝධායන 22
▁නීතිවිරෝධ 22
▁නුබේ 22
▁නෙවෙයිනම 22
▁නොකරයි 22
▁නොතිබිණි 22
▁නොවදින 22
▁නෝල 22
▁නෝව 22
▁පගාව 22
▁පනාව 22
▁පරාස 22
▁පරිති 22
▁පළඳින 22
▁පායන 22
▁පාරකට 22
▁පාරුව 22
▁පාලමක 22
▁පැච 22
▁පැතිකඩ 22
▁පැරණ 22
▁පැරදුනොත 22
▁පැරීස 22
▁පැලද 22
▁පියුට 22
▁පිලිස 22
▁පුරසාරම 22
▁පූසා 22
▁පෙරම 22
▁පේස 22
▁බයත 22
▁බලඇ 22
▁බලවේග 22
▁බලාත 22
▁බසාම 22
▁බාප 22
▁බැඳගෙන 22
▁බැලන 22
▁බැලුවහම 22
▁බිංද 22
▁බියගුල 22
▁බීස 22
▁බුධ 22
▁බුනාද 22
▁බෙදාගත 22
▁බෙදාහරින 22
▁බෙදාහැර 22
▁බෙදී 22
▁බොරුක 22
▁බෞද 22
▁භික 22
▁මඟපෙන 22
▁මඟහරින 22
▁මතා 22
▁මහපට 22
▁මළා 22
▁මාසයකට 22
▁මාසෙකින 22
▁මැදියම 22
▁මෑතකදී 22
▁මිනිහත 22
▁මිනීමර 22
▁මියයනවා 22
▁මිෂ 22
▁මිසයිලය 22
▁මුං 22
▁මුණගැහුන 22
▁මුලට 22
▁මුලුමනින 22
▁මුහු 22
▁මෙකා 22
▁මෙතනත 22
▁මෙලීසා 22
▁මොහොතකම 22
▁මෝචර 22
▁මෝඩයට 22
▁යජනක 22
▁යමුකෝ 22
▁යහළුවා 22
▁යාගාරයක 22
▁යාඥයන 22
▁යාට 22
▁යාපාරිකයෙක 22
▁යේජන 22
▁යොදවලා 22
▁රගති 22
▁රචාර 22
▁රටම 22
▁රමානවත 22
▁රමාල 22
▁රවේසම 22
▁රසීල 22
▁රාජධානියට 22
▁රානු 22
▁රැකබලා 22
▁රිග 22
▁රිවායි 22
▁රුද 22
▁රූපයක 22
▁රේඛ 22
▁රොයි 22
▁ලංවෙලා 22
▁ලකින 22
▁ලගනින 22
▁ලනෙ 22
▁ලබලා 22
▁ලබාදිය 22
▁ලමේ 22
▁ලාභයක 22
▁ලැබෙනකම 22
▁ලෑල 22
▁ලිංග 22
▁ලිපිගොන 22
▁ලියෙන 22
▁ලුහුබැද 22
▁ලේෂණ 22
▁ලොනගන 22
▁ලොබ 22
▁ලොරේන 22
▁ලෝකෙටම 22
▁ලෝභ 22
▁වයෝ 22
▁වලංගු 22
▁වලහ 22
▁වලාක 22
▁වාමීන 22
▁වාසියට 22
▁වැඩකලේ 22
▁වැරදිනම 22
▁විදියකින 22
▁විඳවන 22
▁විපත 22
▁වියදමක 22
▁වුවේ 22
▁වේදනාවට 22
▁වොලි 22
▁ශතක 22
▁ශම 22
▁ෂයාගේ 22
▁ෂිකරුවන 22
▁ෂීන 22
▁සජීවීව 22
▁සනව 22
▁සමඟයි 22
▁සරලව 22
▁සලසා 22
▁සවයේ 22
▁සවස 22
▁සවාරියක 22
▁සහයට 22
▁සාමකාම 22
▁සිතිවිලි 22
▁සිදුවිය 22
▁සිදුවුනා 22
▁සිදුවෙලා 22
▁සිරක 22
▁සිරුරේ 22
▁සිවෙලා 22
▁සුරංගනාව 22
▁සුසුම 22
▁සූප 22
▁සොරොව 22
▁හපෝ 22
▁හමාරක 22
▁හරවනවා 22
▁හරිගියේ 22
▁හලන 22
▁හාෆඩ 22
▁හැටියේ 22
▁හැදින 22
▁හැලොවීන 22
▁හිටියාද 22
▁හුරේ 22
▁හුවමාරුවක 22
▁හෙළුවෙන 22
▁හොයමු 22
▁ෆාදර 22
▁ෆු 22
▁ෙකාට 22
ag 21
ast 21
cH 21
ce 21
end 21
ero 21
ist 21
land 21
man 21
ob 21
ose 21
ංගුවට 21
අවුරුදු 21
එලියට 21
ගමනය 21
ගාට 21
ණම 21
දාම 21
දේශ 21
පතියෙක 21
පෑ 21
පුදේ 21
පුරුද 21
බඩු 21
බලය 21
බාන 21
භක 21
මෙහෙ 21
යනම 21
යමින 21
යැ 21
රාත 21
රිද 21
රුවෙක 21
ලයිට 21
වරයි 21
වලදී 21
සිලා 21
සුම 21
හැකියි 21
හිලා 21
හුවා 21
ාඩ 21
ාමු 21
ාවෙහි 21
ිගත 21
ිදු 21
ියං 21
ියමක 21
ියලා 21
ිලී 21
ිවිද 21
ිවේ 21
ුකුල 21
ුමට 21
ුමයි 21
ුරුවක 21
ුවේදී 21
ෙකක 21
ේකට 21
ේදිම 21
ෛද 21
ෝතින 21
ෝරා 21
▁101 21
▁3.1 21
▁54 21
▁88 21
▁93 21
▁96 21
▁All 21
▁EMP 21
▁Her 21
▁IV 21
▁McAllister 21
▁NSA 21
▁Reyes 21
▁Saito 21
▁Star 21
▁about 21
▁h 21
▁k 21
▁make 21
▁man 21
▁see 21
▁අංගයක 21
▁අඟවනවා 21
▁අඩුවෙනවා 21
▁අතෑර 21
▁අතිදක 21
▁අතුර 21
▁අධිෂ 21
▁අනපේක 21
▁අනාවැක 21
▁අඳුරගත 21
▁අමරණීය 21
▁අමුද 21
▁අයටයි 21
▁අවධ 21
▁අවධානමේ 21
▁අහවරයි 21
▁අහුලා 21
▁අළුතෙන 21
▁ආකන 21
▁ආදිය 21
▁ආධාරක 21
▁ආශීර 21
▁ඇතියි 21
▁ඇතුලතින 21
▁ඇඳපු 21
▁ඇමෙරිකන 21
▁ඇරපු 21
▁ඇහේ 21
▁ඈතකට 21
▁ඉගියක 21
▁ඉඩමක 21
▁ඉසබෙලා 21
▁ඊසාන 21
▁උංට 21
▁උදවුවට 21
▁උදාහරණ 21
▁උපයෝග 21
▁උඹලගෙ 21
▁උරග 21
▁උවමනායි 21
▁උළ 21
▁එසේනම 21
▁ඒකාන 21
▁ඒවගෝ 21
▁ඔබතුමාගේ 21
▁ඔහෙගේ 21
▁ඔෙහට 21
▁ඕකිඩ 21
▁ඕනලෙු 21
▁කඩියෝ 21
▁කඩෙන 21
▁කණගාට 21
▁කණගාටුව 21
▁කතාකරා 21
▁කබඩි 21
▁කමිසයක 21
▁කරගනෙ 21
▁කරති 21
▁කරනවාට 21
▁කරවගන 21
▁කරුණාවෙන 21
▁කලාත 21
▁කවුට 21
▁කවුදෝ 21
▁කළමණාකාර 21
▁කාරනේ 21
▁කැරට 21
▁කැසිඩි 21
▁කෑගහනවා 21
▁කියනවානම 21
▁කිරිමේ 21
▁කුතුහලයක 21
▁කෘම 21
▁කෘමීන 21
▁කෙරීගෙන 21
▁කොතැන 21
▁කොමිස 21
▁කොයිම 21
▁කොහේට 21
▁කෝටම 21
▁කෝලෙදි 21
▁කෲ 21
▁ගට 21
▁ගණුද 21
▁ගතකලා 21
▁ගනනාවක 21
▁ගලාගෙන 21
▁ගහමු 21
▁ගැනනම 21
▁ගැනවිලි 21
▁ගැරික 21
▁ගැළ 21
▁ගුංගුරූ 21
▁ගුරුතුමෙනි 21
▁ගෘට 21
▁ගෘහනිර 21
▁ගෙදරටම 21
▁ගෙදෙට 21
▁ගෙල 21
▁ගෙවුවා 21
▁චාවක 21
▁ජනේ 21
▁ජාතිකයන 21
▁ජිනේ 21
▁ජීනා 21
▁ජීවියෙක 21
▁ජුලී 21
▁ටෑ 21
▁ඩයින 21
▁ඩාලිං 21
▁ඩිංගෙන 21
▁ඩුවේ 21
▁තනතුරෙන 21
▁තමු 21
▁තරස 21
▁තාලේ 21
▁තැබීමක 21
▁තිතක 21
▁තිමයි 21
▁තියනකොට 21
▁තුමන 21
▁තුමිය 21
▁තුවාය 21
▁තුවාලද 21
▁තොරින 21
▁තෝව 21
▁ථානයේදී 21
▁ථාවකදී 21
▁දකුණේ 21
▁දරනවා 21
▁දාදුවො 21
▁දැකගත 21
▁දැද 21
▁දැනගනීවි 21
▁දැනගෙනත 21
▁දිනකම 21
▁දිනවල 21
▁දිරි 21
▁දිවිගලවාගත 21
▁දුරු 21
▁දූෂණ 21
▁දෙදෙන 21
▁දෙපස 21
▁දේශනා 21
▁ධකාර 21
▁නකමුරා 21
▁නඟර 21
▁නටමු 21
▁නරුම 21
▁නලුවෙක 21
▁නවලා 21
▁නැතිකර 21
▁නැතිකරගත 21
▁නැතිකරලා 21
▁නැවියන 21
▁නීග 21
▁නෙවයිනේ 21
▁නෙහ 21
▁නෛතික 21
▁නොගැ 21
▁නොහිට 21
▁නෝමියෝ 21
▁පතුරවන 21
▁පයිලට 21
▁පරිකල 21
▁පරින 21
▁පලිහ 21
▁පසින 21
▁පහුකරගෙන 21
▁පාටින 21
▁පාවලා 21
▁පාහරයෝ 21
▁පාළුවෙන 21
▁පැව 21
▁පැහැදිලිද 21
▁පෑනක 21
▁පිටුප 21
▁පිපිරිලා 21
▁පියාව 21
▁පියාසැර 21
▁පිරිනම 21
▁පිහියකින 21
▁පුතයි 21
▁පුලවන 21
▁පෘථිවි 21
▁පෙනුන 21
▁පෙළපත 21
▁පේළ 21
▁පොඩිකාලේ 21
▁පොදුවේ 21
▁පොළඹවන 21
▁ඵලක 21
▁බදිනවා 21
▁බයිට 21
▁බයිසිකලේ 21
▁බිදවැට 21
▁බිමේ 21
▁බෘ 21
▁බෙනී 21
▁බෙහෙවින 21
▁බේකර 21
▁බොනී 21
▁බෝලෙ 21
▁මකන 21
▁මකල 21
▁මකුළ 21
▁මතකයේ 21
▁මතුර 21
▁මදක 21
▁මනියේ 21
▁මරපන 21
▁මවාගත 21
▁මහෙමෙ 21
▁මිටි 21
▁මිනිමරුවා 21
▁මිනිසුනේ 21
▁මිනිහගෙන 21
▁මිනීමරුව 21
▁මිනීමැරුමකට 21
▁මිම 21
▁මිරි 21
▁මීය 21
▁මුනු 21
▁මුරුගන 21
▁මුහුදෙන 21
▁මූනක 21
▁මෘද 21
▁මේකක 21
▁මේයා 21
▁මෝඩය 21
▁යතාවක 21
▁යවයි 21
▁යායන 21
▁යාලුවෙ 21
▁යාලුවොත 21
▁යාලූවා 21
▁යුගයක 21
▁යෙයන 21
▁යොමුවෙන 21
▁යෝජිත 21
▁රඟපෑමක 21
▁රචාරණය 21
▁රජතුම 21
▁රටෙන 21
▁රතිකාරයක 21
▁රතිපාදනය 21
▁රබෝධ 21
▁රමවේදය 21
▁රමාණයට 21
▁රමෝ 21
▁රවාද 21
▁රහිතව 21
▁රාණය 21
▁රාමික 21
▁රාමු 21
▁රැකර 21
▁රැසක 21
▁රිදුනා 21
▁රියාවේ 21
▁රීයව 21
▁රීෂ 21
▁රුප 21
▁රුව 21
▁රුසියානුවෝ 21
▁රූඩි 21
▁රෙනී 21
▁රෙනේ 21
▁රේග 21
▁රොබෝලා 21
▁ලකරුවන 21
▁ලකාරයෝ 21
▁ලබාගැනීම 21
▁ලීග 21
▁ලෙම 21
▁ලොප 21
▁ලෝකා 21
▁ලෝසි 21
▁වයත 21
▁වයසෙ 21
▁වරෙළට 21
▁වරෙළේ 21
▁වහගනින 21
▁වාචික 21
▁වාතාව 21
▁වාහනයට 21
▁වැටේවි 21
▁වැඩකාරයෙක 21
▁වැඩිකල 21
▁වැඩිහිටියෝ 21
▁වැදිල 21
▁වැලද 21
▁වැහිල 21
▁වැළඳගන 21
▁වෑ 21
▁විතයි 21
▁විදත 21
▁විදිහෙන 21
▁විවෘතව 21
▁විවෙක 21
▁වීදී 21
▁වීය 21
▁වුනෝතින 21
▁වුවමනායි 21
▁වෙනක 21
▁වෙනදා 21
▁වෙනුවෙනුයි 21
▁වෙරළට 21
▁වෙරෝනිකා 21
▁වෙලාවකවත 21
▁වෙලෙන 21
▁වේලු 21
▁වොයිස 21
▁වොරන 21
▁වෝර 21
▁ශනාගාර 21
▁ශුරයා 21
▁ශෝකය 21
▁ශෝධ 21
▁ෂකතුමා 21
▁ෂණීය 21
▁ෂනික 21
▁ෂයෙන 21
▁ෂාර 21
▁සංගීතයට 21
▁සංයුතිය 21
▁සංහතිය 21
▁සමයේ 21
▁සයිම 21
▁සලසන 21
▁සළ 21
▁සාධකයක 21
▁සාරිය 21
▁සැකය 21
▁සැට 21
▁සැලකුවා 21
▁සැලකුවේ 21
▁සැලසීම 21
▁සැළැස 21
▁සියවසේ 21
▁සිහිපත 21
▁සෙනසුරු 21
▁සෙබස 21
▁සේද 21
▁සොදුර 21
▁සෝර 21
▁සෝවය 21
▁සෞ 21
▁හඬක 21
▁හදාර 21
▁හමුදාවන 21
▁හමුවෙනවා 21
▁හැඩයක 21
▁හැමක 21
▁හැරිල 21
▁හිතාගත 21
▁හිතාගනෙ 21
▁හිතුණා 21
▁හිඳ 21
▁හිරකාර 21
▁හිලරි 21
▁හුද 21
▁හුළ 21
▁හූපර 21
▁හෙයිඩොන 21
▁හෙහ 21
▁හේලර 21
▁හොයපු 21
▁ළඟදි 21
▁ෆාම 21
▁ෙකනා 21
▁ෙච 21
▁ෙවර 21
▁ෙශපර 21
,3 20
.09 20
.15 20
LA 20
PD 20
` 20
ate 20
av 20
ea 20
io 20
km 20
mm 20
per 20
ray 20
th 20
ඇර 20
ඈ 20
එත 20
එතන 20
කතා 20
කරුට 20
කරුව 20
කව 20
කාමී 20
ගැනිමට 20
ඝාත 20
ජෝ 20
ඩායම 20
ඩිච 20
ඩියස 20
තුමන 20
නික 20
නෝ 20
පොත 20
බුද 20
බේර 20
මල 20
මොනවද 20
යටයි 20
යතන 20
යාමක 20
යුම 20
යෙදී 20
රකට 20
වනයක 20
වැ 20
විධ 20
විමක 20
වුණ 20
වෙමු 20
ශාලා 20
හගන 20
හදා 20
හනේන 20
හායි 20
හී 20
හොම 20
ානායක 20
ාමා 20
ාවා 20
ිකරුවෙක 20
ිකාවන 20
ිපන 20
ියාගෙන 20
ිලයි 20
ිලු 20
ිසන 20
ීතක 20
ීලියා 20
ුරෙක 20
ූවන 20
ෙටම 20
ෙදී 20
ෙවි 20
ේනා 20
▁110 20
▁112 20
▁180 20
▁1996 20
▁3.2 20
▁5,000 20
▁50,000 20
▁Al 20
▁CP 20
▁Del 20
▁Dickham 20
▁Mer 20
▁Re 20
▁give 20
▁say 20
▁w 20
▁who 20
▁z 20
▁අගයන 20
▁අගහර 20
▁අඩුමතරමෙ 20
▁අතිගරු 20
▁අදුනන 20
▁අධෝරක 20
▁අනිවාරයෙන 20
▁අනුකරණය 20
▁අනුයුක 20
▁අපහාසයක 20
▁අභය 20
▁අභිජන 20
▁අභියාච 20
▁අයක 20
▁අරහෙ 20
▁අලූත 20
▁අවංකයි 20
▁අවත 20
▁අවදානමේ 20
▁අසීරු 20
▁අහුවුණා 20
▁ආකෘතියක 20
▁ආයුර 20
▁ආරෝප 20
▁ආලියා 20
▁ආලෝකයේ 20
▁ආවේණික 20
▁ආෙව 20
▁ඇඳල 20
▁ඇමරෙ 20
▁ඇමැන 20
▁ඇයද 20
▁ඇරබ 20
▁ඇසට 20
▁ඇසෙන 20
▁ඉගෙනීම 20
▁ඉඟියක 20
▁ඉඹ 20
▁ඉලගට 20
▁උඩතට 20
▁උනද 20
▁උපදින 20
▁එකකටම 20
▁එකනෙ 20
▁එකවර 20
▁එකාම 20
▁එකොල 20
▁එනවට 20
▁එනවනේ 20
▁එපාවෙලා 20
▁එමිර 20
▁එයාමයි 20
▁එළවළු 20
▁ඒබ 20
▁ඒවාගේම 20
▁ඔබලට 20
▁ඔයලා 20
▁ඔයානෙ 20
▁ඔයාලටත 20
▁ඔහුටම 20
▁ඔහෙලට 20
▁ඔළ 20
▁ඕනත 20
▁ඕම 20
▁කටියා 20
▁කටුනායක 20
▁කඩාව 20
▁කතාවෙන 20
▁කරගනු 20
▁කලකිරීම 20
▁කලිස 20
▁කවිතා 20
▁කාගෙහරි 20
▁කාටුන 20
▁කාරයි 20
▁කාසියක 20
▁කැඩුන 20
▁කැඩුව 20
▁කැපකරු 20
▁කැපකිරීම 20
▁කැපී 20
▁කැමතිවෙයි 20
▁කැරකිලා 20
▁කැලලක 20
▁කැලැල 20
▁කෑමෙන 20
▁කියවනව 20
▁කිවුෙව 20
▁කිසිවිටෙක 20
▁කීපය 20
▁කීම 20
▁කීමට 20
▁කුඩාර 20
▁කුනාට 20
▁කුරුලු 20
▁කෘමින 20
▁කෙරුව 20
▁ගමෙන 20
▁ගයයි 20
▁ගයෙ 20
▁ගහට 20
▁ගාණට 20
▁ගායන 20
▁ගැටගහන 20
▁ගැහිල 20
▁ගෙදරත 20
▁ගෙනාවොත 20
▁ගෙවිම 20
▁ගෙවෙන 20
▁ගොඩකට 20
▁ගොළු 20
▁චරකල 20
▁චාලක 20
▁චියෙන 20
▁චේන 20
▁ජනාධිපතිව 20
▁ජෙඩ 20
▁ඥා 20
▁ඥාතීන 20
▁ටග 20
▁ටලය 20
▁ටියෙන 20
▁ටුල 20
▁ටෙසා 20
▁ඨාස 20
▁ඩයල 20
▁ඩයිනමයිට 20
▁ඩවම 20
▁ඩාගාරයේ 20
▁ඩිව 20
▁ඩුෆ 20
▁ඩෙට 20
▁ඩෙරික 20
▁ඩොග 20
▁තපු 20
▁තමාට 20
▁තරඟයට 20
▁තහැකි 20
▁තානම 20
▁තානේ 20
▁තිබුනෙත 20
▁තියෙනකොට 20
▁තියෙනවලු 20
▁තුට 20
▁තොටුපොළ 20
▁තොතින 20
▁ථයන 20
▁ථිකා 20
▁ථිය 20
▁දකුනට 20
▁දමිළ 20
▁දයා 20
▁දැකීමෙන 20
▁දැනම 20
▁දිගුකල 20
▁දිනේට 20
▁දිරාපත 20
▁දිවයිනේ 20
▁දීගෙන 20
▁දුශ 20
▁දෙමවුප 20
▁දෙවැන 20
▁දේවත 20
▁දෛනික 20
▁ධද 20
▁නමන 20
▁නවලු 20
▁නවාට 20
▁නැඟිටිනවා 20
▁නැතොත 20
▁නිපුණතා 20
▁නියක 20
▁නිලධාරියකු 20
▁නීතිඤ 20
▁නෙරී 20
▁නොකළොත 20
▁නොහැකියාව 20
▁පංක 20
▁පතුලේ 20
▁පනාවෙන 20
▁පනේ 20
▁පපුවෙ 20
▁පරාවක 20
▁පරාවේ 20
▁පරිගන 20
▁පරිණාම 20
▁පරෙ 20
▁පසුබ 20
▁පහතින 20
▁පළඳ 20
▁පාරිභෝග 20
▁පාරෙදි 20
▁පාෂාණය 20
▁පාළම 20
▁පැතිරී 20
▁පැනයන 20
▁පැරදුන 20
▁පැරිසියේ 20
▁පිගන 20
▁පිජාම 20
▁පිටල 20
▁පිටිය 20
▁පියාබන 20
▁පිරිනැම 20
▁පිරිසිද 20
▁පිසාචයෝ 20
▁පුක 20
▁පුටුවට 20
▁පුටුවෙ 20
▁පුදුමය 20
▁පුරවගන 20
▁පුරවල 20
▁පුරවා 20
▁පුරෝ 20
▁පුහුනු 20
▁පුළුන 20
▁පෙනීම 20
▁පෙරලෙන 20
▁පෙරේත 20
▁පෙරේරා 20
▁පේනවිදියට 20
▁පේනවිදිහට 20
▁පොලී 20
▁පොළවේ 20
▁බටේ 20
▁බඩගාගෙන 20
▁බබාලා 20
▁බලමුකො 20
▁බලාවි 20
▁බාගයයි 20
▁බාටොක 20
▁බැඳෙන 20
▁බැලුවත 20
▁බැලූ 20
▁බැහිව 20
▁බියෙන 20
▁බිරිදගේ 20
▁බෙකට 20
▁බෙයි 20
▁බොයි 20
▁භාරත 20
▁භාවිතයෙන 20
▁භාෂාවන 20
▁භීතකම 20
▁භූමිකම 20
▁මඟහැරුණා 20
▁මදිද 20
▁මනුශ 20
▁මනේන 20
▁මමනේ 20
▁මරණීය 20
▁මරවන 20
▁මරාගෙන 20
▁මවුන 20
▁මවො 20
▁මහතාගේ 20
▁මහර 20
▁මළවුන 20
▁මාගෙන 20
▁මානයට 20
▁මායාකාරියක 20
▁මාලිගාවේ 20
▁මැටි 20
▁මැරයෝ 20
▁මැලේසියාවේ 20
▁මිනිහාට 20
▁මිනිෙහක 20
▁මියාමි 20
▁මීයන 20
▁මුණගැහිලා 20
▁මුණු 20
▁මුනුප 20
▁මුලූ 20
▁මුළා 20
▁මූණේ 20
▁මෙහෙත 20
▁මේයි 20
▁මොනද 20
▁මොනිටර 20
▁යදින 20
▁යයින 20
▁යහල 20
▁යාක 20
▁යානයකින 20
▁යෑමට 20
▁යෙදී 20
▁යේෂණය 20
▁රකෘති 20
▁රගපානවා 20
▁රඩේඩි 20
▁රතිරෝධක 20
▁රනාන 20
▁රමයන 20
▁රමේ 20
▁රවාදය 20
▁රහම 20
▁රාකේශ 20
▁රැඳෙන 20
▁රිකාවක 20
▁රියාකාරක 20
▁රේමී 20
▁රේලියාවේ 20
▁රෝශිනී 20
▁ලභයි 20
▁ලමා 20
▁ලවී 20
▁ලැබීමේ 20
▁ලිවලට 20
▁ලොරි 20
▁ලෝකයේම 20
▁ලෝඩියා 20
▁වකුගඩුවක 20
▁වතියක 20
▁වනෙකම 20
▁වනෙකොට 20
▁වඳුරා 20
▁වයසෙදි 20
▁වරසන 20
▁වරා 20
▁වලකම 20
▁වලටද 20
▁වලටම 20
▁වලලන 20
▁වලලු 20
▁වලිනුත 20
▁වව 20
▁වවුලන 20
▁වාවි 20
▁වාසයට 20
▁වාසී 20
▁වැගර 20
▁වැටීමක 20
▁වැටෙනව 20
▁වැඩකරපු 20
▁වැඩිකර 20
▁වැඩියේ 20
▁වැසිකිලි 20
▁විකාරේ 20
▁විදිහටනම 20
▁විදුල 20
▁විනය 20
▁විනාශකරන 20
▁විනිසුරුත 20
▁විනෝදය 20
▁විනෝදා 20
▁විභා 20
▁වියද 20
▁විලාසිතාවක 20
▁විශෙ 20
▁වෙඩිතියලා 20
▁වෙනු 20
▁වෙයල 20
▁වෙහෙසට 20
▁වෙළදාම 20
▁වෙළාව 20
▁වෛරසයක 20
▁ශුන 20
▁ශූරයෙක 20
▁ෂපාතිත 20
▁ෂමව 20
▁ෂිෆ 20
▁සංයෝ 20
▁සංශෝධනය 20
▁සකසා 20
▁සජීවි 20
▁සදාම 20
▁සදුදා 20
▁සපන 20
▁සපු 20
▁සමරු 20
▁සමීපව 20
▁සමේ 20
▁සහයකයෙක 20
▁සහෝදරියෝ 20
▁සාපය 20
▁සාමාජිකයකු 20
▁සැඩ 20
▁සැනසීමක 20
▁සැනින 20
▁සැමර 20
▁සැසි 20
▁සිංගප 20
▁සිදුවේවි 20
▁සුවපහස 20
▁සෘජුව 20
▁සෙනට 20
▁සෙවණ 20
▁සෙසු 20
▁සොයනවා 20
▁සොලමන 20
▁සෝදිස 20
▁සෝප 20
▁සෝල 20
▁සෞභාග 20
▁හඳුනන 20
▁හමුවිම 20
▁හමුවුන 20
▁හරකෙක 20
▁හාමත 20
▁හැකියා 20
▁හැදුවත 20
▁හැඳ 20
▁හිඩැස 20
▁හිතලම 20
▁හිතාවි 20
▁හිතුවටත 20
▁හුට 20
▁හෙනම 20
▁හොග 20
▁හොඳා 20
▁හොයාගනියි 20
▁ෆෑන 20
▁ෆිශ 20
▁ෆිෂර 20
▁ෙකාල 20
▁’ 20
▁▬ 20
▁► 20
▁◄ 20
.04 19
14 19
46 19
ES 19
ah 19
art 19
au 19
ch 19
dy 19
ho 19
ith 19
ive 19
li 19
ll 19
old 19
oll 19
ost 19
qu 19
ran 19
ung 19
ඕන 19
කටම 19
ගෙද 19
ඥයන 19
තට 19
තමයි 19
තියෙන 19
ථාවක 19
දැම 19
දෙය 19
නැත 19
නේනෙ 19
පළ 19
පාස 19
පුවාම 19
පෙස 19
බාව 19
මිනිස 19
මොක 19
යිකාව 19
රකාර 19
රාක 19
රිමක 19
රිශ 19
ලාම 19
වායි 19
වෙලාවක 19
ශනය 19
සමහර 19
සුභ 19
සේකර 19
හගතයි 19
හරක 19
හැන 19
හෙත 19
ළිය 19
ාලෙ 19
ැනික 19
ැවා 19
ැවෙක 19
ැසියන 19
ිටිනවා 19
ිදායක 19
ිදී 19
ිරියි 19
ිවුඩ 19
ුණට 19
ුමාර 19
ූරක 19
ෘර 19
ෙසා 19
ෙහෙ 19
ේච 19
ේදනය 19
ේව 19
▁1500 19
▁1977 19
▁199 19
▁3.4 19
▁58 19
▁Air 19
▁Bilbo 19
▁CD 19
▁EPIC 19
▁Eng 19
▁Good 19
▁IP 19
▁Jeremy 19
▁Km 19
▁Lear 19
▁Let 19
▁Mordor 19
▁Nora 19
▁PA 19
▁Parcher 19
▁Sauron 19
▁Seth 19
▁Tung 19
▁away 19
▁come 19
▁j 19
▁mr 19
▁never 19
▁ok 19
▁them 19
▁¿ 19
▁අං 19
▁අකීකරු 19
▁අගවනවා 19
▁අඩක 19
▁අඩුපා 19
▁අතකින 19
▁අනතුරින 19
▁අනුගත 19
▁අනුමැත 19
▁අඳුනගත 19
▁අපහසුවට 19
▁අභි 19
▁අභියාචනයක 19
▁අභියේග 19
▁අයිනට 19
▁අයුක 19
▁අරෙහේ 19
▁අසත 19
▁අසරන 19
▁අහගනින 19
▁අහානා 19
▁අහිතක 19
▁අහුඋනා 19
▁ආගිය 19
▁ආචාරශීලී 19
▁ආමෙන 19
▁ආයිමත 19
▁ආවේග 19
▁ඇතුලෙම 19
▁ඇනබෙල 19
▁ඇනුම 19
▁ඇපකාර 19
▁ඇමරිකානුවෙක 19
▁ඇමරිකානුවො 19
▁ඇමී 19
▁ඇමෙරිකානුවන 19
▁ඇලුම 19
▁ඉපය 19
▁ඉබේම 19
▁ඉරාකේ 19
▁ඉරිස 19
▁ඉවසගෙන 19
▁උඩුගත 19
▁උබලගේ 19
▁උරන 19
▁උවමනාව 19
▁එකකි 19
▁එකතුකරන 19
▁එගොල 19
▁එපමණ 19
▁එවුං 19
▁එහෙක 19
▁එහෙමනං 19
▁ඒවායෙ 19
▁ඔතලා 19
▁ඔබේම 19
▁ඔහෙත 19
▁ඔළුවෙන 19
▁ඕකත 19
▁ඕකෙ 19
▁ඕනවුනා 19
▁කකුලෙන 19
▁කටවත 19
▁කණෟඩායම 19
▁කතාබහක 19
▁කබඩ 19
▁කමිට 19
▁කරකර 19
▁කරගනී 19
▁කරදරෙන 19
▁කරවීම 19
▁කරුවල 19
▁කලබ 19
▁කවිච 19
▁කසලශෝධකයන 19
▁කාගේද 19
▁කාරයේ 19
▁කාසිම 19
▁කැඩුනු 19
▁කැඩෙට 19
▁කැදවන 19
▁කැලෑව 19
▁කැළැල 19
▁කෑග 19
▁කියනකන 19
▁කියනවනේ 19
▁කියාද 19
▁කියාල 19
▁කිරීමෙහි 19
▁කිසිද 19
▁කිසිව 19
▁කීකරු 19
▁කූඩාර 19
▁කෙරුවේ 19
▁කෙහෙම 19
▁කොමා 19
▁කොමොඩස 19
▁කොයිවෙල 19
▁කොරිඩෝ 19
▁කොලොන 19
▁ඛේදවා 19
▁ගජිණි 19
▁ගතිගුණ 19
▁ගනීවී 19
▁ගබලි 19
▁ගයත 19
▁ගාඩියන 19
▁ගාණකින 19
▁ගැලපීමක 19
▁ගෙදරයි 19
▁ගෙනැත 19
▁ගේබි 19
▁ගොනුව 19
▁ගොබ 19
▁චතුරශ 19
▁චාරණයක 19
▁චැ 19
▁චිකරන 19
▁චෝදනාවක 19
▁චෝව 19
▁ඡායාරූපයක 19
▁ඡාවෙන 19
▁ජනගහන 19
▁ජනපදයට 19
▁ජාට 19
▁ජීවි 19
▁ජුරි 19
▁ජූර 19
▁ජෙරමි 19
▁ජෙසිකා 19
▁ජොනි 19
▁ටුඩන 19
▁ටුස 19
▁ටේෂ 19
▁ටොල 19
▁ටෝරස 19
▁ඩසෙ 19
▁ඩිවිශන 19
▁ඩුවී 19
▁ඩෝනට 19
▁තඩ 19
▁තඩියා 19
▁තදබදය 19
▁තමද 19
▁තරක 19
▁තරඟයේ 19
▁තරලය 19
▁තානය 19
▁තැනදී 19
▁තියගන 19
▁තියෙනවානම 19
▁තීරණයට 19
▁තුවද 19
▁තූතිය 19
▁තෙවන 19
▁තොටුපලේ 19
▁තොටුපොල 19
▁දඟල 19
▁දඩයමක 19
▁දඬුවමක 19
▁දනිමි 19
▁දමක 19
▁දහතුන 19
▁දාකිණි 19
▁දැගල 19
▁දැනගනින 19
▁දැමිය 19
▁දැමීමක 19
▁දිගම 19
▁දිනයි 19
▁දියේ 19
▁දිසානායක 19
▁දීත 19
▁දුපතනේ 19
▁දුෂණය 19
▁දූතයන 19
▁දෙමුහුන 19
▁දෙයකටම 19
▁දෙවියේ 19
▁දෙවෙනියට 19
▁දේවිය 19
▁ධියෙන 19
▁නටවන 19
▁නමයක 19
▁නාකියෝ 19
▁නාගර 19
▁නානකාම 19
▁නාරම 19
▁නාවන 19
▁නාහු 19
▁නැංවීම 19
▁නැගිටල 19
▁නිකීටා 19
▁නිතිඥ 19
▁නිදිමත 19
▁නියුක 19
▁නිවාරණ 19
▁නිවේද 19
▁නිහඬව 19
▁නීමා 19
▁නීරස 19
▁නුඹයි 19
▁නේනැත 19
▁නොදා 19
▁පතට 19
▁පතුරම 19
▁පපි 19
▁පමා 19
▁පමේවත 19
▁පයෙක 19
▁පරිගණකයට 19
▁පරිප 19
▁පලක 19
▁පලවෙනියා 19
▁පහළින 19
▁පළල 19
▁පාඩුවක 19
▁පාරි 19
▁පාලකයෙක 19
▁පැටලිලි 19
▁පැණ 19
▁පැහැද 19
▁පිටියක 19
▁පිටියේ 19
▁පිලිතුරු 19
▁පිළිගැනීම 19
▁පුකරන 19
▁පුටුවේ 19
▁පුරාතන 19
▁පූජකයෙක 19
▁පෘතුවි 19
▁පෙනි 19
▁පෙරනිම 19
▁පෙරා 19
▁පෙළෙන 19
▁පොලක 19
▁පොසයිඩන 19
▁පොළොව 19
▁පෝච 19
▁බංගලා 19
▁බකරන 19
▁බඩග 19
▁බයිස 19
▁බලගැන 19
▁බලාන 19
▁බවය 19
▁බාට 19
▁බැරැක 19
▁බැරෑරුම 19
▁බිජු 19
▁බිරිදත 19
▁බිරිදයි 19
▁බුනොත 19
▁බුම 19
▁බුරියානි 19
▁බෙලි 19
▁බෝග 19
▁භාශාව 19
▁භු 19
▁මකුළු 19
▁මගෙම 19
▁මතකතියාගන 19
▁මතකයට 19
▁මතකයිනේ 19
▁මතකයෙන 19
▁මනි 19
▁මයෙක 19
▁මහලට 19
▁මහෙක 19
▁මාතලේ 19
▁මායාකාරයෙක 19
▁මැතිවර 19
▁මැදපෙරදිග 19
▁මැරෙනකන 19
▁මැලියි 19
▁මිටියාවත 19
▁මිතුරු 19
▁මිදිලා 19
▁මිනීමරුවෝ 19
▁මිලිමීටර 19
▁මුචබූම 19
▁මුණගස 19
▁මුදුනෙ 19
▁මුරපද 19
▁මූලාරම 19
▁මෙවා 19
▁මෙහෙයවීම 19
▁මේහෙම 19
▁මොළයක 19
▁මෝරෙක 19
▁යටහත 19
▁යයෝ 19
▁යාගාරය 19
▁යාද 19
▁යාදෙව 19
▁යායක 19
▁යාවෙන 19
▁යාසය 19
▁යින 19
▁යෙදුම 19
▁යෙලෝ 19
▁රංචු 19
▁රගතියක 19
▁රඝ 19
▁රජුනි 19
▁රණශූරයා 19
▁රතාව 19
▁රතිරූපය 19
▁රතිශතයක 19
▁රථිපල 19
▁රදෙි 19
▁රධානත 19
▁රධානීන 19
▁රමයයි 19
▁රයල 19
▁රයස 19
▁රවා 19
▁රවීන 19
▁රහසිගතව 19
▁රහේල 19
▁රෆ 19
▁රාගව 19
▁රාජධානි 19
▁රාජන 19
▁රාණඇප 19
▁රැජිනක 19
▁රැදෙන 19
▁රැඳිලා 19
▁රැබ 19
▁රිංගලා 19
▁රෙඩෝ 19
▁රේණියේ 19
▁රෝගියාගේ 19
▁රෝමයට 19
▁ලංක 19
▁ලංසුව 19
▁ලකෝ 19
▁ලගදිම 19
▁ලඟදී 19
▁ලැබෙනවද 19
▁ලැබෙයිද 19
▁ලිමෝ 19
▁ලීනර 19
▁ලීමට 19
▁ලූෂියන 19
▁ලෙවල 19
▁ලොකයේ 19
▁ලොකෙ 19
▁වංචාව 19
▁වටරවුම 19
▁වටේටම 19
▁වනි 19
▁වඳුරෝ 19
▁වරළ 19
▁වසාද 19
▁වාභාව 19
▁වාසස 19
▁වාහනෙන 19
▁වැටහ 19
▁වැටුනොත 19
▁වැඩසටහනකි 19
▁වැඩික 19
▁වැඩුණු 19
▁වැඳ 19
▁වැරදිකරු 19
▁වැසිකිළ 19
▁වැළක 19
▁වැළද 19
▁වෑයම 19
▁විකාරද 19
▁විකින 19
▁විගින 19
▁විඩියෝ 19
▁විනාඩිය 19
▁විනාශයට 19
▁විනෝදවෙන 19
▁විඳිනවා 19
▁විපර 19
▁විභාගේ 19
▁වියහැකි 19
▁විරූප 19
▁විෂයක 19
▁විහිළුකාර 19
▁වීස 19
▁වුයේ 19
▁වෙනියා 19
▁වෙළඳපල 19
▁වේදිකාවේ 19
▁ශිවා 19
▁ෂකම 19
▁ෂණයකට 19
▁සංයුත 19
▁සඟරා 19
▁සබරගමුව 19
▁සමාග 19
▁සමාවදෙන 19
▁සමීර 19
▁සමෘද 19
▁සයාව 19
▁සරදම 19
▁සරු 19
▁සලරේටරය 19
▁සහකරු 19
▁සහතිකයක 19
▁සහෝදරයො 19
▁සහෝදරවර 19
▁සැබෑවක 19
▁සැමියාගේ 19
▁සැස 19
▁සිටද 19
▁සිටිනා 19
▁සිටිමට 19
▁සිදුර 19
▁සිනි 19
▁සිරකරුවෙක 19
▁සිවරාම 19
▁සිහිවටන 19
▁සීරුවෙන 19
▁සුලුයි 19
▁සෘතුව 19
▁සෙනඟ 19
▁සෙබළුන 19
▁සෙවන 19
▁සෛ 19
▁සොඳුර 19
▁හග 19
▁හතරදෙනෙක 19
▁හතුරකේ 19
▁හදුනගන 19
▁හදුනාගත 19
▁හඳුනගන 19
▁හරියක 19
▁හලෙ 19
▁හාදයින 19
▁හාදු 19
▁හානිකර 19
▁හැකී 19
▁හැඩගැ 19
▁හැපි 19
▁හැබෑම 19
▁හැමකෙනාම 19
▁හැමතැනකම 19
▁හිඟයක 19
▁හිතුනොත 19
▁හිරක 19
▁හිරවෙනවා 19
▁හෙදියක 19
▁හෙස 19
▁හොඩ 19
▁හොදයිනේ 19
▁හොයයි 19
▁හොරාට 19
▁හොවෙල 19
▁ළක 19
▁ෆෙර 19
▁ෆෙරාරී 19
▁ෆෝමියුලා 19
▁ෙඩස 19
▁ෙඩාක 19
▁ෙතාත 19
▁ෙසා 19
▁ෙහ 19
,5 18
,8 18
-12 18
.07 18
18 18
EC 18
Rosen 18
TI 18
VR 18
ear 18
est 18
ice 18
ill 18
og 18
ore 18
vel 18
ven 18
ංගත 18
අපිව 18
අස 18
කටෙ 18
කත 18
කමේ 18
කරුගේ 18
කාරීව 18
කුන 18
ගමුව 18
ගැනිමක 18
ටුව 18
ඩස 18
ණුම 18
තිස 18
දිරි 18
ධි 18
නමය 18
නැති 18
නියමයි 18
පණ 18
පථ 18
පොර 18
ඵ 18
බෙල 18
මනෙ 18
මැ 18
මුකුත 18
යකුගේ 18
යෙත 18
රිච 18
ලටෙ 18
ලනය 18
වපන 18
වාදියෙක 18
වියස 18
විස 18
සාන 18
සැල 18
හනයක 18
හැකිද 18
හැමෝම 18
හිස 18
ාටද 18
ානයට 18
ාරින 18
ාවයට 18
ැජ 18
ැනේ 18
ෑග 18
ෑල 18
ිටයි 18
ියකෝ 18
ිරියා 18
ිවම 18
ිවයි 18
ිවරුන 18
ිහිල 18
ීනය 18
ුණන 18
ුතැන 18
ුවහොත 18
ුවෙමින 18
ුවේවි 18
ුශ 18
ෙතන 18
ෙනිය 18
ේඛ 18
ේදිත 18
ේමයි 18
ේෂන 18
ොවක 18
ෝලන 18
▁109 18
▁15,000 18
▁155 18
▁1999 18
▁3-1 18
▁73 18
▁CAA 18
▁CBI 18
▁Charlie 18
▁Cl 18
▁DJ 18
▁David 18
▁IS 18
▁Madge 18
▁Oz 18
▁Pr 18
▁SUV 18
▁Sub 18
▁Un 18
▁Who 18
▁any 18
▁c 18
▁had 18
▁how 18
▁o 18
▁stop 18
▁අංජ 18
▁අඟහරුවාද 18
▁අඩිපාර 18
▁අඩුකරගන 18
▁අඩුතරම 18
▁අණතුර 18
▁අණතුරක 18
▁අධිකරණයට 18
▁අධිකරණයේ 18
▁අනිනවා 18
▁අනුපාතය 18
▁අඳිනවා 18
▁අපදා 18
▁අපරාදයක 18
▁අමතකයි 18
▁අයවත 18
▁අයිතිකරු 18
▁අයිතිකාරය 18
▁අයිතීන 18
▁අයියගේ 18
▁අයිසැක 18
▁අරමුදලින 18
▁අරාබ 18
▁අරුත 18
▁අලියෙක 18
▁අවකාශයේ 18
▁අවතාරයක 18
▁අවාසි 18
▁අශෝ 18
▁අහිමිවීම 18
▁අහුන 18
▁ආඥාපති 18
▁ආමි 18
▁ආරංච 18
▁ආශා 18
▁ආශාවන 18
▁ඇතුලින 18
▁ඇදහිය 18
▁ඇදී 18
▁ඇරලන 18
▁ඉංජිනේරුවන 18
▁ඉඟි 18
▁ඉදිරිය 18
▁ඉඳිමු 18
▁ඉපදුනු 18
▁ඉබාගාත 18
▁ඉරක 18
▁ඉරාකයේ 18
▁ඉරිගු 18
▁ඊරිස 18
▁උතුමාන 18
▁උනුත 18
▁උපචිත 18
▁උපවගන 18
▁උපසිර 18
▁උඹලාගේ 18
▁ඌහ 18
▁එතුමාගේ 18
▁එදිරි 18
▁එයාගෝ 18
▁එයාලගෙම 18
▁එයාලටත 18
▁එවි 18
▁ඒකටත 18
▁ඒකටම 18
▁ඒකියන 18
▁ඒවල 18
▁ඒවිද 18
▁ඔනම 18
▁ඔබාමා 18
▁ඔරු 18
▁ඔලීවියා 18
▁ඔලුවටම 18
▁ඔෙහ 18
▁ඕකීඩ 18
▁ඕනාද 18
▁ඕනිලු 18
▁ඖ 18
▁කටවහ 18
▁කතාකරේ 18
▁කතාවම 18
▁කදවුරක 18
▁කනකෙ 18
▁කරදරක 18
▁කරනවලු 18
▁කලප 18
▁කලී 18
▁කවම 18
▁කළමනා 18
▁කළහැකි 18
▁කාටල 18
▁කාමරේක 18
▁කාරණාවන 18
▁කාලයකින 18
▁කැපවීම 18
▁කැපිලා 18
▁කැරල 18
▁කැෆේ 18
▁කෑවොත 18
▁කිමද 18
▁කිඹුල 18
▁කියලම 18
▁කිරීමද 18
▁කිරුල 18
▁කුටීරයේ 18
▁කුබි 18
▁කුයින 18
▁කුවත 18
▁කුසේ 18
▁කුළුණට 18
▁කෘෂ 18
▁කෙයිලන 18
▁කෙලවරේ 18
▁කෙලෙස 18
▁කොඳුරන 18
▁කොහිද 18
▁කොහෙටවත 18
▁කොහෙමද 18
▁කොහොමවුණත 18
▁ඛේද 18
▁ගණනකට 18
▁ගණිතමය 18
▁ගතවෙන 18
▁ගනො 18
▁ගබඩාවෙ 18
▁ගබඩාවෙන 18
▁ගැබිනියක 18
▁ගැලපෙනව 18
▁ගිණුමේ 18
▁ගේලන 18
▁ගොපල 18
▁ගෞතම 18
▁ඝාතනයක 18
▁ඝාතනයට 18
▁චලන 18
▁චියෙ 18
▁චෙරි 18
▁චෝයි 18
▁ජනනය 18
▁ජනරජයේ 18
▁ජාතියට 18
▁ජීවිතයත 18
▁ජීවිතාරක 18
▁ජුස 18
▁ජූඩ 18
▁ජෝශ 18
▁ඥාන 18
▁ටනිය 18
▁ටිනස 18
▁ටීවි 18
▁ඨත 18
▁ඩිනි 18
▁ඩීකන 18
▁ඩෙඩ 18
▁ඩෝඩි 18
▁ණනාවක 18
▁ණාඩි 18
▁තකු 18
▁තටත 18
▁තනයක 18
▁තයාව 18
▁තරගකාරී 18
▁තරගයෙන 18
▁තලයක 18
▁තාරය 18
▁තැනකදි 18
▁තැනදි 18
▁තැනේ 18
▁තැපෑලෙන 18
▁තැබිය 18
▁තැබීමට 18
▁තෑගී 18
▁තිබහ 18
▁තිබුනනේ 18
▁තිබුනානම 18
▁තිබේද 18
▁තියනවලු 18
▁තිවාරම 18
▁තුකාරයෝ 18
▁තෝලයක 18
▁ථාවලදී 18
▁දකී 18
▁දනන 18
▁දනයක 18
▁දමයි 18
▁දරුණුම 18
▁දැනත 18
▁දෑවැද 18
▁දියාවෙන 18
▁දිවුරුවා 18
▁දිවෙන 18
▁දිහාවක 18
▁දීමනාව 18
▁දුබ 18
▁දුරකතනයක 18
▁දෙයියෝ 18
▁දෙවතාවක 18
▁දෙවරක 18
▁දෙවිවරු 18
▁දෙහිවල 18
▁දේවිකා 18
▁ධමන 18
▁ධීන 18
▁නඟරයේ 18
▁නතක 18
▁නමද 18
▁නයකට 18
▁නයිජ 18
▁නයිල 18
▁නරුව 18
▁නවතියි 18
▁නාදයක 18
▁නාදුනන 18
▁නැතුවට 18
▁නැමදුම 18
▁නිකරුනේ 18
▁නිකොල 18
▁නිප 18
▁නියො 18
▁නිරූපණය 18
▁නිසැක 18
▁නීක 18
▁නීතිවිරෝධී 18
▁නෙවිල 18
▁නේඔයා 18
▁නොකඩවා 18
▁නොනවත 18
▁නොනැ 18
▁නෝනේ 18
▁නෝහා 18
▁පටුම 18
▁පටෝටිය 18
▁පනහයි 18
▁පනාවක 18
▁පයට 18
▁පරිපාල 18
▁පරිම 18
▁පරිමිත 18
▁පවසයි 18
▁පවු 18
▁පවෙල 18
▁පහනක 18
▁පහරන 18
▁පහුකලා 18
▁පළිගැනීම 18
▁පාරජම 18
▁පැනපු 18
▁පැම 18
▁පැමිනිලි 18
▁පිටුපසට 18
▁පිලිබඳව 18
▁පිළිගැන 18
▁පිළිගැනීමක 18
▁පිළිබිඹු 18
▁පිළිම 18
▁පිළිවෙලක 18
▁පුටු 18
▁පුරන 18
▁පුරෝග 18
▁පුලුව 18
▁පුවට 18
▁පුහුණුකරු 18
▁පුළ 18
▁පෘ 18
▁පෘටෝස 18
▁පෙලපත 18
▁පේලිය 18
▁පේලියේ 18
▁පොලවේ 18
▁පොලිසියත 18
▁බඋනා 18
▁බච 18
▁බඩුත 18
▁බඩුම 18
▁බයිබලේ 18
▁බලකරන 18
▁බලකායක 18
▁බලකොටුවක 18
▁බලධාර 18
▁බලාගනින 18
▁බවේවි 18
▁බානස 18
▁බාබරා 18
▁බාලදක 18
▁බාවිතා 18
▁බැබල 18
▁බැරිවෙලාවත 18
▁බැලැක 18
▁බැහැයි 18
▁බෑස 18
▁බිච 18
▁බිදිලා 18
▁බිබී 18
▁බිමදාන 18
▁බියක 18
▁බිරිඳයි 18
▁බිහිරි 18
▁බුසාන 18
▁බේරාගැනීමේ 18
▁භාජ 18
▁මතකේ 18
▁මදින 18
▁මයෙන 18
▁මවගේ 18
▁මහතයි 18
▁මහම 18
▁මහේන 18
▁මාමට 18
▁මායාකාරිය 18
▁මාවතක 18
▁මාළිග 18
▁මැගසින 18
▁මැදි 18
▁මැරුණොත 18
▁මැරුනට 18
▁මැරෙනවද 18
▁මිණිම 18
▁මිථ 18
▁මිනියන 18
▁මිනිහයි 18
▁මිනීමරන 18
▁මියගොස 18
▁මුරකරුවන 18
▁මුරලි 18
▁මුලදි 18
▁මූලද 18
▁මෘගයෙක 18
▁මෙකි 18
▁මෙහේද 18
▁මේඩයේ 18
▁මේලන 18
▁මේලනය 18
▁මේසි 18
▁මේහේ 18
▁මොකෙද 18
▁මොඩයෙක 18
▁මොනවට 18
▁මොනවම 18
▁මොම 18
▁මොරියාට 18
▁මොරිස 18
▁යංශ 18
▁යටිහිත 18
▁යථා 18
▁යභාර 18
▁යවා 18
▁යසාධනය 18
▁යහළුවෙක 18
▁යාකාර 18
▁යාපනික 18
▁යාපෘතියට 18
▁යාපෘතීන 18
▁යාලුකම 18
▁යාසයක 18
▁යාහ 18
▁යුගය 18
▁යූරෝ 18
▁රංශය 18
▁රකිනවා 18
▁රඟහල 18
▁රචන 18
▁රටා 18
▁රණශූරයෙක 18
▁රතිනිර 18
▁රදේශයම 18
▁රඳාපවතින 18
▁රමවේද 18
▁රමාණයෙන 18
▁රමුඛතා 18
▁රයර 18
▁රයොජන 18
▁රවේශයක 18
▁රසංගය 18
▁රසංශා 18
▁රහීම 18
▁රාධ 18
▁රාධේ 18
▁රාවන 18
▁රිමාන 18
▁රියත 18
▁රියදුරන 18
▁රිෂී 18
▁රිෆින 18
▁රීඩාවේ 18
▁රූපවාහිනියේ 18
▁රෙප 18
▁රෙබෙකා 18
▁රෙමිසේස 18
▁රේෂක 18
▁රෝදයක 18
▁රෝපණය 18
▁ලකන 18
▁ලණ 18
▁ලයිටර 18
▁ලයිඩ 18
▁ලාංඡ 18
▁ලාවා 18
▁ලැනට 18
▁ලැබනෙ 18
▁ලැබුනම 18
▁ලෑම 18
▁ලිඛිතව 18
▁ලිච 18
▁ලුයි 18
▁ලෙජර 18
▁ලෙඩා 18
▁ලෙයිලා 18
▁ලේබල 18
▁ලොවක 18
▁වංකගිරිය 18
▁වතාවෙම 18
▁වඳුරු 18
▁වසරකම 18
▁වළාක 18
▁වාසනා 18
▁වැජඹ 18
▁වැටි 18
▁වැටී 18
▁වැහෙන 18
▁විනාසයක 18
▁විපරිත 18
▁වියර 18
▁විලන 18
▁විෂේශ 18
▁විසඳලා 18
▁වීදියක 18
▁වෙජ 18
▁වෙනතුරු 18
▁වෙලාවෙන 18
▁වෙලාවේදී 18
▁වේලාවට 18
▁වේස 18
▁වොව 18
▁ශාලාවෙ 18
▁ශාවට 18
▁ශින 18
▁ශිශිර 18
▁ශෛල 18
▁ෂකයිනි 18
▁ෂපාතීත 18
▁ෂාවන 18
▁ෂාවේ 18
▁ෂැ 18
▁ෂීය 18
▁ෂෙරීෆ 18
▁සංචාරකයන 18
▁සංවෘත 18
▁සංවේ 18
▁සගවන 18
▁සඟවන 18
▁සටනේ 18
▁සතුටුවෙන 18
▁සනයිද 18
▁සනේඑන 18
▁සඳහනක 18
▁සබඳ 18
▁සමනේ 18
▁සමාදාන 18
▁සමීකරණය 18
▁සමුළුවට 18
▁සරණ 18
▁සලේ 18
▁සලෝවී 18
▁සවේට 18
▁සාරියක 18
▁සාවේ 18
▁සැකකාරයෙක 18
▁සැබෑම 18
▁සැමියට 18
▁සැරින 18
▁සැවොම 18
▁සිගරැට 18
▁සිටියහ 18
▁සිතමින 18
▁සිමාව 18
▁සුරත 18
▁සෙබලුන 18
▁සෙබළා 18
▁සේනාංක 18
▁සේවකයෝ 18
▁සෝදන 18
▁හං 18
▁හඳට 18
▁හඳුනගත 18
▁හයකින 18
▁හලා 18
▁හැදීගෙන 18
▁හැමදේකම 18
▁හිංසාවක 18
▁හිදී 18
▁හිරකරන 18
▁හීනෙ 18
▁හොකී 18
▁හොබාර 18
▁හෝදලා 18
▁ළඟාවෙනවා 18
▁ෆිබනාච 18
▁ෆුන 18
▁ෆේඩ 18
-------- 17
.05 17
37 17
44 17
70 17
AC 17
TA 17
ant 17
co 17
em 17
her 17
ight 17
ion 17
ok 17
ors 17
ount 17
ree 17
way 17
ංචි 17
අව 17
ඇන 17
ඇයට 17
එයාලා 17
එයාව 17
ඔහොම 17
ඕක 17
කාරීත 17
කෙන 17
කෝන 17
ගනේක 17
ගැට 17
ණාත 17
ණාව 17
ඬු 17
තාවන 17
තිව 17
දයක 17
දාර 17
නෝන 17
බඳ 17
බඳු 17
බින 17
බෝද 17
මටත 17
මනම 17
මෙෙ 17
ඹන 17
වතුන 17
වරය 17
වැඩක 17
විදිහට 17
වියේ 17
වුරු 17
වුලක 17
වෙණි 17
ශර 17
ශික 17
ෂික 17
සොව 17
හනම 17
හරියට 17
හෙමු 17
ෆඩ 17
ෆෝන 17
ාටු 17
ාමාන 17
ායනවා 17
ාලම 17
ාවලියේ 17
ැණි 17
ිටු 17
ිතුමාගේ 17
ිතුමාට 17
ිමන 17
ියනෙ 17
ියානුවන 17
ියෙකු 17
ිෂේක 17
ිළ 17
ිෆ 17
ීමත 17
ුකොට 17
ුණාට 17
ුතු 17
ුලම 17
ුවනේන 17
ුළුයි 17
ෘද 17
ෙකන 17
ෙකි 17
ෙකු 17
ෙයාර 17
ොලා 17
▁196 17
▁2,000 17
▁350 17
▁40,000 17
▁81 17
▁83 17
▁900 17
▁CL 17
▁Elementary 17
▁LA 17
▁Love 17
▁MIT 17
▁Mac 17
▁Mav 17
▁Mc 17
▁Michael 17
▁Mo 17
▁ORCA 17
▁One 17
▁SEAL 17
▁To 17
▁Your 17
▁but 17
▁down 17
▁g 17
▁our 17
▁she 17
▁some 17
▁way 17
▁අකර 17
▁අඩවි 17
▁අඩො 17
▁අතෑරපන 17
▁අනාථයෙක 17
▁අනෙත 17
▁අපද 17
▁අපනේ 17
▁අපර 17
▁අමාරැ 17
▁අයුධ 17
▁අරකට 17
▁අරමුදලට 17
▁අවතක 17
▁අවසරපත 17
▁අවසානයෙ 17
▁අවාසනාවක 17
▁අශිෂ 17
▁අසුර 17
▁අහිංසකයෙක 17
▁අහින 17
▁ආකාරයෙන 17
▁ආදරේට 17
▁ආදා 17
▁ආපන 17
▁ආපුවහම 17
▁ආබාධයක 17
▁ආලෝකමත 17
▁ආසනයක 17
▁ඇතුලා 17
▁ඇනස 17
▁ඇඳුමේ 17
▁ඇපකරුවන 17
▁ඇරඹුනා 17
▁ඇරියේ 17
▁ඇලනොන 17
▁ඇලි 17
▁ඇසේ 17
▁ඇහැව 17
▁ඉඩමේ 17
▁ඉඳලද 17
▁ඉඳිද 17
▁ඉරණ 17
▁ඉරල 17
▁ඉවුර 17
▁ඊගල 17
▁ඊතර 17
▁උකුල 17
▁උගුරු 17
▁උදර 17
▁උදවිය 17
▁උදාහර 17
▁උදාහරණයකට 17
▁උදුරගත 17
▁උදුරා 17
▁උනෙත 17
▁උසාවියේදී 17
▁ඌගෙ 17
▁ඌරන 17
▁එංජ 17
▁එංජිම 17
▁එකපාරට 17
▁එකියක 17
▁එකෙනුයි 17
▁එතකොටත 17
▁එතුමන 17
▁එයාටයි 17
▁එලව 17
▁එලවල 17
▁ඒයාට 17
▁ඔෙහාම 17
▁ඕනතරම 17
▁ඕනෙන 17
▁ඕනේඔයා 17
▁ඕනේවුනා 17
▁කඩපු 17
▁කඩවල 17
▁කඩාගනෙ 17
▁කඩිසර 17
▁කණගාටුවෙන 17
▁කනිෂ 17
▁කපුට 17
▁කමිසේ 17
▁කමේ 17
▁කඹයක 17
▁කරගනින 17
▁කරව 17
▁කරුණාවක 17
▁කරුවකේ 17
▁කලමණ 17
▁කලාපයට 17
▁කවදත 17
▁කවල 17
▁කශේරුක 17
▁කාගේවත 17
▁කාප 17
▁කාරයෙන 17
▁කාලින 17
▁කාසල 17
▁කාළකණ 17
▁කැටි 17
▁කැඩුවේ 17
▁කැලෙන 17
▁කැළේ 17
▁කියුවේ 17
▁කිහිපයයි 17
▁කීපෙකට 17
▁කුලුන 17
▁කුශ 17
▁කුළියට 17
▁කූඩුවෙ 17
▁කූබ 17
▁කෘතියක 17
▁කෙනෙකුටම 17
▁කොකු 17
▁කොටසෙ 17
▁කොටින 17
▁කොටුව 17
▁කොටුවට 17
▁කොලෙ 17
▁කොහේදී 17
▁කොළයක 17
▁කෝකියා 17
▁කෲර 17
▁ගග 17
▁ගගන 17
▁ගණකාධිකාරී 17
▁ගනීද 17
▁ගනුද 17
▁ගාගන 17
▁ගානටම 17
▁ගැටල 17
▁ගැඹුරේ 17
▁ගැරී 17
▁ගැලපීම 17
▁ගැවසෙන 17
▁ගැහුන 17
▁ගැළපෙනවා 17
▁ගෑණුන 17
▁ගෑනුන 17
▁ගිනිදළු 17
▁ගිවිසගෙන 17
▁ගුරුවරියක 17
▁ගුහාවෙ 17
▁ගෙවනු 17
▁ගොඩන 17
▁ගෝලයෙක 17
▁චාවෙස 17
▁චැන 17
▁චීෆ 17
▁චූදිත 17
▁චො 17
▁චොද 17
▁චෞදරි 17
▁ජනරජ 17
▁ජනාධිපතිට 17
▁ජලජ 17
▁ජලයෙන 17
▁ජීවිතේදි 17
▁ජීවිතේදී 17
▁ජූස 17
▁ජෙඩයිලා 17
▁ජෙඩා 17
▁ජෙනර 17
▁ජෝසප 17
▁ටනයක 17
▁ටනර 17
▁ටනියක 17
▁ටවුමේ 17
▁ටිකල 17
▁ටීටබරෝ 17
▁ටේජ 17
▁ටෲමන 17
▁ඩලයක 17
▁ඩැඩ 17
▁ඩිග 17
▁ඩේයි 17
▁ඩොරම 17
▁ණු 17
▁තකය 17
▁තකාලය 17
▁තරල 17
▁තරේට 17
▁තශාලාව 17
▁තායිලන 17
▁තාරෙ 17
▁තාවත 17
▁තාවනි 17
▁තැනකදී 17
▁තැබීමේ 17
▁තිබුණද 17
▁තියනේන 17
▁තියේනම 17
▁තුකයෙක 17
▁තුකාරයා 17
▁තුඩු 17
▁තුමෙනි 17
▁තුරන 17
▁තුලම 17
▁තුවොත 17
▁ථනාවක 17
▁ථායී 17
▁ථීරයි 17
▁දකිනවද 17
▁දඩුවමක 17
▁දමනු 17
▁දඹ 17
▁දරුවයි 17
▁දවසෝ 17
▁දැනිල 17
▁දැවෙන 17
▁දියවැඩියාව 17
▁දියුනු 17
▁දිලිසෙනවා 17
▁දීමකින 17
▁දුත 17
▁දුපතක 17
▁දුබල 17
▁දෙකත 17
▁දෙපා 17
▁දෙමවුපියන 17
▁දෙවිවරුන 17
▁දේකුත 17
▁දේද 17
▁දේවගැති 17
▁ධයකට 17
▁ධීකරණ 17
▁ධෛ 17
▁නඟරය 17
▁නනවද 17
▁නබ 17
▁නමස 17
▁නයිජීර 17
▁නලයක 17
▁නවතා 17
▁නළු 17
▁නාඩිය 17
▁නානවා 17
▁නාමික 17
▁නාසය 17
▁නැඟිටලා 17
▁නැතිකොට 17
▁නැප 17
▁නැමැති 17
▁නැවතියන 17
▁නෑද 17
▁නිග 17
▁නියන 17
▁නියමට 17
▁නියමිතව 17
▁නිවාසයක 17
▁නිවැර 17
▁නිළධාරී 17
▁නීර 17
▁නුවණක 17
▁නේමම 17
▁නොතිබුණු 17
▁නොමඟ 17
▁නොවුනා 17
▁නොවේද 17
▁පංග 17
▁පටලවන 17
▁පදවනවා 17
▁පනතෙහි 17
▁පමණකි 17
▁පයිස 17
▁පරමාණු 17
▁පරමාර 17
▁පරිගණකයේ 17
▁පලවෙන 17
▁පශු 17
▁පහුකරන 17
▁පළවෙනිම 17
▁පාඥ 17
▁පාම 17
▁පැමිනිල 17
▁පැරීසියේ 17
▁පැලැන 17
▁පැළෑටි 17
▁පිජාමා 17
▁පිපිරෙව 17
▁පිරවුම 17
▁පිලිකුල 17
▁පිශාච 17
▁පිහාට 17
▁පිහිනුම 17
▁පීක 17
▁පුජකයකේ 17
▁පුතාලා 17
▁පුනුරුත 17
▁පුරප 17
▁පුරමු 17
▁පුරවැසියන 17
▁පෙදෙසක 17
▁පෙනහළු 17
▁පෙලෙන 17
▁පොලීසියෙ 17
▁පෝකර 17
▁පෝටර 17
▁බගාත 17
▁බජිරාඕ 17
▁බදාගෙන 17
▁බනිස 17
▁බයවනේන 17
▁බයිබල 17
▁බරත 17
▁බලඇණිය 17
▁බාගෙකට 17
▁බාවිත 17
▁බාහුබලි 17
▁බැදෙන 17
▁බැනුම 17
▁බැඳීමක 17
▁බැමි 17
▁බැරිවුනොත 17
▁බෑගය 17
▁බිං 17
▁බිඳලා 17
▁බිඳිලා 17
▁බිරිඳගෙ 17
▁බීපු 17
▁බීමත 17
▁බෙදනවා 17
▁බෙදිල 17
▁බෙදෙන 17
▁බේරුණ 17
▁බොඳ 17
▁භාරව 17
▁භාවනා 17
▁භාවිතාකරන 17
▁භේද 17
▁මගිනි 17
▁මගුලටද 17
▁මතකයිද 17
▁මතයන 17
▁මධුසමය 17
▁මරනවද 17
▁මරාදැම 17
▁මරියා 17
▁මරුනේ 17
▁මලීන 17
▁මාදය 17
▁මානු 17
▁මාමාට 17
▁මාලයක 17
▁මැරනේන 17
▁මැරෙනවට 17
▁මෑත 17
▁මිනිබ 17
▁මිනිහකෝ 17
▁මිනීමැර 17
▁මිලියනයකට 17
▁මුණගැහිල 17
▁මුදවාගැනීමේ 17
▁මුදුනේ 17
▁මුරය 17
▁මුලාශ 17
▁මුවන 17
▁මූලාක 17
▁මෘදුයි 17
▁මෙකෙ 17
▁මෙමගින 17
▁මෙවන 17
▁මෙස 17
▁මෙෙහම 17
▁මේට 17
▁මොඩයෝ 17
▁මොනරාගල 17
▁මොහුව 17
▁මෝට 17
▁මෝඩයන 17
▁යටිසිත 17
▁යපෘතිය 17
▁යසාධ 17
▁යාඥයා 17
▁යායුතුයි 17
▁යාලුවකේ 17
▁යැ 17
▁යැප 17
▁යෑමක 17
▁යෙදීම 17
▁යේහ 17
▁යොදවනවා 17
▁යොදවල 17
▁යොමුව 17
▁යෝගිමත 17
▁යෞවන 17
▁රණවිර 17
▁රතිපලයක 17
▁රතිරූප 17
▁රතිශතය 17
▁රථයේ 17
▁රමාණයකින 17
▁රමාණයන 17
▁රමිත 17
▁රමීස 17
▁රයිවින 17
▁රසක 17
▁රහාරයන 17
▁රාඕ 17
▁රාහකයන 17
▁රැඳවුම 17
▁රැවටිලා 17
▁රිගේ 17
▁රියාකාරි 17
▁රියාදාම 17
▁රියාවලියේ 17
▁රුවන 17
▁රුසියාව 17
▁රෙජිස 17
▁රේමවන 17
▁රෛභා 17
▁රොයිඩ 17
▁රොයිස 17
▁රෝගියකුට 17
▁රෝත 17
▁ලකාර 17
▁ලකෙ 17
▁ලගටම 17
▁ලඟද 17
▁ලණුව 17
▁ලැනා 17
▁ලැබිච 17
▁ලැබේවා 17
▁ලිංගයක 17
▁ලියවිලි 17
▁ලුකස 17
▁ලුත 17
▁ලුවට 17
▁ලේඩි 17
▁ලොකී 17
▁ලොතරැයියක 17
▁ලෝබ 17
▁වංගුව 17
▁වගකිම 17
▁වගබලා 17
▁වටලන 17
▁වරදකට 17
▁වරයාගේ 17
▁වරැනි 17
▁වලවල 17
▁වලේ 17
▁වවන 17
▁වහපු 17
▁වහලුන 17
▁වහලෙට 17
▁වළාකුළු 17
▁වාගෙ 17
▁වාච 17
▁වාරයේ 17
▁වැටිච 17
▁වැටුනම 17
▁වැඩකටයුතු 17
▁වැඩමුළු 17
▁වැඩිවෙනවා 17
▁වැඩෙ 17
▁වැනිය 17
▁වැඳලා 17
▁වැලමිට 17
▁වැවිලි 17
▁වැවෙන 17
▁වැසික 17
▁වැසියනි 17
▁විකටයා 17
▁විගණනයේ 17
▁විතයේ 17
▁විතරයිනේ 17
▁විදහා 17
▁විදුම 17
▁විදුලිබල 17
▁විධානය 17
▁විනාඩ 17
▁විනාශකාරී 17
▁විනේද 17
▁විනෝදජනකයි 17
▁විනෝදාංශයක 17
▁විභාගෙට 17
▁වියරු 17
▁විලොබි 17
▁විහිළුකාරයෙක 17
▁වුද 17
▁වෙනකෙනෙක 17
▁වෙනදේ 17
▁වේගයක 17
▁ශරි 17
▁ශෝටා 17
▁ෂපාත 17
▁ෂාකලා 17
▁ෂිතද 17
▁ෂිතාගාරය 17
▁ෂීර 17
▁සංවිධානාත 17
▁සංවේදි 17
▁සකයෙක 17
▁සමක 17
▁සමාද 17
▁සමාවගන 17
▁සයෙකුට 17
▁සලකුන 17
▁සාවල 17
▁සාාව 17
▁සැද 17
▁සැබ 17
▁සැමදා 17
▁සැමන 17
▁සැමරුම 17
▁සැමියෙක 17
▁සැලඩ 17
▁සැලසුමේ 17
▁සිංහයෙක 17
▁සිංහාසනය 17
▁සිටම 17
▁සිටිනව 17
▁සිතල 17
▁සිදුවී 17
▁සියලුදෙන 17
▁සිරගෙ 17
▁සිරැසිය 17
▁සීලියා 17
▁සෘ 17
▁සෙනසුරාද 17
▁සෙනෙ 17
▁සෙබ 17
▁සෙබලා 17
▁සෙර 17
▁සෙවල 17
▁සේවාවක 17
▁සොරෙන 17
▁සෝද 17
▁සෝමාල 17
▁හංඟන 17
▁හජ 17
▁හතරදෙනා 17
▁හතරේ 17
▁හයිට 17
▁හරහට 17
▁හරෙ 17
▁හව 17
▁හවුලන 17
▁හවුසර 17
▁හාදයාව 17
▁හානය 17
▁හානියට 17
▁හාරනවා 17
▁හැගිමක 17
▁හැදුනෙ 17
▁හැමදෙයකටම 17
▁හැමවලෙේම 17
▁හැරවුම 17
▁හැරුණ 17
▁හිතක 17
▁හිතනවානම 17
▁හිතෙනවද 17
▁හිනාවෙලා 17
▁හිමිකරු 17
▁හිමිව 17
▁හිරවෙන 17
▁හිෙත 17
▁හුණුගල 17
▁හුවමාරුවට 17
▁හේස 17
▁හොත 17
▁ෆික 17
▁ෆිලී 17
▁ෆෙන 17
▁ෆෝකස 17
▁ෆෝල 17
▁ෙපාඩ 17
▁ෙසායා 17
▁ෙහාදට 17
▁ෙහායාගත 17
32 16
42 16
OM 16
ans 16
ier 16
ish 16
ke 16
ny 16
ont 16
ren 16
ub 16
up 16
war 16
අං 16
අභ 16
අය 16
එකෙන 16
එනවා 16
එයාලට 16
ඒවා 16
ඔන 16
ඔයාව 16
කටයි 16
කෙල 16
කේට 16
ගණනය 16
ගාමී 16
ටක 16
ඩිව 16
ණන 16
තුරුද 16
දකින 16
දලා 16
දාත 16
දාලා 16
දිපති 16
නන 16
නවත 16
නියම 16
නිව 16
පලට 16
පේස 16
බඩ 16
බූ 16
භව 16
මිනිසා 16
ඹුල 16
යාත 16
යිනම 16
යුක 16
රලා 16
රුවන 16
ලිය 16
ලේඛ 16
ලෝලා 16
වමයි 16
වහන 16
වාගත 16
විමේ 16
වීර 16
වීව 16
වො 16
ෂක 16
හලට 16
හිම 16
හූ 16
හෙලෝ 16
හේන 16
හොමද 16
ෆන 16
ෆල 16
ාංක 16
ාටා 16
ාදය 16
ාරස 16
ාලන 16
ාවලි 16
ැඩි 16
ැණ 16
ැනා 16
ැලේ 16
ිගු 16
ියුස 16
ියෙල 16
ිරස 16
ිවින 16
ිවෙයි 16
ිහිණ 16
ීමයි 16
ුටික 16
ුණක 16
ුදිය 16
ුනානම 16
ුයේ 16
ුරුව 16
ුවකෙ 16
ුවීමක 16
ෙකම 16
ෙකුත 16
ොං 16
ෝකය 16
ෝගෙ 16
ෝනි 16
▁10.30 16
▁105 16
▁160 16
▁2-1 16
▁2003 16
▁2011.09 16
▁25,000 16
▁4000 16
▁50000 16
▁53 16
▁Baggins 16
▁Da 16
▁Don 16
▁For 16
▁ID 16
▁ISI 16
▁Kipps 16
▁Labeaux 16
▁Ms 16
▁Okay 16
▁Sch 16
▁Sing 16
▁Sook 16
▁Ste 16
▁Tom 16
▁Toretto 16
▁Tr 16
▁Yeong 16
▁baby 16
▁over 16
▁pi 16
▁son 16
▁vs 16
▁අංකයකට 16
▁අංකයට 16
▁අංගනයට 16
▁අංගනයෙන 16
▁අකී 16
▁අඟුල 16
▁අඩංග 16
▁අතටම 16
▁අතලොස 16
▁අතහැරියා 16
▁අතීතයක 16
▁අතීතයෙන 16
▁අදහගන 16
▁අනාවරනය 16
▁අනුබද 16
▁අපරාධවලට 16
▁අභියාචනය 16
▁අයිනේ 16
▁අයියයි 16
▁අයියව 16
▁අයිරින 16
▁අරයත 16
▁අරව 16
▁අවකාශයක 16
▁අවදානයෙන 16
▁අවදියෙන 16
▁අවධාරණය 16
▁අවිවාහක 16
▁අසු 16
▁අහුරන 16
▁අෑ 16
▁ආගමන 16
▁ආචාරය 16
▁ආඥා 16
▁ආට 16
▁ආදායමක 16
▁ආධුනිකයෙක 16
▁ආපද 16
▁ආපනශාලා 16
▁ආබර 16
▁ආමන 16
▁ආයාචනා 16
▁ආරොන 16
▁ආලින 16
▁ආලේප 16
▁ආලේපන 16
▁ඇගෝ 16
▁ඇඩුවා 16
▁ඇතට 16
▁ඇතුළෙ 16
▁ඇදුමේ 16
▁ඇපකරයෝ 16
▁ඇමීරා 16
▁ඇරුනම 16
▁ඇසුරු 16
▁ඇහිල 16
▁ඉණ 16
▁ඉඳපන 16
▁ඉරිඟු 16
▁ඉරිසියයි 16
▁ඉවක 16
▁ඉහලටම 16
▁උචිත 16
▁උතුමාණනී 16
▁උපරිමෙන 16
▁උපහාස 16
▁උයනවා 16
▁ඌරා 16
▁එකඟතාවයකට 16
▁එතකම 16
▁එරෙබෝ 16
▁එලවලා 16
▁එවුවා 16
▁එවොයිස 16
▁එළියේදී 16
▁ඒවයි 16
▁ඔඩින 16
▁ඔබතුමන 16
▁ඔබි 16
▁ඔයාටවත 16
▁ඔවා 16
▁ඔහෙයි 16
▁ඔෆීස 16
▁කටවහනවා 16
▁කඩවත 16
▁කඩේක 16
▁කතාකරනව 16
▁කතාන 16
▁කතාමාලාව 16
▁කථාවේ 16
▁කරි 16
▁කලාවේ 16
▁කවුළ 16
▁කවුළුවක 16
▁කළුක 16
▁කාමරයෙ 16
▁කැනඩා 16
▁කැමතිය 16
▁කැමරාවෙන 16
▁කැලෑවෙ 16
▁කැලිෆෝනියා 16
▁කිටී 16
▁කිඹ 16
▁කියත 16
▁කියමුකෝ 16
▁කිරිමෙන 16
▁කිහ 16
▁කීවද 16
▁කුඩර 16
▁කුමාරයෙක 16
▁කුමාරිකාව 16
▁කුහුඹු 16
▁කුළුන 16
▁කෙනකේම 16
▁කෙරිණ 16
▁කෙරුවෙ 16
▁කෙළවරේ 16
▁කේබල 16
▁කොඩිව 16
▁කොනි 16
▁කොලු 16
▁කොවිල 16
▁කොවුල 16
▁කොහේගන 16
▁කොෆිල 16
▁කෝටු 16
▁ගණිකාවන 16
▁ගතික 16
▁ගනි 16
▁ගවේශණය 16
▁ගහෙන 16
▁ගැඹ 16
▁ගැලපෙනවද 16
▁ගැහුවට 16
▁ගිගුරුම 16
▁ගියපාර 16
▁ගුරුවරු 16
▁ගුවනින 16
▁ගුවනේ 16
▁ගෙඩ 16
▁ගොප 16
▁ගොරවයි 16
▁ගොරිතම 16
▁ගෝට 16
▁ගෝපදේශන 16
▁චතුරංග 16
▁චයි 16
▁චලනයන 16
▁චාරි 16
▁චෙං 16
▁ජාලගත 16
▁ජිගේ 16
▁ජිමක 16
▁ජුලි 16
▁ජේෂ 16
▁ජෝකර 16
▁ජෝසෆ 16
▁ටාල 16
▁ටැගට 16
▁ටිකම 16
▁ටියකට 16
▁ටුරන 16
▁ටුවකින 16
▁ටෙනිස 16
▁ටේසියා 16
▁ටොරෙටෝ 16
▁ටෲ 16
▁ඨතම 16
▁ඨයෙක 16
▁ඩච 16
▁ඩැෆ 16
▁ඩිනෝ 16
▁ඩුවෙන 16
▁ඩේම 16
▁ඩේවිස 16
▁ඩොබ 16
▁ණපටහ 16
▁තනිවෙන 16
▁තරුණයා 16
▁තලෙ 16
▁තාගෙන 16
▁තාපන 16
▁තාරකාවක 16
▁තිකයි 16
▁තියනවට 16
▁තියනවනම 16
▁තියරි 16
▁තියාද 16
▁තිෙයනවද 16
▁තීරයට 16
▁තීව 16
▁තුද 16
▁තුවර 16
▁තෙට 16
▁තෙමි 16
▁තේරගන 16
▁තේරනෙවා 16
▁තොගය 16
▁තෝරාගෙන 16
▁ථානයන 16
▁ථානු 16
▁ථාවකට 16
▁ථාවයි 16
▁දකිනකොට 16
▁දකිනව 16
▁දගන 16
▁දගේ 16
▁දඩන 16
▁දතක 16
▁දමට 16
▁දමමින 16
▁දමොප 16
▁දයට 16
▁දරද 16
▁දරුවාගේ 16
▁දහයට 16
▁දැඩ 16
▁දැනීමක 16
▁දැනුනොත 16
▁දැමූ 16
▁දෑවේ 16
▁දියට 16
▁දියානුවෙක 16
▁දිරිමත 16
▁දිවැස 16
▁දිසා 16
▁දිහාව 16
▁දුපතෙන 16
▁දුරම 16
▁දුරේක 16
▁දුවගෙ 16
▁දුවනව 16
▁දුවපන 16
▁දුවල 16
▁දෙගුනයක 16
▁දෙහි 16
▁දේවද 16
▁දේශයක 16
▁දේශසීම 16
▁ධකමක 16
▁ධනවා 16
▁ධනාගාරගත 16
▁ධවුනේ 16
▁නටාෂා 16
▁නතාන 16
▁නපන 16
▁නයිටිංගේල 16
▁නයෙක 16
▁නයෝමි 16
▁නවති 16
▁නාඩියක 16
▁නාඳුනන 16
▁නායකයින 16
▁නාහිර 16
▁නැතිඋනා 16
▁නැතිවෙච 16
▁නැල 16
▁නැහැලු 16
▁නෑදෑයන 16
▁නෑයා 16
▁නිච 16
▁නිදිය 16
▁නිධාන 16
▁නියමටෙ 16
▁නියෝජිතයො 16
▁නිරෝගී 16
▁නිරෝධ 16
▁නිවහනට 16
▁නිවුස 16
▁නීතිගත 16
▁නුත 16
▁නුවට 16
▁නෙමෙ 16
▁නෙවෙ 16
▁නේනා 16
▁නොකරම 16
▁නොකරොත 16
▁නොකෙර 16
▁නොගැඹුරු 16
▁නොතින 16
▁නොදක 16
▁නොදනී 16
▁නොරී 16
▁නොවි 16
▁නොසැල 16
▁නොසැලකිලිමත 16
▁නොහික 16
▁නෝනාවරුණි 16
▁පංතිය 16
▁පටහැන 16
▁පඩිපෙලෙන 16
▁පතුරු 16
▁පනවන 16
▁පනිවිඩයක 16
▁පනේනන 16
▁පපු 16
▁පරණම 16
▁පරයෝ 16
▁පරිඝණ 16
▁පරෙන 16
▁පලන 16
▁පවුඩර 16
▁පසුතැ 16
▁පාංඥ 16
▁පාටියකට 16
▁පාරකින 16
▁පැටී 16
▁පැමිනි 16
▁පැමිනීම 16
▁පැරදිලා 16
▁පැරෂුට 16
▁පැලඳ 16
▁පැහැරගැනීම 16
▁පිටර 16
▁පිටුවේ 16
▁පිරිසකට 16
▁පිරිසි 16
▁පිලිකාවක 16
▁පිළිකාව 16
▁පිළිප 16
▁පීඩාවට 16
▁පීනනවා 16
▁පුජා 16
▁පුතාල 16
▁පුපුරවා 16
▁පෙරහ 16
▁පෙරේ 16
▁පෙලඹ 16
▁පේනවට 16
▁පේරාදෙණිය 16
▁පේලි 16
▁පොලිය 16
▁පොළවට 16
▁පොළො 16
▁පෝක 16
▁බයයිද 16
▁බරින 16
▁බලගන 16
▁බලාගනී 16
▁බලාගමු 16
▁බලාගෙනයි 16
▁බසේ 16
▁බහිරව 16
▁බහුලව 16
▁බළල 16
▁බාගන 16
▁බාද 16
▁බාදා 16
▁බැඳපු 16
▁බැරිවුන 16
▁බැලුවාම 16
▁බැලේ 16
▁බිංදුව 16
▁බීලද 16
▁බුඩා 16
▁බුනාම 16
▁බුබුලු 16
▁බුරු 16
▁බේකරි 16
▁බේරුම 16
▁බෝතලය 16
▁බෝනස 16
▁භටයෝ 16
▁භාවිතයේ 16
▁භුක 16
▁භූතාත 16
▁භූමිදානය 16
▁මගඇර 16
▁මඟහැ 16
▁මඩුල 16
▁මඩුව 16
▁මනාප 16
▁මනාලිය 16
▁මනෝව 16
▁මපා 16
▁මරණින 16
▁මරණෙට 16
▁මහජනතාවට 16
▁මහලු 16
▁මහෙෙම 16
▁මළමින 16
▁මළු 16
▁මාණශීලිත 16
▁මාතූර 16
▁මාදිල 16
▁මාදිලිය 16
▁මායාකාරී 16
▁මාරි 16
▁මාරිය 16
▁මාලය 16
▁මාසෙට 16
▁මිචෙල 16
▁මිටිය 16
▁මිරිකන 16
▁මිලිග 16
▁මීම 16
▁මීල 16
▁මීලග 16
▁මුනගැස 16
▁මුනගැහ 16
▁මුරු 16
▁මුහුණත 16
▁මුහුණදෙන 16
▁මූලධන 16
▁මූලිකව 16
▁මෙකෙන 16
▁මෙනවියට 16
▁මෙනි 16
▁මෙයාලගෙ 16
▁මේකිට 16
▁මේකිව 16
▁මොකකද 16
▁මොකේ 16
▁මොඩයා 16
▁මොනාත 16
▁මොනාම 16
▁මොරොක 16
▁මොලේට 16
▁යකාම 16
▁යකින 16
▁යභාවය 16
▁යහළ 16
▁යාළුවොත 16
▁යිනියොන 16
▁යේජනා 16
▁යොදලා 16
▁යෝජ 16
▁රංචුව 16
▁රචාරක 16
▁රචාරණ 16
▁රජාල 16
▁රපටයේ 16
▁රභූ 16
▁රභේද 16
▁රමයේ 16
▁රමාණයකට 16
▁රයිනෝ 16
▁රලා 16
▁රවයක 16
▁රසාදයක 16
▁රසායනාගාරය 16
▁රාජුගේ 16
▁රාමුවක 16
▁රාමේශ 16
▁රායක 16
▁රැකවර 16
▁රැකවරණය 16
▁රැවටීම 16
▁රැවටෙන 16
▁රිදෙයි 16
▁රීකෝල 16
▁රීඩක 16
▁රීෆ 16
▁රුබ 16
▁රුබිකන 16
▁රුසිය 16
▁රුසියාවට 16
▁රේඩි 16
▁රේශ 16
▁රෝගියාට 16
▁රෝහලේදී 16
▁ලංඩන 16
▁ලකී 16
▁ලගද 16
▁ලටත 16
▁ලනවද 16
▁ලබාදීමට 16
▁ලමෙන 16
▁ලවන 16
▁ලාලා 16
▁ලැබු 16
▁ලැම 16
▁ලැසියර 16
▁ලිංගේෂ 16
▁ලිපිගොනුව 16
▁ලියෙ 16
▁ලිහිණ 16
▁ලුවීස 16
▁ලෙහ 16
▁ලොකි 16
▁ලොකුද 16
▁ලෝකෙද 16
▁ලෝට 16
▁වංක 16
▁වකුගඩුව 16
▁වගබලාගන 16
▁වටල 16
▁වතාවයි 16
▁වතියව 16
▁වඳින 16
▁වයිරසය 16
▁වරලටෙ 16
▁වරළටෙ 16
▁වරෙං 16
▁වලදාන 16
▁වලසා 16
▁වසඟ 16
▁වාධීනත 16
▁වාමියාට 16
▁වැටිය 16
▁වැටෙද 16
▁වැඩකරයි 16
▁වැඩකරලා 16
▁වැඩපිළ 16
▁වැඩමුළුවක 16
▁වැඩියාව 16
▁වැති 16
▁වැලඳ 16
▁වැලල 16
▁වැසිකිලියට 16
▁විකර 16
▁විගණනයට 16
▁විගස 16
▁විචක 16
▁විජිත 16
▁විතරනෙ 16
▁විපතට 16
▁විපාක 16
▁විමේ 16
▁විවාහයේ 16
▁විවෘතයි 16
▁විවේ 16
▁විශේෂඥයා 16
▁විසිතුරු 16
▁විසිරී 16
▁විහිළුවට 16
▁වීඩියෝවක 16
▁වීදියට 16
▁වුනෙත 16
▁වුමන 16
▁වුෙණ 16
▁වෘකයෝ 16
▁වෙනිද 16
▁වෙයං 16
▁වෙළාවට 16
▁වේගයකින 16
▁වේතා 16
▁වේලිලා 16
▁වේව 16
▁වේසි 16
▁ශකයෝ 16
▁ශයෙක 16
▁ශාවක 16
▁ශූරයා 16
▁ශේෂයන 16
▁ෂතම 16
▁ෂතාව 16
▁ෂපා 16
▁ෂාකර 16
▁ෂාකාරි 16
▁ෂාපතන 16
▁ෂිකව 16
▁සංචාරකයින 16
▁සංචාරයේ 16
▁සංත 16
▁සංයෝග 16
▁සංවාදයක 16
▁සකේ 16
▁සගය 16
▁සදාචාරාත 16
▁සපය 16
▁සමඟම 16
▁සමිප 16
▁සමූලඝා 16
▁සමූහයක 16
▁සරසන 16
▁සවාරිය 16
▁සහෝදරයාට 16
▁සහෝදරියට 16
▁සාදරෙන 16
▁සාධ 16
▁සාමයක 16
▁සායනය 16
▁සායා 16
▁සාරවත 16
▁සාරාංශ 16
▁සාහස 16
▁සැකිල 16
▁සැතප 16
▁සැලසුමට 16
▁සැලී 16
▁සැසඳ 16
▁සෑහ 16
▁සිගුවේරා 16
▁සිටියි 16
▁සිතනවා 16
▁සිතිවිල 16
▁සිදුකල 16
▁සිදුරක 16
▁සිදුවුනේ 16
▁සියගන 16
▁සියගානක 16
▁සියද 16
▁සියැට 16
▁සිරභාර 16
▁සිරින 16
▁සිලයේ 16
▁සීතලට 16
▁සීමන 16
▁සීරීම 16
▁සුකෝ 16
▁සුඩ 16
▁සුනා 16
▁සුපිර 16
▁සුපිරිම 16
▁සුළි 16
▁සේල 16
▁සොසේජස 16
▁හඳුනාගැනීමේ 16
▁හඳේ 16
▁හරවල 16
▁හසුන 16
▁හාත 16
▁හාමතේ 16
▁හාවෝ 16
▁හැදිච 16
▁හැදුවට 16
▁හැඳි 16
▁හැබ 16
▁හැමවෙලාවේම 16
▁හැරත 16
▁හැරිය 16
▁හැරුන 16
▁හැලි 16
▁හැසිරිම 16
▁හැසිරුනේ 16
▁හිටප 16
▁හිටහන 16
▁හුලඟ 16
▁හූර 16
▁හූස 16
▁හෘදයා 16
▁හේතූන 16
▁ළමයිනුත 16
▁ෆීනික 16
▁ෆෝම 16
▁ා 16
▁ැ 16
,4 15
,7 15
.. 15
.01 15
.12.31 15
02 15
06 15
92 15
FO 15
IR 15
IT 15
Q 15
SI 15
ane 15
ann 15
ett 15
ge 15
ham 15
house 15
ies 15
inc 15
ind 15
ius 15
iz 15
ma 15
mond 15
nd 15
ock 15
ook 15
ov 15
red 15
rist 15
uk 15
ust 15
ංකො 15
ංගෝ 15
ඉස 15
උපකාර 15
එකේ 15
කද 15
කවද 15
කාට 15
කාව 15
කැම 15
කිළ 15
ගියොත 15
ගුන 15
ඟන 15
චල 15
ඥයින 15
ඩයි 15
ණයකින 15
ණියේ 15
තයක 15
දවස 15
දායකයා 15
දායී 15
දාස 15
දිගට 15
දේව 15
නමින 15
නාගාර 15
නායක 15
නැග 15
නේම 15
ඳා 15
ඳුයි 15
මාරු 15
මාල 15
ඹා 15
ඹුරු 15
රෙ 15
ලීට 15
ලීන 15
වදෙ 15
වරයාට 15
වශ 15
වාඩා 15
වාත 15
වුනාට 15
සිං 15
සිඩෝන 15
හිටින 15
හුව 15
ළඳ 15
ෆූ 15
ෆේන 15
ැවන 15
ැවැත 15
ිගෙ 15
ිටා 15
ිනිසා 15
ිනීත 15
ිපුර 15
ියරින 15
ිවෙනවා 15
ුකල 15
ුගර 15
ුමු 15
ුරූප 15
ුලනවා 15
ෘෂ 15
ෙටර 15
ෙනාටම 15
ෙවක 15
ෙවී 15
ෙළන 15
ේඛන 15
ේධ 15
▁1.5 15
▁104 15
▁2217 15
▁97 15
▁AC 15
▁Aihara 15
▁At 15
▁Browning 15
▁CCPD 15
▁Canon 15
▁Eagle 15
▁Fitz 15
▁Girl 15
▁Har 15
▁Ind 15
▁JB 15
▁James 15
▁Johanssen 15
▁Mill 15
▁Paul 15
▁SRI 15
▁Sel 15
▁Shire 15
▁There 15
▁Ty 15
▁` 15
▁back 15
▁day 15
▁de 15
▁did 15
▁got 15
▁kill 15
▁machine 15
▁new 15
▁only 15
▁other 15
▁then 15
▁two 15
▁x 15
▁yours 15
▁අඟුරු 15
▁අතඇ 15
▁අතඇර 15
▁අතෑ 15
▁අතුරින 15
▁අදනම 15
▁අදුරගත 15
▁අධෛර 15
▁අනාවරක 15
▁අපරාදෙ 15
▁අපරාධයට 15
▁අපායටම 15
▁අපිවම 15
▁අපොහොසත 15
▁අභිබවා 15
▁අභිමතය 15
▁අමනා 15
▁අයියාට 15
▁අරමුදලක 15
▁අරිමු 15
▁අලාභය 15
▁අලුකුත 15
▁අවදිවෙන 15
▁අවශයයි 15
▁අවින 15
▁අසරණය 15
▁අසහන 15
▁අසීමිත 15
▁අසුභ 15
▁අහද 15
▁අහිතකර 15
▁අළුතින 15
▁ආදරනීය 15
▁ආදිපාද 15
▁ආභ 15
▁ආයුබොවන 15
▁ආයෝජනයක 15
▁ආවරනයක 15
▁ආවෙත 15
▁ආශාවක 15
▁ආහර 15
▁ආෙ 15
▁ඇණයක 15
▁ඇතෑර 15
▁ඇතිල 15
▁ඇතිවූ 15
▁ඇතුළතින 15
▁ඇනට 15
▁ඇනාට 15
▁ඇනාව 15
▁ඇඳක 15
▁ඇමිලියා 15
▁ඇරිය 15
▁ඇවිදිනව 15
▁ඇසක 15
▁ඇහන 15
▁ඇහැරව 15
▁ඈෂර 15
▁ඉදිකරන 15
▁ඉනන 15
▁ඉරන 15
▁ඉරේට 15
▁ඊව 15
▁උඩද 15
▁උතුමානන 15
▁උදුන 15
▁උපරි 15
▁උපහාසාත 15
▁උබයි 15
▁උඹටත 15
▁උවමණා 15
▁උසාවියෙන 15
▁ඌරකේ 15
▁ඌරෙක 15
▁ඌරෝ 15
▁එකොළ 15
▁එතක 15
▁එතුමා 15
▁එපෑ 15
▁එයාගැන 15
▁එයානම 15
▁එලින 15
▁එහෙමනෙ 15
▁එළිදැක 15
▁එළියෙදි 15
▁ඒකකයෙන 15
▁ඒකන 15
▁ඒකවත 15
▁ඒවලින 15
▁ඒස 15
▁ඓයිවා 15
▁ඔපරේෂන 15
▁ඔපෙර 15
▁ඔබද 15
▁ඔයවගේ 15
▁ඔහුන 15
▁ඕමාර 15
▁ඕමැලී 15
▁කච 15
▁කණගාටුවට 15
▁කණපිට 15
▁කතාකරල 15
▁කතෝලික 15
▁කදුකර 15
▁කදුලු 15
▁කමර 15
▁කමිෂන 15
▁කයිප 15
▁කරකවලා 15
▁කරගැනීමේ 15
▁කරවනව 15
▁කරවල 15
▁කරාවී 15
▁කරැණා 15
▁කරුව 15
▁කරුවො 15
▁කවු 15
▁කාපට 15
▁කාබ 15
▁කාරනා 15
▁කාරයකෝ 15
▁කාරයව 15
▁කාරයාව 15
▁කාලයටම 15
▁කාලෙදිම 15
▁කාළගුණය 15
▁කැපුම 15
▁කැපෙන 15
▁කැමතින 15
▁කැරකි 15
▁කැරළ 15
▁කැලයට 15
▁කැලෑවේ 15
▁කෑගැහුවා 15
▁කියවිල 15
▁කියාදෙන 15
▁කියුවා 15
▁කිරීමටයි 15
▁කිවනෙ 15
▁කිවුවට 15
▁කිසිවිට 15
▁කුලම 15
▁කුෂ 15
▁කුසගින 15
▁කුසලානය 15
▁කූටරේ 15
▁කූනිස 15
▁කෙනකේගේ 15
▁කෙරුවොත 15
▁කෙලවෙලා 15
▁කෙලෙසද 15
▁කේතාංක 15
▁කේල 15
▁කොටන 15
▁කොටියෙක 15
▁කොබ 15
▁කොමද 15
▁කොහවතේ 15
▁කොළපාට 15
▁කොළුවො 15
▁කොෆීල 15
▁කෝලයක 15
▁කෝලිකොඩ 15
▁කෞතුක 15
▁කෞතුකාගාරයේ 15
▁කෲස 15
▁ගඟෙන 15
▁ගණනාවකට 15
▁ගණිකා 15
▁ගතවෙයි 15
▁ගදයි 15
▁ගනං 15
▁ගයකට 15
▁ගයාට 15
▁ගලයෙකුට 15
▁ගසක 15
▁ගායක 15
▁ගැති 15
▁ගැනමයි 15
▁ගැරේජ 15
▁ගැසෙන 15
▁ගැහුනේ 15
▁ගෑරුප 15
▁ගිරි 15
▁ගිලිල 15
▁ගිවිසුමට 15
▁ගුජර 15
▁ගෙද 15
▁ගෙදරකට 15
▁ගෙවීමට 15
▁ගේයින 15
▁ගොඩනගා 15
▁ගොඩනැගීම 15
▁ගොඩබිමට 15
▁ගොඩවෙන 15
▁ගොණු 15
▁ගොවිපලක 15
▁චනවා 15
▁චප 15
▁චාම 15
▁චාවෙන 15
▁චුව 15
▁චොප 15
▁ජනගහ 15
▁ජනයට 15
▁ජනරජය 15
▁ජනාවාස 15
▁ජපානයේ 15
▁ජරොඩ 15
▁ජිවිතේට 15
▁ජීවමාන 15
▁ජීවිතාන 15
▁ජූලියට 15
▁ජෙනරේටරය 15
▁ජෙර 15
▁ජේද 15
▁ටයාර 15
▁ටාචාර 15
▁ටැටූ 15
▁ටියටම 15
▁ටියයි 15
▁ටෙයින 15
▁ටෙලිෆෝන 15
▁ටෝනියෝ 15
▁ඩනයට 15
▁ඩයනමයිඩ 15
▁ඩයේ 15
▁ඩෑඩ 15
▁ඩුප 15
▁ඩුබේ 15
▁ඩූර 15
▁ඩේස 15
▁ඩොමින 15
▁ණශංඛ 15
▁තනතුරට 15
▁තනයේ 15
▁තනිකම 15
▁තමානය 15
▁තමාව 15
▁තමුං 15
▁තයින 15
▁තරත 15
▁තරුණයෙක 15
▁තානාපත 15
▁තැනත 15
▁තිදෙනෙක 15
▁තිබියදීත 15
▁තිබිලත 15
▁තිබෙනවද 15
▁තියනවනෙ 15
▁තියෙනවට 15
▁තියේන 15
▁තිළිණ 15
▁තුකුඩි 15
▁තේට 15
▁තේරනේනෙ 15
▁තේරෙනවාද 15
▁තොටිල 15
▁තොපිට 15
▁තෝම 15
▁තෝෂ 15
▁ථකාම 15
▁ථානික 15
▁දකිනකම 15
▁දකුන 15
▁දගෙන 15
▁දබුද 15
▁දයේ 15
▁දරැවා 15
▁දවලා 15
▁දාගේ 15
▁දාලද 15
▁දාවී 15
▁දැකලවත 15
▁දැණ 15
▁දැෙනන 15
▁දිවුරලා 15
▁දිළ 15
▁දුටුවා 15
▁දුවෙ 15
▁දෙකකුයි 15
▁දෙවොල 15
▁දෙසින 15
▁දේවාල 15
▁දොරටුවක 15
▁ධතියෙන 15
▁ධවෙනවා 15
▁නංගිත 15
▁නංගිලා 15
▁නගරාධ 15
▁නඟිනවා 15
▁නටඹුන 15
▁නතම 15
▁නදෙන 15
▁නමුදු 15
▁නැගිටිනව 15
▁නැටුවා 15
▁නැමති 15
▁නෑයෙක 15
▁නෑව 15
▁නිධානයක 15
▁නියපොත 15
▁නියමයන 15
▁නියෝජිතවරු 15
▁නිලන 15
▁නිවාඩුවට 15
▁නිසල 15
▁නිසාය 15
▁නිසාවත 15
▁නිහ 15
▁නීතී 15
▁නීම 15
▁නුන 15
▁නුබල 15
▁නුඹගේ 15
▁නුසුදුස 15
▁නූගත 15
▁නෙස 15
▁නොගැලපෙන 15
▁නොලැ 15
▁නොවෙ 15
▁නොහැකිය 15
▁නෞකාව 15
▁පග 15
▁පටය 15
▁පනගන 15
▁පනිවිඩය 15
▁පමුණ 15
▁පමේවතා 15
▁පරව 15
▁පරස 15
▁පරාජ 15
▁පරිවාස 15
▁පලයව 15
▁පලවා 15
▁පලාතේ 15
▁පවති 15
▁පවුලයි 15
▁පසුපසට 15
▁පහුවෙන 15
▁පළපුරුද 15
▁පළා 15
▁පාය 15
▁පාලමෙන 15
▁පාවෙලා 15
▁පාෂා 15
▁පැඩ 15
▁පැණිරස 15
▁පැතලි 15
▁පැමිණිය 15
▁පැමිණේවි 15
▁පැයයි 15
▁පැරීසියට 15
▁පැවතෙන 15
▁පෑද 15
▁පිංකි 15
▁පිංසිද 15
▁පිඟාන 15
▁පිණ 15
▁පියඹන 15
▁පියරේ 15
▁පියාගෙ 15
▁පියේ 15
▁පිරුනු 15
▁පිසා 15
▁පිළිගනිමින 15
▁පිළියෙළ 15
▁පුරවපු 15
▁පෘතුග 15
▁පෘතුවියට 15
▁පෙනිස 15
▁පෙරදිග 15
▁පේලියක 15
▁පොඩික 15
▁පොතෙන 15
▁පොරට 15
▁පොලඹ 15
▁පොලවට 15
▁පොලියකොව 15
▁පොළොවේ 15
▁බකම 15
▁බඩගිනිද 15
▁බදොගන 15
▁බනේජමින 15
▁බබල 15
▁බයවෙනවා 15
▁බයින 15
▁බයිබලය 15
▁බයිසිකලයක 15
▁බලනවකො 15
▁බලාපොර 15
▁බලි 15
▁බවෙච 15
▁බසාර 15
▁බහම 15
▁බානවා 15
▁බාබේරිය 15
▁බාරද 15
▁බාව 15
▁බැදිලා 15
▁බැරයන 15
▁බැලීමක 15
▁බැලීමට 15
▁බැලුවනම 15
▁බිරින 15
▁බිරිඳගේ 15
▁බෙරීට 15
▁බෙවර 15
▁බේකන 15
▁බේරලා 15
▁බේරාගෙන 15
▁බේරුන 15
▁බේරුව 15
▁බොරුකාරයෝ 15
▁බෲ 15
▁භගත 15
▁භයයි 15
▁භයානකද 15
▁භාන 15
▁භාරයේ 15
▁භාෂාවට 15
▁මගහැරගන 15
▁මගුලට 15
▁මඟක 15
▁මතභ 15
▁මතුවෙන 15
▁මදියි 15
▁මධුසම 15
▁මරණයත 15
▁මහපාර 15
▁මාගෙ 15
▁මාණශීලී 15
▁මාතාවනි 15
▁මාතෘක 15
▁මාධවී 15
▁මාප 15
▁මාමණ 15
▁මාසෙ 15
▁මැතිවරණ 15
▁මැරයා 15
▁මැරුනු 15
▁මැරෙනකොට 15
▁මැලිකිත 15
▁මැෂ 15
▁මිගන 15
▁මිනිහාගේ 15
▁මිනීමරුවන 15
▁මිරිදිය 15
▁මීටත 15
▁මීළඟ 15
▁මුවෙක 15
▁මූණටම 15
▁මූලිකත 15
▁මෙගේ 15
▁මෙරිඩිත 15
▁මෙහේම 15
▁මේරියන 15
▁මොහින 15
▁මොහොමඩ 15
▁යකාව 15
▁යටතෙ 15
▁යටවෙලා 15
▁යතුම 15
▁යනම 15
▁යනවිට 15
▁යයාගේ 15
▁යවහාර 15
▁යසන 15
▁යසාද 15
▁යළ 15
▁යාගශීල 15
▁යානයෙ 15
▁යායුතු 15
▁යාලුවව 15
▁යාවී 15
▁යුරෝපය 15
▁යෝගට 15
▁රකාශනය 15
▁රගපා 15
▁රජාවන 15
▁රණශුර 15
▁රතිඥා 15
▁රතිරෝධ 15
▁රදානෝත 15
▁රදේද 15
▁රවි 15
▁රශීල 15
▁රසාදය 15
▁රසාර 15
▁රහණ 15
▁රහන 15
▁රහේලිකාවක 15
▁රාගාර 15
▁රාජකාරියේ 15
▁රාණවත 15
▁රාවේ 15
▁රැකියාවට 15
▁රැළ 15
▁රෑර 15
▁රිඩෙඔක 15
▁රිදෙව 15
▁රිනා 15
▁රූපගත 15
▁රූපවාහින 15
▁රූපවාහිනිය 15
▁රූෆස 15
▁රෙමි 15
▁රෙෂ 15
▁රෙහේල 15
▁රේඩියෝව 15
▁රේලර 15
▁රොමලි 15
▁රොමැන 15
▁ලංඝ 15
▁ලකරුවා 15
▁ලකුනු 15
▁ලඟාව 15
▁ලමයට 15
▁ලවුන 15
▁ලාංඡනය 15
▁ලාත 15
▁ලානාගේ 15
▁ලැද 15
▁ලැබුනට 15
▁ලිමිට 15
▁ලියාපදිංච 15
▁ලියෝන 15
▁ලුහුබදිනවා 15
▁ලෙයින 15
▁ලෙහෙසියෙන 15
▁ලේඛනයේ 15
▁ලේච 15
▁ලොරිඩ 15
▁ලොරිය 15
▁ලොරියක 15
▁ලොවට 15
▁ලෝරියා 15
▁වංග 15
▁වගෝනේ 15
▁වටකරලා 15
▁වනයක 15
▁වනවාද 15
▁වමනෙ 15
▁වලිගය 15
▁වසංගතයක 15
▁වසිම 15
▁වහලය 15
▁වළලුකර 15
▁වාතයේ 15
▁වාතාශ 15
▁වායුගෝලය 15
▁වැටල 15
▁වැටලීම 15
▁වැටුනට 15
▁වැටුපක 15
▁වැඩිකිරීම 15
▁වැදුනද 15
▁වැලප 15
▁විටමින 15
▁විතැන 15
▁විදලා 15
▁විදියයි 15
▁විඳගන 15
▁විරාජ 15
▁විරාමයක 15
▁විලාප 15
▁විලාසිත 15
▁විසාල 15
▁විසිකරලා 15
▁වීරයකේ 15
▁වෘකයා 15
▁වෙලිංග 15
▁වෙළෙඳපොළ 15
▁වේලාවෙන 15
▁වොතින 15
▁වෝටර 15
▁ශිතව 15
▁ෂකයට 15
▁ෂතාවයක 15
▁ෂපාති 15
▁ෂිකරු 15
▁ෂෙට 15
▁ෂේන 15
▁සංහාර 15
▁සඥාව 15
▁සතාට 15
▁සතියයි 15
▁සතුරො 15
▁සදාකාලිකව 15
▁සදාකාලිකවම 15
▁සනීපෙන 15
▁සපුරා 15
▁සමච 15
▁සමතුලිතතාව 15
▁සමහරෙක 15
▁සමාගමකට 15
▁සමුහ 15
▁සරත 15
▁සරහදි 15
▁සලයක 15
▁සවයකට 15
▁සහයෝගයට 15
▁සහස 15
▁සහෝද 15
▁සාදර 15
▁සාදාරණ 15
▁සාධන 15
▁සාපරාධී 15
▁සාමයට 15
▁සාවත 15
▁සැකකාරයා 15
▁සැනට 15
▁සැමියව 15
▁සැමුවෙල 15
▁සැලකීම 15
▁සැලකේ 15
▁සෑමවිටම 15
▁සෑහීමකට 15
▁සිංහයන 15
▁සිංහලෙන 15
▁සිටියත 15
▁සිඩීස 15
▁සිතට 15
▁සිතුවා 15
▁සිනාසීමට 15
▁සිඳ 15
▁සිපල 15
▁සියෙම 15
▁සියොන 15
▁සිලින 15
▁සීමාවෙ 15
▁සීසන 15
▁සුභසාධන 15
▁සුලි 15
▁සුවොත 15
▁සුහාස 15
▁සූපවේද 15
▁සෙනසුරාදට 15
▁සේතුරාමන 15
▁සේවාදායකයන 15
▁සේවිකාව 15
▁සොට 15
▁සොය 15
▁සොලවන 15
▁සෞක 15
▁සෞන 15
▁සෞම 15
▁හදෙ 15
▁හබල 15
▁හයිඩි 15
▁හරවගෙන 15
▁හරිගියා 15
▁හරියෙන 15
▁හරේ 15
▁හලෙෝ 15
▁හලෝලෙන 15
▁හාදුව 15
▁හැංගි 15
▁හැකියාවට 15
▁හැටියටනම 15
▁හැමදයකෙ 15
▁හැමිණෙන 15
▁හැමො 15
▁හිඟන 15
▁හිතුවාද 15
▁හිමියන 15
▁හිමිහිට 15
▁හුම 15
▁හුරුයි 15
▁හූන 15
▁හෘදය 15
▁හෘදයාබාධයක 15
▁හෙටත 15
▁හෙටම 15
▁හෙදිය 15
▁හෙනගහපන 15
▁හොසේ 15
▁ළඟදිම 15
▁ෆරූක 15
▁ෆිලඩෙල 15
▁ෆිෂ 15
▁ෆොට 15
▁ෆෝට 15
▁ෙඩ 15
▁ෙවඩි 15
▁ෙසායන 15
▁♥ 15
39 14
93 14
LM 14
MA 14
PA 14
PS 14
TO 14
ai 14
ank 14
ctor 14
ek 14
eter 14
ff 14
ger 14
gin 14
hal 14
hand 14
hh 14
ib 14
ina 14
iss 14
ki 14
lan 14
orn 14
osa 14
oy 14
ud 14
uman 14
ංගා 14
ංගික 14
අංශ 14
අඩ 14
අයියෝ 14
උදව 14
එයාගේ 14
ඔවු 14
ඔහුට 14
කස 14
කාරන 14
කාරියක 14
කිරි 14
කිස 14
ජාතික 14
ජීවී 14
ඥාන 14
ඩියන 14
තනේ 14
තුන 14
දේවල 14
ධා 14
පක 14
පටි 14
පනින 14
පින 14
පුම 14
පේන 14
බැලීම 14
බොර 14
භූමිය 14
ඹර 14
යේන 14
යොන 14
රෝස 14
ලාකාර 14
ලෝව 14
වති 14
වතින 14
වරැ 14
වශයෙන 14
වාදි 14
වාල 14
විඩ 14
වියර 14
වුණේ 14
සාක 14
සිටින 14
හලේ 14
හැද 14
හික 14
හුරු 14
ෆේ 14
ාංශ 14
ාකලා 14
ාකි 14
ාධනා 14
ානෝ 14
ාපති 14
ාමන 14
ාමයට 14
ාරයක 14
ාරිස 14
ැඟිල 14
ැරුම 14
ෑක 14
ිකය 14
ිකලා 14
ිකාරයෙක 14
ිටල 14
ිනයක 14
ියාගන 14
ිලිලා 14
ිලෙන 14
ිසම 14
ිසින 14
ීකරණය 14
ීටා 14
ීනෝ 14
ීමකින 14
ීයා 14
ීරු 14
ීසියා 14
ුකෝ 14
ුපිට 14
ුරින 14
ූක 14
ෙග 14
ෙති 14
ෙයම 14
ෙවද 14
ෙින 14
ෙෙ 14
ේශන 14
ොටෝ 14
ොපි 14
ොමන 14
ොයාගන 14
ොහ 14
ෝදී 14
ෝයින 14
▁........ 14
▁000.00 14
▁10000 14
▁113 14
▁140 14
▁198 14
▁2.1 14
▁212 14
▁286 14
▁300,000 14
▁8.2 14
▁AT 14
▁Ah 14
▁Alex 14
▁Alpha 14
▁Are 14
▁Be 14
▁CEO 14
▁Che 14
▁Conner 14
▁Dale 14
▁Dam 14
▁Dieter 14
▁EI 14
▁ER 14
▁Go 14
▁IC 14
▁KARR 14
▁Key 14
▁Lannister 14
▁Lee 14
▁MBA 14
▁Maurice 14
▁NTSB 14
▁Ng 14
▁Oxenby 14
▁PRP 14
▁Please 14
▁RA 14
▁SC 14
▁SMS 14
▁Sp 14
▁Wheeler 14
▁Wilhemina 14
▁William 14
▁even 14
▁going 14
▁sir 14
▁v 14
▁water 14
▁when 14
▁why 14
▁۩ 14
▁අගනා 14
▁අගුලක 14
▁අතයි 14
▁අතරද 14
▁අතිවිශිෂ 14
▁අදියරේ 14
▁අනකෝ 14
▁අනාගන 14
▁අනිකුත 14
▁අනුපාත 14
▁අනුපාතික 14
▁අනුර 14
▁අඳුරගෙන 14
▁අඳුරට 14
▁අඳුරුයි 14
▁අපිරිසිදුයි 14
▁අභිමත 14
▁අමුලූ 14
▁අයකර 14
▁අයහපත 14
▁අයිතම 14
▁අයේත 14
▁අරඹනවා 14
▁අරුණ 14
▁අලා 14
▁අවසානේ 14
▁අවැසියි 14
▁අවිධිමත 14
▁අහඹ 14
▁අහාර 14
▁ආඥාපනත 14
▁ආදරෙ 14
▁ආධුනිකයා 14
▁ආයතනවලට 14
▁ආවතේව 14
▁ආසාදනයක 14
▁ආසියා 14
▁ඇටසැක 14
▁ඇතිවුන 14
▁ඇතුලෙද 14
▁ඇදපු 14
▁ඇදහ 14
▁ඇනයක 14
▁ඇඳිරි 14
▁ඇඳුමෙන 14
▁ඇබි 14
▁ඇමිණ 14
▁ඇරනෙ 14
▁ඇලජික 14
▁ඇසුර 14
▁ඉංජ 14
▁ඉගනගන 14
▁ඉටුකර 14
▁ඉතිරිවෙලා 14
▁ඉතුරුම 14
▁ඉතුරුයි 14
▁ඉතුරුවා 14
▁ඉදං 14
▁ඉදපු 14
▁ඉදිරියටම 14
▁ඉවරක 14
▁උකහාගන 14
▁උපදේශයක 14
▁උපායන 14
▁උපායමාර 14
▁උපායශීල 14
▁උමගට 14
▁උරහිසට 14
▁ඌරුමස 14
▁එකතුවෙනවා 14
▁එකවරම 14
▁එකසිය 14
▁එකහමාර 14
▁එකාගේ 14
▁එඩිත 14
▁එතකොටවත 14
▁එතුම 14
▁එදාම 14
▁එදින 14
▁එපිටින 14
▁එයාලම 14
▁එලිසබත 14
▁එවෙලේ 14
▁එළිසබෙත 14
▁එෙහට 14
▁ඒකාකාරී 14
▁ඒය 14
▁ඒවද 14
▁ඒවුනාට 14
▁ඔඩිසි 14
▁ඔනේද 14
▁ඔබතුමාගෙ 14
▁ඔයාටද 14
▁ඔවුනුත 14
▁ඔහුටත 14
▁ඔහේල 14
▁ඕඕ 14
▁ඕකා 14
▁ඕනවෙයි 14
▁කකුළ 14
▁කජ 14
▁කජු 14
▁කටවහපන 14
▁කටහඩක 14
▁කඩදාසියක 14
▁කඩුවෙන 14
▁කණු 14
▁කතාකරගන 14
▁කතාකරද 14
▁කතාවත 14
▁කතාවෙ 14
▁කඳුකරයේ 14
▁කපාගන 14
▁කමිටුවට 14
▁කමෙන 14
▁කරනකල 14
▁කරනවනෙ 14
▁කරනවානේ 14
▁කරනේ 14
▁කරුණා 14
▁කලමනා 14
▁කලයුතුයි 14
▁කලහකාරී 14
▁කලහාර 14
▁කලිසමේ 14
▁කලුයි 14
▁කවට 14
▁කවුරුම 14
▁කළානේ 14
▁කාරයොන 14
▁කාලපරිච 14
▁කාලයන 14
▁කාලයෙදි 14
▁කාලේම 14
▁කාසිය 14
▁කාසු 14
▁කැඩී 14
▁කැති 14
▁කැබැල 14
▁කැලය 14
▁කැසෙන 14
▁කැළඹ 14
▁කෑගැසීම 14
▁කෑවට 14
▁කියනා 14
▁කියමුද 14
▁කියලනෙ 14
▁කියවා 14
▁කියාපු 14
▁කියාලා 14
▁කියූ 14
▁කියෙන 14
▁කිසිදින 14
▁කීය 14
▁කුඩාම 14
▁කුතුහලය 14
▁කුනාල 14
▁කුබ 14
▁කුමාරයෝ 14
▁කුමාරි 14
▁කුරිරු 14
▁කුළු 14
▁කුළුණක 14
▁කූට 14
▁කූරු 14
▁කෘතීන 14
▁කෘමි 14
▁කෙටම 14
▁කෙටියි 14
▁කෙදින 14
▁කෙනෝ 14
▁කෙරවල 14
▁කෙරින 14
▁කොපියක 14
▁කොපු 14
▁කොරියාව 14
▁කෝකද 14
▁කෝටියක 14
▁කෝමලා 14
▁කෝලෙකට 14
▁කෝව 14
▁කෝෆ 14
▁ගනුදෙනුවට 14
▁ගලයාට 14
▁ගානයි 14
▁ගායකයෙක 14
▁ගායනය 14
▁ගාවගන 14
▁ගාවදි 14
▁ගැවස 14
▁ගෑනිට 14
▁ගිලා 14
▁ගිවිසගැනීම 14
▁ගුලි 14
▁ගුහාවෙන 14
▁ගූගල 14
▁ගෙදරටත 14
▁ගෙනුයි 14
▁ගෙරව 14
▁ගෙවතු 14
▁ගෙවපු 14
▁ගෙවී 14
▁ගේරියානු 14
▁ගොං 14
▁ගොටයා 14
▁ගොඩගම 14
▁ගොඩනැං 14
▁ගොඩබෑමට 14
▁ගොතපු 14
▁ගොළ 14
▁ගෝලයා 14
▁ගෲ 14
▁චාටර 14
▁චිර 14
▁චුත 14
▁චුවා 14
▁චෝදනාව 14
▁ජනනී 14
▁ජනේලයෙන 14
▁ජපානය 14
▁ජයක 14
▁ජයගත 14
▁ජෆේ 14
▁ජාරා 14
▁ජාවෙන 14
▁ජැකුයි 14
▁ජිට 14
▁ජුලියන 14
▁ජෙනීව 14
▁ටකර 14
▁ටයක 14
▁ටයන 14
▁ටලයක 14
▁ටැලොස 14
▁ටිමීටර 14
▁ටියුබ 14
▁ටීරියා 14
▁ටුප 14
▁ටුවකට 14
▁ටේක 14
▁ටෝටො 14
▁ඩයරිය 14
▁ඩරෙල 14
▁ඩායමත 14
▁ඩැම 14
▁ඩිංග 14
▁ඩීක 14
▁ඩෙනෙට 14
▁ණව 14
▁තකයක 14
▁තනකොල 14
▁තමය 14
▁තමානයේ 14
▁තමාවිය 14
▁තරැණ 14
▁තලු 14
▁තහවුර 14
▁තාගත 14
▁තානායම 14
▁තාරයේ 14
▁තාරු 14
▁තාවය 14
▁තැකීමක 14
▁තැනකටම 14
▁තැනෙන 14
▁තැබෑරුම 14
▁තිබහයි 14
▁තිබුණොත 14
▁තියාගමු 14
▁තියුනු 14
▁තියෙනවනෙ 14
▁තිරයේ 14
▁තිවල 14
▁තෙදි 14
▁තේජනය 14
▁තේජාන 14
▁ථයෙන 14
▁ථානයයි 14
▁දකුණෙන 14
▁දතිය 14
▁දනවන 14
▁දනේනම 14
▁දනේනා 14
▁දමවේපියන 14
▁දමෙු 14
▁දරුවකෝ 14
▁දවෙියන 14
▁දහයෙන 14
▁දායකයෙක 14
▁දැකලම 14
▁දිගුකාලීන 14
▁දියං 14
▁දියණ 14
▁දිරයට 14
▁දිවුරනව 14
▁දුරකථනයට 14
▁දෘඩත 14
▁දෙනාව 14
▁දෙවර 14
▁දෙවිද 14
▁දෙවිය 14
▁දෙවියා 14
▁දේවලුයි 14
▁දේවී 14
▁දෛ 14
▁දොක 14
▁දොට 14
▁දොළොස 14
▁දෝෂී 14
▁ධකාරයේ 14
▁ධවයි 14
▁ධූර 14
▁නගරයෙ 14
▁නටත 14
▁නරියා 14
▁නවීකරණය 14
▁නාඩගම 14
▁නාඩියා 14
▁නාඩියෙන 14
▁නායකයන 14
▁නාලිකා 14
▁නැංගුර 14
▁නැගීම 14
▁නැවතුන 14
▁නියමයිනෙ 14
▁නියමාකාර 14
▁නිරුප 14
▁නිලධාරියාගේ 14
▁නිවසින 14
▁නිසායි 14
▁නිළදාර 14
▁නුඹලාට 14
▁නෙකු 14
▁නෙමු 14
▁නොඉවස 14
▁නොකලේ 14
▁නොකා 14
▁නොඩ 14
▁නොදැකපු 14
▁නොදැනෙන 14
▁නොබලා 14
▁නොමිලේම 14
▁නොය 14
▁නොවුණු 14
▁නෝනාවර 14
▁පටෙල 14
▁පණගැන 14
▁පතුලට 14
▁පතුලටම 14
▁පථයක 14
▁පදනමක 14
▁පදිංචියට 14
▁පදිනවා 14
▁පරතරයක 14
▁පරමාදර 14
▁පරය 14
▁පරිලෝකනය 14
▁පරේකට 14
▁පලානි 14
▁පවස 14
▁පවුලකට 14
▁පසාරු 14
▁පසුබහින 14
▁පහරට 14
▁පහරදෙනවා 14
▁පළවෙනියා 14
▁පාටද 14
▁පාදඩ 14
▁පාරුවේ 14
▁පාරෙද 14
▁පාෂාණ 14
▁පාහරයව 14
▁පැටික 14
▁පැටියට 14
▁පැනගමු 14
▁පැනම 14
▁පැමිණිම 14
▁පැවසුවේ 14
▁පිකි 14
▁පිටකරන 14
▁පිටියට 14
▁පිටුවක 14
▁පිණීස 14
▁පිපාසිත 14
▁පිපිරුමක 14
▁පිපිරුවා 14
▁පියවි 14
▁පියෑඹ 14
▁පිරිසට 14
▁පිරෙව 14
▁පිලිපදින 14
▁පිසාචයන 14
▁පිහදාන 14
▁පිහිටලා 14
▁පිහිටෙන 14
▁පිහිනන 14
▁පිළිකා 14
▁පිළිව 14
▁පීඩාකාරී 14
▁පීතාම 14
▁පීප 14
▁පුතු 14
▁පුදුමක 14
▁පුරැද 14
▁පුවරුවේ 14
▁පුහුණුවෙන 14
▁පුළුවනිද 14
▁පෙප 14
▁පෙලගැස 14
▁පොලිසියෙ 14
▁පොලොන 14
▁පොවන 14
▁පෝලන 14
▁ඵපා 14
▁බතල 14
▁බදුන 14
▁බදො 14
▁බපු 14
▁බයවෙල 14
▁බරපතලව 14
▁බරය 14
▁බලගෙන 14
▁බැරිවයි 14
▁බික 14
▁බිඳීමක 14
▁බියට 14
▁බුලට 14
▁බෙරීගේ 14
▁බෙහතේ 14
▁බේරි 14
▁බේරුණු 14
▁බොරුද 14
▁බොහොමත 14
▁භාගය 14
▁භාරකරු 14
▁භාරකාරයා 14
▁භාරතී 14
▁භාවයක 14
▁භාවිතාව 14
▁මංම 14
▁මගහැරුණා 14
▁මඟුලයි 14
▁මරණෙන 14
▁මරමු 14
▁මරේ 14
▁මලසිර 14
▁මලික 14
▁මවක 14
▁මවට 14
▁මවලා 14
▁මළක 14
▁මායිමේ 14
▁මාලයට 14
▁මාෂ 14
▁මාෆියා 14
▁මැකිලා 14
▁මැති 14
▁මැරයො 14
▁මිචි 14
▁මිනිසෙකුට 14
▁මිනීමරු 14
▁මියගියේ 14
▁මියගේ 14
▁මියුස 14
▁මිරාස 14
▁මීක 14
▁මුඩුක 14
▁මෙරි 14
▁මෙරිට 14
▁මෙලහකටත 14
▁මෙවර 14
▁මෙහායින 14
▁මේකම 14
▁මේගැන 14
▁මේපාර 14
▁මොකාටද 14
▁මොකේටද 14
▁මොඩියුලය 14
▁මොරියාටිගෙ 14
▁මොහොතේදී 14
▁මොහොතේම 14
▁මෝහනය 14
▁යකාට 14
▁යතුමනි 14
▁යප 14
▁යමානයි 14
▁යයාට 14
▁යශිදා 14
▁යහන 14
▁යහළුවෝ 14
▁යාඥයෝ 14
▁යාඩ 14
▁යායපත 14
▁යාලුවකෝ 14
▁යැවීමට 14
▁යුනිෆෝම 14
▁යේමන 14
▁රකලා 14
▁රජතුමාගේ 14
▁රජතුමාට 14
▁රජවරු 14
▁රජාතාන 14
▁රටෙහි 14
▁රතිවාදියාගේ 14
▁රතිවි 14
▁රතිෂ 14
▁රදාපවතින 14
▁රදෙ 14
▁රදේදක 14
▁රභව 14
▁රභවකය 14
▁රමක 14
▁රමනය 14
▁රමාදය 14
▁රයකට 14
▁රයික 14
▁රයිසස 14
▁රලේඛය 14
▁රශස 14
▁රසූල 14
▁රහලෝකයක 14
▁රාජලියාව 14
▁රාජස 14
▁රාසජනක 14
▁රැපියල 14
▁රියාද 14
▁රියාවලියට 14
▁රීකාන 14
▁රූබන 14
▁රෙයිඩා 14
▁රෙල 14
▁රේඛා 14
▁රේමය 14
▁රේමින 14
▁රේයා 14
▁රේලියා 14
▁රොජෙක 14
▁රෝමා 14
▁රෝමානුවෙක 14
▁රෝයල 14
▁ලංකාවට 14
▁ලකාරයෙක 14
▁ලගනෙ 14
▁ලයිලා 14
▁ලවයක 14
▁ලැබිම 14
▁ලිඩියා 14
▁ලිඳ 14
▁ලිපිනයට 14
▁ලීක 14
▁ලුවම 14
▁ලුසියස 14
▁ලූර 14
▁ලෙකුයි 14
▁ලෙවකන 14
▁ලෙසද 14
▁ලේට 14
▁ලෝකයාට 14
▁ලෝසුව 14
▁වගයකුයි 14
▁වගුර 14
▁වගෙන 14
▁වති 14
▁වනචර 14
▁වනෙුවට 14
▁වබලධාරී 14
▁වයලී 14
▁වයො 14
▁වරය 14
▁වවුන 14
▁වසනීය 14
▁වසරෙ 14
▁වසීම 14
▁වාතයක 14
▁වාදීන 14
▁වාදෙන 14
▁වාමියාගේ 14
▁වාහනයේ 14
▁වැටුනද 14
▁වැඩවල 14
▁වැඩියෙ 14
▁වැඩෙනවා 14
▁වැදුණු 14
▁විකාරයි 14
▁විකුනනවා 14
▁විජයග 14
▁විදිහටමයි 14
▁විනාඩියකින 14
▁විබ 14
▁වියෝ 14
▁විවාහයෙන 14
▁විශේෂයන 14
▁විෂබීජ 14
▁වීගෙන 14
▁වුණානම 14
▁වුණානේ 14
▁වෙනතකට 14
▁වෙනවානම 14
▁වෙනවානේ 14
▁වෙලේද 14
▁වොලී 14
▁වොස 14
▁වෝකැම 14
▁ශරීරයක 14
▁ශශ 14
▁ශාපලත 14
▁ශුභ 14
▁ෂකවරයා 14
▁ෂාත 14
▁ෂිකාරයෙක 14
▁ෂිකාරයෝ 14
▁ෂීරපා 14
▁ෂේර 14
▁සංගමයේ 14
▁සංවිධානයට 14
▁සංසර 14
▁සජීව 14
▁සදාකාල 14
▁සනස 14
▁සනසන 14
▁සපයනු 14
▁සභාපතිවරයා 14
▁සමම 14
▁සමානකම 14
▁සමිත 14
▁සයිරස 14
▁සයිෆර 14
▁සලීම 14
▁සසඳ 14
▁සහතිකය 14
▁සහයෝ 14
▁සහයෝගයෙන 14
▁සහෝදරයාව 14
▁සහෝදරයින 14
▁සළකා 14
▁සාට 14
▁සාධාරණත 14
▁සාමූ 14
▁සාාවක 14
▁සැඟවිලා 14
▁සැනසිල 14
▁සැපපහසු 14
▁සැරසිලි 14
▁සැලීමට 14
▁සිංහාසන 14
▁සිටිමින 14
▁සිතුවමක 14
▁සිනහා 14
▁සිනාට 14
▁සිනාව 14
▁සිරා 14
▁සිරුරට 14
▁සිහිනයන 14
▁සීනියර 14
▁සුදානමින 14
▁සුභසාධනය 14
▁සුරැක 14
▁සුසාන 14
▁සූපවේදියා 14
▁සෙලර 14
▁සේතු 14
▁සේවිකාවක 14
▁සොත 14
▁සොයාගැනීමක 14
▁සොයාගැනීමට 14
▁සොහොය 14
▁සොහොයුරිය 14
▁සෝනියා 14
▁සෝරම 14
▁සෞරග 14
▁හටගන 14
▁හතලිහක 14
▁හදමින 14
▁හනිම 14
▁හමුදාවකට 14
▁හමුවනේන 14
▁හමුවෙයි 14
▁හමේ 14
▁හාට 14
▁හාලි 14
▁හැංගුවේ 14
▁හැමෝමත 14
▁හැරීගේ 14
▁හැරීමක 14
▁හැවිරිදි 14
▁හැසිරවීම 14
▁හැෙගන 14
▁හිටියෙත 14
▁හිතද 14
▁හිතපන 14
▁හිනායන 14
▁හිමිවෙනවා 14
▁හිරකරගෙන 14
▁හීර 14
▁හුඩ 14
▁හුමාල 14
▁හෙලිදරව 14
▁හොන 14
▁හොඳනෑ 14
▁හොරට 14
▁හෝඩුවා 14
▁හෝමෝන 14
▁ළමයිව 14
▁ෆේර 14
▁ෙතාටුප 14
▁ෙසාරකම 14
▁☯ 14
▁❖ 14
-2-0 13
-40 13
.25 13
.40 13
.50 13
000000 13
21 13
29 13
CR 13
ED 13
adalla 13
alas 13
ambay 13
are 13
bersole 13
bit 13
ello 13
ering 13
itz 13
iv 13
min 13
ood 13
ouse 13
ox 13
ph 13
ringe 13
sel 13
ton 13
ul 13
uther 13
ve 13
vi 13
ye 13
ංචියක 13
ංසා 13
අංක 13
අනිවා 13
අරන 13
ඉල 13
උනේ 13
උනොත 13
ඒයි 13
ඔස 13
ඕනේ 13
කරමු 13
කවුර 13
කාරව 13
කාලීන 13
කාවක 13
කුරු 13
කේතනය 13
කෝට 13
ගමක 13
ගහගෙන 13
ගහපන 13
ගහල 13
ගීරා 13
ගුම 13
ගොස 13
ගෝම 13
ගෝල 13
ඟින 13
චින 13
ජාත 13
ජීවිත 13
ඩියම 13
ඩූ 13
තත 13
තනික 13
තිලක 13
තුංග 13
තුරකින 13
දමන 13
දානය 13
දැං 13
දියුණු 13
දෙද 13
නකාම 13
නාද 13
පලේ 13
පාතය 13
පැවැත 13
පුවම 13
බසින 13
බෑන 13
බෙහෙත 13
බොබ 13
බෝධ 13
බෝවන 13
මගුල 13
මූ 13
යකේද 13
යියෝ 13
යෝජනය 13
රුයි 13
ලිව 13
වසම 13
වියට 13
විලි 13
වෙහි 13
වේන 13
ශූර 13
සයි 13
සස 13
සැර 13
සැරයක 13
සිර 13
සිරි 13
හප 13
හහ 13
හැල 13
හිතන 13
හිතෙන 13
ෆස 13
ෆෙල 13
ාගැනීමට 13
ාදනය 13
ාධිපත 13
ානවා 13
ානො 13
ාරත 13
ාලියා 13
ාවද 13
ාවරුන 13
ාවේවි 13
ැටිලා 13
ැණා 13
ැමිණ 13
ිකස 13
ිකාරයෝ 13
ිජ 13
ිතව 13
ිතාන 13
ිතුමාව 13
ිනො 13
ිපිය 13
ිමුද 13
ියමයි 13
ියාන 13
ිරිල 13
ිරිස 13
ිරීමේ 13
ිවුන 13
ිහෙක 13
ීයක 13
ීයම 13
ීසා 13
ුගෝ 13
ුණී 13
ුදම 13
ුදේ 13
ුරො 13
ුලර 13
ුලාබ 13
ුවරයා 13
ුවුන 13
ූතිය 13
ෘතියක 13
ෙකොට 13
ෙසර 13
ෙහන 13
ේඩ 13
ේනැ 13
ොගේ 13
ොයින 13
ෝටම 13
ෝදා 13
ෝවේ 13
ෞතීස 13
▁......... 13
▁111 13
▁125 13
▁166 13
▁190 13
▁2.2 13
▁2004 13
▁2011.10.10 13
▁2887 13
▁777 13
▁9.30 13
▁ATM 13
▁CA 13
▁CCTV 13
▁Dan 13
▁Firestorm 13
▁Fl 13
▁General 13
▁Kn 13
▁Knight 13
▁Mom 13
▁Not 13
▁Or 13
▁Ray 13
▁Rob 13
▁SL 13
▁VI 13
▁Why 13
▁let 13
▁made 13
▁off 13
▁tachyon 13
▁thing 13
▁through 13
▁අංකේ 13
▁අකුරෙන 13
▁අගන 13
▁අගයකරනවා 13
▁අඟුළු 13
▁අටවෙනි 13
▁අඩස 13
▁අතපය 13
▁අතිවිශ 13
▁අධිකාරි 13
▁අධිවේ 13
▁අනුම 13
▁අපරාධකාරයා 13
▁අපවර 13
▁අමීන 13
▁අමෝර 13
▁අරණ 13
▁අරුල 13
▁අලං 13
▁අවය 13
▁අවශෝෂණය 13
▁අවුන 13
▁අසූ 13
▁අහෝසි 13
▁ආනය 13
▁ආරි 13
▁ආශාවෙන 13
▁ඇඟක 13
▁ඇතිවුනේ 13
▁ඇපකාරයෝ 13
▁ඇපයට 13
▁ඇඹර 13
▁ඇයවත 13
▁ඇසීමට 13
▁ඇහුනොත 13
▁ඇළ 13
▁ඉකමන 13
▁ඉටි 13
▁ඉටුකරන 13
▁ඉදිරියේදී 13
▁ඉඳගත 13
▁ඉමහත 13
▁ඉයේ 13
▁ඉලග 13
▁ඉහින 13
▁ඊවා 13
▁උංගෙ 13
▁උදුරගෙන 13
▁උපුටා 13
▁උබටත 13
▁එකඟත 13
▁එකමුතුව 13
▁එකහමාරක 13
▁එමඟින 13
▁එමනිසා 13
▁එමා 13
▁එයගෙ 13
▁එයගේ 13
▁එයාවම 13
▁එලිට 13
▁එහු 13
▁එළු 13
▁ඒමක 13
▁ඒවගමෙ 13
▁ඔටෝ 13
▁ඔසවා 13
▁ඔහලටෙ 13
▁ඔහුම 13
▁ඕකුන 13
▁ඕනනෙ 13
▁කඩාගන 13
▁කණගාටුවක 13
▁කණාම 13
▁කතුර 13
▁කතුරු 13
▁කනෙකෝම 13
▁කමල 13
▁කමා 13
▁කයිරෝ 13
▁කරුවෙකු 13
▁කලහ 13
▁කලහම 13
▁කලාකාරයෙක 13
▁කවදවත 13
▁කවරය 13
▁කවරයක 13
▁කවිය 13
▁කවුර 13
▁කවුරුව 13
▁කසා 13
▁කහු 13
▁කළමනාකරු 13
▁කාකා 13
▁කාලසීමාව 13
▁කාවර 13
▁කැලැ 13
▁කිංක 13
▁කිද 13
▁කිරීමකින 13
▁කිසිසේත 13
▁කීහ 13
▁කුලප 13
▁කූඩුවෙන 13
▁කෘති 13
▁කෘස 13
▁කෙරෙයි 13
▁කෙලවලා 13
▁කොටා 13
▁කොමියුනිස 13
▁කොළුවෝ 13
▁ගමනා 13
▁ගලයාගේ 13
▁ගලෙන 13
▁ගවාක 13
▁ගසේ 13
▁ගහපං 13
▁ගාලු 13
▁ගැටවර 13
▁ගැනු 13
▁ගැර 13
▁ගැහැ 13
▁ගැහැනුන 13
▁ගැහුවත 13
▁ගිග 13
▁ගිනිතිය 13
▁ගිනිදැල 13
▁ගියෝ 13
▁ගීතය 13
▁ගීතා 13
▁ගීයක 13
▁ගොණ 13
▁ඝයි 13
▁ඝෝ 13
▁චැපීට 13
▁චෙනවා 13
▁ජජස 13
▁ජනපත 13
▁ජරම 13
▁ජලයෙ 13
▁ජලී 13
▁ජාතිකයින 13
▁ජාතින 13
▁ජාබ 13
▁ජෑස 13
▁ජිය 13
▁ජීවයක 13
▁ජීවිතයෙ 13
▁ජූ 13
▁ජූව 13
▁ජේර 13
▁ජොසී 13
▁ජොහැන 13
▁ජෝශප 13
▁ටනව 13
▁ටිච 13
▁ටෝබියස 13
▁ඨාන 13
▁ඩකාරී 13
▁ඩගී 13
▁ඩෑම 13
▁ඩිමේ 13
▁ඩිර 13
▁ඩේලි 13
▁ඩොගී 13
▁ණම 13
▁ණයවර 13
▁ණාභරණ 13
▁ණෙට 13
▁තථ 13
▁තදයා 13
▁තනිකඩයි 13
▁තරමුල 13
▁තරවට 13
▁තරුණියන 13
▁තස 13
▁තාපනය 13
▁තාරක 13
▁තාරේ 13
▁තැතිගැන 13
▁තැනද 13
▁තිප 13
▁තිබුණී 13
▁තියකට 13
▁තියත 13
▁තුලදි 13
▁තුලයි 13
▁තුළදී 13
▁තේද 13
▁තොරතුරැ 13
▁තෝලය 13
▁ථමේන 13
▁ථයේ 13
▁ථර 13
▁ථාවරව 13
▁ථාවෙ 13
▁දගල 13
▁දඟර 13
▁දච 13
▁දනෙක 13
▁දයන 13
▁දරය 13
▁දායකයා 13
▁දැමු 13
▁දැලක 13
▁දිනදර 13
▁දිනාගෙන 13
▁දිමත 13
▁දියවෙන 13
▁දිලිස 13
▁දීය 13
▁දුරකතනයට 13
▁දෘඩ 13
▁දෙගිඩිය 13
▁දෙවය 13
▁දේකම 13
▁දේෂ 13
▁දොන 13
▁ධතියම 13
▁ධමනි 13
▁ධාරිත 13
▁ධිමතුන 13
▁නඑක 13
▁නඕන 13
▁නයා 13
▁නරසිම 13
▁නසාගැනීමක 13
▁නහයට 13
▁නහස 13
▁නළල 13
▁නාමයන 13
▁නාලා 13
▁නැගිටපං 13
▁නැඹ 13
▁නෑදෑයෙක 13
▁නෑයෝ 13
▁නිධන 13
▁නියුතු 13
▁නියෝගවලට 13
▁නිරා 13
▁නිරාකරණය 13
▁නිරිත 13
▁නිශා 13
▁නීතියේ 13
▁නීස 13
▁නුද 13
▁නෙමේයි 13
▁නෙලා 13
▁නෙසේ 13
▁නොදි 13
▁පංච 13
▁පතර 13
▁පතුන 13
▁පදම 13
▁පදවාගෙන 13
▁පදික 13
▁පරයට 13
▁පරාවර 13
▁පරාවෙන 13
▁පරිසරයට 13
▁පලමුවෙන 13
▁පලල 13
▁පහරදීමට 13
▁පහළොවක 13
▁පාදනයක 13
▁පාදු 13
▁පාබල 13
▁පාරත 13
▁පාලකයක 13
▁පාසා 13
▁පැටි 13
▁පැනිය 13
▁පැපොල 13
▁පැයකටත 13
▁පැයෙන 13
▁පැළද 13
▁පිටිසර 13
▁පිලිතුර 13
▁පිහිටුම 13
▁පිළිගනිමු 13
▁පිළිවෙලින 13
▁පිළිවෙළින 13
▁පීඨ 13
▁පුනේ 13
▁පුරවැසි 13
▁පුවෙ 13
▁පූසෝ 13
▁පෘථිව 13
▁පෙව 13
▁පේටන 13
▁පොතු 13
▁පොයි 13
▁පොලු 13
▁පෝසම 13
▁බඳුන 13
▁බලකරනවා 13
▁බලයත 13
▁බලෙම 13
▁බවා 13
▁බවින 13
▁බවේ 13
▁බහුබ 13
▁බැංගල 13
▁බැතිමත 13
▁බිරි 13
▁බුබුළු 13
▁බෙරය 13
▁බේරෙයි 13
▁බෝබි 13
▁බෞ 13
▁භයංකර 13
▁භාවන 13
▁භී 13
▁භෝ 13
▁මනෙ 13
▁මනෝජ 13
▁මඳ 13
▁මරීසා 13
▁මළගෙදර 13
▁මාචෝ 13
▁මාපිය 13
▁මාරැ 13
▁මාරුවක 13
▁මාවද 13
▁මැදිර 13
▁මිනීමරුවො 13
▁මුණගැසෙන 13
▁මුදවාගන 13
▁මුලදී 13
▁මුලාක 13
▁මුහම 13
▁මූණෙ 13
▁මූදු 13
▁මෘ 13
▁මෙඩ 13
▁මෙරට 13
▁මෙහම 13
▁මෙහෙයවනවා 13
▁මේපල 13
▁මේරිලන 13
▁මේසෙට 13
▁මොරටුව 13
▁මොසී 13
▁මෝක 13
▁මෝසම 13
▁යංශය 13
▁යතාවන 13
▁යවාදී 13
▁යහපතක 13
▁යාගාරයේ 13
▁යාගේ 13
▁යැද 13
▁යූරි 13
▁යේග 13
▁යේෂණයක 13
▁යොත 13
▁යොදවා 13
▁රජාන 13
▁රජෙ 13
▁රණයේ 13
▁රතිකාරය 13
▁රතිදේහ 13
▁රතිම 13
▁රථගාල 13
▁රථයට 13
▁රදායක 13
▁රධ 13
▁රධානිය 13
▁රමවේදයක 13
▁රවාහය 13
▁රවුල 13
▁රවෘති 13
▁රවෘතියක 13
▁රවේගය 13
▁රසීලයේ 13
▁රසූත 13
▁රහයි 13
▁රාගය 13
▁රාමා 13
▁රැග 13
▁රැලක 13
▁රෑක 13
▁රිකොන 13
▁රියාකාරකය 13
▁රීටා 13
▁රුදිර 13
▁රුසියාවේ 13
▁රූපරාමු 13
▁රේගන 13
▁රේටර 13
▁රේප 13
▁රේරණය 13
▁රේලියාව 13
▁රෝකර 13
▁රෝබෙරි 13
▁රෝහක 13
▁ලංස 13
▁ලඟාකර 13
▁ලපයක 13
▁ලබමින 13
▁ලමයෝ 13
▁ලවත 13
▁ලිලි 13
▁ලීටර 13
▁ලීව 13
▁ලීසර 13
▁ලුමක 13
▁ලුවද 13
▁ලෙකුත 13
▁ලේඛකයෙක 13
▁ලේඛම 13
▁ලේලිය 13
▁ලොතරැය 13
▁ලොතරැයි 13
▁ලෝරී 13
▁වංශාධිපති 13
▁වචනයෙන 13
▁වටහාගන 13
▁වතියට 13
▁වධහි 13
▁වරායට 13
▁වරායේ 13
▁වරිය 13
▁වරෙව 13
▁වලයන 13
▁වසම 13
▁වසරේදී 13
▁වාදී 13
▁වාසගම 13
▁වාසීන 13
▁වැටහෙන 13
▁වැටුණු 13
▁වැඩකුත 13
▁වැත 13
▁වැනිලා 13
▁විකෘතිකයන 13
▁විතව 13
▁විදෙස 13
▁විධියටම 13
▁විනෝදාංශ 13
▁විමෝච 13
▁වියළ 13
▁විලාස 13
▁විලාසිතාව 13
▁වීලා 13
▁වුවොත 13
▁වෙළෙඳ 13
▁වේලාවන 13
▁වොර 13
▁වොෂ 13
▁වෝක 13
▁ශංඛක 13
▁ශයි 13
▁ශාල 13
▁ශීලා 13
▁ශේත 13
▁ෂකට 13
▁ෂද 13
▁ෂමතාව 13
▁ෂැන 13
▁ෂෙපර 13
▁ෂෝට 13
▁සකින 13
▁සඟවා 13
▁සතියෙන 13
▁සඳහාත 13
▁සඳහාද 13
▁සපා 13
▁සබැද 13
▁සමයක 13
▁සමරනවා 13
▁සමිති 13
▁සවක 13
▁සවා 13
▁සවිබල 13
▁සහභාග 13
▁සහභාගීත 13
▁සහමුලින 13
▁සෆ 13
▁සාගරය 13
▁සාමකාමීව 13
▁සායි 13
▁සාා 13
▁සැකසහිත 13
▁සැඟවුණු 13
▁සැබැවින 13
▁සැමට 13
▁සැලි 13
▁සිටිති 13
▁සිටිම 13
▁සිටියදී 13
▁සිදුවීමට 13
▁සිනම 13
▁සියෙක 13
▁සීබර 13
▁සුවපත 13
▁සුසන 13
▁සූසා 13
▁සෘණාත 13
▁සෘතු 13
▁සෙනේටර 13
▁සෙමාක 13
▁සෙලවීමක 13
▁සෙලීනා 13
▁සේවාවල 13
▁සොග 13
▁සොරා 13
▁හඩවල 13
▁හතළ 13
▁හදනවනම 13
▁හමා 13
▁හමින 13
▁හරියා 13
▁හවී 13
▁හාවී 13
▁හැදි 13
▁හැමේ 13
▁හිග 13
▁හිතාමතා 13
▁හිතුවෙවත 13
▁හිරගෙවල 13
▁හුරත 13
▁හුරුබුහුටියි 13
▁හේය 13
▁හොඳයිනේ 13
▁හෝබ 13
▁හෝර 13
▁ළඟදීම 13
▁ළමයාගේ 13
▁ෆඩ 13
▁ෆැ 13
▁ෆීන 13
▁ෆීබි 13
▁ෆෙයා 13
▁ෆොටෝග 13
▁ෆෝමික 13
▁ෙසල 13
▁ෙහට 13
▁ෙෆල 13
▁‘ 13
,6 12
-10 12
26 12
27 12
36 12
48 12
IC 12
MS 12
OD 12
OU 12
VD 12
aw 12
ber 12
chi 12
dington 12
ead 12
ens 12
ep 12
ida 12
iles 12
ilson 12
ira 12
ise 12
izabeth 12
less 12
llow 12
oman 12
ora 12
oria 12
other 12
oul 12
rimack 12
ru 12
ver 12
ves 12
ංගනය 12
ංසුන 12
ඇදුම 12
කණ 12
කයකු 12
කරණයට 12
කාශ 12
කේඩ 12
කොන 12
කෝස 12
ගාල 12
ගැසීම 12
ගෙව 12
ගො 12
ඩෙල 12
තනයක 12
තාවට 12
තාවයට 12
ථා 12
දිච 12
දීත 12
පාඩම 12
පැනලා 12
පොලේ 12
බය 12
බාග 12
බායි 12
භාර 12
භාවයක 12
මුත 12
යං 12
යිම 12
වෙලාවට 12
වේදීන 12
ශේෂ 12
සාගන 12
හැට 12
හුණේ 12
හුම 12
හොන 12
ෆාන 12
ාටස 12
ාණය 12
ාමික 12
ාරයෙන 12
ාරෝප 12
ාවෝ 12
ැතිව 12
ැරුමක 12
ැවත 12
ිංටන 12
ිතම 12
ිතියන 12
ිපති 12
ිපාර 12
ිවිඩ 12
ිවිර 12
ිවෙත 12
ීකෘත 12
ීතු 12
ීද 12
ුරටත 12
ුවටම 12
ුවරුන 12
ුවෙමු 12
ුසර 12
ූද 12
ෙහිද 12
ේප 12
ෝමා 12
▁.......... 12
▁1-3 12
▁1.1 12
▁1950 12
▁1991 12
▁2002 12
▁247 12
▁2862 12
▁3- 12
▁533 12
▁Bye 12
▁Ey 12
▁HIVE 12
▁Kay 12
▁Ma 12
▁Mart 12
▁NAT 12
▁Rio 12
▁SA 12
▁SI 12
▁ba 12
▁fox 12
▁human 12
▁humans 12
▁must 12
▁r 12
▁ready 12
▁room 12
▁too 12
▁very 12
▁world 12
▁zero 12
▁අඟලක 12
▁අඩපන 12
▁අඩවර 12
▁අඬු 12
▁අතපත 12
▁අතැර 12
▁අතුරුපස 12
▁අදටත 12
▁අදා 12
▁අනුමානයක 12
▁අනුවයි 12
▁අපචාර 12
▁අපී 12
▁අභියාවනය 12
▁අභියෝගය 12
▁අභිර 12
▁අරවා 12
▁අරුමෝසම 12
▁අලවන 12
▁අලාභයක 12
▁අලුයම 12
▁අවදානමට 12
▁අසමසම 12
▁අසාධ 12
▁අසීර 12
▁අහබු 12
▁ආයතනයන 12
▁ආයතනයෙන 12
▁ඇතිවිය 12
▁ඇමේ 12
▁ඇවි 12
▁ඉං 12
▁ඉවරනේ 12
▁ඊජීස 12
▁උනෙ 12
▁ඍත 12
▁එකඟතාවයක 12
▁එදිනෙදා 12
▁එළිදක 12
▁එළිමහන 12
▁ඒකරා 12
▁ඒයාල 12
▁ඔබගෝ 12
▁ඔවුහු 12
▁ඔහෙගෙ 12
▁ඔෙහව 12
▁ඕඩ 12
▁ඕනිවුනේ 12
▁කටර 12
▁කටහ 12
▁කටා 12
▁කටෙන 12
▁කඩනව 12
▁කරකැවිල 12
▁කරහං 12
▁කවරවූ 12
▁කසළ 12
▁කළයුතුය 12
▁කළහ 12
▁කාරුණ 12
▁කාලගුණික 12
▁කැව 12
▁කැළෑ 12
▁කියමන 12
▁කිසිඳු 12
▁කිළ 12
▁කීයට 12
▁කේටි 12
▁කොටසද 12
▁කොටියා 12
▁ගණයේ 12
▁ගයකින 12
▁ගැලවීම 12
▁ගොනුවේ 12
▁චිරාජ 12
▁ජප 12
▁ජිමට 12
▁ජූරි 12
▁ජෝක 12
▁ඥානය 12
▁ටට 12
▁ටරි 12
▁ටිෂ 12
▁ටීර 12
▁ටෙප 12
▁ටෙලෝ 12
▁ඨා 12
▁ඩයට 12
▁ඩයන 12
▁ඩයොක 12
▁ඩූප 12
▁ඩොඩී 12
▁තනයට 12
▁තාකර 12
▁තාවෙන 12
▁තැක 12
▁තැබුවා 12
▁තිරස 12
▁තිවන 12
▁තීරණවලට 12
▁තීරනයක 12
▁තුරය 12
▁තුවල 12
▁තෙතමනය 12
▁ථනයක 12
▁දතා 12
▁දශකයේ 12
▁දිනි 12
▁දිරේ 12
▁දිවිගලවා 12
▁දුරකථනයේ 12
▁දෙයම 12
▁දෙහ 12
▁දේශගුණික 12
▁දේශපාලනික 12
▁ධනයේ 12
▁ධවන 12
▁නටලා 12
▁නතා 12
▁නමෙන 12
▁නලය 12
▁නළලේ 12
▁නාලික 12
▁නාවේ 12
▁නැපෝල 12
▁නැඹුරු 12
▁නැර 12
▁නැරඹීමට 12
▁නිදිග 12
▁නියමුවාට 12
▁නියෝජිතාය 12
▁නිරවද 12
▁නිවාඩ 12
▁නොඉක 12
▁නොකළේ 12
▁නොගැනීම 12
▁නොමිල 12
▁නෝරා 12
▁පතලක 12
▁පතා 12
▁පථයේ 12
▁පයේ 12
▁පරාම 12
▁පරාර 12
▁පලට 12
▁පලස 12
▁පලේ 12
▁පහනේ 12
▁පහලම 12
▁පාලි 12
▁පාෂ 12
▁පැහැදිළිව 12
▁පිහිටුවා 12
▁පුහුණුවට 12
▁පූජකයන 12
▁පෙරමුණ 12
▁පෙළගැස 12
▁පේපර 12
▁පෝෂණ 12
▁පෞරුෂ 12
▁බයන 12
▁බලගත 12
▁බලනු 12
▁බැදීම 12
▁බැලීමේ 12
▁බෑඩ 12
▁බීච 12
▁බුබ 12
▁බෙදීම 12
▁බෝහෝ 12
▁භටයන 12
▁භයට 12
▁භාජන 12
▁භාශ 12
▁භූගත 12
▁භූමිකාව 12
▁මඩම 12
▁මයෙ 12
▁මසකට 12
▁මහවැලි 12
▁මාණශිල 12
▁මානසිකත 12
▁මාලිගය 12
▁මාෆ 12
▁මැදදි 12
▁මැය 12
▁මිනීම 12
▁මෙහට 12
▁මේදය 12
▁මොහො 12
▁යග 12
▁යතුමාගේ 12
▁යනවානම 12
▁යමි 12
▁යවේද 12
▁යාංශයට 12
▁යාඤ 12
▁යාලවල 12
▁යාලේ 12
▁යෑ 12
▁යුගල 12
▁යේෂණාගාර 12
▁රටාවන 12
▁රනය 12
▁රමයකට 12
▁රමයකින 12
▁රයකින 12
▁රවණය 12
▁රවල 12
▁රවලට 12
▁රවාදී 12
▁රවේ 12
▁රසවි 12
▁රහයෙන 12
▁රායල 12
▁රාවට 12
▁රැළි 12
▁රිතව 12
▁රියාකර 12
▁රියාකාරකමක 12
▁රියාපටි 12
▁රිරි 12
▁රිසි 12
▁රුකුලක 12
▁රේඛීය 12
▁රේසන 12
▁ලපේ 12
▁ලමය 12
▁ලවාය 12
▁ලාංකික 12
▁ලිදරීන 12
▁ලිවර 12
▁ලුට 12
▁ලූම 12
▁ලෙහෙ 12
▁ලේඛණ 12
▁වටහාගත 12
▁වනයට 12
▁වරකට 12
▁වරෙ 12
▁වලව 12
▁වලෙන 12
▁වහගත 12
▁විඥානය 12
▁විශේෂයකට 12
▁විෂයය 12
▁වෙහෙ 12
▁වේගයට 12
▁වේට 12
▁වොම 12
▁වෝනර 12
▁ශණීය 12
▁ශයන 12
▁ශිරා 12
▁ශෛලිය 12
▁ෂකවරුන 12
▁ෂගත 12
▁ෂයාට 12
▁ෂාඩා 12
▁ෂිතිජ 12
▁ෂියට 12
▁ෂූ 12
▁සංඝ 12
▁සතුයි 12
▁සදහ 12
▁සමගාමීව 12
▁සමූල 12
▁සරලම 12
▁සවිකර 12
▁සහචර 12
▁සහභාගිත 12
▁සහම 12
▁සළකන 12
▁සාරය 12
▁සාරාංශය 12
▁සෑදීම 12
▁සිකා 12
▁සිටීමේ 12
▁සීසල 12
▁සුපරීක 12
▁සුරංගන 12
▁සුලං 12
▁සුවිශ 12
▁සූරා 12
▁සෝදා 12
▁හතේ 12
▁හැරීමේ 12
▁හිතකර 12
▁හිතාමතාම 12
▁හිනස 12
▁හිරේදි 12
▁හිලව 12
▁ළදරු 12
▁ෙවනස 12
▁ෙවල 12
▁★ 12
-20 11
.03 11
.12 11
.2012 11
0000 11
03 11
28 11
90 11
ach 11
alk 11
ary 11
ation 11
by 11
ck 11
een 11
ene 11
erry 11
ets 11
gel 11
ickers 11
iel 11
ien 11
ily 11
ime 11
itt 11
ject 11
lo 11
lvia 11
mann 11
mp 11
my 11
ope 11
osen 11
own 11
tle 11
ull 11
urn 11
é 11
ංගොඩ 11
ංජා 11
ංත 11
කරුවකු 11
ගැත 11
ගිනි 11
චනය 11
චිත 11
ඡේ 11
ජිව 11
ජිස 11
ඩාර 11
ඩෝර 11
ඪ 11
තාවයේ 11
ඳුරු 11
පතන 11
පාටි 11
පායන 11
පිටින 11
පේක 11
බාහිර 11
බිද 11
බීජ 11
මාලා 11
මිට 11
යාමේ 11
රකේ 11
රුම 11
ලාභ 11
ලිත 11
ලේඛන 11
විර 11
වූවා 11
සීමාව 11
හරණ 11
ළුව 11
ාච 11
ාමීව 11
ාරෝපණය 11
ැගුම 11
ිතන 11
ියකු 11
ියෝන 11
ුදා 11
ුනුම 11
ුපිටින 11
ුවකු 11
ුවරයෙක 11
ූරු 11
ේජ 11
ේරෝ 11
ොකු 11
ෝටා 11
ෞතික 11
▁--- 11
▁108 11
▁1978 11
▁206 11
▁250,000 11
▁2865 11
▁Avatar 11
▁CSI 11
▁Hans 11
▁NR 11
▁SWAT 11
▁TIIP 11
▁black 11
▁doctor 11
▁lk 11
▁may 11
▁moment 11
▁much 11
▁name 11
▁red 11
▁understand 11
▁අඟහර 11
▁අඩාල 11
▁අතාර 11
▁අනා 11
▁අනුකූලව 11
▁අනුපිළිවෙල 11
▁අපක 11
▁අඹේපුස 11
▁අරමුණයි 11
▁අවධියේ 11
▁ආකාරයකින 11
▁ඇඟවීමේ 11
▁ඇටකට 11
▁ඇතත 11
▁ඇතිවීම 11
▁ඇතුන 11
▁ඉගෙනුම 11
▁ඉරානය 11
▁ඊගෝ 11
▁උපාධ 11
▁එකමුත 11
▁එකල 11
▁එබදු 11
▁එහන 11
▁ඓ 11
▁කටව 11
▁කලාවක 11
▁කලේය 11
▁කාඩිෆ 11
▁කැනේඩිය 11
▁කිනම 11
▁කියැවෙන 11
▁කියු 11
▁කුනාටු 11
▁කෘෂිකාර 11
▁කේතුධර 11
▁කොටසකට 11
▁ගණකා 11
▁ගතය 11
▁ගවල 11
▁ගියහ 11
▁චැම 11
▁ජට 11
▁ජලයට 11
▁ජෝස 11
▁ටිනා 11
▁ඩිවුනන 11
▁ඩොකා 11
▁තරඟකාරී 11
▁තරායක 11
▁තවල 11
▁තිරිඟු 11
▁තිෂ 11
▁තුවේදී 11
▁ථම 11
▁දකකේ 11
▁දඩය 11
▁දහඩිය 11
▁දහයේ 11
▁දැඟල 11
▁දැවී 11
▁දැෙන 11
▁දෑව 11
▁දිරිගැන 11
▁දිශාන 11
▁දෙනෙකුගේ 11
▁දොම 11
▁නතරව 11
▁නයන 11
▁නයයි 11
▁නාමයට 11
▁නාළ 11
▁නැගීමට 11
▁නිදොස 11
▁නිසාත 11
▁නොඉ 11
▁නෞ 11
▁නෞකා 11
▁පනේන 11
▁පරාජයට 11
▁පරිණ 11
▁පලද 11
▁පලම 11
▁පවසා 11
▁පාදම 11
▁පාරිතෝෂික 11
▁පාරිභෝගික 11
▁පැනීම 11
▁පැලෑටි 11
▁පැවතුණි 11
▁පිරිහ 11
▁පිලිත 11
▁පිළියම 11
▁පිළිවෙළ 11
▁පුප 11
▁පේශි 11
▁බංග 11
▁බැටන 11
▁බැහ 11
▁බෙංග 11
▁බොහො 11
▁බෝජ 11
▁භටයින 11
▁භාගයේ 11
▁භීතක 11
▁මතයට 11
▁මඳක 11
▁මයජනක 11
▁මයිස 11
▁මාළිගාවේ 11
▁මිච 11
▁මිනල 11
▁මෙකයි 11
▁මෙවල 11
▁මේවන 11
▁මේවාට 11
▁මොණරා 11
▁යකාලීන 11
▁යයකි 11
▁යවරයාට 11
▁යූහය 11
▁යෝජන 11
▁රචනා 11
▁රඩේ 11
▁රතම 11
▁රතිමා 11
▁රධානතම 11
▁රමාණාත 11
▁රමිතීන 11
▁රසයක 11
▁රාජක 11
▁රාවි 11
▁රාහකයින 11
▁රැකියාවේ 11
▁රිවිධ 11
▁රේඛාව 11
▁රෝගා 11
▁ලකේ 11
▁ලබාගැනීමේ 11
▁ලුහුබඳ 11
▁ලෙටි 11
▁ලොඩ 11
▁වභාවයක 11
▁වහළ 11
▁වානම 11
▁වූවෙක 11
▁වෙති 11
▁වෙළදපොල 11
▁වෙළෙද 11
▁වේදික 11
▁ශකයන 11
▁ශිලා 11
▁ෂවල 11
▁සමයේදී 11
▁සයික 11
▁සයේ 11
▁සරි 11
▁සහයෝගයක 11
▁සාගරයේ 11
▁සැපපහස 11
▁සැලකෙන 11
▁සිමා 11
▁සීග 11
▁සුභසාධ 11
▁සෙස 11
▁සොයයි 11
▁සොහොයුර 11
▁හතරට 11
▁හතරෙන 11
▁හැමදා 11
▁හැරීමට 11
▁හැරුණු 11
▁හේතුන 11
▁හොරණ 11
▁හෝඩ 11
▁ෆොස 11
,500 10
.01.01 10
.2011 10
.45 10
55 10
66 10
71 10
73 10
88 10
95 10
96 10
99 10
IP 10
RP 10
SC 10
ade 10
ames 10
anny 10
appy 10
ara 10
arth 10
ator 10
ax 10
aya 10
cha 10
eat 10
eath 10
eg 10
ess 10
eton 10
go 10
hamp 10
if 10
ife 10
igh 10
ildur 10
isc 10
ix 10
ja 10
ley 10
lk 10
ls 10
mail 10
nt 10
off 10
ola 10
ork 10
oss 10
oth 10
port 10
row 10
tern 10
ts 10
ure 10
උප 10
කමය 10
කරණයේ 10
ගොන 10
ණිජ 10
තුමාගේ 10
පතා 10
බදු 10
බලේ 10
යුධ 10
යුර 10
වාහ 10
විමට 10
ශන 10
සනක 10
සිම 10
ාමයක 10
ාසන 10
ැහැද 10
ිනන 10
ිරීමට 10
ිහත 10
ිහිට 10
ුභ 10
ුමනි 10
ුමය 10
ුවකෝ 10
ුවරු 10
ුසෙට 10
ේශීය 10
ොයිඩ 10
ොසත 10
ෝනය 10
▁-2 10
▁1-1 10
▁1-5 10
▁1.2.1 10
▁129 10
▁144 10
▁147 10
▁161 10
▁1971 10
▁1980 10
▁1987 10
▁2001 10
▁205 10
▁6000 10
▁82 10
▁Marc 10
▁SW 10
▁blood 10
▁could 10
▁created 10
▁doing 10
▁eyes 10
▁girl 10
▁hand 10
▁help 10
▁home 10
▁iii 10
▁into 10
▁look 10
▁mine 10
▁money 10
▁okay 10
▁place 10
▁tell 10
▁three 10
▁today 10
▁without 10
▁would 10
▁years 10
▁£ 10
▁අඩුක 10
▁අතල 10
▁අතිශ 10
▁අධිකර 10
▁අනාවර 10
▁අනුශ 10
▁අනූව 10
▁අපවාද 10
▁අරෙ 10
▁අවධාර 10
▁අහිම 10
▁ආනයන 10
▁ආවේනික 10
▁ඉතාලියේ 10
▁උපයෝ 10
▁උපාංගය 10
▁උව 10
▁එකඟව 10
▁එතෙක 10
▁ඔපෙරා 10
▁ඔරල 10
▁ඔෂ 10
▁කරගනියි 10
▁කරනුයේ 10
▁කවදාක 10
▁කාටිලේජ 10
▁කාළගුණ 10
▁කැටයම 10
▁කැනේඩියානු 10
▁කිමි 10
▁කිරීමටත 10
▁කෙරි 10
▁කෙසේවෙතත 10
▁කේම 10
▁කොහෙම 10
▁ගැටුමක 10
▁ගිත 10
▁ගිලි 10
▁ගිහි 10
▁ගොඩනැ 10
▁ගොඩනැඟිලි 10
▁ගොවිතැන 10
▁ගෞ 10
▁චාට 10
▁චිතව 10
▁චීනයේ 10
▁ජනවාර 10
▁ජියා 10
▁ටනා 10
▁ටනාව 10
▁ටේස 10
▁ඩාගාරයට 10
▁ඩීස 10
▁තබාගනු 10
▁තරගාවල 10
▁දහනය 10
▁දියම 10
▁දියරයක 10
▁ධමනිය 10
▁ධවාද 10
▁නවස 10
▁නිපුණ 10
▁නියෝ 10
▁නෙෆ 10
▁නොවු 10
▁පරිභෝජනය 10
▁පරිහරණය 10
▁පසට 10
▁පාදනයේ 10
▁පැතිරීම 10
▁පැදවීම 10
▁පැහැය 10
▁පිරිසෙයින 10
▁පීය 10
▁පුම 10
▁පුරවැස 10
▁පුරාව 10
▁ඵලදා 10
▁බයිසික 10
▁බරා 10
▁බැටර 10
▁භාවයට 10
▁මකභාවය 10
▁මනිය 10
▁මහජනයා 10
▁මහාධ 10
▁මහිය 10
▁මාලි 10
▁මැසි 10
▁මෝහන 10
▁යනාද 10
▁යවසාය 10
▁යවේදීන 10
▁යෙදුණු 10
▁යෙදුමක 10
▁රතාවය 10
▁රතිවාදී 10
▁රථවාහන 10
▁රථිප 10
▁රමිති 10
▁රවිණ 10
▁රාමීය 10
▁රීවස 10
▁රෙබ 10
▁රේණිගත 10
▁ලැබුණි 10
▁ලිංගය 10
▁වයයි 10
▁වරූපයක 10
▁වලතා 10
▁වාහ 10
▁විගණක 10
▁විටින 10
▁විමත 10
▁විමුක 10
▁විසිත 10
▁වේදිකා 10
▁වේදිකාවක 10
▁ෂයේදී 10
▁ෂාංශ 10
▁ෂියා 10
▁සංවේදන 10
▁සකවර 10
▁සඵල 10
▁සමාජවාදී 10
▁සයින 10
▁සශ 10
▁සාධකය 10
▁සැලකීමක 10
▁සිතුව 10
▁සිවිලිම 10
▁සෘතුවේ 10
▁හාවට 10
▁හැං 10
▁හැකිවේ 10
▁හැඩැති 10
▁හැමවල 10
▁හැමවෙල 10
▁හිසර 10
▁හුණු 10
▁හොදි 10
▁හෝට 10
▁ළදර 10
▁ළමයාට 10
▁ෆැර 10
,9 9
38 9
91 9
EA 9
age 9
agon 9
ain 9
aint 9
air 9
ais 9
amp 9
bye 9
che 9
eah 9
enny 9
eth 9
ex 9
ford 9
gh 9
hill 9
how 9
ica 9
ich 9
ick 9
ield 9
ild 9
int 9
ition 9
ka 9
len 9
me 9
ms 9
nder 9
nton 9
pai 9
que 9
rad 9
res 9
rin 9
roit 9
to 9
very 9
wa 9
zo 9
ංගේ 9
අරින 9
කමත 9
කී 9
ගියේ 9
ඩොන 9
ණික 9
ථනය 9
නාප 9
පොලිස 9
බහුල 9
භෝ 9
ඹු 9
යානක 9
වංශ 9
වාහින 9
විධාන 9
වේග 9
වේදින 9
හරණය 9
හිව 9
ාගෝ 9
ැවිලි 9
ිකරු 9
ිකාංග 9
ිතයා 9
ිනියක 9
ිපස 9
ිපි 9
ිෆර 9
ුං 9
ුපස 9
ෙරික 9
ෙු 9
ේටද 9
▁............ 9
▁1.2.2 9
▁1200 9
▁130 9
▁145 9
▁146 9
▁157 9
▁185 9
[...]
