▁. 378890
; 220417
▁& 220078
▁, 213223
apos 203714
▁you 152548
▁i 131793
▁the 125053
▁? 97218
▁to 93717
s 75586
▁a 73909
▁it 63978
▁- 63149
▁and 51885
▁that 49176
t 47812
▁! 46780
▁of 46510
▁is 42276
▁in 40430
▁we 39942
▁... 36279
▁me 34898
▁this 33736
▁he 31522
▁what 29448
▁your 28998
▁for 27577
▁my 26983
▁have 24790
▁on 24790
re 24484
▁are 23117
▁not 22394
m 22356
▁do 21531
▁be 21420
▁can 21008
▁was 20682
▁don 19881
▁with 19493
▁know 18483
▁but 18471
▁no 18181
▁they 17902
▁just 17880
▁there 17311
▁here 17231
▁get 17195
▁all 17185
quot 16624
▁so 15836
▁if 15326
▁him 15239
ll 15108
▁out 14310
▁like 14009
▁go 13395
- 13213
▁now 13163
▁will 12940
▁one 12884
▁she 12708
▁up 12546
▁about 12024
▁right 11720
▁at 11641
▁her 11116
▁come 11097
▁how 11043
▁got 10566
ve 10520
▁.. 10341
▁from 10183
▁as 9801
▁his 9773
▁want 9603
▁why 9368
▁who 9312
▁us 9114
. 8993
▁did 8846
▁back 8769
▁think 8632
▁let 8433
▁them 8378
▁gonna 8305
▁see 8219
▁well 8167
▁an 7988
▁when 7900
▁take 7627
▁time 7576
▁need 7558
▁our 7501
▁going 7462
▁been 7192
▁were 7142
▁where 7119
▁tell 6999
▁good 6949
▁or 6829
▁man 6715
▁would 6709
▁then 6706
▁has 6659
▁look 6558
▁okay 6253
▁some 6141
▁had 6134
▁yeah 6124
▁oh 6113
▁by 5971
▁down 5819
▁hey 5621
d 5616
▁only 5505
▁something 5448
▁say 5424
▁could 5411
▁didn 5319
▁people 5319
▁way 5304
▁make 5271
▁am 5036
▁more 4974
▁please 4922
▁never 4884
▁sir 4821
▁too 4794
▁should 4788
▁over 4711
▁because 4577
▁give 4531
▁said 4382
▁find 4377
▁these 4373
▁off 4283
▁two 4271
▁any 4245
▁really 4119
▁yes 4102
▁even 4091
▁little 4069
▁help 3919
▁: 3869
▁thing 3848
▁into 3806
▁life 3760
▁love 3749
▁their 3714
▁very 3672
▁first 3611
▁mean 3433
▁stop 3385
▁still 3376
▁call 3373
▁before 3302
▁anything 3301
▁mr 3279
▁after 3278
▁sorry 3260
▁keep 3258
▁day 3243
ing 3233
▁much 3229
▁doing 3227
▁work 3129
▁than 3101
▁away 3064
▁name 3058
▁father 2968
▁sure 2941
▁told 2936
▁again 2927
▁won 2924
▁kill 2915
▁other 2911
▁talk 2876
▁put 2863
▁last 2860
▁must 2850
▁home 2825
▁those 2809
▁years 2786
▁guys 2728
▁everything 2727
▁maybe 2720
▁god 2694
▁thought 2675
▁nothing 2672
▁wait 2660
▁new 2627
▁made 2621
▁someone 2617
▁leave 2614
▁long 2570
ed 2563
▁guy 2560
▁world 2559
▁son 2557
▁ever 2556
▁place 2553
▁coming 2511
▁dad 2488
▁doesn 2461
▁night 2432
▁around 2385
▁things 2368
▁better 2353
▁girl 2346
▁does 2342
▁every 2340
▁stay 2339
▁done 2317
▁uh 2274
▁left 2267
▁money 2238
▁always 2214
▁came 2214
▁through 2214
▁which 2189
▁car 2186
▁brother 2135
i 2126
▁listen 2093
▁dead 2084
▁believe 2074
▁isn 2072
▁great 2064
▁found 2061
▁three 2057
▁happened 2028
▁today 2028
▁thank 2021
▁lot 2010
▁house 2008
▁may 2007
▁move 1983
▁mother 1960
▁big 1958
▁( 1953
▁) 1952
▁getting 1952
▁wanted 1939
▁bad 1938
▁looking 1936
▁ask 1926
▁feel 1912
▁wrong 1911
▁else 1908
▁old 1903
▁many 1901
▁hell 1894
▁same 1880
▁another 1871
▁understand 1871
▁remember 1861
a 1858
▁trying 1842
▁might 1829
▁being 1823
-- 1819
▁own 1817
▁without 1808
▁real 1790
▁friend 1787
▁enough 1779
▁next 1771
▁everyone 1754
▁hear 1751
▁boy 1733
▁kind 1729
▁head 1709
▁show 1705
▁talking 1693
▁family 1691
▁care 1681
▁took 1678
▁saw 1674
▁anyone 1659
▁killed 1655
▁hold 1648
▁try 1648
▁die 1647
▁job 1647
▁fine 1639
▁gotta 1635
▁once 1631
▁wanna 1623
▁run 1606
▁seen 1595
▁bring 1594
er 1590
y 1580
▁nice 1578
in 1575
▁ok 1568
▁yourself 1566
▁days 1550
▁also 1547
▁baby 1528
▁best 1521
▁meet 1518
▁♪ 1513
▁lost 1508
▁mind 1502
▁went 1502
▁mom 1492
▁room 1480
▁use 1458
▁live 1455
▁already 1450
▁most 1447
▁fucking 1442
▁both 1434
▁gone 1434
▁water 1432
▁hand 1426
▁police 1421
▁ready 1421
o 1419
▁used 1417
▁men 1416
▁actually 1415
▁called 1415
▁wasn 1414
▁together 1398
▁ago 1395
▁l 1393
▁under 1392
▁knew 1381
▁start 1377
▁&#93; 1368
▁&#91; 1360
▁open 1357
▁such 1353
▁inside 1348
▁few 1329
▁hit 1322
▁daughter 1321
▁problem 1321
▁shit 1316
▁phone 1310
▁minutes 1309
▁end 1308
▁heard 1308
▁wouldn 1298
▁while 1294
▁jack 1293
▁idea 1285
▁since 1284
▁wife 1281
▁its 1278
▁saying 1261
▁yet 1261
▁watch 1260
▁until 1255
▁friends 1254
▁hard 1254
▁face 1250
▁whole 1249
▁turn 1247
▁five 1243
▁morning 1242
▁year 1236
ly 1228
▁heart 1221
▁looks 1200
ers 1196
▁alone 1195
▁guess 1195
▁fuck 1186
▁eyes 1180
▁sister 1180
▁tomorrow 1179
▁happy 1178
▁pretty 1172
▁says 1171
▁gave 1169
▁save 1166
▁soon 1158
▁hello 1154
▁huh 1153
▁happen 1151
▁part 1150
▁course 1148
▁haven 1148
▁case 1141
▁far 1141
▁safe 1141
▁play 1137
▁whatever 1132
▁knows 1110
▁second 1110
▁change 1095
▁each 1095
▁door 1089
▁trust 1089
▁check 1087
▁hands 1086
▁couldn 1085
▁matter 1084
▁means 1084
▁gun 1082
▁taking 1077
▁close 1073
▁thanks 1072
am 1071
▁wants 1071
▁number 1065
▁fire 1052
▁plan 1051
▁person 1050
▁behind 1048
▁hope 1048
▁hi 1043
▁myself 1038
▁kid 1036
▁woman 1034
▁working 1032
▁dr 1026
▁city 1025
▁death 1023
▁miss 1020
▁four 1019
▁john 1005
▁side 1005
▁hours 1002
▁d 999
▁alive 997
es 995
▁chance 995
e 993
▁exactly 992
▁asked 988
▁hurt 976
▁supposed 973
al 970
l 970
▁shot 966
▁rest 964
▁power 961
▁b 952
▁thinking 951
▁set 950
▁blood 948
▁body 943
▁shut 935
▁truth 934
▁word 930
▁team 929
c 921
▁food 918
▁yöu 917
▁10 916
▁p 910
▁tonight 910
▁send 908
an 905
▁bit 904
▁control 903
▁everybody 898
▁true 898
▁aren 897
▁business 897
▁king 895
▁pay 893
p 891
▁different 890
▁deal 889
▁school 889
▁1 888
▁least 888
▁2 885
▁fight 885
▁cut 883
▁later 883
▁sit 883
▁story 881
▁c 880
▁makes 880
▁forget 878
▁kids 876
▁making 876
▁point 875
▁times 875
▁em 874
▁game 874
▁worry 873
▁lord 872
▁died 871
▁ain 870
▁easy 868
▁k 867
▁waiting 867
▁break 866
▁mine 866
▁between 863
▁question 858
▁um 858
▁s 857
▁brought 856
▁late 855
▁yours 854
it 847
▁telling 842
▁island 839
▁wish 835
▁sleep 834
▁reason 833
▁high 831
u 830
▁crazy 830
▁met 830
▁child 827
▁probably 826
▁doctor 825
▁outside 825
▁having 824
▁t 823
▁eat 821
▁air 820
▁damn 820
b 817
k 817
▁minute 817
▁security 816
on 813
▁nobody 812
▁speak 812
▁against 811
▁beautiful 811
▁stuff 809
▁half 808
▁comes 803
▁shoot 803
▁walk 800
▁become 798
▁captain 798
▁clear 796
▁war 795
h 794
▁news 787
▁black 785
▁red 784
▁somebody 784
▁started 783
▁ma 782
▁months 782
▁able 780
▁gets 780
▁tried 780
▁moment 778
▁front 776
▁human 775
▁important 775
▁line 773
▁full 772
▁sent 772
▁o 768
th 761
▁special 755
▁light 753
▁read 752
▁six 752
▁lives 748
▁taken 746
▁running 745
▁cannot 744
▁uncle 744
▁girls 742
▁3 740
f 738
▁asking 735
▁married 735
▁stand 735
▁fun 733
▁u 732
▁m 730
▁quite 729
▁free 728
▁fast 725
▁though 725
▁cause 723
▁needs 720
▁shall 720
▁welcome 718
▁pick 716
▁michael 715
▁scared 715
▁drink 710
▁lose 710
▁million 710
▁catch 708
▁either 708
▁anymore 707
▁almost 703
▁week 703
▁seems 700
▁town 700
▁goes 698
▁party 698
▁answer 695
n 694
▁n 694
▁pull 686
▁dear 685
▁follow 685
▁promise 679
▁past 677
▁touch 676
▁ass 675
▁train 675
▁trouble 673
▁afraid 671
g 669
▁country 669
▁till 669
is 668
le 668
▁others 667
▁leaving 664
▁young 664
▁dude 663
ation 661
▁husband 661
▁anyway 660
▁eye 660
▁plane 658
ie 657
r 654
▁office 654
▁children 650
ar 649
en 649
▁earth 648
▁small 647
▁drive 645
▁dog 642
man 640
▁5 636
▁company 635
ate 634
▁entire 634
▁order 633
▁g 632
▁alright 630
or 629
▁along 629
▁couple 629
ic 627
▁/ 625
▁system 625
▁miles 623
▁cool 622
▁boys 620
▁boss 619
▁shouldn 615
at 613
▁feeling 612
▁hour 612
▁book 611
▁step 610
▁happens 607
▁parents 606
us 605
▁f 603
▁given 603
▁ten 600
▁protect 599
▁ahead 598
▁hospital 593
▁possible 593
▁lady 591
▁rs 590
you 589
▁mistake 589
▁agent 588
▁excuse 588
▁drop 587
▁sam 586
▁ship 585
▁* 584
▁calling 584
▁20 581
▁stupid 581
▁sound 580
▁sun 580
▁un 580
▁4 579
▁y 578
▁station 577
▁building 576
▁living 576
▁boat 571
▁lie 570
▁bomb 568
▁ha 568
w 566
▁hot 566
able 565
▁land 565
▁sometimes 563
▁win 563
▁dream 559
▁himself 558
▁moving 557
ha 556
▁figure 556
▁return 556
▁ah 555
▁secret 555
os 554
▁honey 554
▁bar 553
▁master 552
▁information 551
▁top 550
▁marriage 548
▁white 548
▁future 546
▁playing 543
v 542
▁bag 542
▁bitch 541
▁fact 540
▁hate 540
▁j 540
▁$ 538
▁known 536
▁sounds 535
▁daddy 534
▁e 532
▁hang 532
▁state 530
▁v 530
▁fall 529
▁whoa 529
▁caught 528
▁funny 528
▁r 524
as 523
up 523
▁dark 521
▁sweet 521
▁clark 520
▁anybody 519
▁road 518
▁clean 516
▁learn 515
▁choice 514
▁sign 514
▁attack 513
he 511
▁bed 511
▁somewhere 511
▁weeks 511
ated 508
ies 507
▁saved 506
▁seem 506
▁cell 505
▁needed 504
▁buy 503
▁report 503
▁fix 502
▁perfect 502
st 500
▁sick 499
▁_ 497
▁12 496
▁giving 496
est 495
▁.... 495
▁happening 492
▁ground 489
▁luck 489
▁st 489
▁meeting 488
▁wake 487
▁street 486
▁using 485
▁alex 483
▁sense 483
▁words 483
▁feet 482
▁missing 482
▁worth 482
▁code 481
▁finally 481
and 480
▁born 479
▁explain 479
▁charlie 478
▁bank 476
▁careful 476
▁questions 476
▁30 475
▁lucky 474
▁seeing 474
▁buddy 472
▁mission 472
to 470
▁beat 470
▁piece 469
▁watching 469
▁less 468
▁works 468
▁army 467
▁worked 467
▁cover 465
ant 464
et 464
z 464
▁kitt 464
ia 462
▁kept 462
▁finish 461
▁fear 459
▁within 459
▁fly 458
▁hair 458
▁ones 457
▁7 456
▁ben 456
▁15 455
▁longer 455
▁straight 452
▁calm 451
▁changed 451
▁middle 451
▁sort 451
▁fish 450
▁officer 450
▁hero 449
▁mad 449
▁weren 448
▁government 447
▁dangerous 446
▁re 445
▁president 444
▁ran 444
ity 442
▁takes 442
▁message 441
▁w 441
▁hide 440
▁law 440
▁murder 440
▁wall 440
▁contact 438
▁flight 438
▁bet 437
▁killing 437
▁anywhere 436
▁pain 436
j 435
▁honor 435
▁instead 435
▁perhaps 435
▁mrs 434
ating 433
▁mike 432
▁throw 431
▁hurry 430
▁meant 430
il 428
▁act 428
▁star 428
▁dance 427
▁general 426
▁6 425
▁respect 425
▁short 424
▁turned 424
▁felt 423
▁weapon 423
▁dinner 422
▁wow 421
▁accident 420
▁during 419
▁north 419
▁handle 418
▁single 418
▁lead 416
▁test 416
▁wedding 416
ent 415
law 415
▁evidence 415
▁marry 415
▁village 415
▁none 414
▁seconds 414
ad 412
▁across 412
▁blue 412
▁slow 412
▁smart 412
▁; 411
▁force 410
▁south 410
ine 408
▁camp 407
▁level 407
▁quiet 407
▁serious 407
▁seven 407
▁picture 406
▁100 405
▁wear 403
▁queen 402
▁cop 401
▁worried 401
▁blow 400
▁coffee 400
▁fault 399
▁lying 399
▁following 398
▁sp 398
▁date 397
▁weird 397
▁unless 396
▁loved 395
▁space 395
▁strong 395
ter 393
▁class 393
▁planet 393
▁position 393
▁signal 392
▁kate 391
ive 390
▁area 390
▁brain 390
▁count 390
▁project 390
▁standing 390
▁near 389
▁paid 388
▁pass 388
▁reach 388
▁key 387
▁stick 387
▁gift 386
▁papa 386
ch 385
▁ice 384
▁share 383
▁bye 382
▁gentlemen 382
▁women 382
▁bear 381
▁idiot 381
▁stopped 381
ist 380
▁box 379
▁broke 379
▁eight 379
▁gold 379
▁situation 379
ling 378
▁truck 378
▁rock 377
▁cl 376
▁fool 376
▁cops 375
▁de 375
▁forever 375
▁mess 375
▁ 374
▁computer 374
▁voice 374
el 373
▁cold 373
ri 372
▁field 372
▁looked 372
▁public 372
▁birthday 371
▁mark 371
ions 370
ur 369
▁hotel 369
▁mouth 369
▁per 369
▁decided 368
▁missed 368
▁sitting 368
▁target 368
ment 367
▁escape 365
▁glad 365
▁ride 365
▁sea 365
▁service 365
▁track 365
the 364
▁50 364
▁00 363
▁deep 363
▁built 362
▁quick 362
hi 361
▁peace 361
▁ring 361
▁grab 360
▁imagine 360
▁thinks 360
▁worse 359
ors 358
▁history 358
▁age 357
▁wonder 357
led 356
▁lock 356
▁simple 356
um 355
▁list 355
▁hasn 354
▁poor 354
▁program 354
▁cross 353
▁ladies 353
▁board 352
▁swear 352
▁crime 351
▁department 351
▁forward 351
▁yesterday 351
▁court 350
▁guns 350
▁personal 350
ian 349
▁radio 349
▁magic 348
▁teach 347
▁completely 346
ot 345
▁tree 345
▁fl 344
▁floor 344
▁india 344
ah 343
▁attention 343
▁whether 343
▁bird 342
▁cash 342
▁support 342
▁calls 341
x 340
▁hundred 340
▁rather 340
& 339
▁frank 339
▁push 339
▁rules 339
▁fbi 338
▁join 337
▁super 337
id 336
▁ball 336
▁spent 336
cause 335
▁kiss 335
▁month 335
▁risk 335
▁low 334
▁bloody 333
▁suit 333
▁% 332
▁ya 332
ings 331
what 331
▁busy 331
▁relax 331
▁sarah 331
▁van 331
les 330
▁address 330
▁quickly 330
▁strange 330
all 329
▁college 329
▁grandpa 329
▁paper 329
▁steal 329
▁h 328
▁early 326
▁race 326
▁al 325
▁angry 325
▁fighting 325
▁expect 324
▁green 324
▁normal 324
▁sell 324
▁forgot 323
▁music 323
▁prison 323
▁spend 323
▁york 323
▁8 322
▁carry 322
▁claire 322
▁locked 322
▁speed 322
ion 321
▁camera 321
▁charles 321
▁command 321
▁forgive 321
▁match 321
ro 320
▁numbers 320
▁write 320
▁build 319
▁wearing 319
▁definitely 318
▁hunt 318
one 317
▁fair 317
▁language 317
▁orders 317
▁broken 316
▁movie 316
ut 315
▁dare 315
▁difference 315
▁search 315
▁enemy 314
ra 313
▁bus 313
▁clothes 313
▁machine 313
▁prove 313
▁ms 312
▁immediately 311
▁proud 311
▁z 311
▁cooper 310
▁destroy 310
▁offer 310
▁se 310
▁amazing 309
▁heading 309
om 308
▁beach 308
▁evening 308
▁except 308
▁river 308
ol 307
ab 306
▁crash 306
▁fell 306
▁form 306
ig 305
▁jump 305
▁talked 305
▁walking 305
▁certain 304
▁third 304
▁dying 303
▁research 303
▁access 302
▁group 302
ass 301
▁accept 301
▁ear 301
▁sad 301
▁grand 300
▁kick 300
▁woods 300
▁card 299
▁leg 299
▁professor 299
▁due 298
▁nine 298
ry 297
▁co 297
▁survive 297
▁bill 296
▁decision 296
ish 295
▁grow 295
▁private 295
▁stuck 294
▁table 294
▁tv 294
op 293
▁11 293
▁charge 293
▁jesus 293
▁whose 293
▁chief 292
▁closed 292
▁memory 292
▁minister 292
▁present 292
▁seat 292
▁training 292
▁con 291
▁hole 291
▁doubt 290
▁foot 290
▁sky 290
ens 289
that 289
▁el 289
▁jail 289
se 288
▁evil 288
▁lab 288
▁enjoy 287
▁princess 287
ac 286
less 286
▁peter 286
▁emergency 285
▁james 285
▁– 285
no 284
▁rich 284
▁weapons 284
▁burn 283
▁feels 283
▁sl 283
▁9 282
▁danger 282
▁figured 282
▁lt 282
▁difficult 281
▁ex 281
▁hiding 281
▁sayid 281
▁soul 281
▁spot 281
▁medical 280
▁smell 280
ations 279
▁complete 279
▁innocent 279
▁killer 279
▁names 279
▁copy 278
▁further 278
▁american 277
▁east 277
▁helping 277
▁suppose 277
ak 276
▁main 276
▁13 275
▁loves 275
▁military 275
▁named 275
▁national 275
▁blind 274
▁closer 274
▁dreams 274
▁guard 274
▁impossible 274
▁self 274
▁speaking 274
▁totally 274
▁bro 273
▁faster 273
▁major 273
▁visit 273
▁24 272
▁base 272
▁gate 272
▁lex 272
▁locke 272
▁unit 272
▁whoever 272
ag 271
out 271
▁everywhere 271
▁staff 271
▁stole 271
▁wild 271
▁crew 270
▁gang 270
▁shop 270
▁animals 269
▁holding 269
▁temple 269
▁tight 269
▁west 269
▁detective 268
▁duty 268
▁joe 268
▁moon 268
▁waste 268
▁cars 267
▁realize 267
▁scene 267
▁tom 267
▁towards 267
un 266
▁cost 266
▁location 266
▁choose 265
▁hmm 265
▁putting 265
▁upon 265
▁video 265
▁40 264
▁driving 264
▁harry 264
▁madam 264
▁seriously 264
ard 263
ous 263
▁arrest 263
▁became 263
▁director 263
▁lived 263
im 262
▁appreciate 262
▁bell 262
▁beyond 262
▁itself 262
▁problems 262
▁begin 261
▁jungle 261
▁martin 261
▁thousand 261
ful 260
▁gives 260
▁interested 260
▁le 260
▁goddamn 259
▁pre 259
▁storm 259
▁sub 259
▁barry 258
▁safety 258
▁aaron 257
▁keeping 257
▁path 257
▁promised 257
▁absolutely 256
▁according 256
▁agree 256
▁film 256
▁passed 256
▁starting 256
▁bigger 255
▁fresh 255
ts 254
▁account 253
▁london 253
▁often 253
▁prince 253
▁tea 253
be 252
ics 252
we 252
▁above 252
▁english 252
▁file 252
▁leader 252
▁mommy 252
▁lovely 251
▁terrible 251
▁listening 250
▁post 250
▁tired 250
ness 249
ons 249
▁bullet 249
▁feed 249
▁final 249
▁pulled 249
ge 248
▁battle 248
▁driver 248
▁nor 248
▁owe 248
▁surprise 248
▁tough 248
▁decide 247
▁dress 247
▁goodbye 247
▁helped 247
▁losing 247
▁mate 247
▁sing 247
▁sword 247
▁america 246
▁breath 246
▁finished 246
▁grace 246
▁involved 246
▁officers 246
▁property 246
▁sw 246
▁wind 246
▁cat 245
▁picked 245
ets 244
▁arm 244
▁keys 244
▁huge 243
▁kidding 243
▁song 243
▁travel 243
ir 242
▁arms 242
▁flying 242
▁mar 242
▁price 242
ang 241
▁destroyed 241
▁neck 241
▁record 241
▁vehicle 241
▁-- 240
▁action 240
▁ad 240
▁darling 240
▁otherwise 240
▁pack 240
▁sight 240
▁window 240
ars 239
▁common 239
▁liked 239
▁sleeping 239
▁gas 238
ma 237
ty 237
▁data 237
▁eating 237
▁strength 237
ans 236
▁25 236
▁bob 236
▁knowing 236
▁park 236
▁planning 236
▁pop 236
▁raise 236
ary 235
▁ar 235
▁birds 235
▁girlfriend 235
▁hank 235
▁plans 235
▁ways 235
ay 234
▁hungry 234
▁smile 234
▁trip 234
age 233
▁continue 233
▁flash 233
▁max 233
▁neither 233
▁powerful 233
▁rat 233
▁total 233
▁hadn 232
▁hearing 232
▁imp 232
▁jake 232
▁sweetheart 232
▁twice 232
▁allow 231
▁apart 231
▁් 231
▁lied 230
oc 229
▁showed 229
▁study 229
▁teacher 229
▁wonderful 229
▁consider 228
▁earlier 228
▁joke 228
▁judge 228
▁leaves 228
▁switch 228
▁asshole 227
▁books 227
▁dick 227
▁keeps 227
▁lunch 227
▁rain 227
▁responsible 227
▁thief 227
ates 226
▁knife 226
▁obviously 226
▁sake 226
▁worst 225
od 224
▁airport 224
▁fat 224
▁sheriff 224
▁skin 224
als 223
ap 223
na 223
▁beginning 223
▁fate 223
▁heads 223
▁places 223
▁pressure 223
▁secure 223
▁usually 223
▁witness 223
ting 222
▁cry 222
▁david 222
▁drunk 222
▁justice 222
▁letter 222
▁non 222
▁simon 222
▁suspect 222
▁taught 222
▁brave 221
▁created 221
▁energy 221
▁learned 221
▁pl 221
▁press 221
▁qu 221
ai 220
▁16 220
▁breathe 220
▁kingdom 220
▁lay 220
▁likes 220
▁pe 220
▁roll 220
▁rule 220
▁correct 219
▁headed 219
▁relationship 219
han 218
▁acting 218
▁allowed 218
▁double 218
▁horse 218
▁moved 218
▁nature 218
▁powers 218
2 217
oo 217
▁apartment 217
▁condition 217
▁cup 217
▁followed 217
▁la 217
▁states 217
▁tower 217
its 216
▁doors 216
▁held 216
▁besides 215
▁boyfriend 215
▁clearly 215
▁dumb 215
▁round 215
▁themselves 215
▁ch 214
▁delhi 214
▁favor 214
▁fit 214
▁gr 214
▁hoping 214
▁lift 214
▁partner 214
▁site 214
▁virus 214
ul 213
▁animal 213
▁faith 213
▁mama 213
▁map 213
▁ourselves 213
▁pleasure 213
▁sold 213
ally 212
ure 212
▁arrived 212
▁create 212
▁dis 212
▁experience 212
▁however 212
▁mountain 212
▁believed 211
▁lana 211
▁patient 211
▁sh 211
ee 210
ik 210
▁# 210
▁bought 210
▁brothers 210
▁extra 210
▁failed 210
▁financial 210
▁photo 210
▁quit 210
▁turns 210
▁connection 209
▁honest 209
▁interest 209
▁mm 209
▁science 209
ance 208
ier 208
ized 208
mon 208
▁fake 208
▁interesting 208
▁local 208
▁opportunity 208
ber 207
▁aunt 207
▁br 207
▁bunch 207
▁chicken 207
▁corner 207
▁crap 207
▁jenny 207
▁lies 207
▁market 207
▁reading 207
▁roof 207
▁route 207
▁several 207
▁snow 207
▁stars 207
▁upset 207
▁weak 207
her 206
▁block 206
▁cook 206
▁favorite 206
▁forest 206
▁lawyer 206
▁shooting 206
▁art 205
▁bo 205
▁cia 205
▁fan 205
▁glass 205
▁note 205
▁rahul 205
▁remain 205
▁destiny 204
▁empty 204
▁freedom 204
▁purpose 204
▁type 204
▁walt 204
ters 203
▁cr 203
▁ls 203
▁nose 203
▁serve 203
▁strike 203
time 202
▁focus 202
▁har 202
▁monster 202
▁smoke 202
▁stolen 202
ce 201
▁giant 201
▁large 201
▁necessary 201
▁christ 200
▁jane 200
▁pal 200
▁reached 200
▁saving 200
▁shoes 200
▁suggest 200
ne 199
▁18 199
▁among 199
▁breaking 199
▁bullshit 199
▁commander 199
▁doc 199
▁en 199
▁greatest 199
▁mis 199
▁ocean 199
▁sex 199
▁shaw 199
▁tells 199
▁watson 199
▁yo 199
▁center 198
▁ends 198
▁files 198
▁finding 198
▁games 198
▁murdered 198
▁sc 198
▁store 198
ments 197
▁ed 197
▁khan 197
▁knock 197
▁realized 197
▁willing 197
ou 196
ver 196
▁bl 196
▁church 196
▁details 196
▁gotten 196
ger 195
▁cute 195
▁fill 195
▁humans 195
▁ra 195
▁raj 195
▁staying 195
▁stone 195
▁communication 194
▁deserve 194
▁fr 194
▁meters 194
▁ours 194
▁played 194
▁progress 194
▁sergeant 194
ler 193
▁answers 193
▁breakfast 193
▁pilot 193
▁rob 193
▁su 193
▁united 193
5 192
av 192
men 192
▁14 192
▁advice 192
▁bathroom 192
▁drug 192
▁engine 192
▁fellow 192
▁intelligence 192
▁mo 192
▁suddenly 192
me 191
▁17 191
▁dollars 191
▁dry 191
▁hall 191
▁lake 191
▁somehow 191
▁trees 191
ow 190
▁bodies 190
▁operation 190
▁po 190
▁written 190
▁exist 189
▁prepare 189
▁spare 189
▁sri 189
▁wondering 189
are 188
ham 188
ite 188
ya 188
▁development 188
▁especially 188
▁raised 188
▁teeth 188
▁terrorist 188
▁tr 188
if 187
ins 187
old 187
▁attacked 187
▁fail 187
▁fixed 187
▁subject 187
▁ticket 187
▁yöur 187
▁19 186
▁afternoon 186
▁hatch 186
▁letting 186
▁recognize 186
▁weight 186
▁wrote 186
` 185
ade 185
aw 185
ps 185
▁below 185
▁drugs 185
▁er 185
▁journey 185
▁original 185
▁proof 185
▁summer 185
go 184
▁aware 184
▁birth 184
▁bottom 184
▁hurley 184
▁jason 184
▁lights 184
▁starts 184
▁thousands 184
ged 183
my 183
▁amount 183
▁conversation 183
▁french 183
▁henry 183
▁yellow 183
ize 182
land 182
▁bridge 182
▁central 182
▁dan 182
▁ghost 182
▁holy 182
▁ooh 182
▁spoke 182
▁surprised 182
▁technology 182
ious 181
▁beauty 181
▁blame 181
▁genius 181
▁grandma 181
▁issue 181
▁matters 181
▁understood 181
▁warm 181
▁belong 180
▁draw 180
▁dropped 180
▁mask 180
▁milk 180
▁plant 180
▁rid 180
▁sending 180
▁x 180
▁damage 179
▁dirty 179
▁id 179
▁kevin 179
▁papers 179
▁received 179
▁repeat 179
▁sawyer 179
ms 178
▁client 178
▁club 178
▁feelings 178
▁heavy 178
▁johnny 178
▁nowhere 178
▁prepared 178
▁sha 178
▁dogs 177
▁fuel 177
▁loose 177
▁loss 177
▁mention 177
▁natural 177
▁par 177
▁punch 177
▁request 177
▁rescue 177
▁taste 177
6 176
em 176
ke 176
of 176
▁anna 176
▁comp 176
▁emily 176
▁gods 176
▁hat 176
▁pat 176
▁remind 176
▁richard 176
▁whom 176
4 175
ton 175
▁def 175
▁drinking 175
▁nearly 175
▁official 175
▁view 175
ator 174
ical 174
son 174
▁certainly 174
▁fred 174
▁harm 174
▁lots 174
▁mum 174
▁pictures 174
▁roger 174
▁stories 174
▁upstairs 174
▁warrior 174
au 173
▁beer 173
▁bringing 173
▁eh 173
▁finger 173
▁hidden 173
▁process 173
▁sa 173
▁♫ 173
ches 172
▁bother 172
▁legs 172
▁mal 172
▁suicide 172
▁walked 172
ted 171
▁band 171
▁criminal 171
▁easier 171
▁guest 171
▁memories 171
▁millions 171
▁mmm 171
▁rep 171
▁review 171
▁ur 171
ose 170
▁che 170
▁chloe 170
▁ears 170
▁eddie 170
▁opened 170
ain 169
ial 169
qu 169
red 169
year 169
▁biggest 169
▁cow 169
▁disappeared 169
▁percent 169
▁prem 169
▁runs 169
our 168
▁agreed 168
▁apparently 168
▁crying 168
▁gl 168
▁inspector 168
▁inter 168
▁knowledge 168
▁searching 168
▁spirit 168
▁stage 168
ip 167
▁barely 167
▁british 167
▁contract 167
▁directly 167
▁ho 167
▁including 167
▁kitchen 167
▁notice 167
▁raju 167
▁scott 167
▁social 167
ice 166
li 166
ys 166
▁billy 166
▁covered 166
▁daniel 166
▁dig 166
▁dont 166
▁fired 166
▁hunting 166
▁jim 166
▁pants 166
▁rose 166
▁sand 166
▁sees 166
▁shows 166
▁size 166
▁warning 166
way 165
▁2012 165
▁bat 165
▁laughing 165
▁pieces 165
▁sal 165
▁steps 165
▁threat 165
io 164
▁500 164
▁buried 164
▁cole 164
▁hired 164
▁onto 164
▁permission 164
▁responsibility 164
▁trap 164
▁walls 164
▁whenever 164
ner 163
▁admit 163
▁bastard 163
▁dev 163
▁enter 163
▁members 163
▁priya 163
▁records 163
▁shame 163
▁source 163
▁surveillance 163
▁value 163
▁zero 163
amp 162
res 162
▁apologize 162
▁assume 162
▁awesome 162
▁belongs 162
▁button 162
▁easily 162
▁falling 162
▁famous 162
▁jay 162
▁noticed 162
▁truly 162
▁victim 162
ically 161
ud 161
▁brand 161
▁dna 161
▁herself 161
▁lo 161
▁nation 161
▁priest 161
▁ro 161
▁robot 161
ley 160
▁60 160
▁battery 160
▁bella 160
▁cameras 160
▁freak 160
▁pocket 160
▁shirt 160
▁tail 160
▁tie 160
▁tiny 160
▁twenty 160
▁although 159
▁appears 159
▁device 159
▁heat 159
▁media 159
▁trigger 159
▁turning 159
1 158
3 158
la 158
▁ab 158
▁filled 158
▁fund 158
▁inform 158
▁nonsense 158
▁points 158
▁soldier 158
▁thomas 158
ves 157
▁aw 157
▁bottle 157
▁flowers 157
▁pet 157
▁trade 157
▁checked 156
▁climb 156
▁disappear 156
▁former 156
▁guards 156
▁heaven 156
▁hugo 156
▁joy 156
▁laugh 156
▁meaning 156
▁pr 156
▁spread 156
▁theory 156
ana 155
bye 155
ile 155
per 155
▁color 155
▁defense 155
▁distance 155
▁escaped 155
▁nick 155
▁ram 155
▁silly 155
te 154
ue 154
▁add 154
▁division 154
▁event 154
▁excited 154
▁insane 154
▁simply 154
▁sn 154
▁swim 154
▁assistant 153
▁based 153
▁cases 153
▁di 153
▁ended 153
▁recently 153
▁remove 153
▁showing 153
▁spy 153
▁survived 153
00 152
▁chain 152
▁dragon 152
▁fairy 152
▁higher 152
▁led 152
▁loud 152
▁oil 152
▁painting 152
▁rec 152
▁secrets 152
▁singh 152
▁wet 152
▁wherever 152
by 151
▁200 151
▁crack 151
▁duke 151
▁enemies 151
▁familiar 151
▁finds 151
▁flat 151
▁folks 151
▁nervous 151
▁settle 151
▁soldiers 151
▁stock 151
▁systems 151
▁ted 151
▁units 151
▁wayne 151
ched 150
dy 150
end 150
ina 150
▁arrested 150
▁bite 150
▁brings 150
▁chef 150
▁clock 150
▁convince 150
▁fucked 150
▁grandfather 150
▁license 150
▁mac 150
▁plenty 150
▁results 150
▁season 150
▁stayed 150
▁sweetie 150
▁universe 150
▁victims 150
de 149
ob 149
ore 149
ta 149
▁blew 149
▁concerned 149
▁congratulations 149
▁george 149
▁hanging 149
▁holmes 149
▁indian 149
▁marks 149
▁paying 149
▁possibly 149
▁tony 149
▁traffic 149
▁ty 149
ered 148
ise 148
ism 148
▁colonel 148
▁dec 148
▁incident 148
▁ind 148
▁lets 148
▁services 148
just 147
▁anger 147
▁direct 147
▁expected 147
▁iron 147
▁release 147
▁shock 147
▁trained 147
ake 146
ong 146
é 146
▁capable 146
▁dam 146
▁discuss 146
▁investigation 146
▁pregnant 146
▁remote 146
▁russian 146
▁sin 146
ering 145
ls 145
ning 145
oh 145
so 145
▁ana 145
▁armed 145
▁aside 145
▁credit 145
▁deliver 145
▁dies 145
▁mu 145
▁outta 145
▁paris 145
▁spell 145
▁students 145
▁surface 145
ck 144
ging 144
▁agents 144
▁avoid 144
▁bu 144
▁cards 144
▁chest 144
▁equipment 144
▁monkey 144
▁motherfucker 144
▁moves 144
▁seemed 144
7 143
ide 143
ill 143
ven 143
▁africa 143
▁carrying 143
▁castle 143
▁cave 143
▁chose 143
▁direction 143
▁exact 143
▁fully 143
▁ins 143
▁kidnapped 143
▁screw 143
▁yaar 143
get 142
ying 142
▁bee 142
▁ethan 142
▁faces 142
▁forgotten 142
▁loan 142
▁lower 142
▁mumbai 142
▁nuclear 142
▁pen 142
▁ralph 142
▁ri 142
▁shh 142
▁trick 142
ug 141
▁apple 141
▁council 141
▁counter 141
▁member 141
▁online 141
▁soft 141
▁species 141
▁steve 141
▁tall 141
▁tape 141
▁trapped 141
▁victor 141
this 140
▁breathing 140
▁cousin 140
▁doctors 140
▁forced 140
▁helicopter 140
▁hitting 140
▁medicine 140
▁range 140
▁reports 140
▁supply 140
▁surely 140
▁th 140
▁tracking 140
ks 139
▁balls 139
▁chair 139
▁community 139
▁curse 139
▁grown 139
▁junior 139
▁li 139
▁mary 139
▁personally 139
▁plus 139
▁rancho 139
▁shadow 139
▁split 139
▁staring 139
▁transfer 139
▁tunnel 139
▁walter 139
let 138
ures 138
▁appear 138
▁attempt 138
▁available 138
▁bones 138
▁cab 138
▁chappie 138
▁chi 138
▁devil 138
▁fuckin 138
▁juliet 138
▁june 138
▁metal 138
▁shake 138
▁tickets 138
▁treat 138
ping 137
▁bow 137
▁da 137
▁gray 137
▁parts 137
▁penny 137
▁pray 137
▁programme 137
▁pulling 137
▁ryan 137
▁student 137
▁useless 137
hes 136
ub 136
▁deck 136
▁desert 136
▁guilty 136
▁liar 136
▁oliver 136
▁ridiculous 136
▁sacrifice 136
▁winter 136
ack 135
ala 135
ory 135
▁balance 135
▁bike 135
▁courage 135
▁female 135
▁income 135
▁male 135
▁parking 135
▁pro 135
▁result 135
▁returned 135
▁section 135
▁solve 135
ants 134
ats 134
ified 134
ld 134
ned 134
▁changes 134
▁closing 134
▁dressed 134
▁egg 134
▁expecting 134
▁fallen 134
▁footage 134
▁gear 134
▁grid 134
▁gu 134
▁indeed 134
▁lines 134
▁ray 134
▁reasons 134
▁revenge 134
▁thoughts 134
▁throat 134
ible 133
ition 133
ris 133
▁chinese 133
▁cream 133
▁exit 133
▁fort 133
▁handsome 133
▁ill 133
▁kent 133
▁opening 133
▁owner 133
▁prime 133
▁robert 133
▁rocks 133
▁weather 133
,000 132
8 132
do 132
gu 132
ini 132
▁22 132
▁cap 132
▁families 132
▁federal 132
▁highly 132
▁launch 132
▁likely 132
▁mentioned 132
▁mill 132
▁ow 132
▁pee 132
▁performance 132
▁period 132
▁sat 132
▁smells 132
▁uniform 132
▁wise 132
ail 131
iv 131
▁23 131
▁bright 131
▁facility 131
▁interview 131
▁jin 131
▁kinda 131
▁mile 131
▁oxygen 131
▁pit 131
▁planned 131
▁reality 131
▁rome 131
▁sooner 131
▁tech 131
▁threw 131
ised 130
off 130
ust 130
ved 130
▁alaska 130
▁brilliant 130
▁bucks 130
▁den 130
▁exchange 130
▁garden 130
▁identity 130
▁min 130
▁mon 130
▁noise 130
▁opinion 130
▁picking 130
▁prefer 130
▁ruined 130
▁speech 130
▁terms 130
▁unfortunately 130
ane 129
ome 129
▁afford 129
▁annie 129
▁authority 129
▁carefully 129
▁christmas 129
▁connected 129
▁foreign 129
▁health 129
▁mass 129
▁mid 129
▁mood 129
▁ne 129
▁prisoner 129
▁scare 129
▁wire 129
▁ag 128
▁asleep 128
▁confirmed 128
▁dust 128
▁fought 128
▁movies 128
▁nights 128
▁palace 128
▁paul 128
▁pretend 128
▁streets 128
▁suck 128
▁veer 128
▁watched 128
int 127
ute 127
▁ancient 127
▁checking 127
▁eventually 127
▁fo 127
▁happiness 127
▁international 127
▁lover 127
▁majesty 127
▁norm 127
▁pri 127
▁protection 127
▁rush 127
▁sharp 127
▁vote 127
▁zoe 127
0 126
gh 126
line 126
▁ajay 126
▁bone 126
▁career 126
▁cells 126
▁designed 126
▁gri 126
▁knight 126
▁practice 126
▁satellite 126
▁society 126
▁tw 126
▁vision 126
ied 125
ited 125
ities 125
med 125
▁alien 125
▁char 125
▁coast 125
▁complicated 125
▁dancing 125
▁darkness 125
▁design 125
▁hook 125
▁illegal 125
▁jacob 125
▁jobs 125
▁leads 125
▁older 125
▁pool 125
▁rights 125
▁rohan 125
▁sec 125
▁stronger 125
▁talks 125
▁wine 125
-2 124
ath 124
head 124
hmm 124
ines 124
▁alert 124
▁aryan 124
▁aunty 124
▁aye 124
▁excellent 124
▁grew 124
▁jo 124
▁kicked 124
▁monroe 124
▁nah 124
▁san 124
▁shower 124
▁task 124
▁teddy 124
▁wallet 124
▁wood 124
▁¶ 124
ast 123
nd 123
▁azhar 123
▁beg 123
▁charlotte 123
▁desk 123
▁grade 123
▁issues 123
▁murph 123
▁option 123
▁selling 123
▁shots 123
ind 122
▁0 122
▁babe 122
▁bhai 122
▁billion 122
▁blast 122
▁cast 122
▁character 122
▁confused 122
▁fox 122
▁miracle 122
▁model 122
▁res 122
▁rise 122
▁royal 122
▁wash 122
▁wound 122
▁angel 121
▁ant 121
▁cart 121
▁farm 121
▁hardly 121
▁honestly 121
▁int 121
▁kills 121
▁legal 121
▁mirror 121
▁moments 121
▁port 121
▁provide 121
▁remains 121
▁und 121
▁warn 121
▁wing 121
ages 120
back 120
ess 120
how 120
ists 120
ured 120
▁committed 120
▁considered 120
▁depends 120
▁drinks 120
▁engineer 120
▁flower 120
▁heroes 120
▁mountains 120
▁properly 120
▁rough 120
▁sherlock 120
▁sol 120
▁tank 120
his 119
ians 119
ib 119
ka 119
own 119
▁alarm 119
▁bal 119
▁bobby 119
▁bur 119
▁education 119
▁extremely 119
▁fishing 119
▁funeral 119
▁hon 119
▁ideas 119
▁lanka 119
▁load 119
▁package 119
▁professional 119
▁proper 119
▁snake 119
▁taylor 119
▁thirty 119
▁tommy 119
▁tour 119
▁university 119
▁yep 119
▁ 119
ara 118
har 118
ok 118
▁americans 118
▁babies 118
▁bags 118
▁ban 118
▁beans 118
▁crowd 118
▁detail 118
▁forces 118
▁hundreds 118
▁introduce 118
▁style 118
▁tears 118
▁tests 118
▁tied 118
▁trail 118
▁yourselves 118
co 117
hed 117
house 117
va 117
▁42 117
▁advantage 117
▁allah 117
▁becoming 117
▁bury 117
▁corporation 117
▁effect 117
▁letters 117
▁lf 117
▁mall 117
▁nuts 117
▁precious 117
▁served 117
▁stopping 117
ell 116
king 116
yes 116
▁2011 116
▁ability 116
▁backup 116
▁cares 116
▁golden 116
▁hurts 116
▁lesson 116
▁nurse 116
▁particular 116
▁piss 116
▁positive 116
▁sean 116
▁skills 116
▁slowly 116
▁stark 116
▁status 116
▁stealing 116
▁tamil 116
▁treasure 116
▁youth 116
▁zone 116
9 115
don 115
itt 115
▁31 115
▁beast 115
▁bleeding 115
▁brown 115
▁changing 115
▁christian 115
▁crown 115
▁delivery 115
▁deputy 115
▁homes 115
▁landing 115
▁machines 115
▁odd 115
▁rare 115
▁regret 115
▁restaurant 115
▁seenu 115
▁spring 115
▁useful 115
▁velayudham 115
▁writing 115
-4 114
ama 114
ick 114
well 114
▁carl 114
▁chick 114
▁coward 114
▁example 114
▁expenditure 114
▁guts 114
▁identify 114
▁mud 114
▁murderer 114
▁ordered 114
▁tax 114
art 113
ash 113
but 113
ey 113
ium 113
▁bless 113
▁cake 113
▁chitti 113
▁entered 113
▁fruit 113
▁groom 113
▁metropolis 113
▁ministry 113
▁pa 113
▁paint 113
▁shoulder 113
▁sighs 113
▁sm 113
▁tracks 113
▁weekend 113
▁whitney 113
ren 112
▁21 112
▁burning 112
▁comfortable 112
▁confirm 112
▁eggsy 112
▁entirely 112
▁garage 112
▁lincoln 112
▁manager 112
▁page 112
▁policy 112
▁pure 112
▁screwed 112
▁tear 112
▁wheel 112
▁william 112
hip 111
oy 111
▁ac 111
▁approach 111
▁beating 111
▁blade 111
▁carried 111
▁celebrate 111
▁factory 111
▁liz 111
▁proceed 111
▁ranaviru 111
▁resources 111
▁singing 111
▁square 111
▁statement 111
▁tri 111
▁unique 111
aps 110
bs 110
che 110
▁300 110
▁ash 110
▁attend 110
▁cancer 110
▁collect 110
▁concern 110
▁current 110
▁district 110
▁growing 110
▁inc 110
▁managed 110
▁mister 110
▁pair 110
▁photos 110
▁pin 110
▁poison 110
▁roy 110
▁standard 110
▁torture 110
▁zoom 110
clock 109
fully 109
ov 109
ster 109
▁att 109
▁chosen 109
▁competition 109
▁earn 109
▁falls 109
▁fingers 109
▁friendship 109
▁management 109
▁motor 109
▁phones 109
▁physical 109
▁pia 109
▁protocol 109
▁regular 109
▁remembered 109
▁scar 109
▁someday 109
▁stood 109
▁success 109
▁unable 109
▁vault 109
iss 108
pe 108
▁bond 108
▁bull 108
▁claim 108
▁crashed 108
▁eggs 108
▁greater 108
▁kit 108
▁louis 108
▁manage 108
▁med 108
▁passing 108
▁programmes 108
▁rel 108
▁scary 108
▁separate 108
▁shift 108
▁te 108
▁tha 108
▁tiger 108
▁victory 108
ach 107
ius 107
ran 107
▁accounts 107
▁began 107
▁bullets 107
▁burned 107
▁century 107
▁chat 107
▁circle 107
▁core 107
▁cur 107
▁festival 107
▁fortune 107
▁greetings 107
▁jai 107
▁levels 107
▁mail 107
▁perfectly 107
▁ruin 107
▁secretary 107
▁setting 107
▁texas 107
▁touched 107
▁wide 107
bo 106
lo 106
▁aah 106
▁abandoned 106
▁convinced 106
▁dave 106
▁degrees 106
▁engaged 106
▁fifty 106
▁howard 106
▁joined 106
▁lands 106
▁potential 106
▁senior 106
▁transport 106
▁ugly 106
-1 105
ances 105
ari 105
not 105
og 105
ress 105
they 105
ving 105
▁behavior 105
▁bound 105
▁budget 105
▁cam 105
▁custody 105
▁dealing 105
▁dom 105
▁eric 105
▁harder 105
▁keen 105
▁link 105
▁negative 105
▁nia 105
▁obvious 105
▁offered 105
▁palmer 105
▁protecting 105
▁rachel 105
▁seal 105
▁signs 105
▁sim 105
▁waited 105
▁warned 105
ace 104
az 104
ink 104
izing 104
ort 104
sy 104
ze 104
▁90 104
▁aim 104
▁alice 104
▁becomes 104
▁belt 104
▁bombs 104
▁border 104
▁bruce 104
▁candy 104
▁chop 104
▁corn 104
▁creature 104
▁decisions 104
▁demon 104
▁expensive 104
▁explosion 104
▁grass 104
▁hearts 104
▁incredible 104
▁insurance 104
▁meal 104
▁naked 104
▁network 104
▁ordinary 104
▁rate 104
▁smallville 104
▁tar 104
▁trace 104
▁vishal 104
app 103
cha 103
ho 103
ming 103
▁agency 103
▁basically 103
▁cleared 103
▁clever 103
▁conference 103
▁dawn 103
▁decent 103
▁ja 103
▁literally 103
▁meat 103
▁screaming 103
▁signed 103
▁silver 103
▁str 103
▁survivors 103
▁wells 103
▁wings 103
ative 102
ble 102
ire 102
yeah 102
▁chopper 102
▁eagle 102
▁false 102
▁fore 102
▁lack 102
▁leading 102
▁medal 102
▁moriarty 102
▁pink 102
▁reddington 102
▁reg 102
▁stops 102
▁tattoo 102
▁tip 102
▁tongue 102
▁trusted 102
▁uday 102
▁wasting 102
▁wolf 102
ably 101
ci 101
ents 101
▁= 101
▁arctic 101
▁attitude 101
▁bedroom 101
▁borrow 101
▁buying 101
▁cabin 101
▁cargo 101
▁chip 101
▁coat 101
▁coincidence 101
▁crimes 101
▁degree 101
▁dump 101
▁dylan 101
▁entrance 101
▁friday 101
▁grant 101
▁guests 101
▁guide 101
▁internet 101
▁invited 101
▁karthik 101
▁laid 101
▁lam 101
▁passengers 101
▁pete 101
▁pig 101
▁profile 101
▁reward 101
▁role 101
▁shed 101
▁solution 101
▁sugar 101
▁whale 101
ost 100
ows 100
there 100
▁45 100
▁bi 100
▁boo 100
▁classified 100
▁drone 100
▁guarantee 100
▁heh 100
▁horrible 100
▁hum 100
▁jam 100
▁lately 100
▁mental 100
▁presence 100
▁receive 100
▁released 100
▁seek 100
▁studies 100
▁swing 100
▁trial 100
▁usual 100
▁vasu 100
br 99
ny 99
pp 99
ram 99
wood 99
▁andrew 99
▁awful 99
▁batman 99
▁betray 99
▁chess 99
▁china 99
▁engagement 99
▁fin 99
▁goa 99
▁logan 99
▁noble 99
▁pot 99
▁projects 99
▁related 99
▁screen 99
▁shape 99
▁sweat 99
▁witch 99
▁woke 99
ater 98
ence 98
hat 98
ored 98
uck 98
▁ate 98
▁bay 98
▁cent 98
▁chances 98
▁chasing 98
▁chaudhary 98
▁cleaning 98
▁desmond 98
▁developed 98
▁drag 98
▁du 98
▁england 98
▁expert 98
▁flesh 98
▁football 98
▁gather 98
▁gentleman 98
▁jacket 98
▁los 98
▁maya 98
▁messages 98
▁rupees 98
▁sons 98
▁stab 98
▁stairs 98
▁understanding 98
▁violence 98
con 97
ord 97
uring 97
▁actual 97
▁bang 97
▁brains 97
▁bride 97
▁charges 97
▁chuckles 97
▁defend 97
▁desperate 97
▁discovered 97
▁drill 97
▁failure 97
▁hunter 97
▁lakhs 97
▁lieutenant 97
▁mat 97
▁minds 97
▁missile 97
▁mostly 97
▁rem 97
▁scientist 97
▁shark 97
▁sisters 97
▁specific 97
▁sudden 97
▁survival 97
▁taxi 97
▁underground 97
▁wishes 97
▁} 97
ened 96
fe 96
hey 96
ify 96
vers 96
▁ambulance 96
▁arrive 96
▁arrow 96
▁cha 96
▁chicago 96
▁circumstances 96
▁crores 96
▁dar 96
▁dory 96
▁edge 96
▁grave 96
▁hits 96
▁internal 96
▁kelly 96
▁material 96
▁mer 96
▁pan 96
▁panic 96
▁perform 96
▁perimeter 96
▁phil 96
▁quest 96
▁rip 96
▁robbery 96
▁suffer 96
▁threatened 96
▁wat 96
ax 95
day 95
gs 95
ji 95
▁activities 95
▁andy 95
▁approaching 95
▁boom 95
▁boring 95
▁bust 95
▁chase 95
▁conditions 95
▁creatures 95
▁del 95
▁doin 95
▁dozen 95
▁fed 95
▁gravity 95
▁impact 95
▁joseph 95
▁laws 95
▁midnight 95
▁organization 95
▁print 95
▁row 95
▁rub 95
▁shown 95
▁sk 95
▁ver 95
▁victoria 95
▁waters 95
▁wh 95
▁{ 95
ase 94
ave 94
hand 94
mer 94
que 94
uk 94
▁70 94
▁arrange 94
▁brian 94
▁caused 94
▁childhood 94
▁combat 94
▁emperor 94
▁gay 94
▁grandmother 94
▁guessing 94
▁helps 94
▁hug 94
▁image 94
▁jones 94
▁operating 94
▁shield 94
▁stomach 94
▁sunday 94
▁violent 94
ators 93
da 93
ids 93
ky 93
over 93
ric 93
sh 93
▁26 93
▁ap 93
▁connie 93
▁counting 93
▁delay 93
▁dirt 93
▁erik 93
▁fancy 93
▁gar 93
▁ge 93
▁guru 93
▁hanna 93
▁ignore 93
▁lane 93
▁largest 93
▁nandu 93
▁navy 93
▁object 93
▁ought 93
▁plants 93
▁pounds 93
▁respond 93
▁riding 93
▁safely 93
▁shannon 93
▁shi 93
▁spider 93
▁suffering 93
▁susan 93
▁term 93
▁younger 93
ani 92
cl 92
nt 92
q 92
▁actions 92
▁active 92
▁agreement 92
▁app 92
▁artist 92
▁badly 92
▁betrayed 92
▁channel 92
▁chocolate 92
▁clue 92
▁commit 92
▁considering 92
▁digging 92
▁dive 92
▁drove 92
▁elevator 92
▁escort 92
▁existence 92
▁impressed 92
▁increase 92
▁jean 92
▁languages 92
▁lit 92
▁mobile 92
▁mystery 92
▁nemo 92
▁reverse 92
▁tele 92
▁toilet 92
▁unusual 92
▁valentine 92
▁valuable 92
▁vehicles 92
▁winning 92
ained 91
ali 91
chi 91
ery 91
ex 91
ots 91
use 91
▁accepted 91
▁advance 91
▁arthur 91
▁awake 91
▁ber 91
▁butter 91
▁challenge 91
▁col 91
▁comm 91
▁complex 91
▁criminals 91
▁curious 91
▁disp 91
▁goin 91
▁hindu 91
▁hurting 91
▁iris 91
▁josh 91
▁karen 91
▁laughs 91
▁lips 91
▁mars 91
▁monkeys 91
▁monsters 91
▁murders 91
▁plate 91
▁product 91
▁raft 91
▁scan 91
▁schedule 91
▁ships 91
▁sneak 91
▁squad 91
▁stays 91
▁stranger 91
▁surrender 91
▁text 91
▁wal 91
ank 90
cher 90
mp 90
ped 90
ph 90
pt 90
ual 90
uc 90
▁basement 90
▁cassie 90
▁citizens 90
▁construction 90
▁county 90
▁gene 90
▁harris 90
▁hostage 90
▁normally 90
▁pk 90
▁player 90
▁population 90
▁score 90
▁silent 90
▁stress 90
▁surrounded 90
▁visual 90
▁warrant 90
▁wil 90
five 89
ock 89
ray 89
▁bail 89
▁believes 89
▁cage 89
▁disc 89
▁effort 89
▁exp 89
▁express 89
▁function 89
▁habit 89
▁highest 89
▁horses 89
▁idiots 89
▁instructions 89
▁lucy 89
▁museum 89
▁pushing 89
▁required 89
▁safer 89
▁shashi 89
▁shelter 89
▁spoken 89
▁surgery 89
▁treatment 89
▁winner 89
gen 88
▁2014 88
▁authorities 88
▁ba 88
▁butt 88
▁capital 88
▁colony 88
▁commissioner 88
▁daily 88
▁december 88
▁dep 88
▁desire 88
▁everyday 88
▁firm 88
▁hop 88
▁horn 88
▁jumped 88
▁mexico 88
▁mistakes 88
▁scream 88
▁tag 88
▁talent 88
▁technically 88
▁tent 88
▁thin 88
▁valley 88
ards 87
atic 87
ff 87
ron 87
will 87
▁answering 87
▁assure 87
▁blu 87
▁chris 87
▁civil 87
▁disease 87
▁employees 87
▁events 87
▁flag 87
▁garbage 87
▁houses 87
▁loyal 87
▁mayor 87
▁nasty 87
▁offering 87
▁ref 87
▁sail 87
▁simran 87
▁steady 87
▁supplies 87
▁sur 87
▁tricks 87
▁trunk 87
aged 86
apping 86
can 86
els 86
ft 86
ges 86
ign 86
ney 86
pping 86
▁angeles 86
▁breach 86
▁cal 86
▁caves 86
▁conducted 86
▁despite 86
▁eaten 86
▁favour 86
▁franklin 86
▁gal 86
▁honour 86
▁odds 86
▁ph 86
▁rig 86
▁similar 86
▁steel 86
▁suits 86
▁throwing 86
▁trans 86
▁uns 86
▁wizard 86
ale 85
gr 85
ites 85
kar 85
lan 85
ology 85
ries 85
ring 85
side 85
▁activity 85
▁assassin 85
▁attacks 85
▁capitol 85
▁capture 85
▁chill 85
▁cisco 85
▁drama 85
▁embassy 85
▁engineering 85
▁extraordinary 85
▁hari 85
▁jealous 85
▁maintain 85
▁mil 85
▁modern 85
▁mor 85
▁personnel 85
▁prey 85
▁quarter 85
▁rad 85
▁random 85
▁removed 85
▁rent 85
▁returning 85
▁scofield 85
▁shouting 85
▁software 85
▁summit 85
▁suri 85
▁sydney 85
▁teaching 85
▁tick 85
▁treated 85
▁union 85
▁unknown 85
, 84
ino 84
lin 84
min 84
right 84
ull 84
your 84
▁beneath 84
▁continues 84
▁downstairs 84
▁ev 84
▁gain 84
▁hail 84
▁impressive 84
▁injured 84
▁inner 84
▁joking 84
▁lamp 84
▁learning 84
▁legend 84
▁limit 84
▁loaded 84
▁loving 84
▁luthor 84
▁mod 84
▁monday 84
▁nasa 84
▁pattern 84
▁pissed 84
▁puts 84
▁renu 84
▁rope 84
▁scent 84
▁vacation 84
▁ve 84
ung 83
▁aare 83
▁amy 83
▁anytime 83
▁background 83
▁beloved 83
▁blowing 83
▁brief 83
▁cheese 83
▁fil 83
▁gru 83
▁gut 83
▁hu 83
▁im 83
▁janet 83
▁miller 83
▁nest 83
▁prayers 83
▁rocket 83
▁roman 83
▁sed 83
▁slip 83
▁successful 83
▁washington 83
act 82
com 82
ends 82
here 82
ith 82
sa 82
▁80 82
▁ashes 82
▁begins 82
▁broad 82
▁chang 82
▁cock 82
▁collector 82
▁conf 82
▁documents 82
▁emotional 82
▁entering 82
▁gandalf 82
▁hill 82
▁infected 82
▁invite 82
▁jasmine 82
▁kapoor 82
▁library 82
▁moose 82
▁nina 82
▁ohh 82
▁passport 82
▁patrol 82
▁pooja 82
▁protected 82
▁romantic 82
▁sar 82
▁series 82
▁stri 82
▁touching 82
▁transferred 82
▁unc 82
▁yard 82
aring 81
ight 81
like 81
uri 81
▁achieve 81
▁alicia 81
▁buddha 81
▁caesar 81
▁cre 81
▁fantastic 81
▁fischer 81
▁freeze 81
▁hack 81
▁jan 81
▁latest 81
▁linda 81
▁lonely 81
▁neighborhood 81
▁patch 81
▁pizza 81
▁politics 81
▁roads 81
▁sentence 81
▁shy 81
▁thieves 81
▁toward 81
▁unt 81
▁wade 81
bed 80
ending 80
hh 80
hu 80
lic 80
who 80
▁ann 80
▁appointment 80
▁asks 80
▁beaten 80
▁cities 80
▁drones 80
▁empire 80
▁engines 80
▁experiment 80
▁kings 80
▁lightning 80
▁lion 80
▁located 80
▁march 80
▁nic 80
▁operations 80
▁pam 80
▁patience 80
▁popular 80
▁prize 80
▁recall 80
▁rev 80
▁rot 80
▁sample 80
▁saturday 80
▁sink 80
▁spending 80
▁squ 80
▁ta 80
▁tim 80
▁whore 80
▁wins 80
ark 79
ball 79
ching 79
ola 79
ues 79
val 79
work 79
▁aladin 79
▁alpha 79
▁amanda 79
▁blown 79
▁centre 79
▁cheap 79
▁cooking 79
▁cor 79
▁cy 79
▁divorce 79
▁dropping 79
▁fools 79
▁heal 79
▁intend 79
▁invisible 79
▁lad 79
▁pad 79
▁pills 79
▁quietly 79
▁rescued 79
▁sara 79
▁slap 79
▁slave 79
▁souls 79
▁soup 79
▁statements 79
▁swimming 79
▁val 79
▁vegas 79
aking 78
ena 78
for 78
hal 78
ils 78
ired 78
iting 78
▁48 78
▁ali 78
▁alison 78
▁areas 78
▁assignment 78
▁audit 78
▁banks 78
▁boone 78
▁bread 78
▁bunny 78
▁bureau 78
▁chamber 78
▁compared 78
▁cond 78
▁connect 78
▁dealer 78
▁defeat 78
▁des 78
▁elizabeth 78
▁farhan 78
▁fighter 78
▁fourth 78
▁gen 78
▁ghosts 78
▁gifts 78
▁glasses 78
▁hostages 78
▁identified 78
▁jedi 78
▁marcus 78
▁movement 78
▁multiple 78
▁notes 78
▁outer 78
▁payment 78
▁political 78
▁ronnie 78
▁slept 78
▁thrown 78
▁wave 78
▁whi 78
▁wipe 78
▁~ 78
ont 77
pl 77
she 77
tering 77
▁alcohol 77
▁assets 77
▁attorney 77
▁berlin 77
▁cheating 77
▁chennai 77
▁click 77
▁crossed 77
▁demons 77
▁destruction 77
▁effective 77
▁freaking 77
▁friendly 77
▁grateful 77
▁highway 77
▁intel 77
▁ke 77
▁kn 77
▁limits 77
▁mag 77
▁marine 77
▁mi 77
▁nash 77
▁options 77
▁percy 77
▁prevent 77
▁production 77
▁q 77
▁quality 77
▁raid 77
▁rude 77
▁shell 77
▁sting 77
▁transmission 77
▁wounded 77
air 76
der 76
gers 76
istic 76
thi 76
wa 76
▁amongst 76
▁assistance 76
▁ast 76
▁costs 76
▁cure 76
▁currently 76
▁delivered 76
▁devi 76
▁dome 76
▁faraday 76
▁fifth 76
▁foolish 76
▁formal 76
▁generation 76
▁images 76
▁interrupt 76
▁inv 76
▁ir 76
▁johnson 76
▁landed 76
▁method 76
▁na 76
▁officially 76
▁organ 76
▁pride 76
▁profit 76
▁pushed 76
▁republic 76
▁ret 76
▁robbed 76
▁sealed 76
▁spotted 76
▁stake 76
▁stephen 76
▁sully 76
▁suspects 76
▁swan 76
▁targets 76
▁thunder 76
▁tor 76
▁woo 76
ati 75
board 75
ced 75
ding 75
ender 75
hy 75
ich 75
ju 75
ners 75
ru 75
▁amp 75
▁armor 75
▁ashamed 75
▁bait 75
▁basis 75
▁benefit 75
▁bernard 75
▁carter 75
▁casino 75
▁cats 75
▁clan 75
▁completed 75
▁contain 75
▁cutting 75
▁dating 75
▁donkey 75
▁entry 75
▁exam 75
▁fetch 75
▁fever 75
▁influence 75
▁invented 75
▁lauda 75
▁margaret 75
▁mehra 75
▁motion 75
▁mummy 75
▁oceanic 75
▁placed 75
▁rag 75
▁response 75
▁sana 75
▁sides 75
▁sober 75
▁vincent 75
ational 74
ones 74
▁28 74
▁affair 74
▁approval 74
▁australia 74
▁bane 74
▁baseball 74
▁bath 74
▁begun 74
▁bel 74
▁bri 74
▁captured 74
▁carrie 74
▁crush 74
▁demand 74
▁der 74
▁equal 74
▁facts 74
▁firing 74
▁genetic 74
▁glen 74
▁goodness 74
▁healthy 74
▁heir 74
▁highness 74
▁host 74
▁humanity 74
▁ip 74
▁iraq 74
▁jet 74
▁justin 74
▁liquor 74
▁mob 74
▁nightmare 74
▁pretending 74
▁refuse 74
▁repair 74
▁rounds 74
▁stations 74
▁stones 74
▁studied 74
▁studio 74
▁suspicious 74
▁symbol 74
▁tattoos 74
▁temperature 74
▁toast 74
▁toy 74
▁unlike 74
ades 73
lt 73
orn 73
▁32 73
▁actor 73
▁adventure 73
▁arranged 73
▁asset 73
▁bas 73
▁compound 73
▁database 73
▁earned 73
▁enjoying 73
▁ensure 73
▁exciting 73
▁gardens 73
▁german 73
▁grey 73
▁hire 73
▁hur 73
▁ji 73
▁mand 73
▁meantime 73
▁meteor 73
▁mot 73
▁nar 73
▁pintu 73
▁procedure 73
▁prop 73
▁religious 73
▁rogue 73
▁rolling 73
▁shoe 73
▁strangers 73
▁studying 73
▁teams 73
▁troops 73
▁twelve 73
▁visiting 73
▁warden 73
▁wasted 73
▁web 73
▁wi 73
▁widmore 73
cer 72
era 72
ily 72
ising 72
mm 72
mo 72
ret 72
ump 72
ush 72
▁35 72
▁abort 72
▁beings 72
▁blocks 72
▁breaks 72
▁cheat 72
▁choices 72
▁coach 72
▁coordinates 72
▁creating 72
▁cub 72
▁describe 72
▁develop 72
▁diamonds 72
▁drew 72
▁helmet 72
▁hoo 72
▁inf 72
▁keeper 72
▁knocked 72
▁lizzy 72
▁monitor 72
▁mustn 72
▁os 72
▁pardon 72
▁passion 72
▁previously 72
▁provided 72
▁radiation 72
▁ramona 72
▁require 72
▁requires 72
▁retired 72
▁sales 72
▁schools 72
▁scratch 72
▁shadows 72
▁spark 72
▁stubborn 72
▁sweets 72
▁tap 72
▁television 72
▁therefore 72
▁tuesday 72
▁ut 72
▁virgin 72
▁waves 72
▁’ 72
.5 71
ada 71
aj 71
aya 71
ga 71
ives 71
know 71
▁affairs 71
▁alexander 71
▁anthony 71
▁anti 71
▁basic 71
▁begging 71
▁bon 71
▁cancel 71
▁champion 71
▁comfort 71
▁cons 71
▁cursed 71
▁doug 71
▁easter 71
▁effects 71
▁elder 71
▁exercise 71
▁fleet 71
▁goddess 71
▁granny 71
▁hood 71
▁labs 71
▁leak 71
▁lisa 71
▁mel 71
▁messed 71
▁nephew 71
▁password 71
▁patients 71
▁possibility 71
▁raymond 71
▁reactor 71
▁refused 71
▁reveal 71
▁robots 71
▁rooms 71
▁russians 71
▁stat 71
▁stretch 71
▁tend 71
▁terror 71
▁undercover 71
▁wrap 71
acy 70
ene 70
mail 70
ope 70
ulate 70
▁anjali 70
▁beats 70
▁booth 70
▁comin 70
▁costume 70
▁danny 70
▁deer 70
▁ego 70
▁flood 70
▁hal 70
▁happily 70
▁helen 70
▁hung 70
▁imm 70
▁jaikant 70
▁ju 70
▁karl 70
▁kurt 70
▁nap 70
▁nut 70
▁planted 70
▁pleased 70
▁react 70
▁reaction 70
▁recent 70
▁revealed 70
▁servant 70
▁shore 70
▁slipped 70
▁smooth 70
▁solved 70
▁stands 70
▁ste 70
▁struck 70
▁struggle 70
▁sum 70
▁traitor 70
▁twins 70
▁urgent 70
▁vampire 70
▁villain 70
gged 69
ided 69
lly 69
und 69
war 69
with 69
е 69
▁01 69
▁27 69
▁aid 69
▁av 69
▁behalf 69
▁cho 69
▁deserves 69
▁differently 69
▁emp 69
▁frozen 69
▁goal 69
▁hid 69
▁informed 69
▁judgment 69
▁juice 69
▁lifetime 69
▁math 69
▁messing 69
▁mighty 69
▁murphy 69
▁mysterious 69
▁nicholas 69
▁pant 69
▁pathetic 69
▁rabbit 69
▁recorded 69
▁reporter 69
▁rice 69
▁sale 69
▁scout 69
▁shortly 69
▁silence 69
▁singham 69
▁sooraj 69
▁sucks 69
▁tablet 69
▁various 69
▁vest 69
boy 68
cut 68
ek 68
face 68
ined 68
lers 68
ond 68
tell 68
tr 68
uff 68
win 68
▁1206 68
▁activated 68
▁added 68
▁bars 68
▁beck 68
▁behave 68
▁ca 68
▁cigarette 68
▁circus 68
▁commission 68
▁communications 68
▁concentrate 68
▁controls 68
▁cowboy 68
▁culture 68
▁customs 68
▁disappointed 68
▁disaster 68
▁dreaming 68
▁emotions 68
▁erica 68
▁europe 68
▁fans 68
▁flies 68
▁gotham 68
▁governor 68
▁gym 68
▁height 68
▁hostile 68
▁irene 68
▁jackson 68
▁laura 68
▁nate 68
▁nope 68
▁november 68
▁opposite 68
▁pie 68
▁plays 68
▁religion 68
▁revolution 68
▁rings 68
▁seats 68
▁sector 68
▁sexy 68
▁structure 68
▁swords 68
▁ton 68
▁walks 68
▁worship 68
af 67
bi 67
come 67
mes 67
ook 67
sp 67
where 67
а 67
▁aliens 67
▁beam 67
▁chancellor 67
▁charged 67
▁classes 67
▁concept 67
▁contains 67
▁deny 67
▁exposed 67
▁frame 67
▁items 67
▁massive 67
▁niki 67
▁organized 67
▁particularly 67
▁pussy 67
▁recovered 67
▁ringing 67
▁separated 67
▁smoking 67
▁solid 67
▁sometime 67
▁speaks 67
▁timing 67
▁underwear 67
▁vast 67
▁vic 67
▁weakness 67
▁witnesses 67
.1 66
apped 66
bit 66
down 66
ew 66
iles 66
ises 66
ita 66
ix 66
ja 66
ti 66
▁..... 66
▁1,000 66
▁baba 66
▁bears 66
▁burrows 66
▁ceremony 66
▁cos 66
▁cricket 66
▁drum 66
▁dwarf 66
▁edward 66
▁election 66
▁ent 66
▁ep 66
▁facing 66
▁fitz 66
▁fraud 66
▁gates 66
▁gregson 66
▁handed 66
▁heroin 66
▁hers 66
▁holes 66
▁hoped 66
▁hopefully 66
▁immediate 66
▁individual 66
▁institutions 66
▁jerry 66
▁kenny 66
▁lloyd 66
▁medic 66
▁narsing 66
▁necklace 66
▁nypd 66
▁om 66
▁partners 66
▁pos 66
▁preparing 66
▁principal 66
▁pump 66
▁recovery 66
▁relatives 66
▁retreat 66
▁sanjay 66
▁ser 66
▁serving 66
▁skull 66
▁spin 66
▁technical 66
▁thick 66
▁tu 66
▁unf 66
-0 65
cy 65
ency 65
ep 65
ient 65
ops 65
oth 65
ower 65
rest 65
unt 65
why 65
▁150 65
▁400 65
▁ananya 65
▁avatar 65
▁barnes 65
▁boots 65
▁compromised 65
▁cruel 65
▁daylight 65
▁disgusting 65
▁elders 65
▁elephants 65
▁fashion 65
▁fields 65
▁fights 65
▁films 65
▁graiman 65
▁invitation 65
▁kal 65
▁kinds 65
▁mercy 65
▁mia 65
▁mode 65
▁naomi 65
▁norman 65
▁op 65
▁parties 65
▁pipe 65
▁players 65
▁pol 65
▁possess 65
▁rear 65
▁regarding 65
▁reported 65
▁senator 65
▁sid 65
▁sticks 65
▁superhero 65
▁threatening 65
▁throughout 65
▁tooth 65
▁trash 65
▁traveling 65
▁tur 65
▁upper 65
▁whistle 65
▁whoo 65
▁yards 65
-3 64
ata 64
hen 64
hing 64
ides 64
itch 64
ization 64
kin 64
point 64
rate 64
ration 64
vin 64
▁addition 64
▁assault 64
▁blessed 64
▁branch 64
▁cas 64
▁cobb 64
▁confidence 64
▁delicious 64
▁dial 64
▁dispatch 64
▁downtown 64
▁employee 64
▁environment 64
▁explanation 64
▁hannah 64
▁harold 64
▁holiday 64
▁japanese 64
▁jennifer 64
▁jerk 64
▁kidnap 64
▁kyle 64
▁legacy 64
▁liam 64
▁loki 64
▁mic 64
▁muscle 64
▁ofthe 64
▁oz 64
▁packed 64
▁parked 64
▁passes 64
▁peach 64
▁plain 64
▁planes 64
▁polar 64
▁primary 64
▁priority 64
▁proposal 64
▁punishment 64
▁radha 64
▁rifle 64
▁smarter 64
▁solo 64
▁tars 64
▁traditional 64
▁update 64
▁vice 64
▁vodka 64
ea 63
ef 63
field 63
fl 63
ford 63
iz 63
job 63
kes 63
ni 63
ool 63
room 63
ually 63
ups 63
▁aarush 63
▁acc 63
▁beethoven 63
▁boar 63
▁campaign 63
▁cape 63
▁chand 63
▁chaos 63
▁conduct 63
▁deeper 63
▁dri 63
▁drives 63
▁electricity 63
▁elephant 63
▁es 63
▁evacuate 63
▁fella 63
▁flow 63
▁frodo 63
▁fu 63
▁grandson 63
▁intention 63
▁introduced 63
▁lee 63
▁marudheera 63
▁mechanic 63
▁mut 63
▁naina 63
▁oath 63
▁orphan 63
▁owen 63
▁plastic 63
▁pointing 63
▁programs 63
▁promotion 63
▁punished 63
▁puppy 63
▁relative 63
▁rivers 63
▁salary 63
▁scientific 63
▁seth 63
▁shankar 63
▁smith 63
▁telecast 63
▁turtle 63
▁western 63
ading 62
ately 62
hers 62
hm 62
ished 62
iya 62
omb 62
ony 62
oss 62
ses 62
▁aboard 62
▁aircraft 62
▁assigned 62
▁auto 62
▁average 62
▁blocked 62
▁boston 62
▁boxes 62
▁chemical 62
▁combination 62
▁committee 62
▁companies 62
▁dale 62
▁damu 62
▁dorothy 62
▁duck 62
▁gross 62
▁hel 62
▁homework 62
▁insult 62
▁jon 62
▁keller 62
▁laptop 62
▁monsieur 62
▁neighbor 62
▁noah 62
▁pres 62
▁prints 62
▁prisoners 62
▁prom 62
▁psycho 62
▁rising 62
▁rod 62
▁routine 62
▁screams 62
▁settled 62
▁terrorists 62
▁title 62
▁twist 62
▁wolves 62
▁zombie 62
▁zoo 62
aff 61
bl 61
chan 61
cing 61
ct 61
dle 61
good 61
oke 61
thing 61
ulation 61
vel 61
о 61
▁64 61
▁advanced 61
▁affect 61
▁angle 61
▁august 61
▁bablu 61
▁bend 61
▁bha 61
▁cared 61
▁cecil 61
▁champagne 61
▁claims 61
▁confusion 61
▁coop 61
▁deploy 61
▁diary 61
▁external 61
▁extreme 61
▁fence 61
▁fulfill 61
▁gardner 61
▁heck 61
▁ifyou 61
▁insist 61
▁issued 61
▁joan 61
▁kat 61
▁krish 61
▁league 61
▁loyalty 61
▁matches 61
▁mc 61
▁net 61
▁nothin 61
▁orange 61
▁pill 61
▁pirate 61
▁positions 61
▁pound 61
▁rakesh 61
▁registered 61
▁seed 61
▁sets 61
▁skill 61
▁someplace 61
▁subway 61
▁thats 61
▁thirsty 61
▁tyler 61
bing 60
fi 60
fish 60
hem 60
hs 60
ination 60
ison 60
oned 60
rop 60
▁apply 60
▁beard 60
▁benjamin 60
▁brush 60
▁bud 60
▁comment 60
▁companion 60
▁customer 60
▁deposit 60
▁eloped 60
▁exists 60
▁fingerprints 60
▁focused 60
▁foundation 60
▁france 60
▁global 60
▁hay 60
▁meds 60
▁meta 60
▁metres 60
▁milverton 60
▁miranda 60
▁mistaken 60
▁nearby 60
▁northern 60
▁parent 60
▁passports 60
▁perfume 60
▁photograph 60
▁policeman 60
▁privacy 60
▁purse 60
▁rats 60
▁resist 60
▁selfish 60
▁shooter 60
▁shrink 60
▁suffered 60
▁thi 60
▁uses 60
▁vet 60
▁ward 60
▁wiped 60
▁wreck 60
ca 59
cks 59
gan 59
ime 59
other 59
rap 59
rel 59
rie 59
rom 59
sw 59
▁43 59
▁academy 59
▁allen 59
▁alley 59
▁amit 59
▁attached 59
▁bean 59
▁bin 59
▁blows 59
▁bug 59
▁clearance 59
▁climate 59
▁codes 59
▁coma 59
▁commercial 59
▁communicate 59
▁confess 59
▁deaf 59
▁debt 59
▁dharma 59
▁disk 59
▁dist 59
▁experiments 59
▁fighters 59
▁forty 59
▁glitch 59
▁instinct 59
▁jeremy 59
▁ken 59
▁kissed 59
▁labor 59
▁leaders 59
▁locate 59
▁log 59
▁loser 59
▁measure 59
▁mix 59
▁mole 59
▁offense 59
▁ped 59
▁ranger 59
▁rape 59
▁recording 59
▁recover 59
▁reed 59
▁remaining 59
▁replace 59
▁reyes 59
▁ronan 59
▁root 59
▁rourke 59
▁sacred 59
▁serial 59
▁somethin 59
▁spoil 59
▁teachers 59
▁umm 59
▁varda 59
▁villages 59
▁wanting 59
▁warriors 59
,7 58
ald 58
bag 58
ev 58
fire 58
hold 58
iled 58
ility 58
ns 58
rated 58
standing 58
two 58
ward 58
▁29 58
▁815 58
▁adult 58
▁answered 58
▁arrival 58
▁assuming 58
▁ay 58
▁bargain 58
▁bees 58
▁bills 58
▁boot 58
▁buck 58
▁consequences 58
▁cord 58
▁corpse 58
▁crisis 58
▁dim 58
▁echo 58
▁efforts 58
▁electric 58
▁ending 58
▁enforcement 58
▁evacuation 58
▁fel 58
▁gusteau 58
▁hates 58
▁initiative 58
▁irish 58
▁jackie 58
▁khanna 58
▁kidnapping 58
▁mankind 58
▁mindy 58
▁mouse 58
▁naughty 58
▁opponent 58
▁pace 58
▁prayer 58
▁rascal 58
▁ren 58
▁resort 58
▁retirement 58
▁rum 58
▁rv 58
▁santa 58
▁senate 58
▁songs 58
▁spit 58
▁succeed 58
▁therapy 58
▁unstable 58
▁vampires 58
▁vital 58
▁wears 58
▁wilson 58
▁wont 58
any 57
box 57
eration 57
gg 57
par 57
zy 57
zz 57
▁75 57
▁911 57
▁april 57
▁argue 57
▁bare 57
▁bearing 57
▁bid 57
▁bore 57
▁buildings 57
▁burnt 57
▁citizen 57
▁closest 57
▁covering 57
▁egypt 57
▁ellis 57
▁explosives 57
▁feeding 57
▁fixing 57
▁flew 57
▁gosh 57
▁gps 57
▁groups 57
▁jewel 57
▁knee 57
▁liquid 57
▁lockdown 57
▁mixed 57
▁moscow 57
▁mount 57
▁nerve 57
▁objects 57
▁occurred 57
▁painful 57
▁platform 57
▁plot 57
▁propose 57
▁radar 57
▁reminds 57
▁ritual 57
▁scientists 57
▁selected 57
▁sensitive 57
▁shaft 57
▁smaller 57
▁spirits 57
▁tested 57
▁threats 57
▁tools 57
▁tries 57
▁tube 57
▁types 57
▁washed 57
▁weller 57
▁windows 57
▁worn 57
▁yelling 57
-6 56
ert 56
ification 56
lu 56
ound 56
▁accused 56
▁bre 56
▁caleb 56
▁california 56
▁cle 56
▁cloud 56
▁com 56
▁disrespect 56
▁engage 56
▁existed 56
▁gathered 56
▁generally 56
▁generator 56
▁germany 56
▁guilt 56
▁han 56
▁hated 56
▁hindi 56
▁imagined 56
▁institute 56
▁investigate 56
▁jimmy 56
▁joey 56
▁kin 56
▁knees 56
▁knocking 56
▁krishna 56
▁luke 56
▁maker 56
▁marty 56
▁minor 56
▁mun 56
▁narrow 56
▁newspaper 56
▁october 56
▁patriots 56
▁possession 56
▁posted 56
▁previous 56
▁prof 56
▁reputation 56
▁requested 56
▁samples 56
▁sandy 56
▁scr 56
▁shrek 56
▁signature 56
▁smiles 56
▁sonar 56
▁sources 56
▁strip 56
▁sy 56
▁terminal 56
▁thea 56
▁thus 56
▁torch 56
▁transform 56
▁tribe 56
▁triple 56
▁wha 56
▁wore 56
▁ye 56
50 55
cle 55
inal 55
itions 55
jo 55
kins 55
load 55
malley 55
otic 55
ree 55
row 55
take 55
▁47 55
▁ambassador 55
▁anakin 55
▁anniversary 55
▁apollo 55
▁apologise 55
▁assumed 55
▁bold 55
▁carly 55
▁chap 55
▁cont 55
▁courtney 55
▁creator 55
▁daughters 55
▁defect 55
▁dent 55
▁described 55
▁diss 55
▁dragons 55
▁dun 55
▁established 55
▁fee 55
▁fifteen 55
▁filthy 55
▁forgiveness 55
▁formula 55
▁frost 55
▁golf 55
▁gorgeous 55
▁imagination 55
▁include 55
▁lea 55
▁loans 55
▁lucia 55
▁manifest 55
▁manner 55
▁manny 55
▁mini 55
▁moron 55
▁naturally 55
▁opens 55
▁parrish 55
▁phase 55
▁plat 55
▁prank 55
▁presented 55
▁produced 55
▁pub 55
▁punish 55
▁py 55
▁rage 55
▁ravi 55
▁relation 55
▁saint 55
▁sen 55
▁shares 55
▁sharing 55
▁sheep 55
▁shopping 55
▁shout 55
▁smiling 55
▁spanish 55
▁stable 55
▁stacks 55
▁strategy 55
▁tak 55
▁tale 55
▁toss 55
▁uncomfortable 55
▁underneath 55
▁visitors 55
▁wig 55
▁worlds 55
.2 54
aries 54
berg 54
ces 54
ear 54
eth 54
gging 54
iah 54
ked 54
lessly 54
uh 54
used 54
▁acts 54
▁adjust 54
▁adopted 54
▁armour 54
▁arrangements 54
▁atmosphere 54
▁baggins 54
▁beacon 54
▁belly 54
▁carlos 54
▁cheers 54
▁compass 54
▁conscience 54
▁corporate 54
▁creative 54
▁crossing 54
▁doss 54
▁drown 54
▁enjoyed 54
▁fart 54
▁frog 54
▁gall 54
▁gettin 54
▁greene 54
▁groans 54
▁halfway 54
▁haw 54
▁hol 54
▁hudson 54
▁japan 54
▁joining 54
▁joint 54
▁junk 54
▁larry 54
▁limited 54
▁maria 54
▁maze 54
▁nell 54
▁occasion 54
▁operate 54
▁origin 54
▁overtime 54
▁paperwork 54
▁pond 54
▁praise 54
▁psych 54
▁quot 54
▁receiving 54
▁relief 54
▁responding 54
▁sandwich 54
▁sari 54
▁sayin 54
▁sharks 54
▁shocked 54
▁significant 54
▁talented 54
▁theories 54
▁threaten 54
▁throne 54
▁ties 54
▁towel 54
▁tunnels 54
▁ugh 54
▁unconscious 54
▁wrist 54
-7 53
ases 53
ashed 53
cent 53
ese 53
have 53
hole 53
hour 53
huh 53
ila 53
maker 53
ode 53
ora 53
osed 53
ough 53
rs 53
▁2015 53
▁additional 53
▁ages 53
▁ak 53
▁armaan 53
▁attract 53
▁autobots 53
▁bea 53
▁beera 53
▁believing 53
▁bilbo 53
▁blank 53
▁chan 53
▁chautala 53
▁civilians 53
▁confirmation 53
▁conspiracy 53
▁constant 53
▁deaths 53
▁detect 53
▁diet 53
▁discover 53
▁distress 53
▁dragged 53
▁drawing 53
▁earl 53
▁embarrassed 53
▁exc 53
▁ext 53
▁feds 53
▁fees 53
▁forth 53
▁fountain 53
▁francis 53
▁generous 53
▁goods 53
▁grief 53
▁grunts 53
▁guitar 53
▁helpless 53
▁intelligent 53
▁intercept 53
▁islands 53
▁item 53
▁jury 53
▁ka 53
▁kar 53
▁katniss 53
▁kubo 53
▁lawyers 53
▁leaf 53
▁messenger 53
▁missiles 53
▁mort 53
▁ob 53
▁ogre 53
▁parole 53
▁reception 53
▁rizvan 53
▁shan 53
▁shoulders 53
▁si 53
▁signals 53
▁snap 53
▁soil 53
▁spencer 53
▁spl 53
▁sport 53
▁stamp 53
▁stream 53
▁suspended 53
▁sweep 53
▁temp 53
▁temporary 53
▁theirs 53
▁trusting 53
▁vi 53
▁vol 53
▁winds 53
.3 52
arian 52
ava 52
ented 52
eter 52
fall 52
human 52
iding 52
inder 52
iness 52
mb 52
ove 52
sc 52
sec 52
ule 52
urs 52
vi 52
ville 52
ways 52
▁10,000 52
▁addict 52
▁alliance 52
▁appeared 52
▁argument 52
▁assist 52
▁audience 52
▁award 52
▁belonged 52
▁broadcast 52
▁bum 52
▁bunk 52
▁cancelled 52
▁cass 52
▁chairman 52
▁charm 52
▁chased 52
▁cleaned 52
▁clients 52
▁climbing 52
▁complain 52
▁compliment 52
▁contest 52
▁copies 52
▁damaged 52
▁doll 52
▁doyle 52
▁erdogan 52
▁filed 52
▁fooled 52
▁foster 52
▁grabbed 52
▁granted 52
▁grounds 52
▁ham 52
▁honeymoon 52
▁hyderabad 52
▁ideal 52
▁impress 52
▁incoming 52
▁initial 52
▁iwill 52
▁jew 52
▁jewelry 52
▁kidney 52
▁lewis 52
▁lucas 52
▁ly 52
▁marshal 52
▁mart 52
▁maximum 52
▁misunder 52
▁motive 52
▁phoebe 52
▁physics 52
▁pi 52
▁plague 52
▁poisoned 52
▁prick 52
▁produce 52
▁prophecy 52
▁proved 52
▁rango 52
▁reaching 52
▁rebecca 52
▁reddy 52
▁reject 52
▁sanjana 52
▁scrap 52
▁searched 52
▁session 52
▁shelby 52
▁shiva 52
▁simmons 52
▁sounded 52
▁steven 52
▁suite 52
▁terrific 52
▁tire 52
▁version 52
▁wallace 52
▁wisdom 52
▁worthy 52
-9 51
aid 51
akes 51
athi 51
cc 51
ds 51
ening 51
hot 51
ki 51
oms 51
ott 51
pes 51
ract 51
rt 51
sha 51
shi 51
uss 51
wn 51
▁04 51
▁99 51
▁abandon 51
▁abuse 51
▁advised 51
▁af 51
▁amelia 51
▁applied 51
▁assholes 51
▁associate 51
▁beside 51
▁blackmail 51
▁blah 51
▁boats 51
▁buff 51
▁chatter 51
▁cheated 51
▁cheque 51
▁classic 51
▁colleague 51
▁computers 51
▁congress 51
▁corruption 51
▁dates 51
▁dean 51
▁denied 51
▁description 51
▁dignity 51
▁display 51
▁disturb 51
▁dull 51
▁dynamite 51
▁ease 51
▁emotion 51
▁expenses 51
▁fa 51
▁facebook 51
▁facilities 51
▁fathers 51
▁figures 51
▁flu 51
▁housing 51
▁impression 51
▁intense 51
▁interests 51
▁investment 51
▁jeff 51
▁lang 51
▁listened 51
▁majnu 51
▁mann 51
▁marines 51
▁mothers 51
▁muslim 51
▁nimah 51
▁occur 51
▁officials 51
▁orbit 51
▁owns 51
▁pages 51
▁parker 51
▁pitch 51
▁pm 51
▁poetry 51
▁porn 51
▁racing 51
▁remarkable 51
▁sequence 51
▁sher 51
▁territory 51
▁testing 51
▁thumb 51
▁thy 51
▁treating 51
▁trevor 51
▁unite 51
▁wealth 51
,9 50
ability 50
ann 50
asa 50
gle 50
okay 50
pa 50
pped 50
rep 50
stick 50
stone 50
str 50
tered 50
then 50
▁33 50
▁36 50
▁ahh 50
▁ajju 50
▁analysis 50
▁anne 50
▁arts 50
▁bent 50
▁bleed 50
▁bribe 50
▁bruno 50
▁cant 50
▁ceo 50
▁cliff 50
▁clouds 50
▁clown 50
▁collection 50
▁complaint 50
▁correctly 50
▁corrupt 50
▁declared 50
▁deeply 50
▁distant 50
▁document 50
▁dollar 50
▁essential 50
▁eve 50
▁finest 50
▁flame 50
▁frightened 50
▁glory 50
▁goons 50
▁gre 50
▁holds 50
▁hy 50
▁ii 50
▁included 50
▁industries 50
▁jenna 50
▁jumping 50
▁liberty 50
▁lily 50
▁lu 50
▁mani 50
▁mason 50
▁nan 50
▁native 50
▁peel 50
▁pity 50
▁pleasant 50
▁preity 50
▁preparation 50
▁prov 50
▁raising 50
▁relevant 50
▁requesting 50
▁riley 50
▁ru 50
▁salad 50
▁sch 50
▁scheduled 50
▁spray 50
▁stall 50
▁stepped 50
▁stuffed 50
▁thr 50
▁tits 50
▁toys 50
▁tracked 50
▁waist 50
▁worthless 50
▁wounds 50
,3 49
20 49
aa 49
ame 49
amed 49
away 49
ett 49
icks 49
illa 49
ipp 49
itting 49
master 49
mit 49
oda 49
ologist 49
ox 49
ressed 49
see 49
was 49
▁affected 49
▁ammo 49
▁announcement 49
▁approved 49
▁attacking 49
▁badge 49
▁bald 49
▁bass 49
▁batteries 49
▁bor 49
▁bowl 49
▁boxing 49
▁brake 49
▁brakes 49
▁burns 49
▁chew 49
▁compete 49
▁conce 49
▁confident 49
▁creation 49
▁cycle 49
▁delta 49
▁discussed 49
▁discussion 49
▁divorced 49
▁eager 49
▁element 49
▁embrace 49
▁explained 49
▁fabious 49
▁fled 49
▁ford 49
▁fucker 49
▁harper 49
▁harvest 49
▁ian 49
▁jill 49
▁julia 49
▁kel 49
▁kim 49
▁knights 49
▁legion 49
▁length 49
▁linus 49
▁lip 49
▁ln 49
▁lobby 49
▁lust 49
▁mus 49
▁nail 49
▁nardo 49
▁ops 49
▁outfit 49
▁photographs 49
▁ple 49
▁potter 49
▁prototype 49
▁rajat 49
▁realise 49
▁represent 49
▁resistance 49
▁rookie 49
▁sheet 49
▁sins 49
▁storage 49
▁tracy 49
▁tragedy 49
▁travelling 49
▁tub 49
▁upload 49
▁viktor 49
▁whats 49
▁wheels 49
▁whereabouts 49
▁worker 49
▁yea 49
ape 48
aus 48
bert 48
ences 48
ette 48
has 48
ional 48
lf 48
oid 48
ouse 48
rating 48
rd 48
ude 48
unk 48
▁alan 48
▁alike 48
▁amounting 48
▁anatomy 48
▁baahubali 48
▁babu 48
▁barn 48
▁bothering 48
▁brace 48
▁brooklyn 48
▁burst 48
▁canada 48
▁catching 48
▁chester 48
▁chin 48
▁closet 48
▁cough 48
▁damned 48
▁dea 48
▁distract 48
▁embarrassing 48
▁epic 48
▁fellas 48
▁fond 48
▁gambling 48
▁gentle 48
▁gibson 48
▁grenouille 48
▁hm 48
▁hor 48
▁humor 48
▁hyp 48
▁infection 48
▁invest 48
▁iv 48
▁jar 48
▁july 48
▁luggage 48
▁machiraju 48
▁medication 48
▁menu 48
▁mexican 48
▁neha 48
▁noon 48
▁orchid 48
▁pakistan 48
▁peanut 48
▁practically 48
▁ramp 48
▁rebels 48
▁rebuild 48
▁riya 48
▁robin 48
▁rom 48
▁ron 48
▁runway 48
▁russia 48
▁shaking 48
▁sire 48
▁sports 48
▁superman 48
▁terribly 48
▁thread 48
▁torn 48
▁tortured 48
▁trauma 48
▁wed 48
▁wondered 48
▁yash 48
▁zip 48
▁“ 48
ano 47
arth 47
bur 47
gi 47
handed 47
hoo 47
ili 47
ister 47
ko 47
place 47
stop 47
une 47
▁37 47
▁accounting 47
▁authorized 47
▁avenue 47
▁baker 47
▁bitches 47
▁bout 47
▁bump 47
▁cad 47
▁caitlin 47
▁carla 47
▁cemetery 47
▁centuries 47
▁charity 47
▁checks 47
▁coconut 47
▁controlled 47
▁critical 47
▁crushed 47
▁determine 47
▁dialogue 47
▁discovery 47
▁dock 47
▁driven 47
▁drivers 47
▁duggal 47
▁eastern 47
▁educated 47
▁experienced 47
▁favourite 47
▁finance 47
▁fiona 47
▁fluid 47
▁gasps 47
▁gaurav 47
▁hans 47
▁horsemen 47
▁hunger 47
▁imperial 47
▁incredibly 47
▁independent 47
▁instincts 47
▁isabel 47
▁jeep 47
▁jonathan 47
▁locker 47
▁madame 47
▁meera 47
▁melt 47
▁methods 47
▁mist 47
▁mp 47
▁nancy 47
▁nat 47
▁obey 47
▁observed 47
▁optim 47
▁paradise 47
▁pawn 47
▁poem 47
▁poll 47
▁poly 47
▁pulse 47
▁pun 47
▁rao 47
▁recognition 47
▁register 47
▁rein 47
▁rick 47
▁rio 47
▁ripped 47
▁salt 47
▁sebastian 47
▁select 47
▁selvi 47
▁shared 47
▁shephard 47
▁sites 47
▁spr 47
▁starving 47
▁surgeon 47
▁surprises 47
▁swallow 47
▁telephone 47
▁treason 47
▁viol 47
▁visited 47
▁wars 47
▁witches 47
,5 46
-5 46
aging 46
ains 46
aming 46
ared 46
ask 46
bal 46
ica 46
iest 46
ires 46
ital 46
lling 46
ood 46
ories 46
oses 46
ote 46
reat 46
rent 46
rid 46
ular 46
umber 46
▁acid 46
▁adam 46
▁ang 46
▁apologies 46
▁apology 46
▁aria 46
▁arrangement 46
▁asses 46
▁bol 46
▁bored 46
▁bot 46
▁bravo 46
▁busted 46
▁charming 46
▁cheek 46
▁coin 46
▁cooperate 46
▁countries 46
▁depth 46
▁diamond 46
▁diana 46
▁dug 46
▁efficient 46
▁ellie 46
▁emmet 46
▁ennis 46
▁et 46
▁evos 46
▁expose 46
▁farmer 46
▁fur 46
▁gabriel 46
▁gratitude 46
▁grunting 46
▁harrison 46
▁hollywood 46
▁hopes 46
▁increased 46
▁intended 46
▁interrogation 46
▁learnt 46
▁lecture 46
▁magazine 46
▁maintenance 46
▁matthew 46
▁mig 46
▁needle 46
▁negotiate 46
▁nicely 46
▁objective 46
▁obsessed 46
▁packing 46
▁passenger 46
▁pays 46
▁personality 46
▁politicians 46
▁poo 46
▁pyramid 46
▁raja 46
▁raven 46
▁rebel 46
▁regulations 46
▁rejected 46
▁rousseau 46
▁rubbish 46
▁rumors 46
▁severe 46
▁slightly 46
▁soap 46
▁sor 46
▁sorts 46
▁stein 46
▁string 46
▁superior 46
▁tab 46
▁talkin 46
▁tanks 46
▁tension 46
▁ter 46
▁teri 46
▁theatre 46
▁tissue 46
▁tool 46
▁toretto 46
▁troubles 46
▁unexpected 46
▁unfortunate 46
▁vacuum 46
▁values 46
▁wally 46
▁” 46
aka 45
ashing 45
bb 45
hara 45
ider 45
iling 45
iring 45
ku 45
ography 45
pper 45
set 45
sing 45
ugg 45
uous 45
zed 45
zo 45
▁annual 45
▁arriving 45
▁attach 45
▁austen 45
▁bind 45
▁blamed 45
▁blanket 45
▁blink 45
▁carver 45
▁cheer 45
▁colour 45
▁containment 45
▁crane 45
▁crewes 45
▁customers 45
▁dallas 45
▁destroying 45
▁dorian 45
▁download 45
▁ender 45
▁etc 45
▁evolution 45
▁fastest 45
▁flip 45
▁fold 45
▁freddy 45
▁gig 45
▁graduation 45
▁greg 45
▁gro 45
▁handled 45
▁hen 45
▁hobby 45
▁hom 45
▁industrial 45
▁jelly 45
▁kiddo 45
▁leap 45
▁liber 45
▁loses 45
▁madness 45
▁magical 45
▁magnificent 45
▁maiden 45
▁mere 45
▁micro 45
▁miserable 45
▁nana 45
▁ninja 45
▁orb 45
▁pac 45
▁pacific 45
▁parade 45
▁permanent 45
▁pockets 45
▁proven 45
▁providing 45
▁questioning 45
▁quill 45
▁rap 45
▁replaced 45
▁reporting 45
▁residence 45
▁romance 45
▁satellites 45
▁seeker 45
▁sil 45
▁slipper 45
▁static 45
▁subconscious 45
▁suitcase 45
▁sutter 45
▁switched 45
▁syndicate 45
▁tasty 45
▁tat 45
▁testify 45
▁tet 45
▁tig 45
▁titanic 45
▁toby 45
▁tons 45
▁traced 45
▁unbelievable 45
▁understands 45
▁vaccine 45
▁vis 45
▁wednesday 45
▁yell 45
▁zombies 45
ables 44
aded 44
bar 44
coming 44
den 44
ict 44
iff 44
itation 44
lets 44
mark 44
ological 44
pers 44
uce 44
unch 44
▁5,000 44
▁aal 44
▁accelerator 44
▁admire 44
▁altered 44
▁annex 44
▁announce 44
▁appropriate 44
▁attempted 44
▁attractive 44
▁bastards 44
▁bats 44
▁bombing 44
▁burden 44
▁buzz 44
▁capacity 44
▁chapter 44
▁cleaner 44
▁conducting 44
▁darhk 44
▁depend 44
▁drops 44
▁elves 44
▁enhance 44
▁envelope 44
▁episode 44
▁evan 44
▁exams 44
▁feast 44
▁fiddle 44
▁flynn 44
▁follows 44
▁formed 44
▁freezing 44
▁freighter 44
▁functions 44
▁greedy 44
▁grip 44
▁grows 44
▁hacked 44
▁hammer 44
▁headquarters 44
▁holly 44
▁inch 44
▁infect 44
▁injustice 44
▁investigating 44
▁jersey 44
▁larger 44
▁lessons 44
▁lndu 44
▁loop 44
▁mandira 44
▁mansion 44
▁mariko 44
▁meanwhile 44
▁minimum 44
▁molly 44
▁overnight 44
▁pistol 44
▁plates 44
▁presentation 44
▁proposed 44
▁published 44
▁qualified 44
▁recommend 44
▁returns 44
▁sack 44
▁samantha 44
▁scooby 44
▁scum 44
▁shine 44
▁siding 44
▁sinhala 44
▁slapped 44
▁slide 44
▁southern 44
▁spaceship 44
▁stabbed 44
▁sticking 44
▁subjects 44
▁sync 44
▁temper 44
▁tensed 44
▁trains 44
▁twitter 44
▁unp 44
▁vey 44
▁walker 44
▁workers 44
▁worries 44
,2 43
di 43
four 43
got 43
ices 43
inda 43
ively 43
ker 43
key 43
lar 43
looking 43
oring 43
ously 43
ras 43
rist 43
ula 43
ulating 43
utes 43
▁2013 43
▁affection 43
▁aku 43
▁appearance 43
▁approve 43
▁approximately 43
▁awkward 43
▁bangkok 43
▁bible 43
▁boarding 43
▁booked 43
▁cartel 43
▁ceiling 43
▁charu 43
▁closely 43
▁coll 43
▁conscious 43
▁consent 43
▁couch 43
▁creek 43
▁creepy 43
▁custom 43
▁dia 43
▁drawn 43
▁dummy 43
▁electrical 43
▁embarrass 43
▁extraction 43
▁fiance 43
▁fibonacci 43
▁fits 43
▁flooded 43
▁forms 43
▁freaked 43
▁freckles 43
▁galaxy 43
▁genuine 43
▁halloween 43
▁harvey 43
▁heist 43
▁honesty 43
▁improve 43
▁injury 43
▁install 43
▁katie 43
▁kennedy 43
▁killers 43
▁lap 43
▁lawn 43
▁libby 43
▁lj 43
▁martha 43
▁mas 43
▁masks 43
▁melissa 43
▁merely 43
▁merry 43
▁miami 43
▁modi 43
▁nandini 43
▁observation 43
▁pale 43
▁pancakes 43
▁peeta 43
▁photographer 43
▁piano 43
▁pret 43
▁prost 43
▁queens 43
▁rac 43
▁rang 43
▁rayna 43
▁reform 43
▁relay 43
▁rhyme 43
▁rupavahini 43
▁scarlet 43
▁shields 43
▁sniff 43
▁soda 43
▁specifically 43
▁stink 43
▁sunny 43
▁suspected 43
▁tej 43
▁tina 43
▁tit 43
▁ultimate 43
▁vas 43
▁ven 43
▁vent 43
▁voices 43
▁vulnerable 43
▁wicked 43
,0 42
aces 42
ado 42
aster 42
att 42
aze 42
book 42
die 42
ended 42
fer 42
gal 42
hill 42
mann 42
now 42
oon 42
umb 42
▁02 42
▁1000 42
▁250 42
▁34 42
▁abilities 42
▁accordingly 42
▁admitted 42
▁adorable 42
▁amb 42
▁application 42
▁aqu 42
▁architect 42
▁asgard 42
▁avenge 42
▁battles 42
▁becca 42
▁cabinet 42
▁carol 42
▁chips 42
▁circ 42
▁clot 42
▁comb 42
▁confusing 42
▁contacts 42
▁content 42
▁cookie 42
▁cotton 42
▁counts 42
▁cracked 42
▁daanish 42
▁dealt 42
▁defence 42
▁deon 42
▁determined 42
▁dinosaur 42
▁directions 42
▁disorder 42
▁districts 42
▁disturbing 42
▁eats 42
▁ec 42
▁electronic 42
▁email 42
▁employer 42
▁estate 42
▁faced 42
▁fame 42
▁felicity 42
▁fires 42
▁flavor 42
▁flows 42
▁gandhi 42
▁gently 42
▁guardian 42
▁hence 42
▁hive 42
▁honored 42
▁hostiles 42
▁insisted 42
▁institution 42
▁involve 42
▁iran 42
▁jokes 42
▁judges 42
▁judging 42
▁julie 42
▁kai 42
▁laundry 42
▁locations 42
▁lovers 42
▁models 42
▁mortal 42
▁niece 42
▁nigger 42
▁operational 42
▁papi 42
▁pile 42
▁planets 42
▁predators 42
▁pressed 42
▁purchase 42
▁puzzle 42
▁ramse 42
▁rav 42
▁region 42
▁risks 42
▁romeo 42
▁ruled 42
▁sacrificed 42
▁sanju 42
▁scaring 42
▁shen 42
▁shotgun 42
▁shr 42
▁slay 42
▁snakes 42
▁spoon 42
▁stare 42
▁stash 42
▁statue 42
▁stuart 42
▁suff 42
▁suggestion 42
▁tastes 42
▁tinker 42
▁tradition 42
▁troll 42
▁ungli 42
▁visible 42
▁vow 42
▁waking 42
▁welfare 42
▁whit 42
▁wives 42
▁worrying 42
15 41
acing 41
acks 41
anger 41
body 41
ense 41
gy 41
hab 41
hel 41
ii 41
ips 41
izes 41
izz 41
lock 41
oma 41
outs 41
rum 41
ship 41
three 41
uts 41
▁49 41
▁accomplish 41
▁activ 41
▁admiral 41
▁aggressive 41
▁amjad 41
▁ants 41
▁basket 41
▁benji 41
▁bir 41
▁boards 41
▁brandon 41
▁breeze 41
▁causing 41
▁consciousness 41
▁consult 41
▁courier 41
▁cra 41
▁cro 41
▁cue 41
▁deb 41
▁deeds 41
▁digital 41
▁dimension 41
▁dimpy 41
▁din 41
▁donald 41
▁economic 41
▁employment 41
▁engineers 41
▁evac 41
▁executive 41
▁faint 41
▁fascinating 41
▁forbidden 41
▁forgetting 41
▁gap 41
▁goon 41
▁heavily 41
▁hobbit 41
▁inches 41
▁industry 41
▁initiate 41
▁injuries 41
▁italian 41
▁jeez 41
▁kingsman 41
▁lafleur 41
▁leland 41
▁lmmy 41
▁maggie 41
▁maid 41
▁meena 41
▁meredith 41
▁mutant 41
▁nanny 41
▁nano 41
▁nom 41
▁nowadays 41
▁observations 41
▁particle 41
▁pred 41
▁programmed 41
▁pursuit 41
▁qual 41
▁quantico 41
▁quarantine 41
▁quarters 41
▁renautas 41
▁repay 41
▁respons 41
▁restricted 41
▁sachin 41
▁satan 41
▁satisfied 41
▁sav 41
▁shipping 41
▁slaves 41
▁smiley 41
▁spreading 41
▁steam 41
▁stevens 41
▁struggling 41
▁tin 41
▁toe 41
▁vac 41
▁visitor 41
▁volunteer 41
▁wa 41
▁wrapped 41
cr 40
did 40
een 40
enses 40
ero 40
form 40
icking 40
ika 40
inated 40
ishing 40
lands 40
light 40
ole 40
oming 40
ould 40
rem 40
sto 40
ums 40
usion 40
wait 40
won 40
▁05 40
▁accent 40
▁accurate 40
▁administration 40
▁advise 40
▁allergic 40
▁amberle 40
▁andre 40
▁arrives 40
▁bells 40
▁bishop 40
▁blessings 40
▁blonde 40
▁bombay 40
▁botanic 40
▁caution 40
▁chuck 40
▁claimed 40
▁collins 40
▁confession 40
▁const 40
▁contin 40
▁continued 40
▁conver 40
▁cried 40
▁deposits 40
▁disabled 40
▁divisional 40
▁dot 40
▁dozens 40
▁dup 40
▁elsewhere 40
▁encounter 40
▁explains 40
▁fir 40
▁fist 40
▁flank 40
▁florida 40
▁gil 40
▁gordon 40
▁handling 40
▁harsh 40
▁helpful 40
▁integration 40
▁jorge 40
▁kalpana 40
▁kam 40
▁kicking 40
▁las 40
▁laurie 40
▁lor 40
▁luther 40
▁maximus 40
▁measures 40
▁mug 40
▁nightmares 40
▁nikki 40
▁nora 40
▁oldest 40
▁owned 40
▁oxford 40
▁pepper 40
▁ping 40
▁pirates 40
▁prep 40
▁quantum 40
▁radius 40
▁railroad 40
▁raining 40
▁raw 40
▁respected 40
▁ressler 40
▁sang 40
▁sens 40
▁senses 40
▁september 40
▁shutting 40
▁sour 40
▁sparrow 40
▁spear 40
▁spiritual 40
▁strict 40
▁sue 40
▁taller 40
▁targeting 40
▁taxes 40
▁tess 40
▁tink 40
▁tomb 40
▁torturing 40
▁tow 40
▁translate 40
▁untie 40
▁vari 40
▁veronica 40
▁vows 40
▁wandering 40
▁whispering 40
▁withdraw 40
▁workshop 40
▁wr 40
▁— 40
,8 39
antly 39
berry 39
ern 39
free 39
had 39
heads 39
hic 39
hood 39
ilized 39
look 39
made 39
mic 39
ork 39
port 39
rer 39
rin 39
ten 39
uel 39
ult 39
vent 39
wr 39
▁1.2 39
▁10- 39
▁2000 39
▁30,000 39
▁absolute 39
▁aer 39
▁african 39
▁auction 39
▁ax 39
▁barrier 39
▁benny 39
▁blackwell 39
▁bothered 39
▁bottles 39
▁bounty 39
▁brazil 39
▁breed 39
▁brickton 39
▁cease 39
▁champak 39
▁chemicals 39
▁chemistry 39
▁cinderella 39
▁civilian 39
▁collecting 39
▁consultant 39
▁courtesy 39
▁cove 39
▁decor 39
▁demands 39
▁depression 39
▁devon 39
▁dor 39
▁dover 39
▁dressing 39
▁dumped 39
▁elise 39
▁examination 39
▁farewell 39
▁fatal 39
▁fe 39
▁filling 39
▁flights 39
▁fritz 39
▁fulfilled 39
▁funds 39
▁ga 39
▁globe 39
▁goodnight 39
▁hanh 39
▁haul 39
▁headache 39
▁henri 39
▁hereby 39
▁hun 39
▁illusion 39
▁iz 39
▁january 39
▁journal 39
▁knots 39
▁krypton 39
▁lamb 39
▁lantern 39
▁lions 39
▁marketing 39
▁mayday 39
▁mcc 39
▁meenamma 39
▁meetings 39
▁mutants 39
▁nag 39
▁neighbors 39
▁notebook 39
▁nova 39
▁oak 39
▁oct 39
▁optimus 39
▁peaceful 39
▁peep 39
▁peterson 39
▁phantom 39
▁punk 39
▁reasonable 39
▁recon 39
▁reply 39
▁retire 39
▁rumor 39
▁scram 39
▁script 39
▁seeds 39
▁seeking 39
▁shah 39
▁shane 39
▁ske 39
▁snatch 39
▁sorrow 39
▁spared 39
▁speaker 39
▁spec 39
▁spill 39
▁spinning 39
▁suitable 39
▁supp 39
▁surf 39
▁surya 39
▁tales 39
▁tan 39
▁tang 39
▁theft 39
▁todd 39
▁toxic 39
▁troubled 39
▁trucks 39
▁typical 39
▁verma 39
▁villagers 39
▁wagon 39
▁wand 39
▁warren 39
,4 38
12 38
ames 38
anda 38
ander 38
block 38
ently 38
father 38
gar 38
iner 38
ining 38
ipping 38
kan 38
kn 38
list 38
mat 38
mate 38
more 38
oes 38
oli 38
py 38
ulated 38
ura 38
uted 38
▁5000 38
▁acted 38
▁agnes 38
▁allows 38
▁altitude 38
▁aranery 38
▁association 38
▁balloon 38
▁beezus 38
▁belief 38
▁bloom 38
▁buddies 38
▁carries 38
▁causes 38
▁certificate 38
▁chavez 38
▁cigarettes 38
▁clay 38
▁collapse 38
▁coup 38
▁creativity 38
▁cultural 38
▁deacon 38
▁deadline 38
▁deserved 38
▁det 38
▁developing 38
▁devices 38
▁dip 38
▁dod 38
▁doubts 38
▁dramatic 38
▁dudes 38
▁duties 38
▁evey 38
▁excuses 38
▁executed 38
▁exhausted 38
▁explore 38
▁extinct 38
▁fears 38
▁flee 38
▁forthe 38
▁georgia 38
▁guerrero 38
▁heather 38
▁hector 38
▁hooker 38
▁hovv 38
▁inspiration 38
▁invent 38
▁israel 38
▁jammed 38
▁jer 38
▁kissing 38
▁lancelot 38
▁lar 38
▁legally 38
▁lend 38
▁linc 38
▁louder 38
▁marked 38
▁moses 38
▁ned 38
▁negoti 38
▁newspapers 38
▁ooo 38
▁patty 38
▁penguins 38
▁pod 38
▁pointed 38
▁poker 38
▁pole 38
▁precisely 38
▁prior 38
▁products 38
▁pu 38
▁quote 38
▁qureshi 38
▁rack 38
▁reduce 38
▁relations 38
▁relationships 38
▁sally 38
▁sant 38
▁schultz 38
▁sends 38
▁sexual 38
▁shel 38
▁shining 38
▁shove 38
▁signing 38
▁slam 38
▁sle 38
▁smashed 38
▁squeeze 38
▁starboard 38
▁strain 38
▁strang 38
▁surround 38
▁surviving 38
▁sustain 38
▁swell 38
▁sworn 38
▁tal 38
▁tanya 38
▁telugu 38
▁temples 38
▁thri 38
▁thrust 38
▁thursday 38
▁ti 38
▁tide 38
▁tips 38
▁treasury 38
▁trent 38
▁vanished 38
▁vengeance 38
▁vip 38
▁vo 38
▁whip 38
▁whiskey 38
▁winston 38
▁wit 38
.4 37
aches 37
achi 37
aked 37
aled 37
ancy 37
atch 37
car 37
esh 37
gard 37
hn 37
iet 37
ishes 37
ito 37
mont 37
ocation 37
ody 37
orm 37
osing 37
roy 37
su 37
term 37
think 37
ugs 37
walk 37
water 37
when 37
za 37
â 37
▁09 37
▁55 37
▁600 37
▁ambush 37
▁annunzio 37
▁ari 37
▁asc 37
▁backs 37
▁betting 37
▁callie 37
▁canal 37
▁casey 37
▁chandu 37
▁chicks 37
▁clicks 37
▁coffin 37
▁collected 37
▁conflict 37
▁confront 37
▁constantly 37
▁consum 37
▁controlling 37
▁crow 37
▁deals 37
▁defendant 37
▁difficulty 37
▁dil 37
▁disable 37
▁disguise 37
▁distracted 37
▁dreamed 37
▁dur 37
▁dwarves 37
▁elementary 37
▁erased 37
▁error 37
▁felix 37
▁flor 37
▁forests 37
▁foul 37
▁fre 37
▁funding 37
▁gam 37
▁glo 37
▁goanna 37
▁goines 37
▁govt 37
▁herd 37
▁hitler 37
▁holloway 37
▁homeland 37
▁independence 37
▁indicate 37
▁inspired 37
▁intentions 37
▁karan 37
▁laughter 37
▁liesel 37
▁lure 37
▁madhavgarh 37
▁mak 37
▁memor 37
▁mit 37
▁monica 37
▁mutual 37
▁nails 37
▁oi 37
▁organic 37
▁parliament 37
▁patterson 37
▁peacefully 37
▁pigs 37
▁powder 37
▁precinct 37
▁predict 37
▁promises 37
▁protocols 37
▁pur 37
▁rash 37
▁remained 37
▁rover 37
▁rudy 37
▁salam 37
▁sanctuary 37
▁scale 37
▁secured 37
▁sharma 37
▁shifts 37
▁shikre 37
▁singhania 37
▁solar 37
▁stalking 37
▁stroke 37
▁strongly 37
▁tel 37
▁tires 37
▁tragic 37
▁twisted 37
▁variety 37
▁vessel 37
▁vew 37
▁wor 37
▁yg 37
amm 36
arts 36
atory 36
bound 36
des 36
eds 36
gl 36
ille 36
inations 36
mates 36
may 36
mma 36
nar 36
night 36
oor 36
please 36
rah 36
rick 36
rot 36
uating 36
urn 36
▁03 36
▁abduct 36
▁accomplice 36
▁adapt 36
▁alternative 36
▁anonymous 36
▁aud 36
▁bab 36
▁bench 36
▁benefits 36
▁bra 36
▁britain 36
▁cav 36
▁channels 36
▁clinic 36
▁compromise 36
▁concrete 36
▁confessed 36
▁contained 36
▁crawl 36
▁deadly 36
▁ded 36
▁defeated 36
▁delivering 36
▁dem 36
▁depart 36
▁dish 36
▁distribution 36
▁dominic 36
▁drowned 36
▁einstein 36
▁eko 36
▁elf 36
▁elope 36
▁enc 36
▁endure 36
▁erase 36
▁escaping 36
▁fantasy 36
▁fiancé 36
▁flames 36
▁formation 36
▁fragile 36
▁frankly 36
▁fri 36
▁fried 36
▁gaines 36
▁galvin 36
▁gary 36
▁gimme 36
▁gin 36
▁graduate 36
▁growth 36
▁guidance 36
▁handful 36
▁hartley 36
▁horns 36
▁identification 36
▁inbound 36
▁instant 36
▁integrity 36
▁interfere 36
▁ist 36
▁iti 36
▁jacq 36
▁jem 36
▁jude 36
▁kadam 36
▁kung 36
▁len 36
▁lethal 36
▁limb 36
▁loc 36
▁loo 36
▁maj 36
▁manners 36
▁mant 36
▁manual 36
▁marrying 36
▁monk 36
▁muscles 36
▁myth 36
▁nearest 36
▁nicky 36
▁ninth 36
▁nu 36
▁objection 36
▁observe 36
▁outbreak 36
▁paths 36
▁pencil 36
▁permit 36
▁perspective 36
▁polite 36
▁protest 36
▁psychology 36
▁quar 36
▁rail 36
▁rank 36
▁rarely 36
▁recognized 36
▁rehab 36
▁rises 36
▁riva 36
▁samurai 36
▁scholarship 36
▁scotch 36
▁scoundrel 36
▁seas 36
▁sketch 36
▁snacks 36
▁spect 36
▁spots 36
▁stalk 36
▁straw 36
▁suggesting 36
▁sund 36
▁swat 36
▁swore 36
▁tapasvi 36
▁technique 36
▁teresa 36
▁thor 36
▁thou 36
▁thrilled 36
▁tone 36
▁tropical 36
▁unarmed 36
▁vel 36
▁vib 36
▁viral 36
▁watney 36
▁yah 36
16 35
ails 35
aken 35
ality 35
amb 35
aur 35
ays 35
burn 35
eer 35
ees 35
fect 35
ference 35
gil 35
headed 35
hee 35
het 35
ience 35
itude 35
lon 35
long 35
mal 35
nes 35
ounce 35
rey 35
sm 35
thank 35
ules 35
vert 35
wan 35
zing 35
▁08 35
▁abhay 35
▁afghanistan 35
▁attempting 35
▁axe 35
▁az 35
▁bachelor 35
▁beef 35
▁bender 35
▁bitter 35
▁blend 35
▁blocking 35
▁bressler 35
▁bruchschnauser 35
▁bucket 35
▁bunker 35
▁calthrop 35
▁campus 35
▁carnival 35
▁cheeks 35
▁clearing 35
▁clears 35
▁colors 35
▁commitment 35
▁convenient 35
▁corporal 35
▁corps 35
▁craft 35
▁crashing 35
▁cuts 35
▁domestic 35
▁elements 35
▁employ 35
▁execute 35
▁fle 35
▁footprints 35
▁fortress 35
▁frequency 35
▁fry 35
▁fugitive 35
▁gathering 35
▁gem 35
▁gener 35
▁gill 35
▁glorious 35
▁glow 35
▁goat 35
▁hamilton 35
▁harbor 35
▁hawk 35
▁hears 35
▁hunch 35
▁hush 35
▁immortal 35
▁increasing 35
▁invasion 35
▁jos 35
▁jud 35
▁kale 35
▁kamu 35
▁kilos 35
▁ladder 35
▁laser 35
▁luca 35
▁maps 35
▁marker 35
▁mild 35
▁nelson 35
▁nit 35
▁oscar 35
▁oye 35
▁panel 35
▁paranoid 35
▁patrick 35
▁pearl 35
▁phrase 35
▁profession 35
▁prophet 35
▁radi 35
▁reckless 35
▁recruit 35
▁recruited 35
▁reef 35
▁reign 35
▁remotely 35
▁reverend 35
▁reynolds 35
▁ridge 35
▁rotten 35
▁saroja 35
▁scenes 35
▁scheme 35
▁seasons 35
▁settlement 35
▁setup 35
▁shar 35
▁sna 35
▁snack 35
▁soccer 35
▁spine 35
▁ster 35
▁stir 35
▁surrounding 35
▁tactical 35
▁tender 35
▁termin 35
▁tong 35
▁traces 35
▁unlock 35
▁unnecessarily 35
▁vain 35
▁var 35
▁visa 35
▁weed 35
▁whack 35
▁yup 35
adu 34
ady 34
aker 34
cat 34
ction 34
cub 34
ded 34
ever 34
gie 34
him 34
imeter 34
ingly 34
keeper 34
most 34
oni 34
oop 34
oster 34
ought 34
play 34
rant 34
rit 34
rov 34
uction 34
á 34
▁20,000 34
▁52 34
▁65 34
▁abbott 34
▁albi 34
▁ally 34
▁angela 34
▁anushka 34
▁attracted 34
▁author 34
▁autopsy 34
▁barbarians 34
▁bark 34
▁beep 34
▁boris 34
▁boxer 34
▁bravery 34
▁bumble 34
▁candidate 34
▁canyon 34
▁chains 34
▁claiming 34
▁combined 34
▁cooperation 34
▁cows 34
▁crab 34
▁cubs 34
▁cyber 34
▁dared 34
▁dealers 34
▁destination 34
▁detected 34
▁differences 34
▁ditch 34
▁dj 34
▁doomed 34
▁drain 34
▁dubai 34
▁everest 34
▁extract 34
▁february 34
▁feeds 34
▁forehead 34
▁fridge 34
▁giants 34
▁goodwin 34
▁greet 34
▁gy 34
▁happier 34
▁hills 34
▁hind 34
▁horace 34
▁hostel 34
▁immune 34
▁implant 34
▁implementation 34
▁incomplete 34
▁individuals 34
▁infirmary 34
▁inst 34
▁installed 34
▁invested 34
▁isaac 34
▁jesse 34
▁jinx 34
▁jur 34
▁komali 34
▁landlord 34
▁lat 34
▁laurel 34
▁lena 34
▁malcolm 34
▁malfunction 34
▁manhattan 34
▁memorial 34
▁meter 34
▁missions 34
▁moral 34
▁nathan 34
▁nikhil 34
▁offers 34
▁panting 34
▁payback 34
▁performed 34
▁physically 34
▁pier 34
▁pilots 34
▁pinky 34
▁pipes 34
▁poisoning 34
▁practical 34
▁ransom 34
▁rebellion 34
▁refusing 34
▁remembers 34
▁repeating 34
▁rickman 34
▁ricky 34
▁rite 34
▁savings 34
▁shuttle 34
▁sits 34
▁skye 34
▁slit 34
▁slowing 34
▁smallest 34
▁soviet 34
▁stan 34
▁strongest 34
▁submarine 34
▁sunrise 34
▁taha 34
▁tokyo 34
▁triggered 34
▁truce 34
▁turkey 34
▁unin 34
▁unlikely 34
▁veins 34
▁via 34
▁violation 34
▁wakes 34
▁walsh 34
▁wander 34
▁wangdu 34
▁washing 34
▁whisper 34
▁wires 34
▁yank 34
▁zamani 34
abad 33
aling 33
aran 33
aut 33
dog 33
dr 33
eline 33
encing 33
every 33
fo 33
foot 33
fort 33
haw 33
ifies 33
iful 33
ipe 33
itely 33
life 33
lla 33
nam 33
oe 33
oured 33
rak 33
reen 33
seven 33
shit 33
six 33
ston 33
tle 33
uced 33
view 33
zer 33
▁007 33
▁2009 33
▁72 33
▁777 33
▁abruzzi 33
▁acceler 33
▁activate 33
▁angels 33
▁anxious 33
▁ape 33
▁appreciated 33
▁arab 33
▁arrogant 33
▁arrows 33
▁artery 33
▁article 33
▁babji 33
▁backyard 33
▁bedtime 33
▁blessing 33
▁bugs 33
▁bush 33
▁calc 33
▁calculations 33
▁calf 33
▁carp 33
▁carpet 33
▁celebrating 33
▁chalk 33
▁champ 33
▁cloak 33
▁cloth 33
▁cred 33
▁curve 33
▁daren 33
▁dentist 33
▁depths 33
▁derail 33
▁desp 33
▁detonate 33
▁disagree 33
▁drowning 33
▁dy 33
▁economy 33
▁editor 33
▁entertain 33
▁errand 33
▁eternity 33
▁explode 33
▁facial 33
▁factor 33
▁fails 33
▁feared 33
▁fig 33
▁ft 33
▁gerrard 33
▁gh 33
▁gunfire 33
▁healing 33
▁hiro 33
▁honorable 33
▁hustle 33
▁includes 33
▁insight 33
▁intern 33
▁introduction 33
▁isolated 33
▁jupiter 33
▁knives 33
▁korean 33
▁kur 33
▁ladyship 33
▁lakh 33
▁lance 33
▁lawrence 33
▁lesser 33
▁lifted 33
▁ling 33
▁linguini 33
▁lousy 33
▁makeup 33
▁malvika 33
▁meals 33
▁mechanical 33
▁meets 33
▁mentor 33
▁minus 33
▁miracles 33
▁mona 33
▁motel 33
▁nerves 33
▁norton 33
▁patriot 33
▁payments 33
▁persons 33
▁pillow 33
▁pindaris 33
▁pops 33
▁preceding 33
▁profits 33
▁rally 33
▁rapunzel 33
▁reaches 33
▁receipt 33
▁recognise 33
▁referred 33
▁regardless 33
▁reminded 33
▁retrieve 33
▁rewards 33
▁roommate 33
▁rosen 33
▁seize 33
▁sel 33
▁skinny 33
▁sleepy 33
▁smash 33
▁southeast 33
▁stanton 33
▁sunlight 33
▁sympathy 33
▁tables 33
▁tami 33
▁tapes 33
▁terrified 33
▁thadeous 33
▁topic 33
▁tourists 33
▁underestimate 33
▁upside 33
▁versus 33
▁williams 33
▁wink 33
.00 32
ached 32
anium 32
aud 32
bel 32
bot 32
bridge 32
cal 32
cel 32
cess 32
chers 32
destruct 32
ez 32
hard 32
ident 32
lying 32
nu 32
orse 32
raj 32
rels 32
rod 32
safe 32
san 32
school 32
senpai 32
shirt 32
ties 32
uko 32
ulator 32
uled 32
ummy 32
uth 32
vere 32
vy 32
wife 32
ye 32
▁41 32
▁abducted 32
▁acquired 32
▁ancestors 32
▁antidote 32
▁appointed 32
▁astronomy 32
▁auspicious 32
▁bansal 32
▁barbie 32
▁basil 32
▁behaviour 32
▁bio 32
▁bolt 32
▁bonds 32
▁borrowed 32
▁branches 32
▁breakthrough 32
▁brick 32
▁buckle 32
▁cable 32
▁canceled 32
▁casualties 32
▁clip 32
▁clu 32
▁column 32
▁committing 32
▁concerns 32
▁contribution 32
▁coo 32
▁cooked 32
▁cookies 32
▁cortez 32
▁cou 32
▁couples 32
▁covers 32
▁creates 32
▁curtis 32
▁darn 32
▁defensive 32
▁definition 32
▁democracy 32
▁devasena 32
▁diner 32
▁div 32
▁diversion 32
▁dose 32
▁douche 32
▁dutch 32
▁eleven 32
▁eloise 32
▁emb 32
▁ens 32
▁envy 32
▁establish 32
▁execution 32
▁exhibit 32
▁exits 32
▁explaining 32
▁farther 32
▁float 32
▁folk 32
▁forged 32
▁freed 32
▁furious 32
▁gangster 32
▁grac 32
▁grad 32
▁hatred 32
▁hobbs 32
▁hopeless 32
▁houston 32
▁hyd 32
▁importantly 32
▁indians 32
▁inquiry 32
▁inspect 32
▁intact 32
▁ironic 32
▁kabir 32
▁kathryn 32
▁kau 32
▁kilometers 32
▁korea 32
▁lass 32
▁ledger 32
▁les 32
▁logic 32
▁madras 32
▁mafia 32
▁magician 32
▁magnet 32
▁marsh 32
▁mika 32
▁modified 32
▁mol 32
▁monitoring 32
▁morgue 32
▁neil 32
▁neutral 32
▁nsa 32
▁organize 32
▁philosophy 32
▁pimp 32
▁plains 32
▁plug 32
▁politician 32
▁practicing 32
▁principle 32
▁provides 32
▁rahl 32
▁ras 32
▁refer 32
▁referring 32
▁refuge 32
▁regain 32
▁regard 32
▁relatively 32
▁remembering 32
▁revenue 32
▁risked 32
▁rolled 32
▁ronal 32
▁ros 32
▁sarge 32
▁sau 32
▁scenario 32
▁servants 32
▁shaggy 32
▁sheer 32
▁shops 32
▁sixty 32
▁smugg 32
▁spain 32
▁spying 32
▁stepping 32
▁stores 32
▁stray 32
▁strikes 32
▁striking 32
▁sunshine 32
▁surprising 32
▁targeted 32
▁traveled 32
▁tune 32
▁uk 32
▁vigil 32
▁vs 32
▁waitress 32
▁whichever 32
▁wick 32
▁worm 32
▁xi 32
▁yashida 32
,6 31
10 31
alk 31
ami 31
ange 31
anna 31
appy 31
astic 31
bat 31
bor 31
eet 31
endra 31
erson 31
ffe 31
gate 31
hered 31
itive 31
lines 31
lings 31
osh 31
oud 31
power 31
ral 31
rian 31
tu 31
udge 31
vable 31
wing 31
▁38 31
▁accidents 31
▁adopt 31
▁adults 31
▁allowing 31
▁amar 31
▁anderson 31
▁ange 31
▁antibiotics 31
▁anyways 31
▁aravind 31
▁ark 31
▁astronaut 31
▁au 31
▁audio 31
▁aut 31
▁bac 31
▁billions 31
▁breslin 31
▁butler 31
▁buttons 31
▁cere 31
▁choke 31
▁claudia 31
▁clothing 31
▁cockpit 31
▁colleagues 31
▁comic 31
▁concl 31
▁countdown 31
▁courts 31
▁crawling 31
▁cunning 31
▁dated 31
▁defending 31
▁delete 31
▁destined 31
▁directors 31
▁disappointment 31
▁discipline 31
▁discussing 31
▁dishes 31
▁donor 31
▁est 31
▁establishment 31
▁eternal 31
▁fairies 31
▁fairly 31
▁females 31
▁floors 31
▁fog 31
▁gale 31
▁galen 31
▁generations 31
▁ger 31
▁gram 31
▁hallway 31
▁handcuffs 31
▁hauser 31
▁heavens 31
▁hip 31
▁horizon 31
▁hospitals 31
▁hydrogen 31
▁ig 31
▁imag 31
▁infinite 31
▁judes 31
▁kay 31
▁kong 31
▁latin 31
▁leonard 31
▁lighter 31
▁locks 31
▁lon 31
▁longest 31
▁lori 31
▁lottery 31
▁luc 31
▁mast 31
▁matt 31
▁mercenary 31
▁metro 31
▁minions 31
▁mir 31
▁misery 31
▁murali 31
▁mutton 31
▁neat 31
▁neg 31
▁neur 31
▁novel 31
▁obtained 31
▁occupied 31
▁olivia 31
▁override 31
▁owl 31
▁packs 31
▁paralyzed 31
▁parcher 31
▁peacock 31
▁peggy 31
▁pentagon 31
▁pigeon 31
▁potatoes 31
▁praying 31
▁pressing 31
▁promoted 31
▁prospect 31
▁provision 31
▁rains 31
▁raped 31
▁restore 31
▁resur 31
▁rider 31
▁roam 31
▁rosa 31
▁ross 31
▁scares 31
▁seals 31
▁shade 31
▁sickness 31
▁sippy 31
▁slaughter 31
▁snatched 31
▁sniper 31
▁standards 31
▁stew 31
▁stu 31
▁supper 31
▁tailor 31
▁temperatures 31
▁tense 31
▁texting 31
▁thirst 31
▁trophy 31
▁unnecessary 31
▁unpredictable 31
▁urgently 31
▁vaseegaran 31
▁vera 31
▁vir 31
▁virtually 31
▁volume 31
▁website 31
▁worldwide 31
000 30
60 30
82 30
acted 30
ait 30
amy 30
anes 30
awa 30
bell 30
bling 30
ela 30
eng 30
ested 30
fic 30
gas 30
iers 30
kers 30
lex 30
lynn 30
oded 30
olved 30
omy 30
shot 30
tes 30
uit 30
umes 30
ushing 30
uwa 30
wise 30
и 30
▁+ 30
▁1549 30
▁39 30
▁800 30
▁adm 30
▁adoption 30
▁adrenaline 30
▁alabama 30
▁alongside 30
▁alternate 30
▁appeal 30
▁banana 30
▁begged 30
▁bennet 30
▁bits 30
▁bomber 30
▁boxers 30
▁breached 30
▁broker 30
▁broom 30
▁bully 30
▁butcher 30
▁cannon 30
▁caste 30
▁catches 30
▁cau 30
▁choudhary 30
▁circles 30
▁clues 30
▁cm 30
▁compare 30
▁contacted 30
▁conversations 30
▁cooler 30
▁costumes 30
▁cot 30
▁counsel 30
▁coverage 30
▁crook 30
▁cuckoo 30
▁decepticons 30
▁defin 30
▁designer 30
▁dh 30
▁diesel 30
▁difficulties 30
▁disturbance 30
▁divine 30
▁donation 30
▁dope 30
▁dum 30
▁elect 30
▁emerald 30
▁evaluation 30
▁ew 30
▁excitement 30
▁exploded 30
▁fab 30
▁fal 30
▁farmers 30
▁faul 30
▁followers 30
▁forensic 30
▁framed 30
▁fran 30
▁fuller 30
▁gaz 30
▁gifted 30
▁goose 30
▁grounded 30
▁gunshot 30
▁hacker 30
▁handy 30
▁heartbeat 30
▁hesitate 30
▁hunted 30
▁hybrid 30
▁idol 30
▁ifs 30
▁immy 30
▁implic 30
▁indistinct 30
▁interference 30
▁je 30
▁jessica 30
▁joong 30
▁jun 30
▁kansas 30
▁kh 30
▁kitty 30
▁kravid 30
▁lame 30
▁lau 30
▁lauren 30
▁lear 30
▁leather 30
▁losers 30
▁louise 30
▁lycan 30
▁lycans 30
▁martial 30
▁materials 30
▁messy 30
▁mock 30
▁moran 30
▁morse 30
▁mortgage 30
▁mowgli 30
▁mutation 30
▁oblig 30
▁offended 30
▁ol 30
▁opera 30
▁paige 30
▁palm 30
▁passage 30
▁permanently 30
▁pest 30
▁petty 30
▁pickup 30
▁pork 30
▁predator 30
▁psychological 30
▁publicity 30
▁quicker 30
▁raina 30
▁reduced 30
▁reference 30
▁reminder 30
▁retain 30
▁rex 30
▁reznik 30
▁risky 30
▁rival 30
▁rode 30
▁rone 30
▁rusty 30
▁sentimental 30
▁sentinel 30
▁serum 30
▁shallow 30
▁shave 30
▁shred 30
▁shreya 30
▁sixth 30
▁ski 30
▁sleeps 30
▁solomon 30
▁spite 30
▁sprink 30
▁squadron 30
▁steep 30
▁structures 30
▁stun 30
▁superb 30
▁swagger 30
▁taco 30
▁tarr 30
▁tj 30
▁tore 30
▁tracker 30
▁transmitter 30
▁turbo 30
▁tying 30
▁unre 30
▁verdict 30
▁vetri 30
▁vika 30
▁whereas 30
▁wrest 30
.9 29
30 29
aning 29
arium 29
asing 29
asy 29
atives 29
aul 29
bear 29
bered 29
born 29
brien 29
cker 29
cking 29
cular 29
etic 29
gel 29
hello 29
iced 29
iel 29
ifying 29
ilt 29
imes 29
lam 29
low 29
mile 29
mmm 29
new 29
oning 29
oooo 29
ple 29
po 29
pro 29
quet 29
rain 29
rr 29
run 29
sel 29
sters 29
tw 29
very 29
wara 29
▁achieved 29
▁achievement 29
▁actors 29
▁adv 29
▁afterwards 29
▁ako 29
▁aman 29
▁analyze 29
▁anyhow 29
▁applications 29
▁arguing 29
▁arizona 29
▁atleast 29
▁australian 29
▁beeping 29
▁bennett 29
▁bhairava 29
▁biology 29
▁blackout 29
▁blake 29
▁ble 29
▁blindfold 29
▁bothers 29
▁bp 29
▁bradley 29
▁brah 29
▁burglar 29
▁businesses 29
▁butterfly 29
▁buyer 29
▁bypass 29
▁choosing 29
▁civilization 29
▁comms 29
▁communicating 29
▁connections 29
▁copper 29
▁cors 29
▁coven 29
▁cris 29
▁critic 29
▁crop 29
▁cuffs 29
▁cynthia 29
▁dash 29
▁dc 29
▁deceit 29
▁decides 29
▁delighted 29
▁dennis 29
▁departure 29
▁detailed 29
▁disarm 29
▁disgrace 29
▁dismissed 29
▁dodi 29
▁eliminated 29
▁encrypted 29
▁enterprises 29
▁entr 29
▁equally 29
▁escal 29
▁ess 29
▁expl 29
▁expressed 29
▁extinction 29
▁fellows 29
▁ferry 29
▁finishing 29
▁floyd 29
▁fors 29
▁franck 29
▁freely 29
▁fuss 29
▁gag 29
▁gesture 29
▁gloves 29
▁gon 29
▁grenade 29
▁guessed 29
▁habits 29
▁hardware 29
▁harness 29
▁hermes 29
▁hoff 29
▁horror 29
▁horus 29
▁ibrahim 29
▁ign 29
▁imlay 29
▁initiated 29
▁initiating 29
▁inspection 29
▁instance 29
▁instantly 29
▁instrument 29
▁intent 29
▁interviews 29
▁jal 29
▁jaw 29
▁jeopard 29
▁jumps 29
▁junkie 29
▁kaulder 29
▁keefe 29
▁kindly 29
▁kragle 29
▁kree 29
▁laboratory 29
▁labour 29
▁latif 29
▁leah 29
▁lifestyle 29
▁lunatic 29
▁luthorcorp 29
▁mainly 29
▁males 29
▁mammoth 29
▁marie 29
▁martinez 29
▁merlin 29
▁militia 29
▁mockingjay 29
▁module 29
▁mos 29
▁negro 29
▁newton 29
▁nod 29
▁obs 29
▁obst 29
▁omar 29
▁operative 29
▁operator 29
▁orphanage 29
▁overcome 29
▁owners 29
▁ox 29
▁pap 29
▁pennsylvania 29
▁perpet 29
▁pers 29
▁petrol 29
▁philly 29
▁prob 29
▁proves 29
▁purcell 29
▁questioned 29
▁ranjana 29
▁realised 29
▁realm 29
▁recipe 29
▁recommended 29
▁reflect 29
▁relieved 29
▁rendezvous 29
▁reset 29
▁rigged 29
▁rightful 29
▁rodney 29
▁ropes 29
▁saya 29
▁scores 29
▁scouts 29
▁seated 29
▁señor 29
▁shelf 29
▁sho 29
▁skies 29
▁slippers 29
▁sore 29
▁specs 29
▁spoiled 29
▁steak 29
▁steele 29
▁stig 29
▁stim 29
▁stinking 29
▁sway 29
▁tattooed 29
▁texted 29
▁theater 29
▁thornton 29
▁thrill 29
▁titus 29
▁tolerate 29
▁touches 29
▁trump 29
▁turner 29
▁ultimately 29
▁unfair 29
▁varun 29
▁vin 29
▁viper 29
▁wasim 29
▁wel 29
▁wished 29
▁wreckage 29
▁zapata 29
.7 28
actor 28
agers 28
athy 28
atics 28
aug 28
ban 28
bone 28
bro 28
bu 28
called 28
chester 28
cket 28
class 28
eric 28
ike 28
itted 28
itty 28
iva 28
jack 28
met 28
minute 28
mond 28
nel 28
nie 28
ores 28
osa 28
osis 28
ounced 28
phone 28
pr 28
rad 28
rell 28
ression 28
rich 28
ros 28
ss 28
tight 28
uda 28
ulars 28
under 28
urity 28
ushed 28
verse 28
yard 28
Ç 28
í 28
▁120 28
▁2008 28
▁50,000 28
▁abby 28
▁accidentally 28
▁afterlife 28
▁alb 28
▁ale 28
▁almighty 28
▁alu 28
▁angie 28
▁angulimala 28
▁ankle 28
▁annoying 28
▁antenna 28
▁apologizing 28
▁approached 28
▁arabic 28
▁artists 28
▁associates 28
▁backwards 28
▁badass 28
▁balances 28
▁bapt 28
▁batch 28
▁bingo 28
▁blaming 28
▁blaze 28
▁bodyguard 28
▁boon 28
▁boost 28
▁booty 28
▁bradshaw 28
▁breast 28
▁bru 28
▁bubbles 28
▁builder 28
▁cabe 28
▁capt 28
▁carbon 28
▁cassandra 28
▁chanchad 28
▁chandni 28
▁circuit 28
▁clar 28
▁cocaine 28
▁concentration 28
▁consist 28
▁consistent 28
▁construct 28
▁conv 28
▁convincing 28
▁corners 28
▁corrected 28
▁coughing 28
▁cour 28
▁crank 28
▁crystal 28
▁cuba 28
▁dang 28
▁delicate 28
▁devlin 28
▁dhar 28
▁disappoint 28
▁discount 28
▁disturbed 28
▁divya 28
▁dizzy 28
▁dolan 28
▁dough 28
▁dougy 28
▁dwell 28
▁eagles 28
▁enlighten 28
▁eta 28
▁evo 28
▁expand 28
▁experts 28
▁explosive 28
▁falzone 28
▁fasc 28
▁favors 28
▁fitting 28
▁flaps 28
▁flaw 28
▁floating 28
▁forensics 28
▁fortunately 28
▁frustrated 28
▁funded 28
▁gamora 28
▁greed 28
▁greek 28
▁herr 28
▁hilarious 28
▁humiliated 28
▁hut 28
▁ignoring 28
▁illness 28
▁immense 28
▁importance 28
▁indiana 28
▁ink 28
▁inn 28
▁innocence 28
▁insect 28
▁islam 28
▁jenkins 28
▁kap 28
▁lakshmi 28
▁laying 28
▁letty 28
▁ll 28
▁loading 28
▁lydon 28
▁magistrate 28
▁magnetic 28
▁manip 28
▁mccall 28
▁mecha 28
▁medium 28
▁meteors 28
▁mint 28
▁mith 28
▁miyazaki 28
▁muslims 28
▁naz 28
▁noted 28
▁nov 28
▁onboard 28
▁orleans 28
▁outcome 28
▁outstanding 28
▁participated 28
▁partnership 28
▁patterns 28
▁peak 28
▁peril 28
▁pittman 28
▁por 28
▁potato 28
▁pour 28
▁prayed 28
▁presents 28
▁privilege 28
▁promising 28
▁protein 28
▁pul 28
▁pym 28
▁que 28
▁quinton 28
▁rajjo 28
▁rand 28
▁recogn 28
▁recruits 28
▁reservation 28
▁roar 28
▁roast 28
▁robbers 28
▁sacrifices 28
▁sammy 28
▁sauce 28
▁scam 28
▁scattered 28
▁scaven 28
▁scoob 28
▁scooter 28
▁scope 28
▁scrub 28
▁secretly 28
▁sew 28
▁sewa 28
▁shattered 28
▁shells 28
▁shrimp 28
▁sig 28
▁sights 28
▁singer 28
▁slight 28
▁sory 28
▁spectacular 28
▁sponsor 28
▁stain 28
▁starve 28
▁stunt 28
▁sucker 28
▁sudheer 28
▁suggests 28
▁superstar 28
▁supreme 28
▁tanner 28
▁teller 28
▁til 28
▁tops 28
▁tre 28
▁trusts 28
▁unh 28
▁unicorn 28
▁unidentified 28
▁videos 28
▁weep 28
▁witnessed 28
▁writer 28
▁ze 28
▁£ 28
80 27
aced 27
aped 27
aren 27
ased 27
ature 27
ba 27
bird 27
cles 27
eable 27
eem 27
etr 27
gger 27
going 27
hit 27
hol 27
ibilities 27
icing 27
icon 27
ien 27
ikes 27
ild 27
inate 27
inating 27
inc 27
ira 27
isters 27
itated 27
iter 27
itor 27
itz 27
kill 27
laim 27
lle 27
lyn 27
maid 27
matic 27
mi 27
nder 27
ocr 27
omed 27
rator 27
rish 27
talk 27
tech 27
tor 27
uate 27
usions 27
van 27
vis 27
wards 27
zes 27
è 27
ü 27
▁100,000 27
▁2,000 27
▁44 27
▁accompany 27
▁acknowledge 27
▁adding 27
▁agenda 27
▁alter 27
▁ank 27
▁arif 27
▁artificial 27
▁attraction 27
▁baron 27
▁bellick 27
▁biological 27
▁boiling 27
▁breat 27
▁brenda 27
▁cactus 27
▁casual 27
▁catastrop 27
▁cctv 27
▁chained 27
▁chit 27
▁cinema 27
▁cod 27
▁colon 27
▁commonly 27
▁compassion 27
▁confidential 27
▁convoy 27
▁cri 27
▁cuff 27
▁curiosity 27
▁curry 27
▁debate 27
▁debts 27
▁decade 27
▁decades 27
▁deceased 27
▁decl 27
▁declare 27
▁deduct 27
▁descent 27
▁dessert 27
▁diego 27
▁diplom 27
▁distinct 27
▁donnie 27
▁drank 27
▁drugged 27
▁dub 27
▁duncan 27
▁eliminate 27
▁endless 27
▁entertainment 27
▁evert 27
▁expression 27
▁extensive 27
▁fabric 27
▁faked 27
▁fearless 27
▁feather 27
▁fi 27
▁filming 27
▁fitzie 27
▁flare 27
▁flowing 27
▁footsteps 27
▁forcing 27
▁fright 27
▁furniture 27
▁gajender 27
▁genie 27
▁geor 27
▁graduated 27
▁gran 27
▁gum 27
▁hacking 27
▁heights 27
▁homicide 27
▁ib 27
▁inject 27
▁insects 27
▁intentionally 27
▁jose 27
▁juvenile 27
▁kas 27
▁kilomet 27
▁ku 27
▁lac 27
▁legends 27
▁leon 27
▁lick 27
▁lifeboat 27
▁liking 27
▁lionel 27
▁lists 27
▁lois 27
▁lookin 27
▁mardon 27
▁markus 27
▁marlin 27
▁matheson 27
▁mem 27
▁merc 27
▁mercenaries 27
▁milky 27
▁millionaire 27
▁modest 27
▁mold 27
▁molecular 27
▁morphine 27
▁nagar 27
▁nailed 27
▁nations 27
▁nazi 27
▁neri 27
▁neu 27
▁newly 27
▁nikita 27
▁odessa 27
▁operatives 27
▁orcs 27
▁organizations 27
▁organs 27
▁ouch 27
▁overhead 27
▁painted 27
▁pairs 27
▁pand 27
▁penis 27
▁phd 27
▁phillips 27
▁pil 27
▁pinned 27
▁poke 27
▁pope 27
▁possessed 27
▁principles 27
▁producer 27
▁pursue 27
▁pursuing 27
▁railly 27
▁rancchoddas 27
▁rapidly 27
▁rascals 27
▁readings 27
▁reb 27
▁reconst 27
▁recovering 27
▁retali 27
▁riot 27
▁risking 27
▁rituals 27
▁robb 27
▁ruining 27
▁rus 27
▁saito 27
▁sanct 27
▁sandwiches 27
▁scanning 27
▁scold 27
▁seattle 27
▁sequ 27
▁seventh 27
▁sharkbait 27
▁shiv 27
▁silk 27
▁sip 27
▁slim 27
▁smuggling 27
▁sole 27
▁sought 27
▁spies 27
▁spilled 27
▁ssc 27
▁steadman 27
▁stealth 27
▁stressed 27
▁subtle 27
▁succeeded 27
▁successfully 27
▁supplied 27
▁survivor 27
▁tactics 27
▁tate 27
▁tens 27
▁terry 27
▁thanking 27
▁therapist 27
▁tipped 27
▁toes 27
▁towers 27
▁trad 27
▁transportation 27
▁tremendous 27
▁troubling 27
▁twin 27
▁tyre 27
▁unprecedented 27
▁vallon 27
▁vasee 27
▁vince 27
▁wang 27
▁warhead 27
▁warmth 27
▁weigh 27
▁wheelchair 27
▁whispers 27
▁witchcraft 27
▁zampa 27
.10 26
13 26
49 26
65 26
aby 26
aching 26
anne 26
aser 26
atha 26
bey 26
cell 26
cept 26
child 26
dad 26
dd 26
dling 26
dri 26
eg 26
ensity 26
eral 26
erate 26
ggy 26
hew 26
ially 26
ibility 26
icated 26
illed 26
iza 26
joy 26
lect 26
lies 26
lli 26
mails 26
mother 26
nn 26
only 26
ount 26
rog 26
town 26
urt 26
uses 26
using 26
usive 26
uther 26
west 26
▁abrasax 26
▁absence 26
▁accepting 26
▁accounted 26
▁acres 26
▁addiction 26
▁admir 26
▁airplane 26
▁aj 26
▁aleya 26
▁alfred 26
▁alfredo 26
▁anest 26
▁assured 26
▁audrey 26
▁beaut 26
▁bharathi 26
▁bombed 26
▁bonus 26
▁broadcasting 26
▁bron 26
▁businessman 26
▁buzzing 26
▁cann 26
▁celia 26
▁challenging 26
▁chambers 26
▁chun 26
▁closes 26
▁cocktail 26
▁colin 26
▁colored 26
▁comet 26
▁commun 26
▁complaining 26
▁complaints 26
▁conductor 26
▁congressman 26
▁conviction 26
▁correspond 26
▁crucial 26
▁cruise 26
▁danielle 26
▁delayed 26
▁demo 26
▁desperately 26
▁dex 26
▁diaper 26
▁dining 26
▁directed 26
▁discharge 26
▁distraction 26
▁domin 26
▁dominate 26
▁doom 26
▁drawer 26
▁drift 26
▁dubey 26
▁eas 26
▁emma 26
▁employed 26
▁evolved 26
▁examine 26
▁expectations 26
▁fierce 26
▁fireworks 26
▁flaming 26
▁freaks 26
▁freaky 26
▁fruits 26
▁genet 26
▁ghul 26
▁gi 26
▁gina 26
▁goddam 26
▁gradually 26
▁guardia 26
▁halluc 26
▁harmed 26
▁haunted 26
▁hike 26
▁humble 26
▁hydro 26
▁infiltrate 26
▁info 26
▁insulting 26
▁interpol 26
▁intimid 26
▁involving 26
▁jag 26
▁jarrah 26
▁jewels 26
▁keamy 26
▁kira 26
▁kisses 26
▁kl 26
▁kylie 26
▁laughed 26
▁layers 26
▁legit 26
▁leila 26
▁lin 26
▁locking 26
▁luiz 26
▁lun 26
▁majority 26
▁malaysian 26
▁manned 26
▁manufacture 26
▁mates 26
▁maurice 26
▁maxim 26
▁michel 26
▁mog 26
▁momma 26
▁mong 26
▁monthly 26
▁mop 26
▁mouths 26
▁nabi 26
▁ni 26
▁nuke 26
▁nurses 26
▁offline 26
▁olympic 26
▁opp 26
▁ori 26
▁outs 26
▁overre 26
▁panda 26
▁paras 26
▁pervert 26
▁pierce 26
▁pointless 26
▁pose 26
▁possum 26
▁poster 26
▁probe 26
▁properties 26
▁prot 26
▁psychiatrist 26
▁purchased 26
▁railway 26
▁ramses 26
▁ranch 26
▁rapid 26
▁regards 26
▁relating 26
▁repl 26
▁resource 26
▁resulting 26
▁rewind 26
▁rh 26
▁roses 26
▁rudder 26
▁sak 26
▁salute 26
▁samp 26
▁scars 26
▁scholars 26
▁screwing 26
▁secretariats 26
▁sensors 26
▁serves 26
▁shitty 26
▁shovel 26
▁singular 26
▁sinking 26
▁sixteen 26
▁sod 26
▁solitary 26
▁som 26
▁sou 26
▁spe 26
▁spicy 26
▁standby 26
▁stav 26
▁storms 26
▁stripped 26
▁summers 26
▁superv 26
▁surp 26
▁swift 26
▁tellin 26
▁tempt 26
▁testimony 26
▁thee 26
▁tighter 26
▁traded 26
▁traditions 26
▁traps 26
▁travels 26
▁treats 26
▁troy 26
▁ud 26
▁upgrade 26
▁uploaded 26
▁ups 26
▁utter 26
▁va 26
▁vegetarian 26
▁vers 26
▁vinciguerra 26
▁wage 26
▁waiter 26
▁whe 26
▁wid 26
▁willingly 26
▁wolff 26
▁wren 26
▁yadav 26
▁yells 26
▁youtube 26
▁yvette 26
,500 25
-8 25
87 25
action 25
aneous 25
asamy 25
aza 25
cam 25
cap 25
cond 25
course 25
eak 25
ella 25
eness 25
eye 25
fight 25
fting 25
hib 25
iate 25
idal 25
ifications 25
igh 25
ilize 25
irect 25
iri 25
itable 25
jan 25
laws 25
lder 25
lie 25
mart 25
nal 25
nuts 25
pat 25
post 25
state 25
tan 25
tim 25
tin 25
una 25
ury 25
weight 25
woman 25
would 25
xt 25
ј 25
▁07 25
▁61 25
▁abroad 25
▁accusing 25
▁acqu 25
▁adventures 25
▁aff 25
▁agencies 25
▁ahaana 25
▁amahl 25
▁anchor 25
▁applause 25
▁asano 25
▁aspir 25
▁assassination 25
▁assessment 25
▁atlantic 25
▁attempts 25
▁audition 25
▁authentic 25
▁automatic 25
▁awfully 25
▁banker 25
▁bassam 25
▁bathe 25
▁behold 25
▁benef 25
▁bites 25
▁blo 25
▁blog 25
▁blond 25
▁brandt 25
▁brew 25
▁briefcase 25
▁bubble 25
▁candle 25
▁candles 25
▁cdc 25
▁celebration 25
▁celebrity 25
▁cement 25
▁championship 25
▁chattering 25
▁chooses 25
▁clarity 25
▁claw 25
▁cleo 25
▁clyde 25
▁collar 25
▁colombo 25
▁colson 25
▁commence 25
▁comments 25
▁communities 25
▁compartment 25
▁conj 25
▁constable 25
▁corrupted 25
▁counselor 25
▁cries 25
▁crops 25
▁crystals 25
▁cult 25
▁dammit 25
▁decept 25
▁decoy 25
▁deepa 25
▁define 25
▁delusional 25
▁deserted 25
▁dicks 25
▁diplomatic 25
▁discretion 25
▁distribute 25
▁dragging 25
▁dresses 25
▁emir 25
▁endurance 25
▁env 25
▁era 25
▁exception 25
▁extend 25
▁feb 25
▁fif 25
▁flares 25
▁flashlight 25
▁fluffy 25
▁flush 25
▁forbid 25
▁forgiven 25
▁francisco 25
▁freight 25
▁fut 25
▁galaxies 25
▁gamble 25
▁google 25
▁gotya 25
▁guarding 25
▁harmless 25
▁hipp 25
▁hobb 25
▁hong 25
▁hooked 25
▁idle 25
▁improvement 25
▁inevitable 25
▁infin 25
▁instruments 25
▁intellect 25
▁interrupting 25
▁intr 25
▁invention 25
▁invincible 25
▁inviting 25
▁irrelevant 25
▁jr 25
▁jurisdiction 25
▁kan 25
▁kemp 25
▁kha 25
▁kneel 25
▁kumar 25
▁kun 25
▁landmark 25
▁launched 25
▁launching 25
▁lenihan 25
▁liars 25
▁limo 25
▁listed 25
▁luckily 25
▁macho 25
▁maintaining 25
▁maneuver 25
▁mathura 25
▁mend 25
▁ml 25
▁mossi 25
▁mourn 25
▁nakamura 25
▁nam 25
▁natalie 25
▁ng 25
▁nin 25
▁occup 25
▁occurs 25
▁offices 25
▁oops 25
▁opportunities 25
▁ost 25
▁overhe 25
▁owed 25
▁paintings 25
▁parallel 25
▁pend 25
▁persu 25
▁pha 25
▁philip 25
▁pickle 25
▁pip 25
▁pluck 25
▁pony 25
▁possibilities 25
▁preferred 25
▁prev 25
▁printed 25
▁procedures 25
▁protective 25
▁protector 25
▁psychopath 25
▁punched 25
▁punjabi 25
▁rainbow 25
▁ranchhodas 25
▁ranvir 25
▁rays 25
▁reel 25
▁remy 25
▁render 25
▁represents 25
▁respectable 25
▁resume 25
▁retrie 25
▁riddick 25
▁ripley 25
▁rivai 25
▁roaming 25
▁ruler 25
▁runaway 25
▁sailing 25
▁savage 25
▁shack 25
▁shiny 25
▁sie 25
▁slaughtered 25
▁slopes 25
▁smok 25
▁specialist 25
▁stakes 25
▁steering 25
▁struggled 25
▁submit 25
▁sunset 25
▁supervisor 25
▁surplus 25
▁symptoms 25
▁tac 25
▁teen 25
▁thanksgiving 25
▁thigh 25
▁thorin 25
▁thorough 25
▁thug 25
▁translation 25
▁tread 25
▁uhh 25
▁undo 25
▁unhappy 25
▁vacant 25
▁valve 25
▁vanish 25
▁verify 25
▁vicious 25
▁villains 25
▁virtue 25
▁walkie 25
▁warehouse 25
▁wckd 25
▁weibo 25
▁whis 25
▁willoughby 25
▁wired 25
▁yak 25
-12 24
14 24
19 24
45 24
85 24
acles 24
ainted 24
amma 24
ante 24
atri 24
bly 24
boat 24
burg 24
cip 24
comm 24
coon 24
core 24
dollar 24
ec 24
eed 24
enders 24
fs 24
gun 24
iana 24
icky 24
iko 24
inary 24
istics 24
itate 24
ivan 24
kel 24
leton 24
llen 24
mouth 24
pd 24
pin 24
reed 24
rence 24
rical 24
roll 24
sir 24
stand 24
sty 24
ther 24
ua 24
uct 24
ued 24
ulu 24
umbling 24
usted 24
uv 24
▁2006 24
▁2010 24
▁40,000 24
▁46 24
▁\ 24
▁advances 24
▁airlock 24
▁alibi 24
▁amen 24
▁ares 24
▁asap 24
▁asia 24
▁asian 24
▁assassins 24
▁ath 24
▁atlanta 24
▁autograp 24
▁avoiding 24
▁awaken 24
▁bankrupt 24
▁belts 24
▁betrayal 24
▁bets 24
▁bh 24
▁bik 24
▁bilal 24
▁blueprints 24
▁blur 24
▁boil 24
▁brag 24
▁branson 24
▁breaths 24
▁brooke 24
▁brutal 24
▁bulletproof 24
▁bumped 24
▁cakes 24
▁carriage 24
▁cataleya 24
▁cbi 24
▁cel 24
▁celebr 24
▁cer 24
▁chanting 24
▁chemist 24
▁clamp 24
▁clap 24
▁claws 24
▁clocksmith 24
▁coal 24
▁cobra 24
▁cocks 24
▁collateral 24
▁complic 24
▁concert 24
▁consulting 24
▁crawled 24
▁creep 24
▁crore 24
▁crust 24
▁dancer 24
▁darkseid 24
▁darren 24
▁dazz 24
▁dedicated 24
▁defended 24
▁depressed 24
▁desires 24
▁detroit 24
▁devika 24
▁disco 24
▁divided 24
▁dreamt 24
▁edmunds 24
▁elections 24
▁ellcrys 24
▁environmental 24
▁equations 24
▁euros 24
▁examined 24
▁existing 24
▁exploring 24
▁extent 24
▁ey 24
▁fert 24
▁filth 24
▁flattered 24
▁flick 24
▁flo 24
▁fortunate 24
▁garrick 24
▁garrison 24
▁gauge 24
▁generate 24
▁genes 24
▁geoff 24
▁gerry 24
▁glimpse 24
▁globodyne 24
▁gnomeo 24
▁gotcha 24
▁grades 24
▁granting 24
▁greeting 24
▁hardest 24
▁healed 24
▁hermione 24
▁heroine 24
▁hooper 24
▁ignition 24
▁imf 24
▁inde 24
▁inhaler 24
▁inmates 24
▁interior 24
▁irrit 24
▁jaggu 24
▁jealousy 24
▁jodi 24
▁jules 24
▁karla 24
▁kilo 24
▁kir 24
▁label 24
▁lads 24
▁lannister 24
▁leito 24
▁levin 24
▁limbs 24
▁lone 24
▁lonnegan 24
▁loot 24
▁lou 24
▁lucian 24
▁lunar 24
▁markridge 24
▁matched 24
▁mega 24
▁metaphor 24
▁minho 24
▁misses 24
▁mistress 24
▁monitors 24
▁moons 24
▁nadia 24
▁nickname 24
▁nig 24
▁nigel 24
▁nightfall 24
▁nishant 24
▁notion 24
▁num 24
▁numb 24
▁obtain 24
▁oishi 24
▁opposed 24
▁orca 24
▁outis 24
▁overboard 24
▁owes 24
▁pajamas 24
▁pandu 24
▁parithi 24
▁partial 24
▁penguin 24
▁pension 24
▁perp 24
▁photography 24
▁physicist 24
▁pillar 24
▁plead 24
▁pledge 24
▁porter 24
▁pouring 24
▁preserve 24
▁processing 24
▁procession 24
▁profound 24
▁prometheus 24
▁provincial 24
▁psyche 24
▁puja 24
▁puppet 24
▁purposes 24
▁radzinsky 24
▁ragh 24
▁ramesh 24
▁ramsey 24
▁randall 24
▁rangers 24
▁reconsider 24
▁rejo 24
▁rental 24
▁repeatedly 24
▁resign 24
▁resting 24
▁restroom 24
▁reun 24
▁rickshaw 24
▁sailor 24
▁salvage 24
▁saturn 24
▁scavs 24
▁scissors 24
▁scoffs 24
▁sculpt 24
▁secretariat 24
▁sewer 24
▁shad 24
▁shameless 24
▁shat 24
▁shook 24
▁situations 24
▁sivarama 24
▁skip 24
▁smack 24
▁sneaking 24
▁sophisticated 24
▁spook 24
▁stack 24
▁steer 24
▁submitted 24
▁sufficient 24
▁summoned 24
▁suresh 24
▁survey 24
▁suspic 24
▁sweater 24
▁talbott 24
▁talents 24
▁tearing 24
▁texts 24
▁theresa 24
▁thirteen 24
▁torpedo 24
▁tourist 24
▁tricky 24
▁tubes 24
▁tweet 24
▁typically 24
▁una 24
▁updated 24
▁valued 24
▁vietnam 24
▁viewers 24
▁vish 24
▁voc 24
▁watches 24
▁wazir 24
▁weekends 24
▁wield 24
▁winners 24
▁winterfell 24
▁wo 24
▁woah 24
▁woodsman 24
.- 23
ader 23
aint 23
aki 23
akin 23
ament 23
ancer 23
antage 23
arily 23
ause 23
bee 23
being 23
cas 23
dock 23
doo 23
eau 23
eni 23
ential 23
erving 23
eta 23
fuck 23
fucking 23
gus 23
icles 23
ints 23
ither 23
iti 23
ived 23
iy 23
ken 23
mill 23
mr 23
odes 23
organ 23
range 23
read 23
rif 23
ruction 23
uns 23
uru 23
ux 23
want 23
white 23
word 23
zt 23
ñ 23
▁12- 23
▁25,000 23
▁51 23
▁96 23
▁aang 23
▁abused 23
▁aisle 23
▁allies 23
▁alpert 23
▁alt 23
▁amor 23
▁amounted 23
▁anticip 23
▁armies 23
▁asher 23
▁attended 23
▁atticus 23
▁aven 23
▁awhile 23
▁balcony 23
▁balli 23
▁barbarian 23
▁barbecue 23
▁barracks 23
▁becky 23
▁beds 23
▁beetle 23
▁behaving 23
▁beth 23
▁biryani 23
▁blinded 23
▁bonnie 23
▁bounce 23
▁boundaries 23
▁bran 23
▁brant 23
▁brooks 23
▁bun 23
▁busting 23
▁buys 23
▁café 23
▁cardiac 23
▁chari 23
▁chart 23
▁chile 23
▁christy 23
▁clarke 23
▁climbed 23
▁clubs 23
▁collision 23
▁compet 23
▁complained 23
▁consume 23
▁contribute 23
▁contributed 23
▁convention 23
▁corridor 23
▁counted 23
▁countless 23
▁cracks 23
▁cripple 23
▁crowded 23
▁currency 23
▁curtain 23
▁cyrus 23
▁dagger 23
▁dah 23
▁deception 23
▁deed 23
▁deliberately 23
▁dental 23
▁desc 23
▁despair 23
▁dime 23
▁ding 23
▁dinosaurs 23
▁dint 23
▁disconnect 23
▁divide 23
▁documentary 23
▁donit 23
▁doubted 23
▁drums 23
▁earning 23
▁earthquake 23
▁elite 23
▁elliot 23
▁emmett 23
▁encourage 23
▁estimates 23
▁european 23
▁exhibition 23
▁expertise 23
▁eywa 23
▁fabulous 23
▁fac 23
▁fasten 23
▁fax 23
▁ferrari 23
▁fertilizer 23
▁fewer 23
▁finan 23
▁freya 23
▁fug 23
▁fuselage 23
▁ghajini 23
▁gibbs 23
▁gob 23
▁gollum 23
▁gor 23
▁grasse 23
▁graz 23
▁hagrid 23
▁halt 23
▁handler 23
▁harford 23
▁harp 23
▁haunt 23
▁heels 23
▁henceforth 23
▁hockey 23
▁hollow 23
▁humili 23
▁hurricane 23
▁hyper 23
▁ic 23
▁ide 23
▁identifying 23
▁il 23
▁improvise 23
▁informant 23
▁insulted 23
▁inventory 23
▁involvement 23
▁isthis 23
▁italy 23
▁jatin 23
▁jessup 23
▁jester 23
▁judged 23
▁jyn 23
▁kali 23
▁kashmir 23
▁katherine 23
▁killings 23
▁ksenia 23
▁leadership 23
▁leezar 23
▁legendary 23
▁lighting 23
▁literature 23
▁lockett 23
▁loosen 23
▁lorca 23
▁mack 23
▁magn 23
▁malaysia 23
▁massage 23
▁masters 23
▁mayfair 23
▁mcallister 23
▁midst 23
▁mla 23
▁monum 23
▁mordor 23
▁motorcycle 23
▁murdering 23
▁necess 23
▁neglect 23
▁neural 23
▁northeast 23
▁obsession 23
▁olympia 23
▁panditji 23
▁participate 23
▁penalty 23
▁penn 23
▁pine 23
▁pissing 23
▁policemen 23
▁pontecorvo 23
▁prices 23
▁priv 23
▁prosecution 23
▁pulls 23
▁racket 23
▁radioactive 23
▁ragnar 23
▁rama 23
▁rastogi 23
▁rathod 23
▁redemption 23
▁reese 23
▁registration 23
▁reminding 23
▁renov 23
▁repairs 23
▁replacement 23
▁requests 23
▁resear 23
▁resignation 23
▁revolutionary 23
▁rhythm 23
▁riv 23
▁robbing 23
▁roshni 23
▁sabot 23
▁sac 23
▁safest 23
▁sans 23
▁sathya 23
▁seizure 23
▁shire 23
▁silencer 23
▁smoked 23
▁solving 23
▁specialty 23
▁splash 23
▁spoilt 23
▁stadium 23
▁stinks 23
▁strap 23
▁strictly 23
▁strings 23
▁stunning 23
▁suggested 23
▁summ 23
▁surgical 23
▁tails 23
▁talon 23
▁tapped 23
▁teaches 23
▁tequila 23
▁tessa 23
▁theoretical 23
▁thoroughly 23
▁thrash 23
▁tomato 23
▁traceur 23
▁transmit 23
▁transmitted 23
▁trench 23
▁tripped 23
▁typh 23
▁underwater 23
▁unload 23
▁veil 23
▁vibe 23
▁vickers 23
▁vine 23
▁visions 23
▁wag 23
▁whales 23
▁whatsoever 23
▁willy 23
▁wool 23
▁worms 23
▁wrench 23
▁zod 23
.2014 22
acting 22
adam 22
after 22
apa 22
arms 22
asc 22
avan 22
cast 22
check 22
chy 22
cia 22
cile 22
cken 22
ctic 22
ctor 22
dom 22
drop 22
enter 22
gn 22
grand 22
guard 22
hak 22
hell 22
hetic 22
hop 22
ias 22
icate 22
icial 22
ico 22
ida 22
ifer 22
inch 22
iously 22
irt 22
ision 22
jee 22
kay 22
keeping 22
lee 22
level 22
making 22
mar 22
mor 22
natural 22
nia 22
ocate 22
ocated 22
ota 22
ouch 22
phones 22
ried 22
rim 22
rous 22
ruct 22
self 22
Ø 22
à 22
ó 22
м 22
▁...... 22
▁101 22
▁66 22
▁@ 22
▁abd 22
▁accomplished 22
▁adj 22
▁advertise 22
▁airborne 22
▁alai 22
▁albert 22
▁allegiance 22
▁analyst 22
▁announced 22
▁antar 22
▁anton 22
▁apa 22
▁apos 22
▁appetite 22
▁archi 22
▁aris 22
▁asthma 22
▁atm 22
▁await 22
▁awareness 22
▁badulla 22
▁banging 22
▁barking 22
▁barrel 22
▁beau 22
▁beers 22
▁bert 22
▁bhat 22
▁bidding 22
▁biting 22
▁blackmailing 22
▁blan 22
▁blues 22
▁breeding 22
▁brig 22
▁briggs 22
▁buffalo 22
▁bul 22
▁bulls 22
▁bureaucr 22
▁busan 22
▁calculate 22
▁capsule 22
▁cassidy 22
▁cavalry 22
▁challenges 22
▁chao 22
▁chathur 22
▁chatting 22
▁chickens 22
▁chutney 22
▁clenching 22
▁clin 22
▁coaster 22
▁colorful 22
▁comedy 22
▁component 22
▁components 22
▁connecting 22
▁consists 22
▁contracts 22
▁convert 22
▁convict 22
▁cooperton 22
▁cowards 22
▁dairy 22
▁dal 22
▁damsel 22
▁danced 22
▁debrief 22
▁decomp 22
▁deepest 22
▁deli 22
▁detector 22
▁diab 22
▁dice 22
▁digest 22
▁disposal 22
▁disrupt 22
▁dorm 22
▁draft 22
▁droids 22
▁eli 22
▁ell 22
▁emotionally 22
▁estimated 22
▁extrem 22
▁fam 22
▁fare 22
▁feathers 22
▁fer 22
▁filing 22
▁finn 22
▁fishy 22
▁focusing 22
▁fork 22
▁gab 22
▁gaj 22
▁gau 22
▁generated 22
▁girlfriends 22
▁gra 22
▁greenwich 22
▁guidelines 22
▁gutter 22
▁handover 22
▁hanka 22
▁hanson 22
▁harvard 22
▁hav 22
▁heel 22
▁herbal 22
▁hillary 22
▁hmmm 22
▁homeless 22
▁horri 22
▁humming 22
▁hunts 22
▁improved 22
▁journalist 22
▁kil 22
▁kristo 22
▁landscape 22
▁lankan 22
▁lava 22
▁lazy 22
▁lenny 22
▁linked 22
▁listens 22
▁luis 22
▁macintosh 22
▁managing 22
▁masked 22
▁medals 22
▁micky 22
▁micr 22
▁microwave 22
▁mont 22
▁morgan 22
▁moss 22
▁moustache 22
▁mult 22
▁musical 22
▁namaste 22
▁needles 22
▁obama 22
▁obsc 22
▁occasional 22
▁orangutans 22
▁orc 22
▁orphans 22
▁ou 22
▁overkill 22
▁peanuts 22
▁penitentiary 22
▁pere 22
▁performing 22
▁philadelphia 22
▁picky 22
▁poet 22
▁poisonous 22
▁poking 22
▁poseidon 22
▁potentially 22
▁pradeep 22
▁precise 22
▁predicted 22
▁presidential 22
▁priceless 22
▁primarily 22
▁promote 22
▁protects 22
▁province 22
▁psychologist 22
▁rab 22
▁rainforest 22
▁ramal 22
▁randy 22
▁reads 22
▁reass 22
▁recre 22
▁reflex 22
▁regional 22
▁relaxed 22
▁renew 22
▁resolve 22
▁richards 22
▁rolls 22
▁rook 22
▁rox 22
▁rud 22
▁saddam 22
▁sadly 22
▁safari 22
▁sakes 22
▁saldua 22
▁salvation 22
▁sauron 22
▁scanner 22
▁scarecrow 22
▁scholarships 22
▁scully 22
▁secondary 22
▁sells 22
▁sensation 22
▁settling 22
▁shocking 22
▁shorts 22
▁similarly 22
▁sings 22
▁sith 22
▁skyler 22
▁smelled 22
▁snapped 22
▁socks 22
▁sof 22
▁sperm 22
▁stow 22
▁stre 22
▁stret 22
▁stretcher 22
▁stro 22
▁studios 22
▁submissive 22
▁sucked 22
▁supporting 22
▁sus 22
▁swap 22
▁syn 22
▁tack 22
▁tam 22
▁tamp 22
▁teenager 22
▁tenth 22
▁terrace 22
▁textbook 22
▁tissues 22
▁towns 22
▁transition 22
▁transp 22
▁transported 22
▁travis 22
▁trek 22
▁trials 22
▁trib 22
▁tryin 22
▁underst 22
▁unlocked 22
▁valid 22
▁velu 22
▁vidia 22
▁vikings 22
▁villa 22
▁virginia 22
▁visibility 22
▁visits 22
▁warming 22
▁weaknesses 22
▁wheeler 22
▁widow 22
▁windshield 22
▁wiser 22
▁wishing 22
▁wonders 22
▁wrecked 22
▁wrecking 22
▁wretched 22
▁xxx 22
▁yay 22
▁yemen 22
▁youngest 22
▁yu 22
▁‘ 22
.50 21
aco 21
actic 21
ads 21
akh 21
alin 21
aping 21
apt 21
arr 21
ason 21
asses 21
atched 21
aws 21
bon 21
case 21
chen 21
earth 21
eve 21
feld 21
front 21
gent 21
gina 21
gress 21
gue 21
hala 21
hearted 21
heer 21
heh 21
igan 21
igned 21
ills 21
iment 21
inky 21
inum 21
iser 21
itary 21
ivity 21
je 21
last 21
lim 21
lish 21
mine 21
nan 21
ng 21
ogen 21
oked 21
oll 21
ona 21
oons 21
oty 21
oun 21
pan 21
print 21
rath 21
rations 21
raw 21
rolled 21
sthe 21
style 21
sum 21
uch 21
udd 21
ulus 21
vern 21
wick 21
▁180 21
▁3- 21
▁57 21
▁86 21
▁98 21
▁absurd 21
▁abu 21
▁accountable 21
▁addresses 21
▁altogether 21
▁ambition 21
▁amira 21
▁annabel 21
▁apprehend 21
▁apprentice 21
▁arch 21
▁armored 21
▁assess 21
▁auditor 21
▁baggage 21
▁baldini 21
▁banished 21
▁barbara 21
▁bartok 21
▁bases 21
▁batticaloa 21
▁beak 21
▁behead 21
▁beliefs 21
▁beret 21
▁bergmans 21
▁beware 21
▁bikes 21
▁biometric 21
▁birdie 21
▁blunt 21
▁booking 21
▁booze 21
▁borough 21
▁bracelet 21
▁brad 21
▁brahmin 21
▁bricks 21
▁brit 21
▁camping 21
▁camps 21
▁capitalism 21
▁carey 21
▁cd 21
▁challenged 21
▁cheering 21
▁cheng 21
▁cherry 21
▁chur 21
▁civilized 21
▁clearer 21
▁clerk 21
▁clim 21
▁colours 21
▁commer 21
▁completing 21
▁compos 21
▁comr 21
▁concussion 21
▁conquer 21
▁constitution 21
▁consulate 21
▁contents 21
▁convey 21
▁coral 21
▁corporations 21
▁coulson 21
▁coz 21
▁crates 21
▁credentials 21
▁crosses 21
▁cuc 21
▁daggett 21
▁dangers 21
▁dani 21
▁darcy 21
▁dart 21
▁decorated 21
▁deton 21
▁devoted 21
▁dewey 21
▁didnt 21
▁discharged 21
▁diseases 21
▁diver 21
▁docking 21
▁dominant 21
▁douglas 21
▁draws 21
▁drey 21
▁dried 21
▁drilling 21
▁duplicate 21
▁durga 21
▁dw 21
▁dynamic 21
▁eardrum 21
▁economics 21
▁elaborate 21
▁electromagnetic 21
▁emerge 21
▁enterprise 21
▁enters 21
▁entitled 21
▁eval 21
▁exceed 21
▁execut 21
▁exquisite 21
▁extension 21
▁extortion 21
▁failing 21
▁fay 21
▁fearing 21
▁filter 21
▁fingerprint 21
▁firef 21
▁fireflies 21
▁firepower 21
▁fisherman 21
▁flooding 21
▁forg 21
▁fraida 21
▁francs 21
▁frankenstein 21
▁fres 21
▁fury 21
▁gad 21
▁gaining 21
▁gee 21
▁gel 21
▁ghetto 21
▁gli 21
▁goingto 21
▁granddad 21
▁granddaughter 21
▁grandparents 21
▁gren 21
▁guer 21
▁gulf 21
▁haas 21
▁handic 21
▁hanzo 21
▁haun 21
▁herb 21
▁horoscope 21
▁howdy 21
▁howell 21
▁hump 21
▁hunters 21
▁ifwe 21
▁immigration 21
▁immunity 21
▁incarcer 21
▁incorrect 21
▁increasingly 21
▁incurred 21
▁infl 21
▁infrared 21
▁inland 21
▁inquire 21
▁instructed 21
▁intake 21
▁integr 21
▁investigator 21
▁iranian 21
▁izz 21
▁joffrey 21
▁johan 21
▁jolly 21
▁kane 21
▁kasim 21
▁katia 21
▁kgb 21
▁kot 21
▁ky 21
▁lax 21
▁learns 21
▁lens 21
▁leopard 21
▁liby 21
▁lid 21
▁lingaa 21
▁liver 21
▁lizards 21
▁logical 21
▁lookout 21
▁lorraine 21
▁lungs 21
▁madman 21
▁mainframe 21
▁manipulate 21
▁marshall 21
▁marvelous 21
▁matrix 21
▁mercedes 21
▁mes 21
▁mice 21
▁misunderstood 21
▁moira 21
▁movements 21
▁naive 21
▁nigga 21
▁nik 21
▁ny 21
▁odin 21
▁offshore 21
▁ofyou 21
▁ordering 21
▁oss 21
▁oui 21
▁panicked 21
▁particles 21
▁pavel 21
▁peaks 21
▁pearly 21
▁peas 21
▁percentage 21
▁permitted 21
▁pint 21
▁plankton 21
▁polish 21
▁popped 21
▁powered 21
▁prakash 21
▁premises 21
▁probability 21
▁prosper 21
▁ps 21
▁pud 21
▁puff 21
▁pupil 21
▁purple 21
▁qualities 21
▁racer 21
▁ramon 21
▁reade 21
▁reck 21
▁regularly 21
▁reinforcements 21
▁rely 21
▁repeated 21
▁replic 21
▁representing 21
▁reserve 21
▁restless 21
▁restored 21
▁reunion 21
▁rhys 21
▁rides 21
▁rocking 21
▁romilly 21
▁rottmayer 21
▁rout 21
▁rubicon 21
▁rug 21
▁runnin 21
▁rupt 21
▁rushed 21
▁salaries 21
▁sap 21
▁sarfaraz 21
▁scarf 21
▁scot 21
▁sedative 21
▁sentiment 21
▁severed 21
▁shaving 21
▁shitting 21
▁simulations 21
▁sis 21
▁siva 21
▁skunk 21
▁snape 21
▁sorrows 21
▁splin 21
▁stench 21
▁stiff 21
▁stored 21
▁stoy 21
▁sty 21
▁suhas 21
▁supported 21
▁suppress 21
▁susp 21
▁swamp 21
▁tant 21
▁tasted 21
▁terrifying 21
▁thanked 21
▁thermal 21
▁thinkin 21
▁thoothukudi 21
▁thrusters 21
▁timer 21
▁toll 21
▁transactions 21
▁transformation 21
▁transmissions 21
▁travelled 21
▁trips 21
▁trivial 21
▁tulsa 21
▁tung 21
▁vag 21
▁vegetables 21
▁venky 21
▁vicinity 21
▁virtual 21
▁vlad 21
▁volcano 21
▁volunteered 21
▁wilde 21
▁womb 21
▁woodward 21
▁yelled 21
▁තාපසතුමන 21
.8 20
25 20
62 20
aaaa 20
about 20
agger 20
ago 20
ahu 20
alling 20
aram 20
arch 20
arer 20
ario 20
ashes 20
assing 20
bank 20
based 20
because 20
bol 20
cake 20
control 20
cott 20
cri 20
cup 20
emp 20
erv 20
ety 20
eyed 20
fin 20
friend 20
from 20
geons 20
hamm 20
heim 20
iary 20
ibal 20
imate 20
inging 20
ior 20
ique 20
itha 20
ivable 20
kara 20
keys 20
lal 20
love 20
minded 20
nya 20
oir 20
olent 20
oney 20
ophil 20
piece 20
rew 20
rib 20
rice 20
seek 20
speak 20
staff 20
these 20
tling 20
tra 20
wala 20
wari 20
д 20
▁06 20
▁110 20
▁1977 20
▁20- 20
▁2005 20
▁67 20
▁abbie 20
▁abhi 20
▁airline 20
▁align 20
▁allegations 20
▁alleged 20
▁amateur 20
▁amigo 20
▁ammi 20
▁amnesia 20
▁arnold 20
▁aslan 20
▁associated 20
▁attending 20
▁automatically 20
▁awarded 20
▁bacteria 20
▁barb 20
▁beasts 20
▁beggar 20
▁belie 20
▁betty 20
▁billionaire 20
▁bj 20
▁blackbeard 20
▁blaz 20
▁bliss 20
▁bou 20
▁brut 20
▁burner 20
▁cages 20
▁canadian 20
▁canon 20
▁canvas 20
▁category 20
▁centers 20
▁chandrakala 20
▁chant 20
▁characters 20
▁cheerle 20
▁cheesebur 20
▁chem 20
▁chetty 20
▁chlor 20
▁chord 20
▁circular 20
▁clans 20
▁clut 20
▁codex 20
▁commodus 20
▁competitive 20
▁confuse 20
▁congratulate 20
▁conservation 20
▁contemp 20
▁conting 20
▁continuously 20
▁conventional 20
▁cooks 20
▁cooling 20
▁crit 20
▁dain 20
▁damp 20
▁dayton 20
▁dearest 20
▁deceive 20
▁dehyd 20
▁demarco 20
▁dense 20
▁deposited 20
▁derailer 20
▁detach 20
▁dif 20
▁disappears 20
▁diso 20
▁distributed 20
▁divers 20
▁divert 20
▁drought 20
▁dumbledore 20
▁eaves 20
▁edgar 20
▁educational 20
▁egyptian 20
▁elderly 20
▁elected 20
▁ellison 20
▁enab 20
▁enchan 20
▁encryption 20
▁enhanced 20
▁equation 20
▁evident 20
▁exile 20
▁expects 20
▁expedition 20
▁experiences 20
▁fainted 20
▁felony 20
▁fiancée 20
▁fiction 20
▁flint 20
▁founder 20
▁frag 20
▁freel 20
▁fro 20
▁galvatron 20
▁georges 20
▁gid 20
▁gise 20
▁glowing 20
▁graphic 20
▁gravitational 20
▁grievous 20
▁grind 20
▁groaning 20
▁guarded 20
▁guillam 20
▁hacky 20
▁hairy 20
▁halls 20
▁hebrew 20
▁herds 20
▁himalayas 20
▁hint 20
▁historic 20
▁historical 20
▁household 20
▁howie 20
▁imaginary 20
▁immortality 20
▁implemented 20
▁imported 20
▁ing 20
▁inheritance 20
▁inj 20
▁insulin 20
▁insur 20
▁inthe 20
▁intruder 20
▁jab 20
▁jackpot 20
▁jadalla 20
▁jasper 20
▁jess 20
▁jingiliya 20
▁johns 20
▁jordan 20
▁julian 20
▁justify 20
▁kahlan 20
▁kerns 20
▁kindness 20
▁kingdoms 20
▁kittens 20
▁kok 20
▁kos 20
▁kwan 20
▁laun 20
▁lean 20
▁lined 20
▁linges 20
▁locals 20
▁lucius 20
▁lung 20
▁mact 20
▁madge 20
▁magazines 20
▁malekith 20
▁malina 20
▁mango 20
▁maniac 20
▁manipulated 20
▁marco 20
▁marion 20
▁marriages 20
▁marvin 20
▁maryland 20
▁mau 20
▁melting 20
▁merchan 20
▁milepost 20
▁mott 20
▁municip 20
▁mur 20
▁nak 20
▁navig 20
▁newest 20
▁norrie 20
▁nuisance 20
▁objectives 20
▁obliv 20
▁omen 20
▁openly 20
▁osgood 20
▁outrun 20
▁oven 20
▁overrun 20
▁overs 20
▁parcel 20
▁pasha 20
▁patri 20
▁pav 20
▁paw 20
▁payroll 20
▁pearls 20
▁penetrate 20
▁perfum 20
▁pets 20
▁phenomenon 20
▁photograp 20
▁physician 20
▁picnic 20
▁pillars 20
▁pinch 20
▁poop 20
▁popcorn 20
▁predictable 20
▁presenting 20
▁priests 20
▁proc 20
▁projections 20
▁promot 20
▁propos 20
▁proposing 20
▁proving 20
▁psychic 20
▁publicly 20
▁punishing 20
▁quad 20
▁rak 20
▁rational 20
▁raul 20
▁reagan 20
▁realistic 20
▁reclaim 20
▁rehe 20
▁resid 20
▁residents 20
▁respects 20
▁ris 20
▁riz 20
▁rocky 20
▁rooft 20
▁roswell 20
▁royce 20
▁rudi 20
▁rupee 20
▁sadness 20
▁sage 20
▁salmon 20
▁santos 20
▁savages 20
▁scat 20
▁scotland 20
▁sem 20
▁semin 20
▁sensor 20
▁shaped 20
▁sheba 20
▁shoots 20
▁shorter 20
▁shyam 20
▁sierra 20
▁sif 20
▁simpler 20
▁sincerely 20
▁singapore 20
▁sinja 20
▁skirt 20
▁sleeper 20
▁slower 20
▁somewhat 20
▁spacecraft 20
▁spectac 20
▁stated 20
▁stocks 20
▁stranded 20
▁sunglasses 20
▁supposedly 20
▁suspension 20
▁sweating 20
▁switches 20
▁tangaballi 20
▁teenage 20
▁therm 20
▁thumbs 20
▁toug 20
▁trainee 20
▁transaction 20
▁transcript 20
▁transformed 20
▁uncles 20
▁unemploy 20
▁uniforms 20
▁util 20
▁vars 20
▁vaucan 20
▁vector 20
▁velocity 20
▁vend 20
▁verge 20
▁viking 20
▁waving 20
▁wax 20
▁wellington 20
▁werewol 20
▁whilst 20
▁whining 20
▁wong 20
▁wormhole 20
▁wyatt 20
▁yondu 20
▁youwill 20
▁zak 20
▁zanetakos 20
▁zaya 20
.30 19
17 19
37 19
abh 19
agon 19
aire 19
amine 19
anic 19
ares 19
aro 19
azz 19
bay 19
bes 19
breed 19
bug 19
cers 19
conner 19
crack 19
craft 19
dell 19
dies 19
eez 19
eight 19
elled 19
eroy 19
essa 19
eving 19
fare 19
game 19
gin 19
girl 19
great 19
greg 19
hest 19
hie 19
holders 19
iders 19
iffe 19
inn 19
inter 19
isms 19
itches 19
itis 19
jay 19
kun 19
llow 19
marines 19
mus 19
net 19
nic 19
nis 19
nut 19
oken 19
oles 19
olo 19
onto 19
oscopic 19
oul 19
pres 19
ptic 19
rators 19
rees 19
related 19
ressing 19
rock 19
rows 19
sit 19
speed 19
stage 19
tail 19
tie 19
tled 19
tz 19
vie 19
wee 19
þi 19
т 19
▁000 19
▁197 19
▁30- 19
▁68 19
▁700 19
▁79 19
▁91 19
▁` 19
▁abb 19
▁abusing 19
▁accessed 19
▁accordance 19
▁accum 19
▁ace 19
▁actress 19
▁administ 19
▁advocate 19
▁aether 19
▁agra 19
▁airlines 19
▁akanksha 19
▁akilan 19
▁albany 19
▁alcoholic 19
▁ammulu 19
▁anand 19
▁anomaly 19
▁anu 19
▁append 19
▁approaches 19
▁arbor 19
▁archae 19
▁arklow 19
▁atom 19
▁attrib 19
▁auditory 19
▁awaiting 19
▁aww 19
▁backed 19
▁bacon 19
▁bajirao 19
▁baptiste 19
▁barric 19
▁barrio 19
▁beta 19
▁bhagat 19
▁bloss 19
▁bonzo 19
▁bosses 19
▁bumper 19
▁buses 19
▁cairo 19
▁calib 19
▁caller 19
▁cameraman 19
▁candidates 19
▁carib 19
▁cattle 19
▁cellular 19
▁cents 19
▁charl 19
▁chatur 19
▁chau 19
▁cheaper 19
▁chitra 19
▁cic 19
▁clo 19
▁clocks 19
▁coded 19
▁coke 19
▁collaboration 19
▁colomb 19
▁columb 19
▁communic 19
▁compuls 19
▁concealed 19
▁console 19
▁consp 19
▁contam 19
▁continent 19
▁conven 19
▁crad 19
▁crooked 19
▁cull 19
▁cunt 19
▁curfew 19
▁dada 19
▁dak 19
▁davis 19
▁deactiv 19
▁dee 19
▁delightful 19
▁demonstrate 19
▁deployed 19
▁designs 19
▁detention 19
▁dict 19
▁dign 19
▁dimensions 19
▁disapp 19
▁disl 19
▁dispose 19
▁diving 19
▁dix 19
▁dos 19
▁doubled 19
▁drac 19
▁dred 19
▁dufresne 19
▁durai 19
▁earliest 19
▁elaine 19
▁eldest 19
▁ella 19
▁elrond 19
▁embry 19
▁encom 19
▁encountered 19
▁estimate 19
▁eu 19
▁exclusive 19
▁exotic 19
▁expense 19
▁extended 19
▁faithful 19
▁faking 19
▁fend 19
▁fiber 19
▁firewood 19
▁fluids 19
▁foxtrot 19
▁fragments 19
▁friendlies 19
▁frighten 19
▁fringe 19
▁frustration 19
▁functioning 19
▁gallery 19
▁gamb 19
▁gan 19
▁gaps 19
▁gargantua 19
▁gir 19
▁glam 19
▁gloria 19
▁graveyard 19
▁greatness 19
▁groot 19
▁gunman 19
▁hab 19
▁hamm 19
▁handing 19
▁hangar 19
▁hash 19
▁haywire 19
▁hazard 19
▁hereafter 19
▁heroic 19
▁holl 19
▁holt 19
▁hometown 19
▁hound 19
▁iced 19
▁identities 19
▁ifl 19
▁ignored 19
▁illeg 19
▁imminent 19
▁incidents 19
▁incl 19
▁indicates 19
▁ingen 19
▁inqu 19
▁interrog 19
▁interviewed 19
▁intoxic 19
▁inverter 19
▁investigated 19
▁involves 19
▁ireland 19
▁irony 19
▁isthe 19
▁ivan 19
▁jeans 19
▁joes 19
▁kab 19
▁ket 19
▁kirby 19
▁kuwait 19
▁lange 19
▁lapidus 19
▁layer 19
▁lemmings 19
▁lemon 19
▁lesbian 19
▁lim 19
▁limestone 19
▁logs 19
▁lords 19
▁lydia 19
▁mam 19
▁manufacturing 19
▁marc 19
▁mastermind 19
▁masterpiece 19
▁matching 19
▁mature 19
▁meltdown 19
▁mesmer 19
▁minnesota 19
▁miraculous 19
▁moonlight 19
▁motivated 19
▁murugan 19
▁muster 19
▁nab 19
▁nand 19
▁nant 19
▁narnia 19
▁nav 19
▁nazis 19
▁needn 19
▁nein 19
▁neville 19
▁noor 19
▁norway 19
▁obi 19
▁operated 19
▁orient 19
▁overseas 19
▁ownership 19
▁pakistani 19
▁parasites 19
▁patron 19
▁pending 19
▁phenomena 19
▁piggy 19
▁pilg 19
▁pinchelow 19
▁pist 19
▁plea 19
▁plight 19
▁pon 19
▁precaution 19
▁preliminary 19
▁programming 19
▁pron 19
▁prostitute 19
▁psychiatric 19
▁pupp 19
▁quitting 19
▁racial 19
▁ral 19
▁rates 19
▁ration 19
▁rd 19
▁realms 19
▁recordings 19
▁regrets 19
▁reservations 19
▁restrain 19
▁restraining 19
▁retro 19
▁rhodes 19
▁riddle 19
▁roberts 19
▁ronald 19
▁roots 19
▁routes 19
▁rukhsar 19
▁ruthless 19
▁sallallahu 19
▁sallam 19
▁sanders 19
▁saree 19
▁scandal 19
▁scroll 19
▁secondly 19
▁seizures 19
▁semester 19
▁servers 19
▁seventy 19
▁sever 19
▁sewers 19
▁shifting 19
▁shipped 19
▁shirts 19
▁shota 19
▁shri 19
▁shu 19
▁shukla 19
▁signatures 19
▁simulation 19
▁skilled 19
▁slut 19
▁smuggle 19
▁sofa 19
▁softly 19
▁sorcerer 19
▁speeding 19
▁spells 19
▁spinal 19
▁spitting 19
▁spreads 19
▁squat 19
▁stashed 19
▁stewart 19
▁straighten 19
▁structural 19
▁summon 19
▁sundays 19
▁sundown 19
▁swetha 19
▁sylvester 19
▁taggart 19
▁tanto 19
▁tease 19
▁techniques 19
▁telesc 19
▁terrain 19
▁terrorism 19
▁thankful 19
▁thawne 19
▁theme 19
▁thrive 19
▁transplant 19
▁trespassing 19
▁trop 19
▁tul 19
▁unacceptable 19
▁unleash 19
▁unlimited 19
▁urine 19
▁usa 19
▁user 19
▁utility 19
▁vacc 19
▁vica 19
▁vile 19
▁virt 19
▁vu 19
▁wad 19
▁wager 19
▁wealthy 19
▁wee 19
▁whites 19
▁wiggin 19
▁wilderness 19
▁yuri 19
▁za 19
▁zedd 19
33 18
40 18
67 18
70 18
adas 18
ager 18
ague 18
andra 18
angelo 18
angi 18
angs 18
aph 18
arin 18
arming 18
arse 18
ashi 18
aste 18
athe 18
avana 18
baptiste 18
bers 18
brush 18
bus 18
char 18
cian 18
cious 18
connor 18
cs 18
dam 18
dles 18
ebersole 18
ele 18
eo 18
erals 18
ergy 18
even 18
existence 18
fa 18
faced 18
fashioned 18
flash 18
hob 18
icted 18
iler 18
inished 18
itudes 18
jump 18
kh 18
lord 18
lov 18
mant 18
mble 18
mia 18
neg 18
nick 18
ographic 18
ointing 18
oking 18
olas 18
olog 18
ommy 18
orthy 18
osy 18
owing 18
proof 18
put 18
ready 18
ria 18
rol 18
round 18
rying 18
scale 18
sea 18
section 18
sels 18
sim 18
some 18
start 18
stream 18
than 18
thir 18
ucker 18
uffle 18
uli 18
ulum 18
ume 18
urp 18
uum 18
vals 18
vr 18
walking 18
watch 18
wave 18
wind 18
yn 18
ã 18
ø 18
в 18
р 18
▁71 18
▁abl 18
▁abraham 18
▁accommod 18
▁accuse 18
▁agriculture 18
▁ahmed 18
▁ai 18
▁algorithm 18
▁alum 18
▁ambitious 18
▁anastasia 18
▁annihil 18
▁anticipate 18
▁architecture 18
▁argued 18
▁arjun 18
▁arse 18
▁asb 18
▁ascent 18
▁assaulted 18
▁assemble 18
▁atroc 18
▁awaits 18
▁babii 18
▁bamboo 18
▁basha 18
▁bazaar 18
▁belladonna 18
▁bhaiyya 18
▁bhar 18
▁bicycle 18
▁bitten 18
▁blabbering 18
▁blades 18
▁blossom 18
▁boast 18
▁borders 18
▁brav 18
▁braz 18
▁bryan 18
▁builds 18
▁bulb 18
▁bungalow 18
▁caa 18
▁carb 18
▁caring 18
▁carrier 18
▁caspian 18
▁chal 18
▁chalices 18
▁chimp 18
▁chuckling 18
▁clam 18
▁closure 18
▁clowns 18
▁clubber 18
▁cocksucker 18
▁coinc 18
▁collapsed 18
▁combine 18
▁commands 18
▁comparison 18
▁complexion 18
▁compliments 18
▁congrats 18
▁connor 18
▁conserve 18
▁considerable 18
▁consumed 18
▁contamination 18
▁context 18
▁continuing 18
▁contractor 18
▁convicted 18
▁coolest 18
▁cornered 18
▁coron 18
▁corpses 18
▁courses 18
▁covert 18
▁crashes 18
▁crocod 18
▁cul 18
▁cuz 18
▁debtors 18
▁deceived 18
▁deciding 18
▁decree 18
▁delf 18
▁demanded 18
▁demanding 18
▁departments 18
▁dependent 18
▁devotion 18
▁dialogues 18
▁diapers 18
▁diaz 18
▁disorient 18
▁doesnt 18
▁dolphin 18
▁donovan 18
▁dowry 18
▁dual 18
▁ducks 18
▁duplic 18
▁electri 18
▁elevated 18
▁enmity 18
▁enormous 18
▁escapes 18
▁everly 18
▁examiner 18
▁excess 18
▁exha 18
▁experiencing 18
▁export 18
▁features 18
▁firewall 18
▁formally 18
▁fourteen 18
▁fulfil 18
▁gammy 18
▁garlic 18
▁gerald 18
▁ghunghroo 18
▁glac 18
▁glue 18
▁gondorff 18
▁gossip 18
▁gull 18
▁gur 18
▁haiti 18
▁hanged 18
▁hazel 18
▁headline 18
▁helicopters 18
▁herzog 18
▁hives 18
▁hobart 18
▁hoot 18
▁hosting 18
▁hull 18
▁illinois 18
▁incompet 18
▁indicted 18
▁indigenous 18
▁indulge 18
▁infiltrated 18
▁inhabit 18
▁inmate 18
▁instruct 18
▁intervention 18
▁investigations 18
▁ion 18
▁ivleera 18
▁jog 18
▁judgement 18
▁kademan 18
▁kak 18
▁kaniel 18
▁kathy 18
▁keel 18
▁khushi 18
▁kicks 18
▁knot 18
▁laaa 18
▁lasts 18
▁lawsuit 18
▁laz 18
▁leash 18
▁lem 18
▁leticia 18
▁liability 18
▁lime 18
▁limp 18
▁lind 18
▁livelihood 18
▁luxury 18
▁margin 18
▁markets 18
▁marseilles 18
▁masc 18
▁massacre 18
▁mcl 18
▁mead 18
▁mechan 18
▁mediterranean 18
▁michigan 18
▁milton 18
▁ming 18
▁mithra 18
▁molten 18
▁murderers 18
▁mushroom 18
▁napoleon 18
▁narcotics 18
▁naval 18
▁neighbourhood 18
▁nightclub 18
▁norris 18
▁notjust 18
▁numerous 18
▁nursery 18
▁obsess 18
▁occasions 18
▁od 18
▁offensive 18
▁olive 18
▁olson 18
▁onwards 18
▁overlook 18
▁painter 18
▁pak 18
▁paragraph 18
▁parks 18
▁pasta 18
▁patel 18
▁perfection 18
▁petra 18
▁phelan 18
▁phoenix 18
▁phot 18
▁playground 18
▁plun 18
▁porch 18
▁posters 18
▁precision 18
▁primatech 18
▁privile 18
▁probation 18
▁processor 18
▁proport 18
▁proximity 18
▁pulp 18
▁punct 18
▁quack 18
▁quarterback 18
▁quint 18
▁raided 18
▁razor 18
▁reckon 18
▁recommendation 18
▁recru 18
▁redeem 18
▁reprogram 18
▁requirements 18
▁resident 18
▁respectfully 18
▁restaurants 18
▁revol 18
▁ribs 18
▁ric 18
▁rita 18
▁robberies 18
▁robbew 18
▁roc 18
▁roughly 18
▁rufus 18
▁rust 18
▁saves 18
▁scales 18
▁scanned 18
▁sche 18
▁scoop 18
▁scoot 18
▁screeching 18
▁seasonal 18
▁seized 18
▁selene 18
▁sentenced 18
▁sentiments 18
▁sergei 18
▁sessions 18
▁shorty 18
▁signific 18
▁silva 18
▁siren 18
▁slavery 18
▁slipping 18
▁smartest 18
▁soar 18
▁splitting 18
▁spooky 18
▁squawk 18
▁squir 18
▁stap 18
▁steward 18
▁stitches 18
▁subst 18
▁superiors 18
▁survives 18
▁swarm 18
▁tact 18
▁tao 18
▁tas 18
▁teledrama 18
▁terrence 18
▁teterboro 18
▁tex 18
▁thailand 18
▁thrashed 18
▁throws 18
▁tights 18
▁token 18
▁tonic 18
▁torment 18
▁totem 18
▁trait 18
▁tranqu 18
▁trau 18
▁treaty 18
▁trend 18
▁trettel 18
▁tux 18
▁ul 18
▁unattended 18
▁unaware 18
▁undert 18
▁underway 18
▁unlucky 18
▁untraceable 18
▁vanowen 18
▁venom 18
▁ventilation 18
▁venue 18
▁vert 18
▁void 18
▁wasteland 18
▁weaker 18
▁whimp 18
▁whistling 18
▁whores 18
▁wy 18
▁yas 18
▁yoga 18
▁yöurself 18
▁zodiac 18
▁zoya 18
▁සර 18
▁ෆරාස 18
▁€ 18
.6 17
abha 17
acc 17
adi 17
alled 17
allur 17
anced 17
anth 17
apes 17
apper 17
aria 17
ativity 17
balls 17
bbing 17
beat 17
berger 17
birds 17
bled 17
breaking 17
care 17
chet 17
das 17
donald 17
eal 17
erg 17
erry 17
eves 17
found 17
gat 17
ggles 17
gram 17
graph 17
grow 17
hake 17
hik 17
hin 17
howe 17
iam 17
iances 17
icked 17
iegler 17
illo 17
iny 17
iped 17
ipped 17
isation 17
itors 17
iving 17
jacket 17
kee 17
keep 17
kind 17
lding 17
lot 17
mens 17
nation 17
ocks 17
odor 17
oft 17
ograp 17
oping 17
orted 17
othe 17
oub 17
ours 17
overed 17
owers 17
pector 17
pow 17
ques 17
rag 17
resh 17
resses 17
rina 17
rooked 17
rrrr 17
say 17
seeing 17
shank 17
sook 17
souza 17
space 17
star 17
storm 17
tain 17
thanks 17
tic 17
udi 17
uge 17
uing 17
ukh 17
ulsion 17
uster 17
usting 17
uting 17
whi 17
wide 17
zero 17
zzy 17
ä 17
▁1.5 17
▁108 17
▁112 17
▁196 17
▁3.2 17
▁3000 17
▁56 17
▁62 17
▁76 17
▁89 17
▁aa 17
▁absorb 17
▁accountant 17
▁advertising 17
▁aids 17
▁airways 17
▁allanon 17
▁altar 17
▁amateurs 17
▁amazon 17
▁amber 17
▁ambo 17
▁anchorage 17
▁annoyed 17
▁appoint 17
▁arcade 17
▁arg 17
▁armory 17
▁arr 17
▁arresting 17
▁arun 17
▁assignments 17
▁aster 17
▁asylum 17
▁automated 17
▁aver 17
▁awards 17
▁babysitter 17
▁baghdad 17
▁balanced 17
▁balloons 17
▁bangalore 17
▁bans 17
▁barren 17
▁beaches 17
▁belongings 17
▁bizarre 17
▁blasts 17
▁brandy 17
▁bravely 17
▁bridegroom 17
▁browning 17
▁bruise 17
▁cade 17
▁cadets 17
▁calendar 17
▁canteen 17
▁carlisle 17
▁casting 17
▁casually 17
▁catalog 17
▁ces 17
▁charade 17
▁charging 17
▁chilly 17
▁chores 17
▁chow 17
▁chowk 17
▁cipher 17
▁classical 17
▁classroom 17
▁claus 17
▁cliffs 17
▁cochle 17
▁cognitive 17
▁coimbatore 17
▁collabor 17
▁commanding 17
▁commencing 17
▁concessionary 17
▁confessor 17
▁constructed 17
▁coordinate 17
▁cope 17
▁corp 17
▁courthouse 17
▁cracking 17
▁credited 17
▁crisp 17
▁crowned 17
▁culpr 17
▁cups 17
▁cured 17
▁cyborg 17
▁dahl 17
▁daisy 17
▁daring 17
▁daw 17
▁deficiencies 17
▁delusions 17
▁dement 17
▁designing 17
▁destructive 17
▁devast 17
▁diabetes 17
▁directing 17
▁disgu 17
▁dismiss 17
▁distinctive 17
▁distractions 17
▁donny 17
▁dreadful 17
▁droid 17
▁eco 17
▁eject 17
▁elevators 17
▁enqu 17
▁erso 17
▁essam 17
▁examining 17
▁excessive 17
▁exclusively 17
▁exfil 17
▁exterior 17
▁faggot 17
▁fantas 17
▁farming 17
▁fatty 17
▁ferocious 17
▁fiancee 17
▁finals 17
▁fisher 17
▁flatter 17
▁forgets 17
▁fow 17
▁frickin 17
▁furn 17
▁fuse 17
▁gangs 17
▁gaut 17
▁gender 17
▁germans 17
▁glance 17
▁godfather 17
▁gravy 17
▁guarant 17
▁haj 17
▁hansen 17
▁harass 17
▁hazmat 17
▁headless 17
▁heed 17
▁hend 17
▁hitch 17
▁hobbes 17
▁hodor 17
▁holidays 17
▁howl 17
▁hud 17
▁hugging 17
▁ignorant 17
▁illiter 17
▁improvements 17
▁impulse 17
▁indicated 17
▁indicating 17
▁ingredients 17
▁innovative 17
▁instruction 17
▁intimate 17
▁investors 17
▁iraqi 17
▁irr 17
▁irs 17
▁jaime 17
▁jaws 17
▁jazz 17
▁junction 17
▁kangaroo 17
▁kavya 17
▁kes 17
▁khaleesi 17
▁kidnappers 17
▁knuck 17
▁kumara 17
▁kunal 17
▁laila 17
▁lamps 17
▁layout 17
▁legitimate 17
▁lev 17
▁lfyou 17
▁lia 17
▁lifting 17
▁lining 17
▁lizard 17
▁locomotive 17
▁loudly 17
▁lux 17
▁mainland 17
▁maisey 17
▁mammoths 17
▁manually 17
▁marched 17
▁marching 17
▁marrow 17
▁mathematical 17
▁mathur 17
▁mav 17
▁mba 17
▁mccl 17
▁mcgee 17
▁mercury 17
▁millen 17
▁mineral 17
▁mining 17
▁mirko 17
▁mischief 17
▁moms 17
▁motherland 17
▁moucheboume 17
▁mulder 17
▁multi 17
▁multip 17
▁nagaraju 17
▁natasha 17
▁nathaniel 17
▁neighbours 17
▁nerd 17
▁nevada 17
▁nitrogen 17
▁nun 17
▁occ 17
▁ofa 17
▁og 17
▁ord 17
▁osiris 17
▁ot 17
▁outrage 17
▁overwhelmed 17
▁oyster 17
▁param 17
▁pathway 17
▁patna 17
▁peculiar 17
▁peoples 17
▁perce 17
▁pes 17
▁pharmacy 17
▁phillip 17
▁phony 17
▁pierre 17
▁plumbing 17
▁portal 17
▁portland 17
▁posts 17
▁pra 17
▁practitioners 17
▁pree 17
▁preparations 17
▁presumed 17
▁processed 17
▁profess 17
▁professionals 17
▁puri 17
▁pus 17
▁puss 17
▁quantities 17
▁quid 17
▁races 17
▁ranks 17
▁ranvijay 17
▁rath 17
▁realizes 17
▁recess 17
▁recipient 17
▁recommendations 17
▁reconnect 17
▁recorder 17
▁references 17
▁refuses 17
▁rehabilitation 17
▁relate 17
▁relent 17
▁reload 17
▁rennie 17
▁reopen 17
▁reserves 17
▁retard 17
▁ribbon 17
▁rim 17
▁rin 17
▁ripe 17
▁rishi 17
▁roller 17
▁royalty 17
▁rut 17
▁sab 17
▁sailed 17
▁salman 17
▁samar 17
▁sameer 17
▁sasha 17
▁sausage 17
▁savanna 17
▁scorp 17
▁scour 17
▁scuba 17
▁seatbel 17
▁semi 17
▁sentences 17
▁separ 17
▁separately 17
▁shak 17
▁shakes 17
▁shakespeare 17
▁sheets 17
▁shepherd 17
▁sherman 17
▁shhh 17
▁silas 17
▁simultaneously 17
▁sita 17
▁skipped 17
▁slain 17
▁slate 17
▁slightest 17
▁slipp 17
▁sobriety 17
▁souvenir 17
▁soviets 17
▁specially 17
▁squee 17
▁squire 17
▁staged 17
▁stam 17
▁steale 17
▁stern 17
▁strangle 17
▁stumb 17
▁subs 17
▁substantial 17
▁subtitle 17
▁sucking 17
▁sudan 17
▁suitor 17
▁sullen 17
▁sunni 17
▁sup 17
▁superst 17
▁supports 17
▁supriya 17
▁surrendered 17
▁surve 17
▁suv 17
▁swed 17
▁switching 17
▁synthetic 17
▁tags 17
▁teasing 17
▁thompson 17
▁throats 17
▁torres 17
▁tramp 17
▁transfers 17
▁transl 17
▁transmitting 17
▁tres 17
▁tresp 17
▁tricked 17
▁trink 17
▁triump 17
▁triv 17
▁trixie 17
▁truman 17
▁turtles 17
▁twitch 17
▁ug 17
▁ultraviolet 17
▁unclear 17
▁unexplained 17
▁unfor 17
▁unto 17
▁urban 17
▁urge 17
▁vitals 17
▁vot 17
▁voted 17
▁votes 17
▁voting 17
▁waitin 17
▁wallaby 17
▁weyland 17
▁xavier 17
▁yield 17
▁yogi 17
▁° 17
-20 16
.0 16
18 16
34 16
43 16
44 16
47 16
ache 16
adharanga 16
agi 16
agram 16
aly 16
amel 16
americ 16
anas 16
anged 16
araj 16
araju 16
arez 16
atile 16
ato 16
bab 16
backs 16
balt 16
bble 16
bea 16
believe 16
bet 16
bles 16
call 16
cross 16
daughter 16
dis 16
eat 16
ensional 16
ental 16
ersed 16
ester 16
feit 16
fit 16
fore 16
fu 16
gary 16
gir 16
god 16
grade 16
grove 16
hals 16
hana 16
harans 16
hhh 16
hibit 16
hum 16
hunt 16
iable 16
icals 16
ican 16
icker 16
ighted 16
igning 16
inger 16
inski 16
iors 16
istence 16
istically 16
istry 16
ittle 16
jas 16
ject 16
lied 16
liest 16
married 16
military 16
million 16
mom 16
naz 16
nest 16
olving 16
omi 16
orah 16
oral 16
orous 16
otech 16
owski 16
part 16
person 16
pot 16
rab 16
rat 16
rav 16
raz 16
rect 16
rend 16
respect 16
rise 16
robe 16
rots 16
screen 16
sey 16
sk 16
stri 16
tery 16
thole 16
tos 16
uity 16
ulations 16
ulf 16
uls 16
umathi 16
umble 16
uniya 16
usk 16
uthors 16
vas 16
walker 16
were 16
worth 16
yer 16
È 16
íli 16
н 16
▁1996 16
▁300,000 16
▁85 16
▁900 16
▁93 16
▁95 16
▁abduction 16
▁absent 16
▁acceptable 16
▁accessing 16
▁accompan 16
▁acp 16
▁acquaintance 16
▁adequate 16
▁advisor 16
▁affirmative 16
▁agony 16
▁aiming 16
▁allergies 16
▁allocated 16
▁allowance 16
▁analyzed 16
▁anatoli 16
▁ancest 16
▁andi 16
▁anslo 16
▁anxiety 16
▁apolog 16
▁appeals 16
▁aram 16
▁arena 16
▁arrogance 16
▁assembly 16
▁assisting 16
▁astronom 16
▁atomic 16
▁austin 16
▁aviation 16
▁ayurvedic 16
▁ayyanar 16
▁backpack 16
▁bagheera 16
▁bak 16
▁bandits 16
▁bart 16
▁battalion 16
▁bauji 16
▁beatles 16
▁befriend 16
▁beverly 16
▁bharath 16
▁bhatnagar 16
▁bilingual 16
▁biscuit 16
▁blasted 16
▁boarded 16
▁bogey 16
▁bollocks 16
▁bos 16
▁bourne 16
▁brady 16
▁brat 16
▁breaches 16
▁breaker 16
▁budapest 16
▁bulk 16
▁burger 16
▁butterflies 16
▁cadillac 16
▁cana 16
▁carlo 16
▁carnaval 16
▁castles 16
▁catholic 16
▁cert 16
▁chariot 16
▁charlestown 16
▁charts 16
▁checkmate 16
▁chum 16
▁circuits 16
▁classy 16
▁clou 16
▁clunk 16
▁colt 16
▁commandeer 16
▁commemor 16
▁confisc 16
▁connects 16
▁container 16
▁containing 16
▁cooker 16
▁coordinated 16
▁cousins 16
▁crawford 16
▁craziest 16
▁cree 16
▁crews 16
▁cripp 16
▁crows 16
▁cruiser 16
▁cultures 16
▁currents 16
▁curtains 16
▁cutter 16
▁cybert 16
▁cycl 16
▁dag 16
▁dangerously 16
▁danish 16
▁daphne 16
▁debris 16
▁decay 16
▁deficit 16
▁demol 16
▁descend 16
▁descending 16
▁detectives 16
▁devaraj 16
▁diagnostics 16
▁digs 16
▁disgraced 16
▁distributing 16
▁dobbs 16
▁doe 16
▁donated 16
▁doo 16
▁dook 16
▁doorstep 16
▁dorjee 16
▁dormammu 16
▁dots 16
▁dru 16
▁dunham 16
▁dunn 16
▁dvd 16
▁dwight 16
▁easiest 16
▁edition 16
▁educ 16
▁eff 16
▁eighteen 16
▁eisenhower 16
▁emile 16
▁encouraging 16
▁energ 16
▁eng 16
▁enquiry 16
▁enthusiasm 16
▁equ 16
▁equator 16
▁equilibrium 16
▁equipped 16
▁ethic 16
▁evacuated 16
▁eveyone 16
▁excellency 16
▁exchan 16
▁excommun 16
▁expansion 16
▁experimental 16
▁explorers 16
▁exposure 16
▁factories 16
▁fade 16
▁ferg 16
▁fernando 16
▁fid 16
▁figuring 16
▁fishermen 16
▁flex 16
▁forming 16
▁fract 16
▁fracture 16
▁freakin 16
▁frequently 16
▁frigg 16
▁fucks 16
▁gaby 16
▁gand 16
▁garvey 16
▁geek 16
▁geniuses 16
▁giggles 16
▁gim 16
▁gita 16
▁gladly 16
▁glenn 16
▁gould 16
▁governments 16
▁guaranteed 16
▁guthrie 16
▁habitat 16
▁hamb 16
▁hasnat 16
▁hemorrha 16
▁hetal 16
▁hiber 16
▁hijacked 16
▁hogwarts 16
▁holed 16
▁holland 16
▁hooks 16
▁horseman 16
▁hose 16
▁humvees 16
▁identical 16
▁iii 16
▁ik 16
▁imagin 16
▁imperative 16
▁imperfect 16
▁imperson 16
▁impr 16
▁imprisoned 16
▁inhal 16
▁instructor 16
▁intercepted 16
▁invade 16
▁iq 16
▁isolate 16
▁jarrod 16
▁jaye 16
▁jedha 16
▁jugnu 16
▁juniper 16
▁kang 16
▁kenobi 16
▁kidnapper 16
▁kidneys 16
▁kipps 16
▁kod 16
▁kov 16
▁kra 16
▁kri 16
▁labeaux 16
▁lakes 16
▁langley 16
▁largely 16
▁leaked 16
▁lent 16
▁lester 16
▁leverage 16
▁lic 16
▁lineage 16
▁links 16
▁lobe 16
▁logo 16
▁loverboy 16
▁lowest 16
▁lump 16
▁lur 16
▁managers 16
▁mandatory 16
▁manufactured 16
▁mara 16
▁mari 16
▁martyr 16
▁mathematics 16
▁meaningful 16
▁measured 16
▁mechanism 16
▁michaels 16
▁midway 16
▁miguel 16
▁mikey 16
▁mines 16
▁ministers 16
▁misunderstand 16
▁moesgaard 16
▁mohinder 16
▁moisture 16
▁monte 16
▁moreover 16
▁moria 16
▁motherfuckers 16
▁motivation 16
▁motors 16
▁murm 16
▁mustache 16
▁nad 16
▁nadu 16
▁narasimha 16
▁nardin 16
▁nay 16
▁necessarily 16
▁needing 16
▁newborns 16
▁noises 16
▁nonetheless 16
▁notorious 16
▁nunu 16
▁obstruct 16
▁oceans 16
▁odor 16
▁olympus 16
▁opt 16
▁orchest 16
▁oregon 16
▁orlando 16
▁output 16
▁overd 16
▁oy 16
▁paddle 16
▁padm 16
▁pamela 16
▁panc 16
▁parameters 16
▁parlor 16
▁pavalamalli 16
▁payable 16
▁perkins 16
▁perver 16
▁pharaoh 16
▁pitambar 16
▁pith 16
▁plut 16
▁portable 16
▁poverty 16
▁prada 16
▁premium 16
▁prescription 16
▁prin 16
▁prithvi 16
▁prix 16
▁pronounce 16
▁prosperity 16
▁provinces 16
▁prud 16
▁punching 16
▁puzzles 16
▁rabbits 16
▁raghav 16
▁reassuring 16
▁reboot 16
▁rect 16
▁redund 16
▁reek 16
▁refers 16
▁reflection 16
▁rehearsal 16
▁rekall 16
▁reliable 16
▁relieve 16
▁rented 16
▁rescuing 16
▁reserved 16
▁responded 16
▁rested 16
▁riddles 16
▁rightly 16
▁robotics 16
▁roth 16
▁rotting 16
▁ruins 16
▁ruling 16
▁runner 16
▁rural 16
▁samuel 16
▁satisf 16
▁schem 16
▁schizophren 16
▁scrambled 16
▁scree 16
▁scudder 16
▁selection 16
▁sensible 16
▁sensory 16
▁seoul 16
▁sethuraman 16
▁seventeen 16
▁shada 16
▁shades 16
▁sham 16
▁shawn 16
▁shifted 16
▁shipment 16
▁shits 16
▁shiver 16
▁showers 16
▁sickle 16
▁silently 16
▁sincere 16
▁skins 16
▁slog 16
▁smashing 16
▁smelling 16
▁smiled 16
▁smoothly 16
▁snob 16
▁snyder 16
▁sociopath 16
▁spaniard 16
▁speculation 16
▁splendid 16
▁spo 16
▁spont 16
▁squeak 16
▁stanley 16
▁statistics 16
▁stature 16
▁sticky 16
▁strung 16
▁stung 16
▁suffice 16
▁sul 16
▁superheroes 16
▁surveill 16
▁sustained 16
▁sut 16
▁syringe 16
▁tangos 16
▁temporal 16
▁temporarily 16
▁terr 16
▁thai 16
▁thanos 16
▁thelma 16
▁thesis 16
▁thir 16
▁throttle 16
▁thugs 16
▁tighten 16
▁timeline 16
▁tobias 16
▁toler 16
▁towels 16
▁tox 16
▁trading 16
▁trafficking 16
▁trailer 16
▁tremble 16
▁triggers 16
▁trimm 16
▁troop 16
▁trophies 16
▁trudy 16
▁trustworthy 16
▁ts 16
▁tucked 16
▁tum 16
▁tun 16
▁tuned 16
▁tunes 16
▁twink 16
▁unav 16
▁uncertain 16
▁unmanned 16
▁unoff 16
▁unpleasant 16
▁upright 16
▁vader 16
▁vagina 16
▁vasquez 16
▁vengador 16
▁volturi 16
▁volunte 16
▁waff 16
▁wan 16
▁wandered 16
▁warlord 16
▁weekly 16
▁wept 16
▁wheat 16
▁whipped 16
▁wol 16
▁wooden 16
▁wud 16
▁xandar 16
▁yi 16
▁yinniang 16
▁yuck 16
▁zet 16
-10 15
.2011 15
02 15
46 15
aah 15
active 15
adv 15
agala 15
ailing 15
aine 15
anton 15
anya 15
arm 15
armed 15
asive 15
ather 15
aton 15
atta 15
aught 15
avel 15
band 15
birth 15
blooded 15
bow 15
bra 15
bri 15
card 15
ceiver 15
charge 15
chie 15
cho 15
cont 15
cream 15
ders 15
dge 15
ect 15
elet 15
ellar 15
enth 15
entry 15
etta 15
fields 15
first 15
forward 15
fter 15
gian 15
gling 15
gon 15
half 15
heimer 15
hips 15
hir 15
ials 15
ige 15
ilizing 15
ingu 15
inous 15
isa 15
ishable 15
itu 15
itution 15
kesh 15
ket 15
lem 15
ller 15
ln 15
lv 15
measures 15
olph 15
ooper 15
oped 15
oper 15
opes 15
orra 15
outh 15
overs 15
owed 15
pm 15
pound 15
ptical 15
rac 15
raft 15
rays 15
rection 15
roc 15
rons 15
rou 15
sen 15
site 15
sized 15
sl 15
stic 15
taj 15
them 15
tiri 15
tis 15
tles 15
told 15
tom 15
too 15
ulates 15
unan 15
unting 15
upt 15
urai 15
ural 15
uration 15
wal 15
wig 15
yan 15
Ä 15
Ó 15
ï 15
μ 15
▁109 15
▁15- 15
▁199 15
▁1999 15
▁2003 15
▁3.1 15
▁350 15
▁59 15
▁63 15
▁670 15
▁78 15
▁92 15
▁94 15
▁aaccff 15
▁abst 15
▁adamant 15
▁adler 15
▁administrative 15
▁admission 15
▁affects 15
▁aged 15
▁agreeing 15
▁aihara 15
▁ajira 15
▁alaihis 15
▁alaskan 15
▁alias 15
▁allowances 15
▁amazed 15
▁amends 15
▁amerika 15
▁amin 15
▁angles 15
▁anj 15
▁anthrop 15
▁applies 15
▁appreciation 15
▁appropri 15
▁arguments 15
▁armstrong 15
▁assign 15
▁astronauts 15
▁attic 15
▁austria 15
▁autumn 15
▁avoided 15
▁backing 15
▁baked 15
▁balan 15
▁balin 15
▁banged 15
▁basin 15
▁bask 15
▁behaved 15
▁benghazi 15
▁bern 15
▁bihar 15
▁biscuits 15
▁blackjack 15
▁blackmailer 15
▁bladder 15
▁blaster 15
▁blitz 15
▁blondie 15
▁bloodshed 15
▁bluff 15
▁boobs 15
▁bouncing 15
▁breakdown 15
▁bree 15
▁brides 15
▁bruises 15
▁brun 15
▁bund 15
▁bunnies 15
▁buyers 15
▁caf 15
▁cafe 15
▁caine 15
▁caliban 15
▁caliber 15
▁camel 15
▁capitalist 15
▁careless 15
▁casper 15
▁ce 15
▁celebrated 15
▁celestial 15
▁cellar 15
▁cellphone 15
▁champions 15
▁cher 15
▁chim 15
▁chocolates 15
▁cindy 15
▁cinnamon 15
▁climbers 15
▁cluster 15
▁cohaagen 15
▁colder 15
▁combust 15
▁companionship 15
▁comtron 15
▁conc 15
▁conditioning 15
▁condolences 15
▁confirms 15
▁conquered 15
▁consulted 15
▁conve 15
▁coroner 15
▁correction 15
▁corvin 15
▁costello 15
▁cozy 15
▁cram 15
▁crater 15
▁craz 15
▁cubes 15
▁curves 15
▁cyl 15
▁damien 15
▁damodar 15
▁dawson 15
▁debbie 15
▁decency 15
▁decks 15
▁deepali 15
▁deepthi 15
▁defe 15
▁defenseless 15
▁deleted 15
▁denver 15
▁deok 15
▁depending 15
▁depri 15
▁dest 15
▁determination 15
▁devastating 15
▁diane 15
▁dictionary 15
▁disappearance 15
▁discreet 15
▁dmv 15
▁dogg 15
▁dolls 15
▁domain 15
▁donate 15
▁donna 15
▁doppelg 15
▁dresden 15
▁drool 15
▁duff 15
▁dumping 15
▁dumpster 15
▁dung 15
▁dungeon 15
▁duration 15
▁eclipse 15
▁edited 15
▁efficiency 15
▁eiling 15
▁elvin 15
▁embedded 15
▁emerg 15
▁emerged 15
▁enlist 15
▁enslaved 15
▁entertaining 15
▁epit 15
▁equals 15
▁eretria 15
▁err 15
▁esca 15
▁espionage 15
▁essence 15
▁esterhase 15
▁everdeen 15
▁evers 15
▁evew 15
▁exhales 15
▁exiled 15
▁expired 15
▁exploit 15
▁exploration 15
▁extr 15
▁ezra 15
▁faculty 15
▁farroukh 15
▁favorites 15
▁feat 15
▁ferris 15
▁fib 15
▁fiji 15
▁firearm 15
▁fishes 15
▁flashes 15
▁flav 15
▁flirting 15
▁flourish 15
▁flushed 15
▁flux 15
▁fooling 15
▁foreman 15
▁formalities 15
▁frames 15
▁frederick 15
▁freeway 15
▁frequencies 15
▁frogs 15
▁frontier 15
▁gained 15
▁gop 15
▁gottlieb 15
▁gras 15
▁grasp 15
▁graves 15
▁greenhouse 15
▁gregor 15
▁grill 15
▁grump 15
▁gryffindor 15
▁guin 15
▁gul 15
▁hammond 15
▁handkerchief 15
▁handwriting 15
▁hann 15
▁hastings 15
▁heating 15
▁helmets 15
▁hijack 15
▁hips 15
▁hiring 15
▁honking 15
▁hospitality 15
▁hounds 15
▁humiliating 15
▁hungarian 15
▁ilim 15
▁impl 15
▁inappropriate 15
▁inception 15
▁increases 15
▁infact 15
▁inherited 15
▁initi 15
▁initials 15
▁innov 15
▁inquisitor 15
▁insert 15
▁inspire 15
▁internship 15
▁intrigu 15
▁introducing 15
▁investig 15
▁irritated 15
▁isabelle 15
▁jackass 15
▁jat 15
▁jed 15
▁jerome 15
▁jews 15
▁jitters 15
▁johanssen 15
▁jubilee 15
▁kabaddi 15
▁kalahari 15
▁kamar 15
▁kandy 15
▁karr 15
▁katappa 15
▁kavitha 15
▁kents 15
▁kimi 15
▁knocks 15
▁koh 15
▁kriplani 15
▁lacking 15
▁laps 15
▁latitude 15
▁liege 15
▁lightly 15
▁loaf 15
▁lodged 15
▁loft 15
▁logging 15
▁losses 15
▁machinery 15
▁madhavi 15
▁madhu 15
▁madly 15
▁maester 15
▁mahendra 15
▁maintained 15
▁manuscript 15
▁marathon 15
▁margo 15
▁mattress 15
▁mcmanus 15
▁merchandise 15
▁merrimack 15
▁michelle 15
▁mickey 15
▁milady 15
▁milligrams 15
▁miraz 15
▁mishra 15
▁mississippi 15
▁mitt 15
▁mn 15
▁moist 15
▁moo 15
▁morocco 15
▁motherfucking 15
▁mourning 15
▁muff 15
▁muffin 15
▁muhammad 15
▁muse 15
▁mutiny 15
▁nebula 15
▁necrom 15
▁nectar 15
▁negotiations 15
▁newborn 15
▁nicked 15
▁nickel 15
▁nikol 15
▁nile 15
▁ninety 15
▁notified 15
▁notify 15
▁nurko 15
▁nursing 15
▁nutrients 15
▁nuwara 15
▁obed 15
▁obstacle 15
▁offerings 15
▁oppose 15
▁orderly 15
▁outsider 15
▁ov 15
▁overst 15
▁oxenby 15
▁pager 15
▁pains 15
▁panem 15
▁parachute 15
▁paramedics 15
▁pas 15
▁passionate 15
▁paws 15
▁pedro 15
▁perm 15
▁phili 15
▁philosopher 15
▁phoned 15
▁phys 15
▁pic 15
▁picasso 15
▁piercing 15
▁pies 15
▁placing 15
▁plotting 15
▁polls 15
▁ponies 15
▁pont 15
▁portos 15
▁positively 15
▁posting 15
▁potion 15
▁praised 15
▁prediction 15
▁pregn 15
▁prestige 15
▁presume 15
▁pretended 15
▁preventing 15
▁prisons 15
▁prophe 15
▁pyjamas 15
▁quarry 15
▁quil 15
▁quince 15
▁rags 15
▁rails 15
▁ramirez 15
▁rapt 15
▁rations 15
▁reap 15
▁reasse 15
▁reborn 15
▁recy 15
▁reli 15
▁removing 15
▁reprod 15
▁rerout 15
▁researching 15
▁resemblance 15
▁resulted 15
▁reveals 15
▁rif 15
▁riots 15
▁robe 15
▁rodent 15
▁roma 15
▁rosie 15
▁rou 15
▁roxy 15
▁rubbing 15
▁runes 15
▁rushing 15
▁sane 15
▁satisfaction 15
▁saturdays 15
▁savior 15
▁scal 15
▁schmid 15
▁scor 15
▁scratches 15
▁screamed 15
▁scrum 15
▁selfie 15
▁seller 15
▁server 15
▁sewing 15
▁sheila 15
▁shoo 15
▁shortcut 15
▁shouted 15
▁showroom 15
▁siebert 15
▁skype 15
▁slack 15
▁slapping 15
▁sloth 15
▁slum 15
▁snoo 15
▁snor 15
▁spar 15
▁specimen 15
▁spends 15
▁sponsors 15
▁squirrel 15
▁stabilize 15
▁stalling 15
▁stamm 15
▁starbucks 15
▁starved 15
▁stigman 15
▁stool 15
▁strangely 15
▁strategic 15
▁strategies 15
▁subtit 15
▁sucre 15
▁suction 15
▁suggestions 15
▁sullivan 15
▁sunk 15
▁supervision 15
▁suspend 15
▁swept 15
▁symp 15
▁syrup 15
▁takeout 15
▁talos 15
▁telep 15
▁tendency 15
▁tennis 15
▁tents 15
▁terminate 15
▁terra 15
▁theat 15
▁thisis 15
▁thud 15
▁tian 15
▁tid 15
▁toro 15
▁toruk 15
▁tossed 15
▁toto 15
▁tou 15
▁tours 15
▁trajectory 15
▁trave 15
▁tray 15
▁treacherous 15
▁triang 15
▁triangle 15
▁tuck 15
▁turbulence 15
▁turf 15
▁tutor 15
▁ukrainian 15
▁unauthorized 15
▁unbreakable 15
▁underworld 15
▁upwards 15
▁urchin 15
▁usage 15
▁utterly 15
▁vague 15
▁valet 15
▁vary 15
▁vegetable 15
▁vein 15
▁vermin 15
▁veteran 15
▁vill 15
▁viraj 15
▁vit 15
▁volcanic 15
▁voltage 15
▁vomit 15
▁vortex 15
▁walkabout 15
▁wanker 15
▁warmer 15
▁warrants 15
▁weighing 15
▁wilhemina 15
▁worshi 15
▁wreath 15
▁wrink 15
▁writes 15
▁yogurt 15
▁zach 15
▁ට 15
11 14
42 14
99 14
aad 14
acle 14
adem 14
adh 14
agam 14
agan 14
aiy 14
ako 14
alities 14
allow 14
alous 14
ancing 14
andal 14
animous 14
ansy 14
apat 14
appa 14
arh 14
asi 14
assed 14
atan 14
aves 14
bc 14
bean 14
bour 14
bows 14
bre 14
break 14
byl 14
cials 14
cies 14
col 14
cus 14
dale 14
damn 14
door 14
du 14
eac 14
easy 14
edi 14
educated 14
eff 14
eling 14
elle 14
ellope 14
emo 14
ension 14
ensions 14
erated 14
erse 14
gery 14
graded 14
grown 14
hans 14
hany 14
haway 14
help 14
heng 14
hist 14
hom 14
hotra 14
husband 14
iac 14
iated 14
icle 14
icy 14
igo 14
illery 14
imp 14
inity 14
inska 14
interest 14
isha 14
isp 14
ission 14
itan 14
itivity 14
kered 14
knock 14
licted 14
mailed 14
marine 14
market 14
mel 14
mn 14
nat 14
nothing 14
okes 14
omes 14
onies 14
oos 14
opp 14
osphere 14
pap 14
pay 14
pir 14
placed 14
plan 14
pps 14
rams 14
rek 14
retti 14
rup 14
ruz 14
seat 14
sjust 14
sky 14
something 14
sorry 14
stay 14
stones 14
tiest 14
track 14
traumatic 14
uchi 14
uded 14
udes 14
ulture 14
uni 14
unty 14
urg 14
uty 14
vani 14
wang 14
waram 14
xton 14
Ö 14
és 14
ö 14
л 14
▁1500 14
▁155 14
▁195 14
▁2.1 14
▁2.5 14
▁2002 14
▁4000 14
▁69 14
▁77 14
▁abdomen 14
▁abnorm 14
▁academic 14
▁acceptance 14
▁acquire 14
▁addicted 14
▁addressing 14
▁adlon 14
▁adore 14
▁advancing 14
▁aerial 14
▁agrees 14
▁aha 14
▁airb 14
▁alarms 14
▁alas 14
▁alchemist 14
▁alerted 14
▁allison 14
▁altern 14
▁alz 14
▁amos 14
▁ampara 14
▁ampl 14
▁amusement 14
▁analysts 14
▁analytical 14
▁annathandavam 14
▁announ 14
▁anom 14
▁antique 14
▁antonio 14
▁apocalypse 14
▁applicants 14
▁appreci 14
▁arc 14
▁arrang 14
▁arsenal 14
▁arteries 14
▁aspects 14
▁astonishing 14
▁atlas 14
▁attacker 14
▁attendance 14
▁autobot 14
▁autopilot 14
▁avalan 14
▁awe 14
▁ballet 14
▁bam 14
▁barge 14
▁bathing 14
▁baton 14
▁beanstalk 14
▁bestowed 14
▁bhallaladeva 14
▁bidder 14
▁bing 14
▁biokernel 14
▁blankets 14
▁blaring 14
▁bled 14
▁bloke 14
▁bluffing 14
▁bole 14
▁borby 14
▁bour 14
▁bowling 14
▁boxed 14
▁boyfriends 14
▁brett 14
▁briar 14
▁bribes 14
▁briefed 14
▁briefing 14
▁brighter 14
▁brink 14
▁builders 14
▁burgers 14
▁bushes 14
▁byg 14
▁calculated 14
▁capabilities 14
▁captive 14
▁carcass 14
▁carnac 14
▁carri 14
▁cary 14
▁casinos 14
▁cavern 14
▁ccpd 14
▁centres 14
▁ceremon 14
▁chandna 14
▁cheater 14
▁chhanchad 14
▁chimpan 14
▁chinna 14
▁chopped 14
▁christop 14
▁chronic 14
▁clergy 14
▁clipped 14
▁clone 14
▁cockroach 14
▁comfy 14
▁commend 14
▁commod 14
▁competitors 14
▁coms 14
▁conclusion 14
▁confidentiality 14
▁confirming 14
▁cong 14
▁congrat 14
▁consideration 14
▁considers 14
▁continents 14
▁corers 14
▁costa 14
▁cp 14
▁crabs 14
▁craving 14
▁cristina 14
▁crowds 14
▁csi 14
▁cu 14
▁cud 14
▁cullen 14
▁cum 14
▁cushi 14
▁dabbur 14
▁deadpool 14
▁decline 14
▁decrease 14
▁defined 14
▁dembe 14
▁demi 14
▁demolition 14
▁demonstrated 14
▁denmark 14
▁dennet 14
▁deported 14
▁destro 14
▁detain 14
▁detonated 14
▁dickham 14
▁dieter 14
▁dile 14
▁dipped 14
▁discl 14
▁disconnected 14
▁disg 14
▁disperse 14
▁disqual 14
▁dissect 14
▁distinguished 14
▁ditched 14
▁diverted 14
▁dolphins 14
▁doubting 14
▁downloaded 14
▁drake 14
▁drummond 14
▁drying 14
▁dusty 14
▁dynam 14
▁earrings 14
▁effectively 14
▁elderman 14
▁ele 14
▁electro 14
▁electronics 14
▁elegant 14
▁endea 14
▁enlight 14
▁epinephrine 14
▁erebor 14
▁eva 14
▁evolutionary 14
▁evolve 14
▁exceptions 14
▁exerc 14
▁exhaust 14
▁expanding 14
▁expendable 14
▁explo 14
▁farah 14
▁feature 14
▁fem 14
▁firestorm 14
▁firstly 14
▁fis 14
▁fishman 14
▁flags 14
▁flapping 14
▁fleeing 14
▁franc 14
▁fren 14
▁furry 14
▁gampaha 14
▁gardener 14
▁garrigan 14
▁gatling 14
▁geet 14
▁genesis 14
▁gents 14
▁gerrera 14
▁gigantic 14
▁gladiator 14
▁goals 14
▁goblins 14
▁goof 14
▁grap 14
▁greatly 14
▁greece 14
▁greens 14
▁gretel 14
▁grocer 14
▁guiding 14
▁gulab 14
▁gus 14
▁hacks 14
▁handles 14
▁happiest 14
▁hart 14
▁hast 14
▁haste 14
▁hatches 14
▁headlines 14
▁hem 14
▁hept 14
▁hesitation 14
▁hikers 14
▁hillbilly 14
▁homic 14
▁horny 14
▁hotter 14
▁hottest 14
▁hubby 14
▁huff 14
▁hussein 14
▁hymns 14
▁hypnot 14
▁idiotic 14
▁implementing 14
▁improving 14
▁incent 14
▁inconven 14
▁inex 14
▁infrastructure 14
▁inha 14
▁initially 14
▁installments 14
▁interfering 14
▁interrogate 14
▁interven 14
▁irre 14
▁irresponsible 14
▁isolation 14
▁isthat 14
▁jac 14
▁jacques 14
▁jaffna 14
▁jee 14
▁jeetender 14
▁jets 14
▁jing 14
▁joshua 14
▁journalism 14
▁kah 14
▁kamal 14
▁karate 14
▁kelty 14
▁kilinochchi 14
▁kindergarten 14
▁kinnick 14
▁km 14
▁ko 14
▁komban 14
▁kozhikode 14
▁krennic 14
▁kris 14
▁laden 14
▁lair 14
▁lapd 14
▁lara 14
▁lasted 14
▁lasting 14
▁launder 14
▁lectures 14
▁libr 14
▁lido 14
▁likewise 14
▁lillian 14
▁lobster 14
▁lodge 14
▁loneliness 14
▁lub 14
▁lum 14
▁macedonia 14
▁makin 14
▁malik 14
▁malu 14
▁mammals 14
▁marissa 14
▁marries 14
▁matern 14
▁mathematic 14
▁maxwell 14
▁meighan 14
▁melted 14
▁memo 14
▁memorize 14
▁memphis 14
▁mentally 14
▁mentions 14
▁merciless 14
▁merr 14
▁mesaka 14
▁ministries 14
▁minkowski 14
▁misbeha 14
▁mistook 14
▁montgomery 14
▁moore 14
▁mord 14
▁morons 14
▁mosquitoes 14
▁motivate 14
▁mour 14
▁mule 14
▁mund 14
▁mute 14
▁muttering 14
▁nats 14
▁nau 14
▁navigate 14
▁nearing 14
▁nesting 14
▁neut 14
▁nigeria 14
▁nightingale 14
▁noodles 14
▁ntsb 14
▁nugget 14
▁obligation 14
▁observ 14
▁occupation 14
▁odyssey 14
▁offend 14
▁ofyour 14
▁omnicorp 14
▁ongoing 14
▁oo 14
▁opinions 14
▁opponents 14
▁otter 14
▁overdue 14
▁overwhelming 14
▁paalsamy 14
▁pab 14
▁pallavi 14
▁palms 14
▁pandora 14
▁panels 14
▁papp 14
▁paralysis 14
▁particip 14
▁participation 14
▁paycheck 14
▁penance 14
▁perception 14
▁perish 14
▁persistent 14
▁persuaded 14
▁pict 14
▁pigeons 14
▁pindari 14
▁piran 14
▁pix 14
▁planting 14
▁poles 14
▁polyakov 14
▁pom 14
▁popularity 14
▁populated 14
▁postpone 14
▁potty 14
▁pow 14
▁praising 14
▁preacher 14
▁precautions 14
▁presently 14
▁priorities 14
▁proctor 14
▁procure 14
▁producing 14
▁propaganda 14
▁prosecutor 14
▁provisions 14
▁pumping 14
▁pumpkin 14
▁punches 14
▁pupils 14
▁pushes 14
▁puttalam 14
▁radical 14
▁rai 14
▁rame 14
▁recite 14
▁recurrent 14
▁regen 14
▁regroup 14
▁releases 14
▁remn 14
▁rendered 14
▁representative 14
▁residential 14
▁resourceful 14
▁restraint 14
▁revel 14
▁reversed 14
▁rewarded 14
▁richer 14
▁richest 14
▁riddled 14
▁righteous 14
▁rigs 14
▁roaring 14
▁robes 14
▁roster 14
▁rubber 14
▁rubble 14
▁ry 14
▁salaam 14
▁salas 14
▁salim 14
▁salsa 14
▁salv 14
▁samba 14
▁santana 14
▁saruman 14
▁scre 14
▁scumbag 14
▁secrecy 14
▁sections 14
▁selvam 14
▁semak 14
▁separation 14
▁shaken 14
▁shapes 14
▁shaved 14
▁shek 14
▁shetty 14
▁shingen 14
▁shoved 14
▁shrike 14
▁siblings 14
▁sightings 14
▁simplest 14
▁sirens 14
▁sivagami 14
▁skeleton 14
▁skim 14
▁slick 14
▁slo 14
▁sloppy 14
▁slytherin 14
▁smoak 14
▁sneeze 14
▁snipers 14
▁soci 14
▁sofi 14
▁solaiyur 14
▁somal 14
▁sophie 14
▁sorenson 14
▁sorted 14
▁sox 14
▁span 14
▁spiders 14
▁spiral 14
▁squid 14
▁squish 14
▁stag 14
▁stages 14
▁staircase 14
▁stairwell 14
▁stationed 14
▁steals 14
▁stepdad 14
▁steyn 14
▁stings 14
▁stoned 14
▁stoop 14
▁storybook 14
▁strand 14
▁stressful 14
▁strips 14
▁stroll 14
▁stupidity 14
▁subsid 14
▁substitute 14
▁suburbs 14
▁suic 14
▁supporters 14
▁surn 14
▁swallowed 14
▁sylvia 14
▁sympathi 14
▁symptom 14
▁tackle 14
▁tad 14
▁takeoff 14
▁tasting 14
▁technician 14
▁thrashing 14
▁tiffany 14
▁toughest 14
▁traits 14
▁tranquilizer 14
▁treadstone 14
▁tremb 14
▁trousers 14
▁tsa 14
▁tucker 14
▁tully 14
▁tumor 14
▁uganda 14
▁umbrella 14
▁uncon 14
▁unseen 14
▁untr 14
▁updates 14
▁vand 14
▁vanilla 14
▁venture 14
▁vials 14
▁vikrant 14
▁violated 14
▁vitruv 14
▁voila 14
▁von 14
▁warnings 14
▁watchtower 14
▁weirder 14
▁wildlife 14
▁wrath 14
▁wujing 14
▁yab 14
▁youngsters 14
▁yöurs 14
▁zahir 14
▁zann 14
▁zephyr 14
▁zones 14
,1 13
-49 13
.20 13
23 13
35 13
acha 13
acts 13
agast 13
aggert 13
aira 13
aired 13
aius 13
aks 13
alam 13
alaw 13
angee 13
anity 13
apor 13
apse 13
apur 13
apura 13
artan 13
arus 13
asedo 13
asket 13
atcher 13
ateful 13
atically 13
atter 13
aurs 13
avier 13
beest 13
bex 13
bie 13
bitch 13
bm 13
bomb 13
boo 13
bred 13
brook 13
bun 13
bury 13
cen 13
chable 13
chat 13
cial 13
cock 13
cold 13
compliance 13
ctica 13
ctioned 13
cur 13
dar 13
dash 13
dest 13
elling 13
eman 13
entin 13
equ 13
erer 13
eries 13
fers 13
flo 13
formed 13
fr 13
fus 13
ganza 13
garh 13
gents 13
gio 13
give 13
gles 13
gues 13
gyn 13
haran 13
harmed 13
hawat 13
heart 13
hical 13
hmur 13
hor 13
humans 13
ication 13
icide 13
ickers 13
idence 13
idst 13
ield 13
ieran 13
ific 13
ifully 13
iki 13
ildur 13
ilet 13
ilit 13
imated 13
inent 13
inks 13
ipper 13
isc 13
ista 13
itorial 13
itutes 13
ixa 13
ixon 13
iyo 13
izag 13
jà 13
keepers 13
kim 13
known 13
lay 13
lement 13
lined 13
manship 13
metry 13
mmet 13
name 13
nine 13
nox 13
och 13
ogun 13
oids 13
oise 13
olete 13
ollect 13
ologically 13
ometer 13
omic 13
ominus 13
omm 13
ommission 13
oration 13
oret 13
ormous 13
orter 13
orting 13
ospace 13
osphe 13
otechn 13
oti 13
otion 13
oufl 13
ounge 13
ourage 13
owning 13
pass 13
pect 13
pen 13
ppe 13
rczyk 13
rella 13
resen 13
reya 13
ribution 13
rition 13
rolling 13
roph 13
ror 13
scilla 13
sex 13
si 13
ski 13
smart 13
soon 13
terior 13
tjust 13
today 13
top 13
turn 13
uardo 13
ucky 13
uctions 13
uf 13
uj 13
ulary 13
ulley 13
uma 13
usters 13
usuf 13
ution 13
uza 13
vard 13
vation 13
verb 13
wad 13
wear 13
world 13
yakam 13
zzle 13
ès 13
б 13
ѕ 13
▁15,000 13
▁166 13
▁21- 13
▁3,000 13
▁8- 13
▁8000 13
▁88 13
▁absorbed 13
▁accord 13
▁achievements 13
▁adi 13
▁administered 13
▁adorn 13
▁aegis 13
▁aggression 13
▁agh 13
▁agni 13
▁alignment 13
▁alle 13
▁alphabet 13
▁ammun 13
▁amounts 13
▁amul 13
▁apes 13
▁argo 13
▁arn 13
▁articles 13
▁artistic 13
▁assail 13
▁assembled 13
▁astrolog 13
▁atlee 13
▁balem 13
▁banned 13
▁bash 13
▁bast 13
▁belonging 13
▁beneficiaries 13
▁bif 13
▁blabber 13
▁blames 13
▁bod 13
▁boiled 13
▁bora 13
▁braking 13
▁briareos 13
▁budgetary 13
▁burial 13
▁burrit 13
▁byte 13
▁calci 13
▁calves 13
▁canad 13
▁cardiff 13
▁cartilage 13
▁cautious 13
▁certainty 13
▁chapel 13
▁chival 13
▁chunk 13
▁circumst 13
▁coastline 13
▁coins 13
▁cologne 13
▁colonies 13
▁commanded 13
▁compensation 13
▁complications 13
▁comprehensive 13
▁concent 13
▁concer 13
▁connective 13
▁consolid 13
▁conspir 13
▁contrary 13
▁converted 13
▁crafts 13
▁cray 13
▁creeps 13
▁cru 13
▁cruces 13
▁crus 13
▁cyclops 13
▁daniella 13
▁deemed 13
▁demonst 13
▁detained 13
▁detonation 13
▁devot 13
▁diagnosed 13
▁diagnosis 13
▁dictator 13
▁dimwit 13
▁discrimination 13
▁dise 13
▁dishonor 13
▁dismant 13
▁disregard 13
▁distinction 13
▁documentation 13
▁domino 13
▁dop 13
▁dra 13
▁dram 13
▁dread 13
▁dsp 13
▁dunlop 13
▁ecst 13
▁eden 13
▁eel 13
▁egyptians 13
▁elim 13
▁emails 13
▁empathy 13
▁enable 13
▁enfor 13
▁engineered 13
▁erad 13
▁examples 13
▁exceeding 13
▁extrad 13
▁facilit 13
▁fatig 13
▁fen 13
▁fet 13
▁feud 13
▁fitted 13
▁flap 13
▁folded 13
▁frust 13
▁fundamental 13
▁galahad 13
▁gaza 13
▁gend 13
▁generosity 13
▁gol 13
▁gondor 13
▁gour 13
▁grabs 13
▁grape 13
▁groceries 13
▁hah 13
▁hemisphere 13
▁highlight 13
▁hoax 13
▁hord 13
▁horm 13
▁hos 13
▁hotels 13
▁humid 13
▁hydr 13
▁hypothesis 13
▁hypothetically 13
▁illust 13
▁import 13
▁indo 13
▁indu 13
▁inez 13
▁infant 13
▁infer 13
▁ini 13
▁injected 13
▁inse 13
▁insists 13
▁intrud 13
▁io 13
▁irregular 13
▁iso 13
▁isot 13
▁jell 13
▁joker 13
▁jumb 13
▁kav 13
▁khal 13
▁kr 13
▁kumb 13
▁kutt 13
▁latte 13
▁lav 13
▁leisure 13
▁leviathan 13
▁lobo 13
▁looting 13
▁lore 13
▁lyn 13
▁maia 13
▁manor 13
▁maple 13
▁marx 13
▁md 13
▁meaningless 13
▁membrane 13
▁mermaids 13
▁mim 13
▁monastery 13
▁monop 13
▁mri 13
▁muck 13
▁mull 13
▁mullaitivu 13
▁myst 13
▁myster 13
▁nanu 13
▁ner 13
▁nevertheless 13
▁ney 13
▁nou 13
▁nurt 13
▁oaf 13
▁obtaining 13
▁oll 13
▁openings 13
▁orth 13
▁outn 13
▁pall 13
▁pals 13
▁paradox 13
▁partic 13
▁participants 13
▁patents 13
▁pawns 13
▁penal 13
▁penthouse 13
▁peradeniya 13
▁pins 13
▁pitt 13
▁pla 13
▁plas 13
▁potent 13
▁presumably 13
▁prim 13
▁princeton 13
▁proceeding 13
▁procurement 13
▁productive 13
▁pros 13
▁puke 13
▁pup 13
▁quantity 13
▁ques 13
▁rada 13
▁rais 13
▁ranges 13
▁rating 13
▁reader 13
▁realizing 13
▁recip 13
▁reflects 13
▁reformed 13
▁rehears 13
▁reiter 13
▁releasing 13
▁remark 13
▁remed 13
▁reproductive 13
▁requ 13
▁resc 13
▁resched 13
▁resolved 13
▁restart 13
▁ricki 13
▁rift 13
▁sailors 13
▁saud 13
▁sched 13
▁sciences 13
▁scratching 13
▁seag 13
▁seeks 13
▁seemingly 13
▁sensational 13
▁serp 13
▁shortage 13
▁siv 13
▁skyark 13
▁slice 13
▁snot 13
▁snowfl 13
▁soames 13
▁spaces 13
▁spokes 13
▁spoons 13
▁stiltskin 13
▁stra 13
▁submerged 13
▁substance 13
▁sued 13
▁summits 13
▁supervillain 13
▁synchron 13
▁syndrome 13
▁taj 13
▁tango 13
▁tapi 13
▁tats 13
▁teh 13
▁templ 13
▁tempted 13
▁terminated 13
▁territ 13
▁thar 13
▁ther 13
▁tob 13
▁torped 13
▁tournament 13
▁trainees 13
▁tram 13
▁transf 13
▁translating 13
▁transponder 13
▁treas 13
▁tro 13
▁troopers 13
▁turk 13
▁tus 13
▁tuss 13
▁undone 13
▁ungr 13
▁unim 13
▁unle 13
▁unrealistic 13
▁unst 13
▁unve 13
▁vale 13
▁venk 13
▁verb 13
▁vertical 13
▁veter 13
▁vibrations 13
▁vict 13
▁views 13
▁vintage 13
▁viru 13
▁viv 13
▁volcan 13
▁voy 13
▁waits 13
▁watt 13
▁wes 13
▁westmoreland 13
▁withd 13
▁withstand 13
▁wits 13
▁wiz 13
▁wret 13
▁wrists 13
▁zo 13
.12 12
39 12
71 12
93 12
acher 12
acht 12
acies 12
acious 12
adesh 12
akk 12
akshmi 12
alah 12
aman 12
ancies 12
antha 12
appers 12
apy 12
archy 12
asha 12
asinghe 12
assian 12
attack 12
aults 12
ayan 12
ben 12
bits 12
bral 12
broken 12
cases 12
chip 12
cially 12
cipl 12
days 12
deaux 12
defense 12
ead 12
eda 12
edge 12
ench 12
ensive 12
entine 12
estab 12
estic 12
ferences 12
gae 12
gam 12
gars 12
gence 12
gest 12
getown 12
gher 12
gments 12
grav 12
hai 12
harge 12
hari 12
hart 12
haz 12
hish 12
hoot 12
hort 12
hr 12
icable 12
idy 12
iger 12
ilight 12
illy 12
ilot 12
iners 12
inov 12
inte 12
inton 12
ios 12
issions 12
istent 12
itter 12
jing 12
jun 12
lake 12
lave 12
layer 12
leg 12
lihood 12
linville 12
makers 12
mies 12
nac 12
nai 12
nies 12
nik 12
nin 12
odi 12
ods 12
offs 12
ogn 12
oint 12
oj 12
olution 12
olve 12
onda 12
ongh 12
onin 12
onna 12
ople 12
oria 12
orne 12
osity 12
pants 12
peed 12
pple 12
pre 12
press 12
psy 12
pting 12
ption 12
raine 12
rants 12
real 12
rez 12
rial 12
ricular 12
rier 12
rished 12
rost 12
ruption 12
rypted 12
seen 12
sense 12
shh 12
stro 12
tah 12
taker 12
tern 12
tri 12
uces 12
udu 12
ulam 12
umbs 12
umns 12
unction 12
upp 12
urred 12
utions 12
vious 12
vv 12
wart 12
wit 12
wyn 12
yons 12
Â 12
× 12
ê 12
і 12
▁1-5 12
▁14- 12
▁160 12
▁1950 12
▁1⁄ 12
▁200,000 12
▁250,000 12
▁3-1 12
▁54 12
▁73 12
▁abund 12
▁abuses 12
▁accountability 12
▁accuracy 12
▁accusations 12
▁adjusted 12
▁aimed 12
▁algorithms 12
▁analyzing 12
▁anat 12
▁anem 12
▁anim 12
▁anur 12
▁apparent 12
▁appet 12
▁appl 12
▁appro 12
▁assumption 12
▁atoms 12
▁awarding 12
▁bach 12
▁bodhi 12
▁botanical 12
▁boun 12
▁brilli 12
▁brus 12
▁caes 12
▁cait 12
▁canopy 12
▁casing 12
▁categor 12
▁certificates 12
▁chemo 12
▁cit 12
▁coconuts 12
▁coffe 12
▁collaps 12
▁collections 12
▁collective 12
▁colleges 12
▁commenced 12
▁compelled 12
▁competing 12
▁concentrated 12
▁consequence 12
▁coordinating 12
▁coordination 12
▁corrections 12
▁cort 12
▁darker 12
▁dedication 12
▁deliber 12
▁deme 12
▁democratic 12
▁derived 12
▁descendant 12
▁deser 12
▁designated 12
▁desper 12
▁detection 12
▁dew 12
▁dey 12
▁diam 12
▁disclose 12
▁dol 12
▁dro 12
▁dys 12
▁edmund 12
▁encouraged 12
▁engaging 12
▁equivalent 12
▁esp 12
▁essay 12
▁excellence 12
▁expanded 12
▁expeditions 12
▁explos 12
▁extingu 12
▁eyel 12
▁fag 12
▁fav 12
▁fent 12
▁frequ 12
▁furnished 12
▁furthermore 12
▁galle 12
▁glor 12
▁gnome 12
▁governing 12
▁gp 12
▁grain 12
▁grat 12
▁happ 12
▁hesit 12
▁hier 12
▁hist 12
▁hover 12
▁incapable 12
▁incons 12
▁index 12
▁indic 12
▁indication 12
▁indones 12
▁infamous 12
▁innoc 12
▁instances 12
▁interpret 12
▁ira 12
▁journalists 12
▁jug 12
▁karma 12
▁koz 12
▁latter 12
▁laund 12
▁lect 12
▁lfl 12
▁licensed 12
▁magnitude 12
▁marina 12
▁meas 12
▁measurements 12
▁meddling 12
▁merit 12
▁merrily 12
▁metals 12
▁minim 12
▁minimal 12
▁mirrors 12
▁molec 12
▁monks 12
▁morris 12
▁mosquito 12
▁mounted 12
▁natives 12
▁nausea 12
▁nef 12
▁newer 12
▁node 12
▁nos 12
▁occasionally 12
▁opposition 12
▁ordin 12
▁originally 12
▁overlap 12
▁penet 12
▁portion 12
▁poss 12
▁poured 12
▁practiced 12
▁prec 12
▁presum 12
▁princes 12
▁prodig 12
▁producers 12
▁prompt 12
▁publish 12
▁punj 12
▁purchasing 12
▁purge 12
▁pursued 12
▁ratio 12
▁refriger 12
▁regarded 12
▁regions 12
▁rele 12
▁repe 12
▁rept 12
▁reviewing 12
▁rogues 12
▁roulette 12
▁rp 12
▁sacrific 12
▁sag 12
▁sall 12
▁sank 12
▁scand 12
▁scav 12
▁scenarios 12
▁senpai 12
▁severely 12
▁shamp 12
▁shanghai 12
▁shear 12
▁sib 12
▁sinha 12
▁sizes 12
▁slips 12
▁sock 12
▁squash 12
▁stability 12
▁stem 12
▁strateg 12
▁stretched 12
▁succ 12
▁suppliers 12
▁suppressed 12
▁surg 12
▁surpris 12
▁sustenance 12
▁syll 12
▁tachyon 12
▁tand 12
▁tier 12
▁tiff 12
▁timely 12
▁ting 12
▁transparent 12
▁tribal 12
▁tron 12
▁truthful 12
▁tuna 12
▁twisting 12
▁tyres 12
▁universal 12
▁unprotected 12
▁upl 12
▁vau 12
▁vide 12
▁vom 12
▁warner 12
▁wast 12
▁wavelength 12
▁weaken 12
▁weis 12
▁welcom 12
▁whistles 12
▁wider 12
▁yuc 12
▁zeal 12
▁zoological 12
▁¡ 12
▁¿ 12
,17 11
.09 11
.2015 11
.40 11
01 11
04 11
21 11
90 11
abolic 11
achusetts 11
acity 11
activ 11
ador 11
agement 11
ailable 11
ales 11
alli 11
alog 11
andy 11
anta 11
aret 11
arians 11
asant 11
asse 11
athan 11
aven 11
awl 11
bas 11
bul 11
burst 11
chem 11
chief 11
cient 11
clear 11
coat 11
ctors 11
ears 11
ected 11
eered 11
eping 11
ervation 11
fell 11
fered 11
flight 11
ginses 11
gment 11
gre 11
ground 11
hall 11
hani 11
hetti 11
hia 11
hil 11
houses 11
ichi 11
icia 11
icient 11
icious 11
ift 11
igence 11
ington 11
ione 11
irl 11
irut 11
itar 11
itched 11
iver 11
izo 11
jal 11
jes 11
judice 11
kha 11
kk 11
lang 11
ledge 11
lis 11
lk 11
log 11
loss 11
miss 11
mons 11
neys 11
obile 11
oding 11
ofield 11
oline 11
olk 11
oman 11
omet 11
omin 11
ooo 11
oot 11
open 11
order 11
otes 11
otta 11
pack 11
pool 11
rates 11
rill 11
rising 11
rl 11
road 11
ront 11
rope 11
rose 11
rual 11
ructed 11
rupt 11
ser 11
tec 11
thy 11
turned 11
uary 11
uation 11
uits 11
uman 11
unts 11
urance 11
utory 11
vest 11
vet 11
vir 11
vor 11
wall 11
yak 11
yani 11
ysis 11
¦ 11
Ï 11
Ú 11
û 11
þ 11
Š 11
š 11
▁0.5 11
▁1-3 11
▁1-6 11
▁1.1 11
▁140 11
▁198 11
▁1990 11
▁2- 11
▁2-1 11
▁2007 11
▁247 11
▁4,000 11
▁500,000 11
▁administer 11
▁anal 11
▁annoy 11
▁applying 11
▁arre 11
▁arrests 11
▁artic 11
▁assum 11
▁authent 11
▁authorization 11
▁axis 11
▁beet 11
▁beha 11
▁bei 11
▁bes 11
▁bridges 11
▁capability 11
▁cartoon 11
▁cens 11
▁centimeters 11
▁chet 11
▁cin 11
▁circum 11
▁civic 11
▁cler 11
▁cockro 11
▁companions 11
▁completion 11
▁comprom 11
▁comput 11
▁conn 11
▁conqu 11
▁conservative 11
▁consultants 11
▁continental 11
▁contracted 11
▁convers 11
▁corresponding 11
▁counseling 11
▁danie 11
▁detecting 11
▁digit 11
▁dipl 11
▁disasters 11
▁displayed 11
▁distinguish 11
▁divisions 11
▁dramatically 11
▁duct 11
▁econom 11
▁embraced 11
▁entries 11
▁establishing 11
▁ethics 11
▁evapor 11
▁flour 11
▁foods 11
▁forb 11
▁framework 11
▁functional 11
▁gest 11
▁goo 11
▁gorge 11
▁guides 11
▁gujar 11
▁haz 11
▁heavier 11
▁hides 11
▁hig 11
▁hog 11
▁hypothet 11
▁imper 11
▁impro 11
▁inability 11
▁incorpor 11
▁influ 11
▁input 11
▁interaction 11
▁iss 11
▁jen 11
▁jul 11
▁kalut 11
▁kegalle 11
▁kirula 11
▁krist 11
▁lan 11
▁lapt 11
▁lifet 11
▁limitations 11
▁liqu 11
▁lively 11
▁mach 11
▁mah 11
▁meditation 11
▁meen 11
▁milit 11
▁mobility 11
▁monarch 11
▁mond 11
▁muth 11
▁narc 11
▁narrative 11
▁nil 11
▁numer 11
▁nurs 11
▁oils 11
▁organizing 11
▁oversight 11
▁pandit 11
▁perf 11
▁periods 11
▁placement 11
▁pract 11
▁practices 11
▁preserved 11
▁produces 11
▁proficiency 11
▁prohib 11
▁psychosocial 11
▁rah 11
▁ratnapura 11
▁recreation 11
▁refe 11
▁referee 11
▁refund 11
▁registrar 11
▁regulation 11
▁reluct 11
▁reporters 11
▁represented 11
▁resemb 11
▁respective 11
▁respir 11
▁restrict 11
▁robber 11
▁rober 11
▁rotation 11
▁saffron 11
▁scen 11
▁shadid 11
▁shines 11
▁sik 11
▁slot 11
▁sop 11
▁spons 11
▁spun 11
▁stirring 11
▁styles 11
▁subd 11
▁subjected 11
▁submission 11
▁subur 11
▁tamarind 11
▁taps 11
▁technological 11
▁tham 11
▁theoretically 11
▁trac 11
▁tract 11
▁translated 11
▁tsun 11
▁uncom 11
▁unwanted 11
▁uphold 11
▁valves 11
▁vav 11
▁veget 11
▁voluntary 11
▁vul 11
▁ware 11
▁yan 11
▁yem 11
▁yuan 11
-40 10
.08 10
.100 10
22 10
38 10
73 10
83 10
89 10
95 10
97 10
agama 10
aina 10
alley 10
amin 10
antic 10
arded 10
aric 10
aughter 10
bbs 10
bod 10
bott 10
braska 10
cee 10
ception 10
ckles 10
cover 10
eared 10
encies 10
endell 10
enny 10
ept 10
ession 10
esty 10
evous 10
force 10
gant 10
geon 10
ggs 10
giving 10
hiti 10
holes 10
iga 10
igible 10
imbo 10
inting 10
ishi 10
ithi 10
itten 10
itters 10
itute 10
iveness 10
len 10
lfriend 10
lled 10
mary 10
minus 10
non 10
ogical 10
opy 10
oscop 10
oscope 10
oup 10
rama 10
rase 10
ream 10
reated 10
ride 10
riers 10
rious 10
secut 10
stem 10
step 10
together 10
tti 10
ubis 10
uition 10
ulla 10
umpelstiltskin 10
urd 10
ureli 10
urious 10
ushi 10
uten 10
utenant 10
vat 10
verage 10
wealth 10
ween 10
works 10
wreck 10
É 10
Î 10
ß 10
ée 10
ì 10
î 10
̈ 10
с 10
▁1, 10
▁1,2 10
▁1.2.1 10
▁104 10
▁113 10
▁150,000 10
▁157 10
▁172 10
▁1976 10
▁1987 10
▁2004 10
▁206 10
▁4-2 10
▁50-50 10
▁53 10
▁60,000 10
▁7- 10
▁81 10
▁83 10
▁9-1 10
▁97 10
▁accomp 10
▁acre 10
▁addressed 10
▁adop 10
▁aging 10
▁alf 10
▁amaz 10
▁ambit 10
▁ambul 10
▁amend 10
▁analy 10
▁andhra 10
▁andro 10
▁antennas 10
▁appearing 10
▁artifacts 10
▁aspect 10
▁autom 10
▁automobile 10
▁baah 10
▁begg 10
▁beng 10
▁caps 10
▁casa 10
▁cc 10
▁chevy 10
▁cig 10
▁clos 10
▁coer 10
▁comed 10
▁committees 10
▁compens 10
▁complet 10
▁composed 10
▁condemned 10
▁consumption 10
▁contradict 10
▁controversial 10
▁craw 10
▁crest 10
▁cultiv 10
▁datab 10
▁dece 10
▁delic 10
▁delight 10
▁descendants 10
▁deterior 10
▁dire 10
▁discarded 10
▁disgr 10
▁dishon 10
▁dismantle 10
▁displays 10
▁dispos 10
▁emphas 10
▁entreprene 10
▁exf 10
▁facilitate 10
▁femin 10
▁fragrance 10
▁ginger 10
▁hallow 10
▁handc 10
▁harley 10
▁hus 10
▁hust 10
▁hypn 10
▁ignor 10
▁immig 10
▁improv 10
▁influenced 10
▁inherit 10
▁insufficient 10
▁keyboard 10
▁labourer 10
▁lak 10
▁latt 10
▁loads 10
▁lod 10
▁machin 10
▁mamm 10
▁miser 10
▁mixing 10
▁mons 10
▁motiv 10
▁mul 10
▁mumb 10
▁naw 10
▁neighbour 10
▁oppos 10
▁overall 10
▁oxy 10
▁peninsula 10
▁pent 10
▁pinnawala 10
▁pir 10
▁piz 10
▁pollution 10
▁portuguese 10
▁precip 10
▁promoting 10
▁proxim 10
▁psy 10
▁pyram 10
▁rebuilt 10
▁rece 10
▁receivable 10
▁receiver 10
▁recept 10
▁recur 10
▁rede 10
▁reducing 10
▁reduction 10
▁reptiles 10
▁respectively 10
▁reve 10
▁rib 10
▁rotate 10
▁rotating 10
▁schi 10
▁scoring 10
▁selina 10
▁separates 10
▁settings 10
▁situated 10
▁specialized 10
▁specified 10
▁specim 10
▁spee 10
▁speeds 10
▁spir 10
▁ss 10
▁stair 10
▁strugg 10
▁stud 10
▁successor 10
▁surre 10
▁thereby 10
▁tran 10
▁transferring 10
▁treacher 10
▁trincomalee 10
▁tru 10
▁universities 10
▁urg 10
▁vig 10
▁vik 10
▁workshops 10
▁yang 10
▁zap 10
▁zealand 10
,11 9
,16 9
,49 9
-15 9
-2-0 9
.000 9
.15 9
.5000 9
06 9
24 9
26 9
48 9
55 9
acter 9
agn 9
ango 9
arsing 9
asso 9
avi 9
avid 9
ayake 9
bish 9
change 9
ckin 9
cript 9
ctions 9
def 9
eel 9
eep 9
enha 9
ensed 9
erve 9
essed 9
etch 9
ethe 9
far 9
fast 9
fir 9
fold 9
food 9
forcement 9
function 9
ggers 9
ghed 9
hammad 9
haryn 9
hay 9
held 9
hink 9
hira 9
iance 9
ibly 9
ighs 9
ippin 9
irm 9
iron 9
isl 9
jam 9
leted 9
lices 9
lus 9
mac 9
mers 9
mund 9
namics 9
norm 9
ogram 9
ologists 9
omp 9
orary 9
osc 9
ouille 9
ovember 9
oxide 9
patient 9
pha 9
respons 9
rics 9
rik 9
riya 9
rome 9
rus 9
rypt 9
sect 9
uable 9
ucing 9
ully 9
user 9
wani 9
ware 9
wat 9
waters 9
wire 9
wis 9
wo 9
worthy 9
yal 9
yi 9
zzi 9
Ô 9
Ý 9
ù 9
у 9
ч 9
▁1-1 9
▁1.2.2 9
▁125 9
▁147 9
▁1971 9
▁1980 9
▁1991 9
▁2-3 9
▁2.09 9
▁2.2 9
▁2016 9
▁212 9
▁4- 9
▁50- 9
▁58 9
▁723 9
▁abs 9
▁abundance 9
▁accur 9
▁accus 9
▁adapted 9
▁allan 9
▁antibi 9
▁applic 9
▁aquatic 9
▁arise 9
▁aston 9
▁aux 9
▁awk 9
▁bachel 9
▁bands 9
▁bau 9
▁berg 9
▁brend 9
▁buddhist 9
▁cancell 9
▁cane 9
▁cine 9
▁compliance 9
▁comprehend 9
▁continu 9
▁contrib 9
▁contributions 9
▁controll 9
▁creat 9
▁curator 9
▁dab 9
▁delays 9
▁derby 9
▁deserts 9
▁develops 9
▁diagnost 9
▁doubles 9
▁ducky 9
▁ef 9
▁elastic 9
▁elli 9
▁embed 9
▁emergencies 9
▁encour 9
▁enzy 9
▁epis 9
▁etern 9
▁exped 9
▁famil 9
▁festiv 9
▁fibers 9
▁fing 9
▁gent 9
▁glob 9
▁gog 9
▁goog 9
▁governance 9
▁grav 9
▁gust 9
▁helm 9
▁horiz 9
▁imprison 9
▁influences 9
▁insp 9
▁instrum 9
▁interp 9
▁introd 9
▁invas 9
▁jour 9
▁kart 9
▁kidn 9
▁kore 9
▁lank 9
▁liter 9
▁metaph 9
▁miche 9
▁minut 9
▁mixture 9
▁mocking 9
▁momentum 9
▁mow 9
▁mush 9
▁nause 9
▁nep 9
▁olymp 9
▁oper 9
▁orde 9
▁ordinance 9
▁ore 9
▁pavement 9
▁pharm 9
▁phen 9
▁phenomen 9
▁ply 9
▁policies 9
▁prad 9
▁prepares 9
▁processes 9
▁prototy 9
▁relig 9
▁removal 9
▁rese 9
▁reven 9
▁rhy 9
▁rul 9
▁ruth 9
▁satisfy 9
▁scholar 9
▁sept 9
▁shang 9
▁shir 9
▁simpl 9
▁slop 9
▁sly 9
▁sout 9
▁strengthe 9
▁sud 9
▁switzerland 9
▁technologies 9
▁temperate 9
▁trix 9
▁underest 9
▁uni 9
▁users 9
▁vid 9
▁writ 9
▁wu 9
▁xand 9
,300 8
-19 8
.06 8
.07 8
0000 8
27 8
608 8
61 8
69 8
75 8
92 8
abilities 8
acon 8
aden 8
agorn 8
aha 8
akers 8
alas 8
atar 8
ault 8
ckey 8
combe 8
comp 8
cour 8
cribed 8
dden 8
elly 8
enced 8
entials 8
fthansa 8
fy 8
geable 8
gee 8
grad 8
heel 8
heera 8
hens 8
hile 8
hman 8
hus 8
iction 8
igen 8
ilitation 8
ilities 8
iliz 8
ilo 8
ince 8
iru 8
itzer 8
lance 8
leep 8
lict 8
llion 8
lor 8
mas 8
mil 8
nect 8
ocking 8
olis 8
onia 8
onym 8
osp 8
osure 8
othy 8
otr 8
ounds 8
phan 8
plus 8
ptions 8
raid 8
ranean 8
rank 8
rative 8
rench 8
rero 8
ridge 8
rio 8
rises 8
roo 8
sler 8
smith 8
stein 8
test 8
thazar 8
tley 8
uated 8
uations 8
ugged 8
umpel 8
vant 8
versary 8
vo 8
Æ 8
Í 8
ç 8
̄ 8
▁-1 8
▁........ 8
▁............ 8
▁10-24 8
▁111 8
▁144 8
▁170 8
▁18- 8
▁185 8
▁1979 8
▁205 8
▁3.4 8
▁305 8
▁4.1 8
▁4080 8
▁669 8
▁74 8
▁87 8
▁921 8
▁accred 8
▁acknow 8
▁acquisition 8
▁advent 8
▁advert 8
▁advisory 8
▁affecting 8
▁affili 8
▁aggress 8
▁alp 8
▁arri 8
▁aust 8
▁bacter 8
▁bey 8
▁brid 8
▁carn 8
▁challen 8
▁circulation 8
▁cla 8
▁compact 8
▁compounds 8
▁corrid 8
▁coun 8
▁crimin 8
▁damages 8
▁decreased 8
▁deterioration 8
▁disab 8
▁disag 8
▁dunes 8
▁electromagnet 8
▁encoun 8
▁ensuring 8
▁estim 8
▁ethnic 8
▁expend 8
▁fant 8
▁fict 8
▁findings 8
▁flir 8
▁fol 8
▁fortun 8
▁gard 8
▁gestures 8
▁gha 8
▁gif 8
▁gn 8
▁gov 8
▁ident 8
▁imprisonment 8
▁incar 8
▁individ 8
▁inev 8
▁instit 8
▁institutional 8
▁interfe 8
▁intim 8
▁inver 8
▁investigative 8
▁involuntary 8
▁ivy 8
▁kerala 8
▁kern 8
▁kom 8
▁kum 8
▁kut 8
▁liabilities 8
▁lingu 8
▁maneu 8
▁manufacturer 8
▁maritime 8
▁matara 8
▁microphone 8
▁nim 8
▁nur 8
▁obl 8
▁operates 8
▁org 8
▁organisation 8
▁originated 8
▁oval 8
▁pai 8
▁parach 8
▁phi 8
▁physic 8
▁pools 8
▁portrait 8
▁potassium 8
▁prevents 8
▁printing 8
▁purcha 8
▁rainfall 8
▁recomm 8
▁repro 8
▁researchers 8
▁revers 8
▁saf 8
▁scoo 8
▁scound 8
▁simp 8
▁skjoldmø 8
▁stems 8
▁stom 8
▁stup 8
▁superint 8
▁swimmer 8
▁synt 8
▁tach 8
▁teachings 8
▁thes 8
▁tot 8
▁traditionally 8
▁traff 8
▁typ 8
▁ultra 8
▁unatt 8
▁uss 8
▁vard 8
▁vegetation 8
▁vessels 8
▁websites 8
▁whist 8
▁wilder 8
▁බම 8
-17 7
.01 7
36 7
76 7
94 7
96 7
M 7
agen 7
alem 7
alie 7
amani 7
anson 7
arath 7
arent 7
arty 7
asures 7
atories 7
avam 7
bage 7
bou 7
buck 7
cca 7
chand 7
doll 7
dor 7
elia 7
elve 7
eous 7
erra 7
erved 7
fleur 7
gage 7
garian 7
hyd 7
ife 7
ilians 7
illes 7
iman 7
imeters 7
ird 7
isy 7
itas 7
iteria 7
ival 7
ivid 7
lad 7
lishing 7
mission 7
ndred 7
oci 7
ometric 7
oshan 7
oys 7
pet 7
quis 7
reci 7
reslin 7
ril 7
rofess 7
rolog 7
ronics 7
rupting 7
sequ 7
through 7
uals 7
ugu 7
unte 7
velop 7
Ê 7
ā 7
г 7
п 7
њ 7
▁-2 7
▁....... 7
▁1200 7
▁190 7
▁1963 7
▁3.5 7
▁302 7
▁324 7
▁360 7
▁4.2 7
▁6000 7
▁T 7
▁absol 7
▁abundant 7
▁ador 7
▁africans 7
▁alleg 7
▁appre 7
▁assemb 7
▁athlet 7
▁babysit 7
▁bhair 7
▁bloods 7
▁cham 7
▁colonial 7
▁competitions 7
▁concepts 7
▁considerably 7
▁consultancy 7
▁coordin 7
▁decre 7
▁depos 7
▁discipl 7
▁dosa 7
▁dv 7
▁elev 7
▁embr 7
▁endocarditis 7
▁envelop 7
▁exhib 7
▁factors 7
▁fashi 7
▁fest 7
▁fianc 7
▁flexible 7
▁flou 7
▁gala 7
▁gib 7
▁gord 7
▁govern 7
▁gret 7
▁grou 7
▁hous 7
▁incap 7
▁indist 7
▁infilt 7
▁isab 7
▁jes 7
▁kg 7
▁lifes 7
▁lik 7
▁lob 7
▁maced 7
▁massac 7
▁moh 7
▁museums 7
▁neckl 7
▁nir 7
▁nort 7
▁oli 7
▁organiz 7
▁overl 7
▁paraly 7
▁phe 7
▁philosop 7
▁pneum 7
▁postp 7
▁preced 7
▁propag 7
▁quant 7
▁rans 7
▁remembrance 7
▁resp 7
▁rhod 7
▁sandals 7
▁saus 7
▁sear 7
▁serge 7
▁serv 7
▁stub 7
▁subsequent 7
▁substant 7
▁suppli 7
▁terrif 7
▁titles 7
▁tort 7
▁tra 7
▁trag 7
▁transm 7
▁unus 7
▁upd 7
▁vamp 7
▁varied 7
▁varieties 7
▁vulner 7
▁weal 7
▁widely 7
▁widespread 7
▁wis 7
▁yog 7
▁ග 7
▁නකෝ 7
-2-3 6
.05 6
.25 6
.80 6
03 6
29 6
31 6
58 6
66 6
77 6
78 6
91 6
98 6
adel 6
amous 6
anim 6
asure 6
athetic 6
aughters 6
bby 6
blood 6
brew 6
bucks 6
certain 6
cil 6
ciple 6
cod 6
crow 6
dler 6
ember 6
enda 6
ention 6
erm 6
estone 6
etha 6
ext 6
eyes 6
fle 6
ght 6
gins 6
hary 6
hav 6
iculture 6
idents 6
iduous 6
iencies 6
iform 6
isions 6
issa 6
itiya 6
ivia 6
jar 6
jud 6
justice 6
lection 6
mind 6
nas 6
ogi 6
oph 6
orry 6
plant 6
prot 6
quarters 6
rary 6
rences 6
rene 6
rete 6
riff 6
rigan 6
rimin 6
rof 6
ross 6
rove 6
sed 6
stalk 6
tion 6
ulge 6
ulous 6
vies 6
wol 6
zus 6
¢ 6
Ñ 6
å 6
÷ 6
ш 6
• 6
▁10.30 6
▁105 6
▁145 6
▁1947 6
▁1978 6
▁1986 6
▁1989 6
▁1998 6
▁2001 6
▁208 6
▁220 6
▁275 6
▁290 6
▁450 6
▁533 6
▁747 6
▁84 6
▁90,000 6
▁abdom 6
▁absor 6
▁ack 6
▁admin 6
▁agricultural 6
▁amuse 6
▁anch 6
▁anonym 6
▁appe 6
▁athletic 6
▁atl 6
▁atrium 6
▁bec 6
▁bever 6
▁blab 6
▁bung 6
▁burgl 6
▁cact 6
▁cance 6
▁carna 6
▁cate 6
▁chandrak 6
▁characteristics 6
▁compar 6
▁condem 6
▁conserv 6
▁contrad 6
▁corpor 6
▁counse 6
▁cuisine 6
▁cultivation 6
▁dd 6
▁designation 6
▁determining 6
▁dhamma 6
▁disast 6
▁discrimin 6
▁docum 6
▁dwar 6
▁dynasty 6
▁eliya 6
▁enthus 6
▁equip 6
▁excise 6
▁exhibits 6
▁extracted 6
▁famili 6
▁fier 6
▁font 6
▁hag 6
▁heav 6
▁hors 6
▁hurric 6
▁hydrop 6
▁immun 6
▁impul 6
▁incomp 6
▁independ 6
▁kabad 6
▁kad 6
▁keg 6
▁kub 6
▁landsc 6
▁langu 6
▁levi 6
▁lifeguard 6
▁lifesa 6
▁ltd 6
▁magnific 6
▁marri 6
▁marvel 6
▁misbe 6
▁mish 6
▁nard 6
▁nec 6
▁nons 6
▁nood 6
▁notor 6
▁orang 6
▁orangut 6
▁outdoor 6
▁overse 6
▁overw 6
▁pear 6
▁princip 6
▁prod 6
▁psychos 6
▁rainy 6
▁raz 6
▁rebe 6
▁rey 6
▁ridd 6
▁scri 6
▁selv 6
▁smo 6
▁snip 6
▁squaw 6
▁stead 6
▁subc 6
▁tasks 6
▁traged 6
▁transpond 6
▁trig 6
▁ult 6
▁ultim 6
▁vehi 6
▁ves 6
▁viet 6
▁volunt 6
▁widowed 6
▁වත 6
-------- 5
.55 5
51 5
actions 5
adeniya 5
agnet 5
aila 5
akash 5
alian 5
alla 5
allahu 5
anga 5
anny 5
ansas 5
ardon 5
avy 5
bir 5
borne 5
cest 5
cise 5
corp 5
cription 5
ello 5
emor 5
eong 5
epr 5
erted 5
erts 5
eties 5
few 5
gett 5
ghan 5
hamp 5
hazi 5
hesis 5
hk 5
hra 5
iciency 5
icity 5
idered 5
iece 5
iences 5
ients 5
ilar 5
ilation 5
ilee 5
ilts 5
iments 5
imony 5
ipher 5
iry 5
isey 5
istan 5
lete 5
liance 5
lson 5
maids 5
mans 5
mester 5
nor 5
ocity 5
ographical 5
orders 5
orp 5
orters 5
ossible 5
ottle 5
oyd 5
pian 5
protected 5
rance 5
rict 5
rogen 5
sion 5
tal 5
throp 5
tit 5
tod 5
uard 5
uffs 5
uffy 5
urally 5
vention 5
vette 5
wanted 5
while 5
zone 5
з 5
к 5
ද 5
ුනොත 5
ුයි 5
ූ 5
▁103 5
▁129 5
▁175 5
▁1982 5
▁1994 5
▁2017 5
▁227 5
▁260 5
▁3.3 5
▁4500 5
▁5.30 5
▁6.30 5
▁accompl 5
▁achie 5
▁adrenal 5
▁advis 5
▁afric 5
▁ans 5
▁anth 5
▁aroma 5
▁auri 5
▁barbe 5
▁barr 5
▁beh 5
▁benivo 5
▁bil 5
▁bount 5
▁bubb 5
▁burma 5
▁camer 5
▁caus 5
▁chic 5
▁cir 5
▁claud 5
▁contrast 5
▁crystall 5
▁dat 5
▁dischar 5
▁distingu 5
▁distrib 5
▁dives 5
▁enhancing 5
▁entit 5
▁ere 5
▁ers 5
▁excell 5
▁excite 5
▁extraord 5
▁fernand 5
▁fra 5
▁freud 5
▁fs 5
▁fulf 5
▁goss 5
▁gree 5
▁highways 5
▁hob 5
▁homet 5
▁incre 5
▁interpretation 5
▁invis 5
▁isa 5
▁kath 5
▁leni 5
▁lyc 5
▁manif 5
▁mater 5
▁mathem 5
▁ment 5
▁microw 5
▁mississ 5
▁motorcy 5
▁paran 5
▁pate 5
▁pave 5
▁prescribed 5
▁prest 5
▁primate 5
▁prosecut 5
▁puzz 5
▁recons 5
▁relo 5
▁restr 5
▁ridic 5
▁rimem 5
▁rottmay 5
▁russ 5
▁sacri 5
▁schm 5
▁sivar 5
▁splend 5
▁streng 5
▁struct 5
▁subsequently 5
▁superhe 5
▁theore 5
▁ump 5
▁unbelie 5
▁underw 5
▁unexpl 5
▁unl 5
▁webs 5
▁ගූ 5
▁ජග 5
▁තාපසතුමනි 5
▁ද 5
▁න 5
-24 4
.03 4
.11 4
.12.31 4
.19 4
.31 4
32 4
84 4
88 4
abama 4
airs 4
alo 4
ampa 4
ample 4
anish 4
apan 4
apore 4
artment 4
aten 4
atherine 4
atical 4
ayud 4
bian 4
cible 4
ckets 4
cry 4
dington 4
esy 4
ffin 4
gey 4
gor 4
gth 4
harm 4
hend 4
hod 4
hough 4
hur 4
iano 4
ici 4
idus 4
ikant 4
ilton 4
iper 4
isco 4
isf 4
iven 4
leera 4
loy 4
lst 4
maan 4
mitted 4
mmy 4
nagar 4
napura 4
nels 4
oard 4
ocial 4
olic 4
ologies 4
omething 4
onent 4
orient 4
ortion 4
ouble 4
parent 4
parents 4
pea 4
pected 4
pective 4
qual 4
ribly 4
riel 4
rine 4
rings 4
roe 4
rout 4
ruk 4
ryn 4
sch 4
steps 4
thaz 4
thr 4
tt 4
ublic 4
uctive 4
udy 4
usp 4
vana 4
vez 4
xic 4
xtrot 4
yards 4
yya 4
zar 4
zen 4
­ 4
Ë 4
Þ 4
ò 4
ń 4
С 4
Х 4
ж 4
ц 4
ඩියා 4
ලා 4
▁......... 4
▁.......... 4
▁1.2.3 4
▁102 4
▁118 4
▁126 4
▁130 4
▁161 4
▁286 4
▁299 4
▁8.2 4
▁aar 4
▁academ 4
▁aeg 4
▁affirm 4
▁airpl 4
▁alask 4
▁alphab 4
▁anni 4
▁arid 4
▁arsen 4
▁associations 4
▁asth 4
▁awes 4
▁baj 4
▁barbec 4
▁behavi 4
▁benefici 4
▁bicy 4
▁bluepr 4
▁boll 4
▁botan 4
▁cair 4
▁californ 4
▁categories 4
▁cey 4
▁chu 4
▁clen 4
▁compl 4
▁concuss 4
▁controvers 4
▁crist 4
▁curi 4
▁dap 4
▁deem 4
▁delive 4
▁democr 4
▁dess 4
▁dialog 4
▁displ 4
▁distur 4
▁doub 4
▁doz 4
▁esc 4
▁exhi 4
▁exhibitions 4
▁exper 4
▁explan 4
▁fern 4
▁freder 4
▁gat 4
▁glucose 4
▁grapes 4
▁hemorr 4
▁historian 4
▁hou 4
▁humve 4
▁hyder 4
▁implement 4
▁incon 4
▁ingred 4
▁inte 4
▁iphone 4
▁jaff 4
▁jas 4
▁jeet 4
▁jup 4
▁lnd 4
▁luci 4
▁microph 4
▁millig 4
▁murde 4
▁nib 4
▁niger 4
▁omnic 4
▁opportun 4
▁osc 4
▁outr 4
▁penitent 4
▁portug 4
▁purs 4
▁recei 4
▁refreshing 4
▁relie 4
▁rena 4
▁reput 4
▁ribb 4
▁saff 4
▁shep 4
▁shepher 4
▁snee 4
▁soc 4
▁soren 4
▁sugars 4
▁sull 4
▁supervill 4
▁tast 4
▁tay 4
▁techn 4
▁technic 4
▁thel 4
▁therap 4
▁thro 4
▁tournaments 4
▁unman 4
▁unreal 4
▁urch 4
▁vie 4
▁volt 4
▁wond 4
▁yad 4
▁yö 4
▁ඔරව 4
▁කෝ 4
▁දෙන 4
▁නීත 4
▁පුල 4
▁ෂ 4
--- 3
.45 3
28 3
abeth 3
accept 3
acci 3
aign 3
aiyur 3
akesh 3
alan 3
allel 3
ambay 3
ammu 3
aneously 3
anet 3
asim 3
astas 3
asty 3
ateral 3
athon 3
beard 3
belie 3
cience 3
ein 3
eless 3
employ 3
encer 3
essions 3
eton 3
gered 3
gia 3
glas 3
group 3
gry 3
hattan 3
heeler 3
hent 3
hies 3
hite 3
hoong 3
ibi 3
iches 3
inct 3
inge 3
iod 3
izzy 3
km 3
lop 3
mber 3
mir 3
noon 3
oa 3
ocard 3
olid 3
omber 3
omon 3
onscious 3
onse 3
ooth 3
orrect 3
orth 3
osaur 3
oston 3
pert 3
reet 3
rily 3
rison 3
rix 3
ructive 3
ryption 3
stairs 3
teen 3
thouse 3
tty 3
uba 3
ufficient 3
ulative 3
ultural 3
umn 3
uthor 3
vey 3
vous 3
wich 3
writing 3
xim 3
yers 3
yl 3
zins 3
© 3
¬ 3
Å 3
Ð 3
æ 3
ë 3
ð 3
́ 3
Д 3
Н 3
О 3
ගත 3
ගෙන 3
තුම 3
නේ 3
ව 3
වද 3
හගන 3
ෝ 3
▁--- 3
▁122 3
▁146 3
▁82 3
▁acquaint 3
▁acquis 3
▁americ 3
▁angulim 3
▁argu 3
▁artif 3
▁associ 3
▁auricle 3
▁ausp 3
▁austral 3
▁autob 3
▁bamb 3
▁barg 3
▁blad 3
▁brook 3
▁butterf 3
▁capit 3
▁caut 3
▁civ 3
▁cogn 3
▁congr 3
▁cust 3
▁dall 3
▁determin 3
▁dir 3
▁dow 3
▁dugg 3
▁earthqu 3
▁eld 3
▁emper 3
▁ensla 3
▁ethn 3
▁exec 3
▁extern 3
▁featured 3
▁ferr 3
▁fian 3
▁ghee 3
▁gryffind 3
▁guill 3
▁herm 3
▁herz 3
▁himalay 3
▁histor 3
▁hosp 3
▁idi 3
▁inquis 3
▁ire 3
▁jurisd 3
▁kala 3
▁kash 3
▁lemm 3
▁lib 3
▁lp 3
▁mahend 3
▁messen 3
▁metrop 3
▁mexic 3
▁minist 3
▁motherfuck 3
▁murug 3
▁naught 3
▁orchi 3
▁parad 3
▁parag 3
▁paramed 3
▁plank 3
▁plumb 3
▁pneumatic 3
▁policing 3
▁polit 3
▁pulmonary 3
▁quarant 3
▁ranc 3
▁refres 3
▁rek 3
▁rend 3
▁satur 3
▁seti 3
▁sett 3
▁sev 3
▁soor 3
▁sophist 3
▁stee 3
▁submer 3
▁submiss 3
▁suc 3
▁synch 3
▁teac 3
▁terri 3
▁unpredict 3
▁vall 3
▁venge 3
▁ventri 3
▁wey 3
▁wines 3
▁writers 3
▁ඉන 3
▁ගැහ 3
▁තා 3
▁තාපස 3
▁දිවින 3
▁දී 3
▁නම 3
▁නෙත 3
▁ඳැද 3
▁බල 3
▁ව 3
韆 3
---- 2
.01.01 2
.04 2
.2012 2
aam 2
abi 2
abouts 2
aday 2
adin 2
alle 2
alsa 2
anker 2
appropri 2
arant 2
aris 2
arter 2
aska 2
asons 2
atell 2
attoo 2
ayudham 2
bast 2
billy 2
breakable 2
cession 2
chest 2
chsch 2
ckshaw 2
club 2
cohol 2
corn 2
educ 2
efully 2
eld 2
enance 2
epend 2
erves 2
esi 2
eu 2
fia 2
gart 2
gler 2
haagen 2
hael 2
hamed 2
hant 2
haps 2
hensive 2
hni 2
hous 2
iation 2
icorn 2
idon 2
iety 2
igu 2
ilan 2
ingale 2
ippy 2
issors 2
itals 2
itial 2
iture 2
ivo 2
izabeth 2
jad 2
jana 2
kern 2
lymp 2
might 2
mighty 2
missions 2
mity 2
morrow 2
namon 2
nifer 2
ober 2
ocol 2
olet 2
ollo 2
omas 2
onents 2
orge 2
orld 2
oscow 2
otte 2
ourer 2
owen 2
oya 2
piration 2
prints 2
rast 2
rc 2
rency 2
ressler 2
retion 2
rium 2
rors 2
shaw 2
stood 2
strong 2
though 2
trau 2
tube 2
ube 2
udder 2
ulim 2
urning 2
ushka 2
uthorized 2
vatar 2
vior 2
yanar 2
ylum 2
yon 2
À 2
Á 2
Ã 2
õ 2
ú 2
М 2
П 2
х 2
ගන 2
ගේ 2
ටම 2
නවාද 2
ම 2
යි 2
යෙක 2
වකෝ 2
වත 2
වන 2
වම 2
වයි 2
ාවන 2
ියෝ 2
ිවා 2
ෙට 2
ෙත 2
▁10000 2
▁adap 2
▁adequ 2
▁afghan 2
▁algorith 2
▁amer 2
▁apprent 2
▁approxim 2
▁archa 2
▁atle 2
▁aug 2
▁buddhism 2
▁bungal 2
▁carc 2
▁cath 2
▁centu 2
▁certification 2
▁chapp 2
▁cind 2
▁coc 2
▁coch 2
▁consequ 2
▁consisted 2
▁coronary 2
▁cuis 2
▁descri 2
▁dopp 2
▁dou 2
▁dut 2
▁eis 2
▁elabor 2
▁electrom 2
▁emer 2
▁emot 2
▁enem 2
▁engin 2
▁enhan 2
▁environ 2
▁espe 2
▁exclus 2
▁exe 2
▁exer 2
▁expans 2
▁ez 2
▁fai 2
▁ferment 2
▁fermentation 2
▁fero 2
▁gargant 2
▁gaur 2
▁gott 2
▁gover 2
▁gryff 2
▁guil 2
▁hemisp 2
▁hes 2
▁hogw 2
▁inappropri 2
▁incharge 2
▁inher 2
▁insure 2
▁invin 2
▁irrespons 2
▁isra 2
▁kell 2
▁krav 2
▁madhav 2
▁magist 2
▁malays 2
▁malv 2
▁manufact 2
▁marit 2
▁membr 2
▁mink 2
▁mori 2
▁mosqu 2
▁mou 2
▁mouchebou 2
▁neigh 2
▁nev 2
▁nis 2
▁nutri 2
▁offic 2
▁overwhel 2
▁patter 2
▁pennsylvan 2
▁peop 2
▁pericard 2
▁perman 2
▁pind 2
▁pinna 2
▁proced 2
▁prosec 2
▁psychi 2
▁purp 2
▁rancchod 2
▁ranchhod 2
▁reinforce 2
▁remem 2
▁remembr 2
▁remo 2
▁rez 2
▁rott 2
▁rous 2
▁ruk 2
▁rup 2
▁sarfar 2
▁sath 2
▁scient 2
▁scul 2
▁sentine 2
▁shing 2
▁shuk 2
▁simult 2
▁somed 2
▁sorce 2
▁stad 2
▁sugg 2
▁surviv 2
▁synd 2
▁tamar 2
▁theoret 2
▁tiss 2
▁traject 2
▁trem 2
▁tremend 2
▁trous 2
▁tut 2
▁unex 2
▁univers 2
▁verd 2
▁vinc 2
▁vort 2
▁wom 2
▁wreat 2
▁ww 2
▁yester 2
▁zool 2
▁· 2
▁අංකේ 2
▁අඳුන 2
▁අල 2
▁ඇඳගත 2
▁ඇමතුමක 2
▁කුරුස 2
▁ගේ 2
▁චන 2
▁ජට 2
▁තාම 2
▁දයක 2
▁දාන 2
▁ධර 2
▁නතාන 2
▁පිටසක 2
▁පෞර 2
▁බලාවි 2
▁බෙද 2
▁බේරගන 2
▁බෝජ 2
▁මයක 2
▁යත 2
▁වය 2
▁වළ 2
▁වා 2
▁වාම 2
▁විලාසිත 2
▁වීර 2
▁සද 2
▁හැංඟ 2
▁♥ 2
碈 2
.. 1
505 1
abor 1
acceptable 1
adhar 1
agne 1
ahini 1
ahl 1
ais 1
akov 1
alay 1
allister 1
alth 1
alysis 1
amesh 1
apest 1
arest 1
arios 1
aroo 1
asee 1
asena 1
asimha 1
assy 1
astrop 1
atches 1
athandavam 1
avind 1
aviru 1
avis 1
azaar 1
bait 1
bersole 1
boot 1
boro 1
briety 1
chair 1
chchi 1
dia 1
dney 1
dua 1
eah 1
east 1
eaux 1
elg 1
emet 1
enby 1
enty 1
ergart 1
estyle 1
eters 1
eyn 1
ezvous 1
fair 1
fashi 1
fering 1
ffff 1
fice 1
forth 1
frame 1
garan 1
gom 1
groom 1
gular 1
handavam 1
havi 1
heast 1
hern 1
hism 1
hower 1
iasm 1
iator 1
ibo 1
icons 1
icop 1
idance 1
identified 1
ieter 1
ilizer 1
ilson 1
imbat 1
inction 1
inephrine 1
inese 1
inni 1
inochchi 1
inos 1
iona 1
ionage 1
ippi 1
iris 1
isor 1
ivu 1
jini 1
kok 1
lementary 1
lip 1
lished 1
lobodyne 1
lvan 1
mbol 1
mina 1
mored 1
mv 1
nold 1
obi 1
ocaly 1
ocalypse 1
olen 1
omethe 1
ondu 1
onel 1
onica 1
onnect 1
opath 1
orage 1
ordan 1
osen 1
pai 1
pit 1
quila 1
raham 1
rastructure 1
resp 1
rett 1
ribed 1
ricles 1
ructure 1
ruv 1
ryan 1
seau 1
sein 1
shield 1
shine 1
sole 1
sons 1
stache 1
sylvan 1
talam 1
teries 1
ubilee 1
uckoo 1
uesday 1
ufact 1
ugget 1
uine 1
unning 1
uron 1
vered 1
vester 1
xture 1
yle 1
 1
Ì 1
Ò 1
Õ 1
ý 1
ÿ 1
Β 1
Ε 1
Ι 1
Μ 1
Ν 1
Џ 1
А 1
В 1
К 1
Л 1
Ч 1
ћ 1
ං 1
ආරක 1
කයක 1
කර 1
කරගෙන 1
කාර 1
කාරයා 1
ගහ 1
ගාම 1
ගු 1
ගෙ 1
ගෙම 1
ට 1
ටයි 1
ඩි 1
ණීය 1
ත 1
තම 1
දී 1
න 1
පු 1
බ 1
බෑ 1
මණ 1
මයි 1
මි 1
ය 1
යම 1
යැ 1
යින 1
යිනේ 1
යෙත 1
යේ 1
යෝ 1
ර 1
රික 1
රිද 1
ලු 1
ලෝ 1
වගන 1
වනේ 1
වරුන 1
වව 1
වාගත 1
වි 1
විලා 1
වුනාම 1
වෙන 1
ස 1
සල 1
හන 1
හල 1
හිලා 1
හේ 1
ාගේ 1
ාම 1
ාල 1
ාව 1
ාවයි 1
ාවි 1
ි 1
ිත 1
ිනියක 1
ිනේ 1
ියක 1
ියා 1
ියෙ 1
ියෙක 1
ිලයි 1
ිලා 1
ී 1
ීස 1
ු 1
ුට 1
ුත 1
ුනේ 1
ුප 1
ුම 1
ුර 1
ුවෙක 1
ූත 1
ූද 1
ෘෂ 1
ෙක 1
ෙන 1
ෙරි 1
ෙලෝ 1
ේ 1
ේට 1
ොත 1
ොයි 1
⁄ 1
⇒ 1
│ 1
▁201 1
▁287 1
▁50000 1
▁^ 1
▁aband 1
▁accom 1
▁acidity 1
▁acids 1
▁akank 1
▁alchem 1
▁ambass 1
▁antid 1
▁aort 1
▁aorta 1
▁aran 1
▁artific 1
▁autop 1
▁ayurved 1
▁bagh 1
▁battal 1
▁biokern 1
▁bisc 1
▁biz 1
▁budd 1
▁bure 1
▁calend 1
▁candid 1
▁cartil 1
▁caval 1
▁certific 1
▁charlest 1
▁chen 1
▁chocol 1
▁committ 1
▁compan 1
▁concession 1
▁defic 1
▁deg 1
▁deter 1
▁diagn 1
▁divor 1
▁dolph 1
▁dyna 1
▁eisen 1
▁equilib 1
▁equival 1
▁eur 1
▁forens 1
▁gamp 1
▁gluc 1
▁grun 1
▁gry 1
▁haro 1
▁harv 1
▁hypot 1
▁immort 1
▁incred 1
▁indust 1
▁infir 1
▁intell 1
▁intellig 1
▁isol 1
▁juris 1
▁kalp 1
▁kee 1
▁keral 1
▁komb 1
▁laa 1
▁lif 1
▁lous 1
▁marg 1
▁marse 1
▁martine 1
▁merced 1
▁miy 1
▁monaster 1
▁moroc 1
▁occas 1
▁ordination 1
▁paragrap 1
▁peac 1
▁pec 1
▁penins 1
▁phoen 1
▁pitamb 1
▁politic 1
▁portra 1
▁portugues 1
▁practition 1
▁prelim 1
▁psychiat 1
▁resour 1
▁rhyth 1
▁sandw 1
▁saro 1
▁schiz 1
▁secre 1
▁somet 1
▁sov 1
▁strate 1
▁stren 1
▁suffe 1
▁swe 1
▁syl 1
▁tangab 1
▁teled 1
▁teles 1
▁thurs 1
▁troub 1
▁turbul 1
▁umbre 1
▁uncomfort 1
▁unfort 1
▁unnecess 1
▁unple 1
▁untrac 1
▁variet 1
▁veng 1
▁ventricle 1
▁vint 1
▁weir 1
▁xx 1
▁zep 1
▁zomb 1
▁අදර 1
▁අඳින 1
▁අභ 1
▁අමත 1
▁අය 1
▁අයකර 1
▁අස 1
▁අහන 1
▁ඇතුළ 1
▁ඇර 1
▁ඇහැරවන 1
▁ඉගිලෙන 1
▁උපත 1
▁උපද 1
▁එල 1
▁ඒක 1
▁ඔව 1
▁ඔස 1
▁ඔළ 1
▁ඕකව 1
▁ඕනනේ 1
▁ඕවා 1
▁ක 1
▁කඩ 1
▁කඳ 1
▁කරගන 1
▁කරනවා 1
▁කළ 1
▁කළමනාකාර 1
▁කාම 1
▁කාර 1
▁කැව 1
▁කෙළ 1
▁කොත 1
▁කොහෙන 1
▁ගන 1
▁ගලක 1
▁ගලවන 1
▁ගාගෙන 1
▁ගැ 1
▁ගැට 1
▁ගැල 1
▁ගැලෙව 1
▁ගැහෙන 1
▁ගෙන 1
▁ගොළ 1
▁ඝන 1
▁ඟ 1
▁ජයි 1
▁ටට 1
▁ටද 1
▁ටාර 1
▁ටික 1
▁ටේ 1
▁ටොක 1
▁ටොප 1
▁ඩ 1
▁ඩන 1
▁ණයක 1
▁තන 1
▁තම 1
▁තල 1
▁තික 1
▁තිල 1
▁තේර 1
▁තොත 1
▁දඟල 1
▁දර 1
▁දවන 1
▁දුවව 1
▁දෙ 1
▁දෙනා 1
▁දෙවිය 1
▁දෙවියන 1
▁දෙවොල 1
▁ධ 1
▁නට 1
▁නද 1
▁නන 1
▁නව 1
▁නවාද 1
▁නහ 1
▁නාකියෝ 1
▁නානකාම 1
▁නැවැත 1
▁නිත 1
▁නෙම 1
▁නො 1
▁නෝන 1
▁නෝනේ 1
▁පට 1
▁පතක 1
▁පා 1
▁පාට 1
▁පාලන 1
▁පිළිස 1
▁පී 1
▁පූ 1
▁පූර 1
▁පෙන 1
▁බා 1
▁බැතිමත 1
▁බුල 1
▁බෝ 1
▁ම 1
▁මකබෑ 1
▁මන 1
▁මනුස 1
▁මායාවක 1
▁මැරුණ 1
▁මිථ 1
▁මිනිහ 1
▁මුණගැහ 1
▁මුහුණ 1
▁මූ 1
▁මෙහෙම 1
▁මෙහේට 1
▁යාක 1
▁යාද 1
▁යාන 1
▁යාවකාශ 1
▁ර 1
▁රවට 1
▁රසී 1
▁රැන 1
▁රිප 1
▁රූ 1
▁රූප 1
▁රොබ 1
▁රෝහ 1
▁ල 1
▁ලගන 1
▁ලව 1
▁ලා 1
▁ලැජ 1
▁ලියාගන 1
▁ලෝක 1
▁වහගත 1
▁වාර 1
▁වැට 1
▁වැසිකිළ 1
▁වැළඳ 1
▁වින 1
▁විප 1
▁ශ 1
▁ෂා 1
▁ස 1
▁සයා 1
▁සරසන 1
▁සලාම 1
▁සැර 1
▁සිං 1
▁සුක 1
▁සෙනෙ 1
▁සේ 1
▁හංඟ 1
▁හඬ 1
▁හරි 1
▁හරී 1
▁හාත 1
▁හෙ 1
▁හොඳයි 1
▁හොර 1
▁ෆෝට 1
☹ 1
☻ 1
眉 1
羘 1
醤 1
鷓 1
madeupword0000 0
madeupword0001 0
madeupword0002 0
madeupword0003 0
