▁් 1373320
▁. 687071
▁, 364361
; 238759
▁& 238414
apos 207276
▁? 185873
▁න 167652
▁you 152905
▁i 131972
▁the 125432
▁- 121513
▁to 93965
▁! 81144
▁... 78221
s 75767
▁a 74172
▁මම 69040
▁it 64107
▁ඔයා 52692
▁and 52062
▁නේ 49476
▁that 49269
t 47881
▁of 46687
▁මට 43938
▁කරන 43693
▁is 42443
▁in 40586
▁we 39994
▁me 35043
▁this 33831
▁ඒක 33391
▁එක 33050
▁නෑ 32500
▁he 31564
quot 31396
▁.. 30564
▁මේ 29913
▁what 29492
▁your 29084
▁ඉන 27909
▁for 27689
▁අපි 27374
▁my 27087
▁නෙ 26626
▁ද 26305
▁කියලා 25920
▁on 24856
▁have 24844
▁∙ 24784
re 24546
▁ඔයාට 24231
▁වෙන 24215
▁නම 24006
▁යන 23375
▁are 23203
▁ඒ 22795
▁ක 22537
▁not 22446
m 22430
▁do 21570
▁be 21484
▁can 21106
▁was 20715
▁කියන 20508
▁don 19919
▁මගේ 19791
▁ම 19567
▁with 19543
▁ප 19399
▁know 18507
▁but 18488
▁ස 18370
▁no 18216
▁they 17932
▁just 17904
▁එයා 17550
▁there 17343
▁here 17264
▁all 17244
▁get 17233
▁ට 17175
▁දන 17059
▁so 15879
▁if 15356
▁හරි 15352
▁him 15294
ll 15127
- 15105
▁ගැන 14827
▁දැන 14559
▁out 14339
▁ගන 14162
▁like 14050
▁go 13427
▁now 13193
▁නවා 13132
▁will 13025
. 12931
▁one 12928
▁නැහැ 12924
▁she 12725
▁දෙන 12601
▁මං 12591
▁up 12574
▁මේක 12413
▁ව 12317
▁about 12045
▁right 11744
▁at 11684
▁වගේ 11346
▁තියෙන 11224
▁අපිට 11216
▁her 11144
▁come 11116
▁එන 11116
▁how 11061
▁ත 11037
▁ඒත 10626
▁got 10581
ve 10533
▁from 10211
▁ඇත 10018
▁ඔයාගේ 9981
▁as 9831
▁his 9801
▁want 9641
▁පුළුවන 9529
▁why 9382
▁who 9332
▁දෙයක 9265
▁තමයි 9195
▁කිව 9140
▁us 9136
▁මොකද 8876
▁did 8861
▁back 8784
▁බලන 8756
▁think 8641
▁ඕන 8540
▁ය 8485
▁let 8446
▁them 8397
▁හිතන 8354
▁එපා 8350
▁gonna 8305
▁see 8240
▁an 8201
▁well 8176
▁when 7914
▁තා 7878
▁එකක 7859
▁ඔව 7835
▁වෙලා 7810
▁ඕනේ 7667
▁take 7654
▁time 7599
▁තියෙනවා 7579
▁need 7566
▁සහ 7541
▁our 7518
▁going 7476
▁මාව 7360
▁ඔහු 7344
▁been 7214
▁ඇති 7183
▁were 7150
▁කරනවා 7139
▁where 7125
▁ගේ 7114
▁: 7095
▁වෙනවා 7091
▁tell 7009
▁කියල 7002
▁good 6973
▁ඇයි 6891
▁or 6852
▁ගත 6813
▁ඔවුන 6754
▁man 6736
▁then 6721
▁would 6719
▁has 6688
▁පස 6679
▁මොකක 6676
▁කතා 6636
▁look 6568
▁කෙනෙක 6485
▁එහෙම 6484
▁සම 6444
▁අපේ 6366
▁okay 6263
▁නැත 6229
▁some 6158
▁ඔබ 6158
▁had 6152
▁yeah 6132
▁කොහොමද 6129
▁oh 6121
ක 6109
▁එයාට 6093
▁by 6007
▁ඔයාව 5973
▁පුලුවන 5915
▁down 5836
▁( 5797
▁වන 5791
▁වා 5788
▁) 5775
▁ඔයාගෙ 5739
▁වල 5709
▁දේ 5675
▁තාත 5673
d 5659
▁hey 5630
▁only 5520
▁විශ 5501
▁something 5457
▁say 5444
▁ගොඩක 5436
▁could 5421
▁බෑ 5389
▁ල 5351
▁didn 5324
▁people 5324
▁සර 5324
▁way 5321
▁make 5292
▁තේ 5197
▁am 5072
▁more 4982
▁හැම 4955
යි 4953
▁please 4945
▁ඇය 4924
▁never 4903
▁කරලා 4861
▁sir 4835
▁too 4806
▁should 4796
▁සන 4780
▁ඉතින 4749
▁වැඩ 4749
▁නිසා 4729
▁over 4727
▁උන 4675
▁අර 4671
▁මිනිස 4646
▁because 4581
▁මෙතන 4557
▁give 4551
▁කලින 4510
▁අම 4503
▁බ 4463
▁වලට 4433
▁සු 4412
▁said 4389
▁නේද 4389
▁find 4385
▁අත 4383
▁these 4379
▁මා 4298
▁off 4296
▁two 4286
▁තව 4265
▁any 4263
▁කාර 4263
▁ලා 4258
▁ග 4233
▁අල 4227
▁ආරක 4218
▁තටම 4181
▁එයාව 4180
▁කර 4149
▁really 4123
▁yes 4110
▁හොඳයි 4107
▁even 4105
▁සේ 4094
▁නැති 4087
▁වේ 4076
▁little 4072
▁යනවා 4048
▁ඩ 4022
▁වගේම 4011
▁නෙවෙයි 4004
▁අන 3967
▁help 3929
▁රශ 3902
▁දැක 3863
ද 3862
▁thing 3861
▁චර 3848
▁into 3816
▁love 3809
▁දේවල 3796
▁life 3788
▁අද 3785
▁විතරයි 3760
▁එකට 3757
▁their 3720
▁බන 3708
▁ආපහු 3689
▁very 3684
▁හා 3677
▁වඩා 3634
▁ලි 3629
▁උදව 3621
▁first 3619
▁නා 3600
▁උත 3575
▁ඉක 3542
▁ඔක 3534
ට 3528
▁ධ 3528
▁වෙනුවෙන 3525
▁කවුද 3518
▁අහන 3497
▁ගිහින 3462
▁තර 3461
▁ටිකක 3459
▁නවත 3457
▁mean 3439
▁ඕනෙ 3404
▁stop 3403
▁call 3396
ත 3387
▁still 3385
▁නද 3355
▁ඔය 3334
▁තියන 3332
▁වාස 3326
▁තු 3318
▁මොනවද 3312
▁නවද 3308
ing 3307
▁before 3307
▁anything 3306
▁mr 3298
▁after 3287
▁එයාගේ 3269
▁keep 3264
▁sorry 3264
▁ඒකට 3259
▁day 3258
▁much 3240
▁එහෙනම 3239
▁doing 3237
▁මහත 3228
▁මන 3178
▁හොඳ 3162
▁කිසිම 3158
▁වුනා 3158
▁මගෙ 3157
▁කන 3151
▁work 3138
▁නැ 3124
▁තමා 3113
▁පැත 3113
▁දාන 3110
▁than 3108
▁එයාලා 3108
▁නමුත 3097
▁මොන 3094
▁away 3083
▁හදන 3072
▁name 3069
ව 3060
▁නැද 3057
▁පත 3053
▁දුන 3049
▁පෙන 3015
▁හම 3015
▁ඒවා 3003
▁දක 2992
▁father 2968
▁won 2948
▁කවදාවත 2947
▁sure 2946
▁told 2942
▁again 2936
▁අය 2936
▁සල 2934
▁නව 2932
▁kill 2930
▁other 2926
▁වර 2918
ම 2916
▁තිබ 2915
▁උඹ 2911
▁කලා 2910
▁කට 2888
▁talk 2878
▁put 2867
▁last 2864
▁must 2862
▁කොල 2860
▁ර 2853
▁♪ 2851
▁කෙල 2837
▁home 2835
▁එකේ 2827
▁those 2811
▁ඕනා 2801
▁years 2796
▁වෙනස 2778
▁වෙයි 2778
▁ලොකු 2747
▁කරගන 2737
▁ටර 2736
▁guys 2733
▁everything 2732
▁එතකොට 2723
▁maybe 2720
▁ඔබට 2717
▁ලන 2711
▁ගෙ 2705
▁ගෙදර 2704
▁god 2695
▁පොඩි 2687
▁වත 2680
▁thought 2679
▁nothing 2678
▁wait 2663
▁කැමති 2654
▁new 2642
▁made 2634
▁someone 2624
▁leave 2623
-- 2622
ed 2617
▁සමාවෙන 2598
ය 2596
▁ගෙන 2595
▁කම 2592
▁වලින 2591
▁long 2573
▁son 2573
▁world 2571
▁guy 2563
▁place 2563
▁ever 2557
▁එනවා 2537
▁එය 2536
▁කොම 2533
▁සෙ 2519
▁coming 2516
▁ඉස 2503
▁කල 2494
▁dad 2489
▁හරියට 2486
▁තම 2482
ෙන 2481
▁doesn 2469
▁අවුරුදු 2469
▁මෙහෙ 2461
▁බැහැ 2454
▁තත 2443
▁night 2438
▁ටික 2415
▁තැන 2412
▁මාර 2412
▁නයි 2404
▁හිටියේ 2403
▁හොයාගන 2397
▁around 2393
▁ඔයාලා 2392
▁ගියා 2374
▁things 2373
▁තට 2373
▁අවශ 2368
▁තියනවා 2367
▁better 2357
▁girl 2356
▁එයාල 2352
▁does 2349
▁every 2347
▁stay 2345
▁කා 2340
▁done 2322
▁කලේ 2300
ින 2298
i 2286
▁පටන 2286
ේ 2284
▁uh 2282
▁left 2271
යක 2259
▁money 2248
▁බව 2248
▁හොදයි 2240
▁through 2227
▁always 2218
▁came 2218
▁කළා 2215
▁කොහෙද 2213
▁විදිහට 2206
▁ආවේ 2199
▁which 2194
▁ෂා 2192
▁car 2191
▁කිරීම 2183
▁එකම 2178
▁හොද 2172
▁ච 2155
▁වැඩක 2150
▁brother 2135
▁දැනගන 2129
න 2126
▁පේන 2124
▁ඔබේ 2121
▁නෙමෙයි 2113
▁ෆ 2104
▁වුනේ 2103
▁listen 2098
▁dead 2092
▁සඳහා 2092
▁ති 2091
▁කරපු 2089
▁ඔහුට 2086
▁යමු 2080
▁සුන 2080
▁isn 2078
▁believe 2077
▁great 2072
▁පරීක 2071
▁three 2067
▁සිද 2064
▁found 2063
▁ගමන 2062
යට 2061
▁විදියට 2052
▁ශ 2050
▁today 2038
▁happened 2029
ී 2027
▁වෙ 2026
▁thank 2023
▁may 2018
▁lot 2016
a 2014
▁house 2013
ෙ 2010
▁ඇවිත 1998
▁උනා 1998
▁තන 1990
▁දී 1990
▁අපිව 1987
▁move 1986
▁ඕනි 1986
▁සෙල 1981
▁හැමෝම 1977
▁10 1965
▁2 1964
▁mother 1962
▁big 1961
▁එලියට 1960
▁getting 1956
▁අරගෙන 1955
▁නැතුව 1951
▁කොච 1950
▁තරම 1946
▁wanted 1942
▁bad 1941
▁looking 1940
▁තෙ 1940
▁කරා 1938
▁ask 1931
▁ලක 1924
▁බැරි 1923
▁ලස 1922
▁feel 1917
▁wrong 1917
▁තවත 1917
▁පොඩ 1914
▁else 1913
▁many 1910
▁පිස 1909
ි 1907
▁old 1907
▁කෙනා 1901
▁මතක 1899
▁3 1894
▁hell 1894
▁දවස 1893
▁අරන 1884
▁same 1883
▁මක 1883
▁understand 1882
▁1 1876
▁ඔහ 1876
▁අවස 1874
▁another 1873
▁එයාගෙ 1873
▁remember 1861
▁අනේ 1852
▁trying 1845
ගේ 1838
▁might 1833
කට 1831
▁being 1828
▁own 1825
▁without 1818
▁හිටියා 1815
▁friend 1794
▁real 1792
▁රස 1784
▁enough 1783
▁වය 1780
▁හෝ 1780
▁තුවක 1779
▁හ 1779
▁next 1776
▁කියනවා 1773
▁මත 1770
යේ 1762
▁&#91; 1760
▁everyone 1759
▁කණ 1758
▁මරන 1758
▁චි 1757
▁&#93; 1756
▁ඒකෙන 1755
▁hear 1754
▁ෂ 1749
▁අතර 1748
▁රෑ 1745
▁boy 1739
▁kind 1731
▁ඉල 1730
er 1727
▁හරිද 1726
▁head 1717
▁show 1711
y 1710
▁කැමතියි 1709
▁එත 1707
යන 1704
▁talking 1697
▁බය 1695
▁family 1692
▁බල 1690
▁හේයි 1690
▁* 1689
▁මෙන 1687
ු 1684
▁ඩක 1684
▁care 1683
▁took 1679
▁සමහර 1679
▁saw 1678
▁විද 1678
▁තේරුම 1677
in 1675
▁නැවත 1668
▁දකින 1665
▁දි 1664
▁anyone 1662
▁පර 1662
ස 1661
o 1659
▁ඊට 1658
▁hold 1657
▁වාර 1657
▁die 1655
▁killed 1655
▁try 1655
▁job 1648
▁ටන 1647
ිය 1646
▁fine 1646
▁බර 1645
▁එයාලට 1644
ල 1641
▁විට 1641
▁සමහරවිට 1641
▁gotta 1635
▁once 1633
▁නත 1632
▁ලම 1628
▁නියම 1626
▁විස 1624
▁wanna 1623
▁දිහා 1619
ලා 1618
▁අනිත 1618
▁run 1610
▁විය 1606
▁ලෝ 1602
▁seen 1601
▁දු 1601
▁ණ 1599
▁5 1596
▁bring 1595
▁ok 1587
▁මෙම 1582
▁nice 1581
▁වෙඩි 1574
▁yourself 1573
▁ඇයට 1571
▁ලෙස 1562
▁ඔහුව 1561
▁වැඩේ 1556
▁also 1552
▁days 1552
▁baby 1544
▁ජීවත 1541
▁l 1536
▁නිර 1535
▁ඔහුගේ 1528
▁best 1526
▁meet 1525
▁කියලද 1523
▁ලබා 1523
▁එකෙන 1521
▁lost 1515
▁එතන 1515
▁mind 1508
▁වැඩි 1506
▁went 1504
▁ඕක 1498
▁mom 1493
වත 1492
▁room 1492
▁/ 1489
▁ආ 1488
▁පාර 1488
▁වෙලාව 1486
▁ආවා 1485
▁දා 1480
නේ 1470
▁නරක 1469
▁නියමයි 1465
▁live 1460
▁use 1460
▁ලේ 1456
▁already 1453
▁පූර 1451
▁යා 1451
▁most 1450
▁ඇස 1448
▁water 1446
▁මෙහේ 1445
▁යයි 1445
▁4 1444
▁ඇතුලට 1444
▁ඔයාලට 1444
▁fucking 1442
▁නෙමේ 1442
▁both 1439
▁gone 1436
▁hand 1436
▁ready 1433
ර 1430
▁දාලා 1427
ුත 1426
▁police 1423
▁used 1420
යෙන 1418
▁men 1418
▁called 1417
▁actually 1416
▁දැම 1416
▁wasn 1415
▁බලාගන 1413
▁අලුත 1405
▁වීම 1405
▁නන 1404
▁මාත 1404
▁together 1401
▁එච 1401
ගෙ 1399
▁අමතක 1397
▁ago 1396
▁සත 1396
▁under 1395
▁වේවි 1394
▁කෝ 1392
▁හොඳින 1385
▁knew 1384
▁මොනාද 1384
▁start 1380
▁අප 1375
▁උනේ 1375
▁ලෙක 1375
▁පන 1359
▁open 1357
▁such 1356
▁ශක 1355
ෝ 1353
▁inside 1353
▁කමක 1349
▁හිතනවා 1343
ගෙන 1335
▁තිය 1335
▁few 1329
▁daughter 1324
▁hit 1324
▁problem 1324
▁තමුන 1324
▁කෑම 1323
▁shit 1320
▁තාම 1320
▁පාවිච 1318
▁minutes 1316
▁phone 1314
▁\ 1313
▁end 1313
▁නයක 1312
▁heard 1310
▁මල 1310
▁දෙනවා 1308
▁අයින 1305
▁ඔයාල 1305
▁ඇයව 1304
▁වැදගත 1304
▁අදහස 1302
▁while 1301
▁හොයන 1301
▁wouldn 1299
▁jack 1293
▁since 1290
▁idea 1288
▁wife 1287
▁its 1282
▁හරිම 1277
▁මොනවා 1276
▁හොදින 1273
▁සෙන 1272
▁වෙනව 1271
▁ඒයි 1270
▁බොරු 1270
▁ඉවරයි 1269
▁yet 1265
▁වූ 1265
ly 1264
▁මැරෙන 1264
▁hard 1263
▁watch 1263
▁saying 1261
▁කු 1261
▁දෙකක 1260
▁friends 1258
▁ඌ 1258
▁until 1256
▁උබ 1253
▁face 1252
▁turn 1251
▁whole 1251
▁නැතිව 1251
▁මනට 1251
▁five 1250
▁morning 1249
▁තියාගන 1249
▁heart 1245
▁ජැක 1245
▁ඉවර 1244
▁කළ 1244
▁තියෙනවද 1244
▁year 1237
▁ෂක 1236
▁ඔහේ 1234
▁කරුණාකරලා 1226
▁ඉඩ 1225
▁දර 1225
ers 1219
▁පුතා 1212
▁බලාපොරොත 1211
▁looks 1204
▁ඉතිං 1198
▁ඒවගේම 1197
▁alone 1196
▁guess 1195
▁කෝල 1193
▁තැනක 1192
▁eyes 1190
▁ගහන 1190
▁සේරම 1188
▁විසින 1187
▁20 1186
▁fuck 1186
▁යක 1185
▁tomorrow 1183
▁happy 1182
▁sister 1182
▁ලොක 1181
▁කරල 1180
ටම 1177
▁gave 1176
▁pretty 1174
▁save 1174
▁බලාගෙන 1174
▁කරයි 1173
▁b 1172
▁says 1172
▁හොයාගත 1172
▁විනාශ 1168
▁සාමාන 1167
▁ඔයත 1165
▁soon 1162
▁huh 1159
▁hello 1158
▁තුතියි 1158
e 1157
▁part 1157
▁හිතුවේ 1156
▁විතරක 1155
▁happen 1154
ුයි 1152
▁කොට 1150
▁තෙන 1149
▁course 1148
▁haven 1148
▁උඹට 1145
▁far 1144
▁මේකට 1144
▁case 1143
▁safe 1143
▁වද 1143
▁play 1142
▁මෙයා 1141
▁සටන 1141
▁තූතියි 1138
▁විතර 1138
▁ඔන 1137
▁නිකන 1136
▁whatever 1135
▁තමන 1135
▁දෙවියන 1135
ප 1128
▁වැරදි 1123
am 1117
▁knows 1115
▁s 1115
▁second 1112
▁ඇන 1112
▁දුර 1112
▁ගුවන 1110
▁බා 1109
▁කවුරු 1108
▁වෙලාවක 1105
▁තුන 1104
▁change 1103
▁කිසි 1102
ුව 1101
▁කරේ 1101
▁දවසක 1100
▁each 1099
▁නට 1099
▁මෙහෙට 1099
l 1098
▁check 1094
▁door 1092
▁රාත 1092
▁hands 1090
▁අධ 1090
▁ගියේ 1090
▁trust 1089
▁තියනව 1089
▁matter 1088
▁ජ 1086
▁couldn 1085
▁means 1085
▁ඉදන 1085
▁gun 1084
▁කොටස 1082
▁6 1080
▁taking 1080
▁close 1079
▁මාස 1079
▁මෙහෙම 1079
▁එකතු 1076
▁මුලින 1076
▁ගාව 1075
▁thanks 1073
▁wants 1073
▁අනික 1073
▁එල 1073
▁number 1070
▁මිනිහා 1069
▁රී 1069
▁සාක 1069
▁පල 1066
al 1063
▁12 1063
▁පැය 1063
▁වුණා 1063
es 1060
▁fire 1058
▁person 1056
▁මුළු 1055
▁අහ 1054
යා 1052
▁hope 1052
▁plan 1052
▁behind 1050
▁කාලය 1050
▁hi 1048
ා 1047
▁කරනව 1045
▁myself 1043
▁පාලනය 1043
▁පින 1043
▁woman 1039
▁හැමදේම 1039
▁එළියට 1038
▁යම 1038
▁kid 1036
▁working 1035
▁දුව 1035
▁city 1029
▁මෙතනින 1029
▁dr 1027
▁රාජ 1027
▁death 1026
▁මමයි 1026
▁four 1023
▁miss 1023
▁ටිය 1023
▁නිදහස 1023
▁d 1022
දි 1021
▁මිනිහෙක 1021
▁කරගෙන 1020
▁පොරොන 1020
▁තද 1017
▁ගිය 1015
ියක 1014
▁පිට 1014
▁side 1009
▁පුද 1007
▁john 1006
▁වෙත 1006
▁හරියටම 1006
▁තාමත 1005
▁hours 1004
▁මිස 1004
▁මධ 1003
▁alive 1001
▁කළේ 999
▁chance 997
▁මුකුත 995
▁exactly 994
▁මුල 993
▁තිබුනා 992
▁හින 992
වල 991
▁හෙට 991
▁asked 990
▁දින 990
▁ආදරය 988
ගන 987
▁කරමු 985
an 983
c 980
▁කද 978
▁hurt 977
▁ඉඳන 977
▁දිගටම 975
කින 973
▁supposed 973
▁t 972
▁ෂණ 972
▁වතුර 970
▁30 968
▁rest 968
▁shot 968
▁උඩ 968
▁ඇවිල 967
▁හිටියෙ 967
බ 966
▁power 966
▁7 964
p 963
▁කාලයක 962
▁තක 962
▁මගෙන 960
▁15 958
▁blood 958
▁ලැබෙන 957
▁කිරීමට 956
▁චිත 955
▁ලෑස 954
▁thinking 953
▁set 952
▁වී 952
▁අස 950
▁පොලිස 950
▁සමග 950
▁body 947
ාව 946
u 944
▁shut 937
දී 936
▁truth 936
ග 934
▁p 932
▁word 932
▁යය 930
▁team 929
▁කරනවද 928
▁හැකි 928
▁මනුස 926
▁food 924
▁අ 924
▁යි 921
▁හොඳට 921
▁රහස 919
▁විනාඩි 919
▁සංස 918
▁yöu 917
▁රධාන 914
▁send 913
▁bit 911
▁tonight 911
▁සිදු 911
▁තයා 910
▁යවන 910
▁කාන 909
▁එම 907
▁කතාකරන 907
▁නවනේ 907
▁control 904
▁දෙක 903
▁සි 903
▁true 902
ික 901
▁everybody 901
▁මේවා 900
on 899
▁business 899
▁c 898
▁king 898
▁උදේ 898
▁මෙච 898
ුන 897
▁aren 897
▁pay 897
▁ගල 897
ීම 896
▁වුනත 896
▁deal 892
▁different 892
▁මෙ 892
▁ආවෙ 891
▁වස 891
▁least 890
▁school 890
▁ටු 890
▁නෙක 890
▁cut 889
▁උස 889
▁මහ 889
▁k 888
▁fight 886
▁later 885
▁makes 885
▁story 884
it 883
▁sit 883
▁කවුරුහරි 883
▁forget 882
▁.... 881
▁lord 881
▁ආයෙත 881
▁making 880
▁හොයා 880
▁තිම 879
▁kids 878
▁මටත 878
▁point 877
▁times 877
▁worry 877
▁died 876
▁game 876
▁mine 876
▁මොකුත 876
▁em 875
▁අවුලක 874
▁ain 871
▁අඩු 871
▁break 870
▁waiting 870
▁easy 869
▁yours 869
k 868
▁යුතුයි 868
▁වුන 866
▁between 865
▁හිත 865
▁රා 862
h 861
▁brought 860
▁um 860
▁කොන 860
▁මමත 860
▁question 859
▁අනුව 859
▁ලගන 858
නවා 857
▁late 857
b 856
▁හිටපු 856
ුවා 855
▁කාටවත 854
ිත 852
▁හොඳම 852
හ 851
▁වෙලාවට 851
ඩ 849
වද 847
ියට 845
▁telling 844
වන 843
▁බේ 843
▁වැඩසටහන 843
ියා 841
▁ධන 841
▁island 839
▁මයා 839
▁sleep 837
▁wish 837
▁අවුල 837
යකට 836
▁8 836
▁doctor 836
▁high 835
▁crazy 834
▁reason 834
▁child 833
▁ලග 833
▁සාහ 832
▁met 831
▁මොකටද 831
▁රිය 830
▁outside 828
▁සෑම 828
▁probably 827
▁having 826
▁පුංචි 824
▁eat 823
▁අදහසක 823
▁ළඟ 823
ූ 822
▁air 822
f 821
▁අංක 821
▁බිම 821
▁damn 820
▁security 819
▁දැනටමත 819
▁සුභ 819
▁against 818
▁minute 818
▁පද 818
▁කොහොම 817
▁beautiful 816
▁කැප 816
▁පැන 816
▁speak 814
▁100 812
▁nobody 812
▁stuff 812
▁ඩායම 812
▁දැනගෙන 812
▁විශේෂ 810
▁shoot 809
▁සිට 809
▁half 808
▁ලින 807
▁comes 806
▁% 805
▁walk 803
ෙක 802
▁become 802
▁clear 800
▁පු 800
▁බොන 800
▁මිය 799
▁captain 798
▁war 798
▁වට 798
▁කටයුතු 797
▁යුද 797
▁black 796
වා 795
▁red 795
▁වැරැද 795
▁ඔහොම 794
▁අරගන 793
▁news 791
▁බේරගන 791
▁ma 790
▁m 789
▁moment 789
▁අපට 789
▁started 788
▁human 787
▁ආයේ 787
▁o 786
▁ආදරෙයි 786
▁පහර 786
▁සට 786
▁months 784
▁somebody 784
▁මිලියන 784
▁able 783
▁පුදුම 783
ගත 782
▁gets 782
▁දැනෙන 782
▁පාරක 782
th 781
▁tried 780
▁තවමත 780
▁රන 780
en 779
▁front 778
▁line 778
▁important 777
▁තල 777
▁කවුරුවත 775
▁full 773
▁තුව 773
▁sent 772
ුම 771
▁අවසන 771
▁තේරෙන 770
▁සැලැස 768
ිල 767
▁ඔබව 766
▁මනින 765
n 764
▁50 764
▁යාළුවා 764
▁පරණ 763
▁ආව 762
▁උනත 762
▁එයාලව 762
▁රු 760
▁නකෝ 759
▁හිතුවා 759
ුවේ 758
▁special 758
▁කියපු 758
ar 757
▁six 757
▁ආදරේ 757
▁කවුරුත 757
▁ජීවිතය 757
▁මුදල 757
▁light 756
▁ඒකයි 754
▁ථානය 754
▁රත 754
▁ලො 753
▁lives 752
▁read 752
ියන 749
▁taken 749
▁සද 749
▁uncle 748
or 747
▁cannot 746
▁running 746
▁ඇල 746
▁පැනලා 746
▁11 745
▁තනියම 745
▁girls 744
▁රික 744
▁පිටිපස 742
▁married 741
▁නතර 740
▁බෝම 740
▁ලද 740
▁ගෙනියන 739
▁stand 737
▁අයට 737
▁ඔහුගෙ 737
r 736
▁fun 736
▁asking 735
▁ඒව 735
▁u 734
▁උඹේ 733
▁මීට 733
▁රියා 733
▁දැනගත 731
▁quite 730
▁free 729
▁shall 729
is 728
▁ඇතුල 728
▁කව 728
▁though 727
▁එකයි 727
▁හොදට 727
▁fast 726
▁cause 725
▁භ 725
▁රි 725
මම 724
▁මිනිසුන 724
▁වෛද 724
▁සිටින 724
▁දැකලා 723
▁ජීවිතේ 722
▁තුවේ 722
▁needs 721
▁scared 720
▁n 719
▁welcome 719
▁තොරතුරු 719
▁නි 719
▁බොහොම 718
ie 717
▁pick 717
▁ඇතුලේ 717
▁ටි 717
▁michael 716
▁ඩොක 716
▁catch 715
▁උදවු 715
▁සූදානම 715
▁; 714
▁සෑහෙන 714
▁හුඟක 712
▁lose 711
▁million 711
▁යුතු 711
▁anymore 710
▁drink 710
▁either 709
▁කේ 709
▁ඒකෙ 707
▁කරදර 706
▁දත 706
g 705
▁almost 705
le 704
▁රියාත 704
▁හොරකම 704
▁seems 703
▁week 703
▁ලට 703
▁$ 701
▁goes 701
▁town 701
▁වක 701
▁මගෝ 700
▁answer 699
▁party 699
▁ඉවත 699
▁දොර 699
▁බවට 699
▁මස 699
▁රව 699
▁විශාල 699
වෙන 697
▁තාක 697
▁බලා 697
▁යස 697
පු 695
▁ඉලක 695
▁කතාව 694
කම 693
▁අක 693
▁කිට 693
▁ණයෙන 693
▁පරිස 693
▁මෙතනට 693
▁dear 692
▁මයිකල 692
▁ගානක 691
▁හැමෝටම 690
▁බෙ 689
යෙක 688
▁pull 687
▁follow 686
▁වෙච 685
▁ඇගේ 684
▁දානවා 684
▁වශයෙන 684
at 683
ෙයි 682
▁ආරම 682
▁කි 682
▁touch 680
▁කාල 680
▁පෙර 680
▁බුද 680
ic 679
▁past 679
▁promise 679
▁train 679
▁සැලසුම 679
▁ජීවිත 678
▁ass 677
▁දෙනෙක 677
▁C 676
▁හිර 676
ාන 674
ියි 674
▁ඩොලර 674
▁පොත 674
▁afraid 673
▁trouble 673
▁තීරණය 673
ation 672
▁අනිවාර 672
▁ආපු 672
▁තිබුනේ 672
us 671
▁country 671
▁ඔයාගෙන 671
▁තාව 671
▁others 670
▁till 670
▁young 669
▁ථාවක 669
▁බලමු 667
▁eye 665
▁leaving 665
▁♫ 665
▁dude 664
▁plane 664
▁husband 663
▁කියවන 663
නය 662
man 661
▁anyway 661
▁ගේන 661
▁දෙවියනේ 660
ියේ 658
▁office 658
▁ඔයයි 658
▁9 656
▁වයි 656
▁ 655
ate 654
නම 654
▁children 654
▁බලය 654
▁මැරිලා 654
▁පවුල 652
ො 651
▁ආර 651
▁ඇඳුම 651
▁මර 651
▁earth 650
▁කො 650
▁රේ 650
▁වාසයි 650
▁හැමදෙයක 650
▁drive 649
▁g 649
▁නෙවේ 649
▁හිතෙන 649
▁small 648
▁දුම 648
▁දෙ 648
ුවක 647
▁dog 647
▁ගණන 647
0 646
▁රක 646
▁හැබැයි 646
▁කරගත 642
▁යට 642
▁අරින 641
▁කෙනකේ 640
▁දුක 639
▁බෙන 639
▁උද 638
▁ගෙවන 638
▁මණ 638
▁company 637
▁තිස 637
▁entire 636
▁ඔයාලගේ 636
▁තුළ 636
▁දොස 636
▁මග 636
▁මෝඩ 636
මට 634
▁order 634
▁නිව 633
▁alright 632
▁තොත 632
ිස 631
▁along 630
▁system 630
ිම 629
ුනා 629
▁couple 629
▁ලු 628
3 627
▁ගැනීම 627
▁මරලා 627
ණ 626
▁පරක 626
▁හායි 626
▁හිතුවෙ 626
▁ජාතික 625
යින 624
▁miles 624
▁boss 623
▁cool 623
▁පාට 623
▁තිමත 622
▁ථාව 621
▁නිල 621
▁සහෝදරයා 621
▁boys 620
▁තවම 620
▁ලව 620
▁වින 620
▁ෂිත 620
▁ළමයි 620
ච 619
▁බැ 619
▁වැඩියි 619
▁එ 618
▁ෙන 618
▁shouldn 617
▁මාන 617
▁උඩට 615
▁කථා 615
▁feeling 614
▁hour 614
▁ටම 614
▁ෂණය 614
▁හිටිය 614
▁13 613
▁step 613
os 612
▁f 612
▁පැහැදිලි 612
▁මෙහෙන 612
▁book 611
▁යනව 611
යෝ 609
▁කොහෙන 609
▁මොනා 609
w 608
කර 608
▁happens 608
▁parents 607
▁රය 607
▁හුස 607
ha 606
▁given 606
▁ඉදිරිපත 606
▁ඕනද 606
▁මිත 605
▁යයෙන 604
▁හිස 603
▁එයි 602
▁protect 601
▁පා 601
▁possible 600
▁ten 600
▁විරුද 600
▁ahead 599
▁අවුරුද 599
▁සින 599
▁B 598
▁එහි 598
▁ඉතා 596
▁නිකම 596
▁පිළිගන 596
▁mistake 595
▁කරනු 595
▁දුවන 595
▁hospital 594
ජ 593
▁වොත 593
ුවට 592
▁lady 592
▁සතුටක 592
▁හේතුව 592
ුට 591
▁ඉදලා 591
▁තියෙනව 591
▁rs 590
you 589
▁agent 589
▁drop 589
▁එකෙක 589
▁excuse 588
▁පහත 588
▁බාර 588
▁යාලුවා 588
▁calling 587
▁y 587
ිව 586
▁sam 586
▁sound 586
▁මහා 586
▁ship 585
▁un 585
▁වික 585
▁A 584
▁stupid 584
▁එකත 584
▁බඩු 584
▁ඔප 583
▁හරහා 583
▁හැර 583
▁sun 582
▁සති 582
▁හොයාගෙන 582
▁living 580
▁ගිහිල 580
▁ගොඩ 580
▁තමුසේ 580
▁station 579
▁එහෙමයි 579
▁නෙත 579
▁මේකෙන 579
▁නවතින 578
▁සතුටු 578
▁-- 577
▁building 577
v 576
▁e 576
▁එහෙ 574
▁චාර 574
▁ha 573
▁තුනක 573
▁යමක 573
▁හැටි 573
▁boat 572
▁bomb 572
▁බෙල 572
▁මැක 572
▁ලැබුනා 572
as 571
▁24 571
▁ඩර 571
▁lie 570
▁පරික 570
able 569
▁_ 569
▁කියා 569
▁00 568
▁ඉගෙන 568
▁වුණේ 568
▁කුව 567
▁hot 566
▁win 566
▁අයිති 566
▁අළුත 566
▁ගොඩාක 566
▁සමඟ 566
▁land 565
▁sometimes 565
▁අමාත 565
▁ණය 565
▁ලෝකය 565
▁උණ 564
යෙ 563
▁රිස 563
▁ගෙදරට 562
▁තියනවද 562
▁පසු 562
▁dream 561
▁තිබෙනවා 561
▁දීලා 561
▁හැටියට 561
▁S 560
▁බිත 560
▁himself 559
▁j 559
▁moving 559
▁secret 558
▁හිතනවද 557
1 556
▁ah 556
▁figure 556
▁honey 556
▁return 556
▁ඉඳලා 556
▁bar 555
▁කිය 555
▁ජේන 555
▁මිනිත 555
▁සනයි 555
ශ 554
▁information 554
▁ආත 553
▁එදා 553
▁සුබ 553
▁master 552
▁ගස 552
▁I 551
▁future 551
▁white 551
▁එයාලගේ 551
▁marriage 550
▁top 550
▁කෙලින 549
▁ධනය 549
▁ෆෝන 549
▁ථ 548
▁bag 546
▁අභ 546
▁දාල 546
▁පෙට 546
▁වහන 546
▁ෂාව 546
▁පේනවා 545
▁v 544
▁ගය 544
▁playing 543
▁මගින 543
▁කකුල 542
▁bitch 541
▁hate 541
▁කිරීමේ 541
▁බෝට 541
▁fact 540
▁පවත 540
up 539
▁ඔ 539
▁වෙලාවේ 539
▁D 538
▁ඉතුරු 538
▁ඒකේ 538
▁දිව 537
▁known 536
▁r 536
▁daddy 535
▁fall 535
▁hang 535
▁sounds 535
▁ජෝන 535
▁මොනව 535
යකින 534
▁වුනොත 534
he 533
ෂ 533
▁තුල 533
ං 532
▁whoa 532
▁මෙහි 532
▁state 531
▁මෙහෙයුම 531
▁කෘතික 530
▁සමාව 530
▁40 529
▁නීති 529
▁caught 528
▁funny 528
▁ටුව 528
st 527
▁ඕ 527
▁යටතේ 527
▁sweet 526
▁අපිත 526
▁ගම 526
▁මෙහාට 526
▁හොදම 526
ාර 525
▁ඊයේ 525
▁හැමදාම 525
2 524
et 524
▁වෙනි 524
▁හර 524
▁dark 523
▁අමාරු 523
▁කතාවක 523
▁කසාද 523
ies 522
යයි 522
▁anybody 522
▁ජිවත 522
▁නෑනේ 522
▁road 521
▁කාලේ 521
▁ලෙන 521
▁වම 521
▁clark 520
▁රම 520
ia 519
▁තැනට 519
▁කැමැත 518
▁කොයි 518
▁ගියොත 518
නා 517
▁attack 517
▁clean 516
▁තවදුරටත 516
▁වනවා 516
කරන 515
රි 515
ිට 515
▁choice 515
▁learn 515
▁sign 515
▁කොටසක 515
▁බැල 515
▁හේ 515
▁M 514
▁somewhere 514
and 513
est 513
z 513
▁ඕනෙද 513
▁මාරු 513
▁ලබන 513
ියෙක 511
▁bed 511
▁weeks 511
▁උබට 511
▁තමේන 511
▁පැටියෝ 511
▁පුහුණු 511
ෆ 510
▁කොහේද 510
▁නිදාගන 510
▁සා 510
ඔයා 509
▁25 509
▁මෙයාව 509
ated 508
▁seem 508
වට 507
▁cell 507
▁saved 507
▁කරමින 507
▁කාරයෙක 507
▁මෙය 506
▁සිය 506
▁fix 505
▁රෑන 505
▁වැඩිය 505
▁ෂි 505
▁buy 504
▁needed 504
▁විල 504
▁හෙලෝ 504
ීමට 503
▁report 503
▁ගලික 503
▁චන 503
▁පුර 503
▁වෙනත 503
▁perfect 502
▁ඇ 502
▁giving 501
ුද 499
▁sick 499
▁ණයක 499
▁තියලා 499
▁ඕනම 497
▁ටයි 497
▁වයක 497
ිද 496
▁කෙ 495
▁බස 495
▁ලෝක 495
▁සාර 495
▁සියල 495
▁හදවත 495
▁අමාරුයි 494
▁පිළිබඳ 494
▁ඩි 493
▁විකාර 493
▁happening 492
▁st 492
▁ඔට 492
▁දෙපාර 492
▁ground 491
▁ලඟ 491
▁තය 490
5 489
▁luck 489
▁meeting 489
▁wake 489
▁street 488
▁ඩන 487
▁ඔබගේ 486
▁මොනවහරි 486
▁වියදම 486
ෙත 485
▁feet 485
▁missing 485
▁re 485
▁sense 485
▁using 485
▁worth 485
▁අවසාන 485
▁යාපෘතිය 485
▁explain 484
▁words 484
▁පට 484
▁වචන 484
ාට 483
▁alex 483
▁code 483
▁ඨ 483
4 482
▁ඇයගේ 482
▁පිටත 482
▁වසර 482
ant 481
▁born 481
▁finally 481
▁එව 481
▁දිය 481
▁මානසික 481
▁16 480
▁රැන 480
to 479
▁careful 479
▁තිබුණා 479
මයි 478
ෙනවා 478
▁charlie 478
▁සංවර 478
ැ 477
▁එවන 477
▁මයික 477
▁Mr 476
▁bank 476
▁questions 476
▁} 476
▁නෙවයි 476
▁කොහේ 475
ීන 474
▁lucky 474
▁seeing 474
▁{ 474
▁හිතාගන 474
6 473
▁beat 473
▁buddy 473
▁ගැනීමට 473
▁ලනේ 473
ාම 472
▁army 472
▁less 472
▁mission 472
▁කලබල 472
▁හුගක 472
▁watching 471
ීමක 470
▁piece 470
▁කණගාටුයි 470
ළ 469
ාවක 469
ෙට 469
▁යාව 469
▁18 468
▁worked 468
▁works 468
j 467
▁14 467
▁ගැනද 467
▁වගයක 467
▁වි 467
▁cover 466
▁අවසර 466
▁කින 465
▁චරයි 465
▁නර 465
▁හදනවා 465
ity 464
ුල 464
▁kitt 464
▁බලනවා 464
▁කොහදෙ 463
▁තියාගෙන 463
▁මොනවාද 463
▁kept 462
▁ඌව 462
▁බොහෝ 462
▁මව 462
▁finish 461
▁w 461
▁within 461
▁තාවක 461
▁නො 461
▁මතකද 461
▁සිත 461
▁fear 460
▁උපන 460
▁සේවා 460
▁fly 459
▁hair 459
▁නින 459
il 458
ad 457
▁ones 457
▁තිබුන 457
▁ben 456
▁longer 456
▁මගුලක 456
▁මාණය 456
▁ඈත 455
▁යෙන 455
▁මුද 454
▁රට 454
▁වෙල 454
▁හොඳටම 454
▁officer 453
▁sort 453
▁straight 453
▁කිරීමක 453
▁පළමු 453
▁calm 452
▁changed 452
▁fish 452
▁middle 452
▁නිෂ 451
▁hero 450
▁සැන 450
▁dangerous 449
▁mad 449
▁weren 449
▁තමුසෙ 448
▁government 447
▁ඕහ 447
▁වනේන 447
▁ධව 446
▁පෙම 446
ent 445
▁P 445
▁president 444
▁ran 444
▁ඇලෙක 444
▁සතුටුයි 444
▁17 443
▁hide 443
▁ගරු 443
▁message 442
▁murder 442
▁takes 442
ටත 441
ියෝ 441
▁killing 441
▁law 441
▁wall 441
▁දුරකථන 441
▁හදිසි 441
▁contact 440
▁flight 440
▁instead 440
▁මහන 440
▁pain 439
▁තයි 439
▁දැනෙනවා 439
ාවට 438
▁මැද 438
▁මොනවත 438
▁ලාක 438
ine 437
▁bet 437
▁anywhere 436
▁honor 436
▁එනව 436
ුනේ 435
▁perhaps 435
▁මරණය 435
▁මුහුණ 435
▁මෙක 435
▁සදහා 435
ri 434
▁mrs 434
▁පහල 434
ating 433
▁star 433
▁බිල 433
▁dance 432
▁mike 432
▁throw 432
▁ඉදිරියට 432
▁උගන 432
ියෙන 431
▁කරුණාකර 431
▁තේරෙනවා 431
▁act 430
▁hurry 430
▁meant 430
▁සියලු 430
▁සුද 430
▁හි 430
ුර 429
ේට 429
▁උසස 429
▁කරදරයක 429
▁පණ 429
▁මුන 429
▁හෙයි 429
▁තුවාල 428
▁සක 428
el 427
▁නිකං 427
▁සැක 427
▁– 427
ීමේ 426
▁general 426
▁අනතුරු 426
▁අයියා 426
▁කවද 426
▁දැනුම 426
▁බායි 426
8 425
▁dinner 425
▁felt 425
▁respect 425
▁turned 425
▁short 424
▁උනොත 424
▁නුඹ 424
▁මිල 424
▁weapon 423
▁accident 422
▁අයියෝ 422
▁wow 421
▁අතට 421
▁during 420
▁evidence 420
▁lead 420
▁කරවන 420
▁නවනෙ 420
law 419
ter 419
▁marry 419
▁north 419
▁seconds 419
▁wedding 419
▁ආයුධ 419
▁විදිහ 419
▁handle 418
▁single 418
▁test 418
▁village 418
▁යානය 418
▁රණ 417
▁වාහන 417
▁හැදුවා 417
▁across 416
▁ආහ 416
▁එයත 416
▁ධයෙන 416
▁බැරිද 416
▁blue 415
▁none 414
▁එහේ 414
▁කාටද 414
▁තරුණ 414
▁දවසේ 414
▁නගරය 414
ේම 413
▁smart 413
▁අපරාධ 413
▁දාගන 413
▁විවාහ 413
ුවෙන 412
▁force 412
▁slow 412
▁කරාවි 412
▁යොමු 412
▁seven 411
▁south 411
▁ඇදුම 411
ur 410
▁+ 410
▁අතන 410
▁දීම 410
▁පහලට 410
▁බවෙන 410
▁වීමට 410
ive 409
▁level 409
▁ඉතිරි 409
▁කළු 409
▁රතු 409
▁වයස 409
▁හැදුවේ 409
▁camp 408
▁quiet 408
▁serious 408
▁ඔයාලගෙ 408
▁ශබ 408
▁හේතුවක 408
um 407
▁picture 407
▁wear 407
▁ඉද 407
▁2012 406
▁මින 406
▁විනෝද 406
ුවන 405
▁19 405
▁queen 405
▁නිතරම 405
ch 404
x 404
▁එහා 404
▁මැඩම 404
▁වැටෙන 404
▁ශන 404
▁ළමයෙක 404
ෙව 403
▁sp 403
▁ගින 403
▁සෞඛ 403
▁cop 402
▁අව 402
▁භාෂා 402
▁වෙනකම 402
ist 401
▁coffee 401
▁lying 401
▁worried 401
▁දකුණු 401
▁බෑග 401
▁blow 400
▁fault 400
▁following 400
▁ඉවරයක 400
▁ඔයාටත 400
▁අපොයි 399
▁අශ 399
▁එතනට 399
▁නාස 399
▁නොහැකි 399
▁සතුටින 399
7 398
▁date 398
▁අතේ 398
▁රතික 398
▁H 397
▁loved 397
▁weird 397
▁වීමක 397
මේ 396
රා 396
▁strong 396
▁unless 396
▁රෑට 396
▁area 395
▁brain 395
▁space 395
▁ආචාර 395
▁හදලා 395
▁position 394
▁ඔත 394
▁දිග 394
▁පෞද 394
▁class 393
▁planet 393
▁standing 393
▁අඩි 393
▁රැ 393
▁රැස 393
▁signal 392
▁ථාන 392
▁මුණ 392
▁G 391
▁count 391
▁kate 391
▁පවුලේ 391
▁ලගට 391
▁de 390
▁gift 390
▁near 390
▁project 390
▁bye 389
▁key 389
▁මහතා 389
▁paid 388
▁papa 388
▁pass 388
▁reach 388
▁stick 388
▁ධයක 388
▁මරණ 388
▁යනවද 388
▁සෙම 388
▁හැක 388
▁තෑග 387
▁භයානක 387
▁eight 386
▁අයිස 386
▁මි 386
ling 385
▁gentlemen 385
▁අණ 385
▁නිශ 385
▁පහක 385
▁මොනාහරි 385
▁ලිපිනය 385
hi 384
id 384
කොට 384
වේ 384
ොන 384
▁forever 384
▁ice 384
▁ඊටපස 384
▁කිහිපයක 384
▁ධය 384
ාල 383
▁bear 383
▁share 383
▁ගාවට 383
▁බං 383
▁ලෝකේ 383
▁විත 383
▁gold 382
▁stopped 382
▁women 382
▁පිලිගන 382
මින 381
යම 381
▁2011 381
▁idiot 381
▁rock 381
▁ආච 381
▁කුරුල 381
▁සහිත 381
▁හමුවෙන 381
ot 380
▁box 380
▁fool 380
▁අනතුරක 380
▁broke 379
▁situation 379
▁ඇතුලත 379
▁ඇවිදින 379
▁නිසයි 379
▁මැරුවා 379
▁යුත 379
▁truck 378
▁තිමට 378
ඒක 377
▁94 377
▁cl 377
▁mess 377
▁කුඩා 377
▁ජන 377
▁රමයක 377
▁birthday 376
▁cops 376
▁කලොත 376
▁පලවෙනි 376
ors 375
නෙ 375
▁cold 375
▁computer 375
▁පියා 375
▁මේකේ 375
00 374
ions 374
▁R 374
▁voice 374
▁ටින 374
▁තහවුරු 374
▁විදිය 374
ian 373
ment 373
▁looked 373
▁mark 373
the 372
▁field 372
▁public 372
▁sea 372
▁අදාළ 372
▁ඔයාලව 372
▁බෙහෙත 372
▁සුදු 372
▁හැමවෙලේම 372
▁T 371
▁decided 371
▁per 371
▁ආදර 371
▁කැමතිද 371
▁ජින 371
▁නමක 371
▁වාසද 371
▁සුපිරි 371
ාවෙන 370
▁hotel 370
▁mouth 370
▁sitting 370
▁අඩුම 370
▁අදින 370
▁බැන 370
▁කාමරේ 369
▁මගුල 369
▁escape 368
▁missed 368
▁target 368
▁දුෂ 368
▁දෙයියනේ 368
▁විවෘත 368
▁හිම 368
▁track 367
▁ආපසු 367
▁service 366
▁හැකියාව 366
ol 365
▁built 365
▁glad 365
▁quick 365
▁ride 365
▁මූල 365
▁ෂය 365
▁deep 364
▁ඒකත 364
▁කිවුවා 364
▁සහතික 364
all 363
led 363
ුවෙ 363
▁ඩායමක 363
▁තැනකට 363
▁නල 363
▁නැව 363
▁යාලය 363
▁රයක 363
▁වෙනවද 363
ah 362
▁ring 362
▁ලදී 362
▁history 361
▁imagine 361
▁peace 361
▁එනකම 361
ෝන 360
▁grab 360
▁thinks 360
▁මී 360
▁මුලු 360
ro 359
▁cross 359
▁wonder 359
▁worse 359
▁වාසය 359
les 358
යේදී 358
▁age 358
▁program 358
▁අතුරුදහන 358
▁අමුත 358
▁කෑල 358
▁ලබාගන 358
▁ලෙ 358
▁හෙල 358
වක 357
▁lock 357
▁simple 357
▁නැගිටින 357
▁පසුව 357
▁වගෝ 357
ලට 356
▁forward 356
▁list 356
▁උබේ 356
▁නං 356
▁රෝ 356
▁වගේද 356
▁සී 356
▁court 355
▁hasn 355
▁ladies 355
▁ඩු 355
▁මෙයාට 355
one 354
ෙල 354
▁poor 354
▁උඹව 354
▁ජරා 354
▁නගින 354
▁බිරිඳ 354
om 353
වෙලා 353
▁board 353
▁swear 353
▁කඩ 353
▁දැනට 353
▁ළමයින 353
▁yesterday 352
▁පුරුදු 352
▁මය 352
▁500 351
▁crime 351
▁department 351
▁personal 351
▁අහලා 351
▁ඔලුව 351
▁ඔස 351
▁දිස 351
▁ලී 351
▁සාව 351
ාවන 350
▁guns 350
▁ථක 350
▁දාගෙන 350
▁මයි 350
▁මිනිහෝ 350
▁සමාජ 350
වර 349
▁h 349
▁radio 349
▁teach 349
▁ඔතන 349
▁කය 349
▁තිබෙන 349
▁යාත 349
▁වෙනුවට 349
▁— 349
▁completely 348
▁magic 348
▁ඩා 348
▁නැතිනම 348
▁මුර 348
ab 347
▁කාරක 347
▁නෝනා 347
▁attention 346
▁tree 346
▁අයව 346
▁තකට 346
▁විදියක 346
▁සාම 346
ut 345
▁bird 345
▁fl 345
▁floor 345
▁කෑ 345
▁කී 345
▁පවා 345
▁FBI 344
▁cash 344
▁india 344
▁rules 344
▁whether 344
▁ඇද 344
▁ගිණුම 344
▁දේශ 344
▁සපත 344
ති 343
වයි 343
▁ball 343
▁calls 343
▁උපකරණ 343
▁මරනවා 343
▁රසිද 343
▁හෙ 343
▁හෙන 343
▁support 342
▁යාන 342
▁ලගෙන 342
ra 341
ුක 341
▁rather 341
▁ගමු 341
▁මූණ 341
▁හරියන 341
▁hundred 340
▁දරුණු 340
▁සමාගම 340
& 339
cause 339
▁frank 339
▁kiss 339
▁push 339
▁අංකය 339
▁නැවතත 339
▁පළවෙනි 339
9 338
ion 338
▁F 338
▁fbi 338
▁join 338
▁අවධානය 338
▁ඇතුලෙ 338
▁ජර 338
▁නැන 338
▁ලෝකයේ 338
▁වෙනකොට 338
ig 337
▁2014 337
▁low 337
▁month 337
▁risk 337
▁spent 337
▁super 337
▁නික 337
▁ලංකා 337
▁වෙද 337
▁සෝ 337
▁යාවි 336
▁රිද 336
▁සරහට 336
ings 335
හරි 335
▁එහාට 335
▁පනින 335
▁වැරදියි 335
සන 334
▁22 334
▁bloody 334
▁busy 334
▁van 334
▁ආහාර 334
▁ගොල 334
▁තමුසෙට 334
▁වෛර 334
▁සභාව 334
වලට 333
ුනු 333
▁suit 333
▁ya 333
▁අතින 333
▁ඉ 333
▁මීටර 333
▁වාහනේ 333
▁සමාන 333
▁හන 333
දෙන 332
▁paper 332
▁relax 332
▁ආයෙ 332
▁ලගත 332
what 331
ුණු 331
▁address 331
▁college 331
▁sarah 331
▁steal 331
▁z 331
▁අඩංගුවට 331
▁නිසාද 331
▁quickly 330
▁spend 330
▁strange 330
▁york 330
▁ටුවක 330
▁නකොට 330
▁නය 330
▁ලැබෙනවා 330
▁ලියන 330
▁al 329
▁grandpa 329
▁නොකර 329
▁වරෙන 329
▁ළමයා 329
ry 328
මන 328
▁green 328
▁machine 328
▁race 328
▁කුවක 328
▁ගිනි 328
▁තියේ 328
▁early 327
▁fighting 327
▁ටියක 327
▁නොත 327
▁බැලුවා 327
▁angry 326
▁carry 326
▁කෙන 326
▁නු 326
▁පක 326
▁යටත 326
▁ලං 326
▁වැ 326
▁විදිහක 326
ියෙ 325
ේන 325
▁sell 325
▁ගොඩනැගිල 325
▁වනේ 325
▁හොදටම 325
▁expect 324
▁music 324
▁normal 324
▁prison 324
▁ආයතන 324
▁ඌට 324
▁නවාද 324
▁යැව 324
▁ලැජ 324
▁වතාවක 324
ac 323
ass 323
ඩි 323
▁camera 323
▁forgive 323
▁forgot 323
▁speed 323
▁එකා 323
▁නොවන 323
▁claire 322
▁command 322
▁locked 322
▁orders 322
▁ඉර 322
▁ජෝ 322
▁නොවේ 322
▁මචං 322
▁මැරුණා 322
▁රජ 322
op 321
ුස 321
▁60 321
▁charles 321
▁match 321
▁wearing 321
▁ඇට 321
▁ඊළඟ 321
▁දෙනවද 321
▁විහිළුවක 321
▁වෙස 321
කේ 320
▁fair 320
▁numbers 320
▁write 320
▁අනෙක 320
▁උඩින 320
▁එයාලගෙ 320
▁දනෙ 320
▁බෝ 320
▁වයට 320
▁වැඩකරන 320
▁විසි 320
▁සාදරයෙන 320
▁සොයා 320
ිප 319
ියම 319
▁200 319
▁build 319
▁definitely 319
▁උප 319
▁තියා 319
▁පැවැත 319
▁මතකයි 319
▁මුහුදු 319
▁ලනවා 319
▁හිට 319
▁හිතලා 319
ැන 318
▁broken 318
▁hunt 318
▁language 318
▁movie 318
▁ඩලය 318
▁දම 318
▁මාගේ 318
▁මු 318
▁වෙනසක 318
se 317
මත 317
ුණ 317
▁enemy 317
▁ms 317
▁ථා 317
▁රාම 317
▁වාසනාවන 317
▁වැඩකට 317
▁විශිෂ 317
▁හද 317
පන 316
ුවත 316
▁destroy 316
▁difference 316
▁search 316
▁අරක 316
▁ආවරණය 316
▁කෝච 316
▁පොලිසිය 316
යො 315
▁clothes 315
▁dare 315
▁අමුතු 315
▁ගයක 315
▁නටන 315
▁නිලධාරීන 315
▁පොල 315
▁bus 314
▁prove 314
▁se 314
▁උඹලා 314
▁කාට 314
▁බේර 314
▁වැනි 314
▁immediately 313
▁ඔහේට 313
▁පුතේ 313
▁බි 313
▁භාවිතා 313
▁වෙයිද 313
▁හලෝ 313
ෑ 312
▁L 312
▁උ 312
▁ශනය 312
▁ශිෂ 312
ish 311
▁K 311
▁proud 311
▁එනවද 311
▁කගෙන 311
▁දැනන 311
තා 310
වම 310
▁cooper 310
▁offer 310
▁ආඩම 310
▁ආයතනය 310
▁ගේම 310
▁මූ 310
▁යුතුය 310
▁වාද 310
▁හතර 310
im 309
▁# 309
▁amazing 309
▁beach 309
▁except 309
▁form 309
▁heading 309
▁river 309
▁අගය 309
▁වැටිලා 309
▁හිතේ 309
▁card 308
▁evening 308
▁සයෙක 308
▁research 307
▁ඇහුම 307
▁ඔච 307
▁කියනව 307
▁ජයග 307
▁දිනන 307
▁බෝල 307
ak 306
▁co 306
▁crash 306
▁fell 306
▁jump 306
▁අග 306
▁කේස 306
▁පී 306
▁මොකෝ 306
▁හමුදාව 306
▁talked 305
▁walking 305
▁කියලයි 305
▁කුමක 305
▁certain 304
▁dying 304
▁third 304
▁ඇහෙන 304
▁ඕනෑම 304
▁ටාර 304
▁ලැයිස 304
ලි 303
ාවේ 303
ීට 303
▁accept 303
▁group 303
▁sad 303
▁කාරයා 303
▁නගරයේ 303
▁මික 303
▁සටහන 303
ard 302
un 302
ාද 302
ේද 302
▁access 302
▁woods 302
▁තූර 302
ens 301
අ 301
කය 301
වෙ 301
▁ear 301
▁kick 301
▁tv 301
▁කෝපි 301
▁ගාන 301
▁මැරෙනවා 301
▁යාලුවෙක 301
▁due 300
▁grand 300
▁professor 300
▁අතාරින 300
▁නස 300
▁බයක 300
▁මැර 300
▁මෝඩයෙක 300
▁ලේකම 300
යාට 299
වි 299
▁leg 299
▁ඩේ 299
▁නෑනෙ 299
▁සිටිනවා 299
▁හොල 299
less 298
▁nine 298
▁ආසන 298
▁ඊ 298
▁කාමර 298
▁පේනවද 298
▁මො 298
▁යද 298
ුමක 297
▁decision 297
▁grow 297
▁survive 297
▁නියෝජිත 297
▁පියවර 297
▁බදින 297
▁වරද 297
▁bill 296
▁table 296
▁නැවැත 296
▁බබෝ 296
▁බී 296
▁ලේසි 296
ir 295
ලේ 295
ුරු 295
▁charge 295
▁lab 295
▁private 295
▁whose 295
▁එකකට 295
▁යේෂණ 295
▁සාකච 295
ීය 294
▁minister 294
▁seat 294
▁stuck 294
▁ඒගොල 294
▁ජිම 294
▁දේම 294
වනවා 293
ිලා 293
▁chief 293
▁el 293
▁jesus 293
▁memory 293
▁කීපයක 293
▁පි 293
ag 292
කාර 292
▁closed 292
▁con 292
▁present 292
▁sky 292
▁training 292
▁කිවුවේ 292
▁ගර 292
▁ජිවිත 292
▁දැං 292
▁පාසල 292
▁මෑන 292
▁යාල 292
▁රෙඩ 292
▁foot 291
▁hole 291
▁lt 291
▁එඩ 291
▁නොවෙන 291
▁පණපිටින 291
▁සරහ 291
▁doubt 290
▁enjoy 290
▁කරුණාකරල 290
▁ගියාම 290
▁පිරිමි 290
▁රාක 290
▁ලිව 290
▁වෙලාවෙ 290
that 289
▁evil 289
▁jail 289
▁කියනවද 289
▁පීටර 289
▁යාපාර 289
▁සඳහන 289
▁උණුසුම 288
▁ගෝ 288
▁ජා 288
▁ටිකට 288
▁වීර 288
no 287
▁princess 287
▁ගෑණු 287
▁තනි 287
▁දේට 287
▁මිනිහ 287
▁රයන 287
▁සේවය 287
▁ෆිල 287
▁emergency 286
▁peter 286
▁sl 286
▁ආවොත 286
▁තියක 286
▁මද 286
▁රවර 286
▁හදාගන 286
▁burn 285
▁james 285
▁weapons 285
▁දුවක 285
▁දෙකකට 285
▁දෙය 285
▁බයයි 285
▁ලඟට 285
▁හිතෙනවා 285
▁difficult 284
▁ex 284
▁rich 284
▁කොහොමත 284
▁වචනයක 284
▁ෙවන 284
ිර 283
▁23 283
▁danger 283
▁feels 283
▁soul 283
▁කාලෙ 283
▁මුණගැහෙන 283
▁figured 282
▁spot 282
▁අතරේ 282
▁කලාද 282
යිද 281
ාත 281
▁hiding 281
▁killer 281
▁medical 281
▁sayid 281
▁අහු 281
▁තෙක 281
▁පරිවර 281
▁භාණ 281
▁මේව 281
▁රෙන 281
▁රේස 281
▁වඩාත 281
▁සියලුම 281
▁හදපු 281
ations 280
ay 280
ලු 280
ුණා 280
▁further 280
▁smell 280
▁ඊලග 280
▁එකඟ 280
▁කරද 280
▁තිබුනෙ 280
▁රණවිරු 280
▁complete 279
▁innocent 279
▁names 279
▁කීයක 279
▁ටත 279
▁සකස 279
ang 278
ඳ 278
හම 278
▁copy 278
▁east 278
▁helping 278
▁කැල 278
▁යයන 278
▁රියක 278
ෙදි 277
▁american 277
▁closer 277
▁dreams 277
▁guard 277
▁speaking 277
▁suppose 277
▁ගහනවා 277
▁පොදු 277
▁මනුෂ 277
▁යුධ 277
▁හට 277
කි 276
හා 276
▁blind 276
▁impossible 276
▁loves 276
▁main 276
▁military 276
▁named 276
▁national 276
▁visit 276
▁පෙනෙන 276
▁බට 276
▁වගෙ 276
▁හමුදා 276
▁හීන 276
S 275
out 275
ණය 275
▁31 275
▁faster 275
▁එයාගෙන 275
▁කිරි 275
▁ලේන 275
▁වැස 275
▁වෙනකන 275
▁සියළුම 275
වීම 274
▁bro 274
▁self 274
▁totally 274
▁waste 274
▁wild 274
▁කඩන 274
▁ධි 274
▁නකො 274
▁මේකයි 274
▁හමු 274
ෙම 273
ොත 273
▁base 273
▁gate 273
▁major 273
▁moon 273
▁ටෝ 273
▁බලලා 273
▁රමය 273
▁රෝස 273
▁සංසුන 273
▁lex 272
▁locke 272
▁stole 272
▁unit 272
▁whoever 272
▁අයත 272
▁ඇදලා 272
▁ඉහල 272
▁උල 272
▁crew 271
▁everywhere 271
▁gang 271
▁staff 271
▁තරහ 271
▁බිය 271
▁මිනිහව 271
▁හොයනවා 271
ous 270
▁shop 270
▁tight 270
▁අහගන 270
▁බිඳ 270
▁මාධ 270
▁ලෝන 270
▁වලා 270
▁වැය 270
යත 269
▁E 269
▁animals 269
▁duty 269
▁holding 269
▁temple 269
▁west 269
▁එහෙට 269
▁කාලෙකට 269
▁කැමරා 269
▁පහසුකම 269
▁ෂයේ 269
A 268
▁cars 268
▁detective 268
▁joe 268
▁scene 268
▁towards 268
▁video 268
▁එවා 268
▁ඒකනම 268
▁ගක 268
▁ගැහුවා 268
▁තෙල 268
▁පනා 268
▁පවතින 268
▁පළ 268
▁මෙතැන 268
පල 267
මක 267
▁realize 267
▁tom 267
▁ඇතුළත 267
▁ඇමතුම 267
▁එහෙමද 267
▁දඩයම 267
▁සිහින 267
▁cost 266
▁location 266
▁putting 266
▁ඊයෙ 266
▁කාඩ 266
▁ගනන 266
▁නිවැරදි 266
▁පදනම 266
▁වහල 266
▁වෘත 266
▁හිරේ 266
han 265
ීව 265
▁choose 265
▁driving 265
▁hmm 265
▁upon 265
▁ගෙනත 265
▁නාට 265
▁පොලිසියට 265
▁වුණත 265
ars 264
ful 264
ts 264
▁became 264
▁begin 264
▁harry 264
▁madam 264
▁problems 264
▁seriously 264
▁කොළ 264
▁ගැල 264
▁ඩායමේ 264
▁දවල 264
▁හො 264
ge 263
od 263
තක 263
▁arrest 263
▁director 263
▁itself 263
▁lived 263
▁pre 263
▁thousand 263
▁එකද 263
▁නිරීක 263
▁පමණක 263
▁රාන 263
▁ලර 263
▁ෂණයක 263
ඔව 262
▁appreciate 262
▁bell 262
▁beyond 262
▁le 262
▁අහනවා 262
▁උතුරු 262
▁උපදෙස 262
▁ටොම 262
▁බිරිද 262
▁රකාශ 262
▁හැප 262
යාගේ 261
▁gives 261
▁jungle 261
▁martin 261
▁sub 261
▁ආස 261
▁ඔයාම 261
▁කුණු 261
be 260
ty 260
▁goddamn 260
▁interested 260
▁අඩ 260
▁ඇහැ 260
▁කෙනෙකුට 260
▁පැතුම 260
▁බලවත 260
▁මඟ 260
▁යතුර 260
▁සිස 260
▁හැමතිස 260
▁keeping 259
▁storm 259
▁දයක 259
▁ශා 259
ියාව 258
▁barry 258
▁film 258
▁path 258
▁promised 258
▁safety 258
▁හැරී 258
▁aaron 257
▁passed 257
▁starting 257
▁කිවා 257
▁තනතුර 257
▁නයිට 257
▁පෙනුම 257
▁ලැබ 257
▁වැට 257
▁වැරද 257
▁හැරෙන 257
we 256
▁absolutely 256
▁according 256
▁agree 256
▁දෙවෙනි 256
▁ධතිය 256
▁පහ 256
▁රති 256
▁ලිස 256
▁ෂිතයි 256
▁සතුට 256
ets 255
▁21 255
▁bigger 255
▁fresh 255
▁lovely 255
▁ගහ 255
▁ගානේ 255
▁ගැහැණු 255
▁තියි 255
▁පරිදි 255
ics 254
▁above 254
▁එළියේ 254
▁ජේම 254
▁වැඩියෙන 254
▁සුදානම 254
oc 253
ons 253
වලා 253
▁account 253
▁london 253
▁often 253
▁post 253
▁prince 253
▁tea 253
▁එස 253
▁බොත 253
▁ලදි 253
▁වාඩි 253
ans 252
ap 252
ma 252
ness 252
හන 252
▁english 252
▁file 252
▁leader 252
▁mommy 252
▁අංශය 252
▁අයි 252
▁ධිමත 252
▁වැඩිපුර 252
▁වේගයෙන 252
▁හතරක 252
▁listening 251
▁sw 251
▁terrible 251
▁ටුවේ 251
▁තරයක 251
▁පහුගිය 251
▁මයිල 251
▁විකල 251
▁විවේක 251
▁හාන 251
ඒ 250
▁battle 250
▁goodbye 250
▁mar 250
▁nor 250
▁tired 250
▁කූපර 250
▁ගෙවල 250
▁දෙකයි 250
▁මාමා 250
▁වැන 250
▁වුනාට 250
▁හොර 250
C 249
▁bullet 249
▁driver 249
▁feed 249
▁final 249
▁officers 249
▁pulled 249
▁sing 249
▁tough 249
▁පාත 249
▁පැනල 249
▁බඳින 249
▁මනටම 249
▁යාළුවෙක 249
▁වටේ 249
▁සිම 249
▁සිර 249
▁dress 248
▁helped 248
▁owe 248
▁surprise 248
▁උදෑසනක 248
▁එහෙත 248
▁වැඩට 248
▁වුනාම 248
▁සලකුණු 248
▁සුව 248
වී 247
▁= 247
▁arm 247
▁arms 247
▁cat 247
▁darling 247
▁decide 247
▁grace 247
▁losing 247
▁mate 247
▁picked 247
▁property 247
▁sword 247
▁wind 247
▁අපෙන 247
▁ලැබුන 247
▁ලිය 247
▁විදුලි 247
ary 246
▁america 246
▁breath 246
▁destroyed 246
▁finished 246
▁involved 246
▁ඉංග 246
▁ඉහළ 246
▁තිද 246
▁දිල 246
▁පාන 246
▁බද 246
▁මායා 246
▁වැල 246
na 245
▁huge 245
▁record 245
▁උගේ 245
▁ධිය 245
▁පියන 245
▁බඩ 245
▁මචෝ 245
▁මිනිහට 245
▁මේකෙ 245
▁රුපියල 245
▁ලෝකෙ 245
▁වග 245
▁විශේෂයෙන 245
▁වීරයෙක 245
▁සංකීර 245
▁හදිස 245
ee 244
ාවත 244
▁keys 244
▁travel 244
▁අනුමාන 244
▁පැනගන 244
▁පිරිසිදු 244
▁බබා 244
▁රාර 244
▁වීඩියෝ 244
▁ad 243
▁kidding 243
▁neck 243
▁price 243
▁song 243
▁අරං 243
▁කෑලි 243
▁කෙටි 243
▁ගමේ 243
▁දෙනා 243
▁බහින 243
▁මැ 243
▁මූලික 243
▁රැක 243
▁වනු 243
▁සුදුසු 243
▁හයි 243
age 242
ුගේ 242
▁action 242
▁flying 242
▁sight 242
▁vehicle 242
▁අයියේ 242
▁ආශ 242
▁තෝ 242
▁රේම 242
නයක 241
මු 241
▁common 241
▁අහකට 241
▁ඇතුළු 241
▁එසේ 241
▁කරුවන 241
▁ගැ 241
▁ගෑනු 241
▁දික 241
▁නොකරන 241
▁මෝඩයා 241
▁රීය 241
▁ලැබීම 241
▁වේගය 241
▁සංඛ 241
▁හත 241
▁හිතාගෙන 241
▁data 240
▁liked 240
▁otherwise 240
▁pack 240
▁sleeping 240
▁window 240
▁ගහලා 240
▁භය 240
▁යාංශය 240
▁ලකුණු 240
▁ලොකුම 240
▁විනාඩියක 240
oo 239
▁ඇරෙන 239
▁නීතිය 239
▁බේරෙන 239
▁වැඩේට 239
▁gas 238
▁girlfriend 238
▁strength 238
▁දහස 238
▁දෙකම 238
▁නගර 238
▁නිවාස 238
▁බොස 238
▁සොල 238
▁හිනා 238
▁හොයලා 238
ik 237
කන 237
වෙනවා 237
▁01 237
▁birds 237
▁bob 237
▁eating 237
▁planning 237
▁pop 237
▁ආදායම 237
▁කරොත 237
▁තිබුණ 237
▁මාළු 237
▁රහ 237
▁රාජකාරිය 237
▁හරින 237
අපි 236
යකේ 236
ෙස 236
▁ar 236
▁hadn 236
▁knowing 236
▁park 236
▁raise 236
▁ජය 236
▁ජීවිතයක 236
▁ඩී 236
▁දරුවා 236
▁දිනය 236
▁දෙමව 236
▁පුරාම 236
▁යාළුවො 236
▁සිල 236
I 235
▁hank 235
▁hungry 235
▁imp 235
▁plans 235
▁ways 235
▁ඇහෙනවද 235
▁කියයි 235
▁ගැට 235
▁දෙයි 235
▁නෙපා 235
▁යතුරු 235
▁යානා 235
▁යෝ 235
▁ළඟට 235
ai 234
▁rat 234
▁smile 234
▁total 234
▁trip 234
▁ඩල 234
▁තූති 234
▁මනස 234
▁යනු 234
▁වේගවත 234
▁සතුන 234
රක 233
▁300 233
▁42 233
▁apart 233
▁continue 233
▁flash 233
▁max 233
▁neither 233
▁powerful 233
▁sweetheart 233
▁ජනය 233
▁තිබිලා 233
▁පණිවිඩයක 233
▁පොර 233
▁භාර 233
▁වනෙ 233
▁සැබෑ 233
E 232
ංග 232
එක 232
ඟ 232
▁allow 232
▁hearing 232
▁jake 232
▁twice 232
▁ඒකා 232
▁කාමරය 232
▁ටා 232
▁නිම 232
▁සහය 232
▁හැඟීම 232
ගෝ 231
භ 231
▁created 231
▁responsible 231
▁තුති 231
▁රජයේ 231
▁ලියුම 231
ැක 230
▁joke 230
▁judge 230
▁keeps 230
▁lied 230
▁rain 230
▁showed 230
▁අනාගතය 230
▁ආවම 230
▁ඇතුළට 230
▁ගැලපෙන 230
▁ගෞරවය 230
▁ථානයක 230
▁දීමේ 230
▁මගෙත 230
▁රැගෙන 230
▁ලකේස 230
▁විෂ 230
ates 229
කයක 229
▁study 229
▁switch 229
▁teacher 229
▁wonderful 229
▁ඇර 229
▁කපන 229
▁කවදා 229
▁දමන 229
▁නංගි 229
▁පිළිබඳව 229
▁මාවත 229
▁යාපෘතියේ 229
▁රෙස 229
▁වරුනි 229
▁වුනාද 229
▁ෂර 229
▁ෂේප 229
▁සං 229
▁සැතපුම 229
▁consider 228
▁cry 228
▁earlier 228
▁leaves 228
▁අපේක 228
▁ඇහුවා 228
▁එතනින 228
▁කාරයෝ 228
▁මටයි 228
▁වලදි 228
▁වහලා 228
▁විච 228
▁සිටි 228
▁හිටියොත 228
D 227
als 227
▁W 227
▁asshole 227
▁books 227
▁dick 227
▁letter 227
▁lunch 227
▁non 227
▁sake 227
▁thief 227
▁අයිතිය 227
▁නැහැනේ 227
▁යකෝ 227
▁වටින 227
▁සේරා 227
ul 226
ිමක 226
▁fat 226
▁knife 226
▁la 226
▁obviously 226
▁qu 226
▁worst 226
▁උනාට 226
▁කැන 226
▁කේන 226
▁තහනම 226
▁නියෝග 226
▁පවුලක 226
▁බේරගත 226
▁මෝ 226
▁ලෙඩ 226
▁විහිළු 226
▁වේල 226
ලය 225
සි 225
▁pressure 225
▁skin 225
▁witness 225
▁ආක 225
▁ආසයි 225
▁ඔයාද 225
▁කිසිවක 225
▁තං 225
▁යුක 225
▁වෙලාද 225
▁සැරයක 225
ier 224
its 224
ne 224
▁airport 224
▁heads 224
▁pe 224
▁pl 224
▁places 224
▁roll 224
▁sheriff 224
▁suspect 224
▁එයින 224
▁කඩා 224
▁කේට 224
▁දට 224
▁නාන 224
▁නුවා 224
▁වගෙයි 224
R 223
her 223
ටද 223
බර 223
▁beginning 223
▁fate 223
▁justice 223
▁secure 223
▁taught 223
▁usually 223
▁කයි 223
▁කොහොමහරි 223
▁පමණයි 223
▁යාපෘති 223
▁රතිකාර 223
▁රතිපත 223
▁සහෝ 223
▁සීයා 223
▁හැකියි 223
ce 222
ou 222
ting 222
ure 222
ඩා 222
යාව 222
▁boyfriend 222
▁david 222
▁drunk 222
▁energy 222
▁simon 222
▁ගයේ 222
▁රෝග 222
▁හැමතැනම 222
දා 221
පත 221
වලින 221
▁brave 221
▁learned 221
▁nature 221
▁powers 221
▁press 221
▁ඉඳල 221
▁කස 221
▁ජි 221
▁තරඟ 221
▁දැකල 221
▁මැන 221
▁වොට 221
ලෝ 220
▁breathe 220
▁double 220
▁horse 220
▁kingdom 220
▁lay 220
▁likes 220
▁rule 220
▁කාටහරි 220
▁තදින 220
▁තේරුනා 220
▁ශිල 220
▁හඳුන 220
ber 219
කා 219
ීර 219
▁acting 219
▁correct 219
▁headed 219
▁relationship 219
▁කෝට 219
▁බාගයක 219
▁විවිධ 219
▁හැන 219
ally 218
ler 218
කරනවා 218
ීත 218
▁allowed 218
▁condition 218
▁cup 218
▁gr 218
▁held 218
▁moved 218
▁round 218
▁කියපන 218
▁තකින 218
▁තියනෙවා 218
▁පාස 218
▁බීම 218
▁මැජික 218
▁වෝල 218
ow 217
▁apartment 217
▁dumb 217
▁favor 217
▁followed 217
▁states 217
▁tower 217
▁කියවෙන 217
▁තීරණයක 217
▁දාපු 217
▁පාරේ 217
▁සරහා 217
▁සුවඳ 217
ance 216
▁0 216
▁ch 216
▁doors 216
▁sh 216
▁themselves 216
▁ගේට 216
▁තරමේ 216
▁පයින 216
▁බලපත 216
▁වරක 216
▁වහගන 216
▁වේගෙන 216
▁සව 216
▁besides 215
▁clearly 215
▁delhi 215
▁dis 215
▁fit 215
▁hoping 215
▁lift 215
▁partner 215
▁ඇදගෙන 215
▁උනන 215
▁පයක 215
▁බවක 215
▁මැස 215
▁මොක 215
▁හැදුවෙ 215
,000 214
ධ 214
▁animal 214
▁mama 214
▁mountain 214
▁pleasure 214
▁site 214
▁sold 214
▁virus 214
▁ආකර 214
▁ඒවි 214
▁කෝප 214
▁ජරාව 214
▁දැකපු 214
▁නරකයි 214
▁පරයක 214
▁පැ 214
▁භයානකයි 214
▁මදි 214
▁රවෘත 214
▁ෂේත 214
▁හඩ 214
-4 213
ආ 213
දර 213
විද 213
▁create 213
▁experience 213
▁faith 213
▁map 213
▁ourselves 213
▁turns 213
▁ආවද 213
▁උපරිම 213
▁කඳු 213
▁ජේක 213
▁නිසැකවම 213
▁මිට 213
▁හහ 213
av 212
▁arrived 212
▁however 212
▁patient 212
▁quit 212
▁science 212
▁ඉඩම 212
▁ඔහේගේ 212
▁දරුවන 212
▁බිස 212
▁වරදක 212
▁වෙලාවෙම 212
ොක 211
▁believed 211
▁connection 211
▁lana 211
▁mm 211
▁ගනින 211
▁බොරුවක 211
▁යකඩ 211
▁ලබ 211
▁වගෝම 211
▁හැ 211
▁bought 210
▁brothers 210
▁extra 210
▁failed 210
▁financial 210
▁photo 210
▁ඉටු 210
▁ඕනෙම 210
▁කැ 210
▁ධයි 210
▁පාරෙන 210
▁රයා 210
▁ලැබේ 210
▁වරුන 210
▁සයිඩ 210
▁හයියෙන 210
ger 209
ized 209
mon 209
කෝ 209
▁26 209
▁cook 209
▁honest 209
▁interest 209
▁opportunity 209
▁stars 209
▁upset 209
▁දෙවන 209
▁පාලන 209
▁පුරා 209
▁පොලීසිය 209
▁වචනය 209
▁විකුණන 209
▁හැසිරෙන 209
ver 208
▁block 208
▁chicken 208
▁corner 208
▁fake 208
▁interesting 208
▁lawyer 208
▁lies 208
▁local 208
▁route 208
▁weak 208
▁ගැනයි 208
▁ථානයේ 208
▁බියර 208
▁ලලා 208
▁වේවා 208
▁ශාක 208
▁සැ 208
▁සුළු 208
▁හාර 208
ීස 207
▁90 207
▁John 207
▁aunt 207
▁br 207
▁bunch 207
▁crap 207
▁forest 207
▁humans 207
▁jenny 207
▁market 207
▁reading 207
▁roof 207
▁several 207
▁shooting 207
▁snow 207
▁අවසානය 207
▁එයට 207
▁ගිහිං 207
▁දුරකථනය 207
▁දූපත 207
▁නමයි 207
▁පෙ 207
▁පේ 207
▁වතාවට 207
▁වලදී 207
▁විමර 207
old 206
ාවල 206
▁bo 206
▁favorite 206
▁අහල 206
▁ඔනේ 206
▁තරේ 206
▁තිබුණේ 206
▁නිකුත 206
▁ෂයි 206
` 205
ters 205
ාවි 205
ෙද 205
▁art 205
▁cia 205
▁empty 205
▁fan 205
▁glass 205
▁note 205
▁rahul 205
▁remain 205
▁strike 205
▁අරගත 205
▁කැත 205
▁කෙනාට 205
▁ගලවන 205
▁ගෞරව 205
▁ඩය 205
▁තැනැත 205
▁තුවෙන 205
▁පලයන 205
▁මඟුල 205
▁මණට 205
▁යානයේ 205
▁රින 205
▁වීමේ 205
▁සලකන 205
▁සලා 205
▁හමුවීම 205
▁හැකිය 205
P 204
T 204
වුන 204
▁45 204
▁cr 204
▁destiny 204
▁freedom 204
▁ls 204
▁purpose 204
▁type 204
▁walt 204
▁ඇඟිලි 204
▁ඇමතුමක 204
▁ජල 204
▁නැතිවෙලා 204
▁නියමෙට 204
▁බැරිවුනා 204
▁යාවක 204
▁වයේ 204
▁විනාස 204
▁හිටියද 204
ham 203
land 203
ලන 203
▁en 203
▁har 203
▁monster 203
▁nose 203
▁serve 203
▁sex 203
▁stolen 203
▁කරත 203
▁තරමට 203
▁ථානයට 203
▁පාදනය 203
▁මෙයාගේ 203
▁වාසනාව 203
▁විහිලු 203
▁ෂණික 203
▁සෙක 203
son 202
time 202
කරලා 202
▁ends 202
▁focus 202
▁smoke 202
▁දය 202
▁රේෂ 202
▁සීමාව 202
▁හදා 202
▁හිතනව 202
are 201
▁bl 201
▁commander 201
▁doc 201
▁giant 201
▁large 201
▁mis 201
▁necessary 201
▁saving 201
▁අවංක 201
▁තික 201
▁නඩු 201
▁නැග 201
▁පිය 201
▁මිනිසා 201
▁හවුල 201
me 200
▁among 200
▁breaking 200
▁christ 200
▁ed 200
▁greatest 200
▁jane 200
▁pal 200
▁reached 200
▁shoes 200
▁suggest 200
▁tells 200
▁yo 200
▁ඒකද 200
▁කෑමට 200
▁පච 200
▁පහළ 200
▁බාධා 200
▁බිමට 200
▁රැල 200
▁රියේ 200
▁ලැබෙයි 200
▁සුවක 200
කල 199
ාගෙන 199
▁bullshit 199
▁murdered 199
▁ocean 199
▁sc 199
▁shaw 199
▁watson 199
▁අදාල 199
▁අසල 199
▁ඈ 199
▁කෙනාව 199
▁ගෙනාවා 199
▁ජිවිතේ 199
▁තගේ 199
▁නියමිත 199
▁නිවේදන 199
▁නෝ 199
▁පලා 199
▁මාමේ 199
▁ලිපි 199
▁හේතු 199
▁center 198
▁files 198
▁fill 198
▁finding 198
▁games 198
▁store 198
▁අහිංසක 198
▁ඇනා 198
▁ඇරලා 198
▁ඇවිද 198
▁ඔවු 198
▁ගෙව 198
▁ජේ 198
▁ටක 198
▁තබා 198
▁නොව 198
▁පාදන 198
▁පිටපත 198
▁බයවෙන 198
▁රොන 198
▁ලැබුණා 198
▁විකාරයක 198
aw 197
if 197
ments 197
ගම 197
ුනොත 197
▁80 197
▁J 197
▁N 197
▁cute 197
▁fs 197
▁gotten 197
▁khan 197
▁knock 197
▁mo 197
▁realized 197
▁willing 197
▁ඇම 197
▁ගෙදරින 197
▁දැකීම 197
▁නාවික 197
▁පය 197
▁පාරවල 197
▁පාලම 197
▁බොබ 197
▁ලයි 197
▁ලැබුනේ 197
▁ලූ 197
▁වගකීම 197
▁වටිනා 197
▁හඬ 197
men 196
▁church 196
▁details 196
▁meters 196
▁stone 196
▁su 196
▁අංශ 196
▁ඒකම 196
▁කප 196
▁කාලා 196
▁ගා 196
▁ඝ 196
▁ඩෙන 196
▁තනය 196
▁තප 196
▁මඩ 196
▁ලැබිලා 196
ade 195
ins 195
▁intelligence 195
▁pilot 195
▁played 195
▁ra 195
▁raj 195
▁staying 195
▁x 195
▁අනිවා 195
▁ඔබලා 195
▁ඔළුව 195
▁ගිල 195
▁තරග 195
▁රජු 195
▁ෙ 195
go 194
my 194
ාවෙ 194
▁answers 194
▁breakfast 194
▁communication 194
▁deserve 194
▁dry 194
▁engine 194
▁fr 194
▁ours 194
▁progress 194
▁rob 194
▁sergeant 194
▁united 194
▁ඒකි 194
▁කුඩු 194
▁බුන 194
▁මංකොල 194
▁රමාණය 194
▁රොබෝ 194
▁ලුවා 194
em 193
▁70 193
▁fellow 193
▁lake 193
▁trees 193
▁දේකට 193
▁පැමිණ 193
▁රෑම 193
▁වයසක 193
▁වොල 193
▁සදහටම 193
▁සාවක 193
au 192
ke 192
ps 192
ue 192
ya 192
ෝර 192
▁advice 192
▁bathroom 192
▁dollars 192
▁drug 192
▁operation 192
▁po 192
▁somehow 192
▁sri 192
▁suddenly 192
▁ආධාර 192
▁දෙනව 192
▁පිටින 192
▁බෙදා 192
▁යාලයේ 192
▁ලයිට 192
▁හු 192
▁හෙව 192
ite 191
ose 191
ගැන 191
ාක 191
ුවෙක 191
ේවි 191
▁hall 191
▁කාමරයට 191
▁චිය 191
▁තාර 191
▁පොලීසියට 191
▁බුනා 191
▁මැරුවේ 191
▁යෂ 191
▁ලැස 191
cHFF 190
ලක 190
▁bodies 190
▁er 190
▁subject 190
▁written 190
▁අට 190
▁අනන 190
▁ඇග 190
▁කොත 190
▁ගණනක 190
▁ටුවට 190
▁නක 190
▁නරකම 190
▁පිල 190
▁රතිචාර 190
▁වතාවේ 190
▁සයා 190
▁සාප 190
O 189
ip 189
ේදී 189
ොල 189
▁exist 189
▁prepare 189
▁spare 189
▁terrorist 189
▁wondering 189
▁අසමත 189
▁ඉම 189
▁කක 189
▁ගැනම 189
▁ගැස 189
▁තේරුමක 189
▁නොවෙයි 189
▁පිච 189
▁පුත 189
▁බැට 189
▁හය 189
▁හයක 189
qu 188
ton 188
රන 188
ියො 188
▁development 188
▁especially 188
▁raised 188
▁robot 188
▁teeth 188
▁ticket 188
▁tr 188
▁ආරංචියක 188
▁ඊලඟ 188
▁නිදා 188
▁පව 188
▁බෙලා 188
▁යාපන 188
▁යෝජනා 188
▁රාහුල 188
▁හෝම 188
ms 187
තාව 187
මා 187
▁attacked 187
▁aware 187
▁fail 187
▁fixed 187
▁letting 187
▁wrote 187
▁yöur 187
▁උනාද 187
▁කරපන 187
▁කළින 187
▁කැස 187
▁දාමු 187
▁මහාචාර 187
▁රමාණවත 187
▁වෑන 187
කරුවන 186
පා 186
ැම 186
ොස 186
▁afternoon 186
▁below 186
▁birth 186
▁hatch 186
▁journey 186
▁lights 186
▁recognize 186
▁starts 186
▁thousands 186
▁weight 186
▁ආන 186
▁ඇඟ 186
▁ඔයගොල 186
▁තමුසෙගෙ 186
▁නවනම 186
▁භීත 186
▁යේ 186
▁රධානියා 186
▁වයින 186
ake 185
ize 185
li 185
ුවද 185
▁28 185
▁bottom 185
▁drugs 185
▁original 185
▁proof 185
▁summer 185
▁yellow 185
▁අතරින 185
▁අමුතුයි 185
▁උනාම 185
▁ඒජන 185
▁කොහෙ 185
▁ජනතාව 185
▁තැනම 185
▁තීන 185
▁පැට 185
▁බටහිර 185
▁බරපතල 185
▁මේකත 185
▁රෝහල 185
▁සාජන 185
▁සැම 185
ator 184
ged 184
ice 184
io 184
la 184
red 184
▁amount 184
▁hurley 184
▁jason 184
▁spoke 184
▁අරමුදල 184
▁ඉඩදෙන 184
▁ඒවට 184
▁කිවුවෙ 184
▁ගැහෙන 184
▁ඡා 184
▁දකුණට 184
▁දුරටත 184
▁පුතාට 184
▁ලමක 184
▁ලියලා 184
▁වුණ 184
▁සිං 184
▁හාදයා 184
▁හෙමින 184
ong 183
දෙ 183
සා 183
ෑන 183
▁conversation 183
▁dan 183
▁french 183
▁grandma 183
▁henry 183
▁technology 183
▁ඇහුනා 183
▁කැම 183
▁කොහෙවත 183
▁ටෙක 183
▁තේර 183
▁දීල 183
▁පුතාව 183
▁රිතාන 183
▁රොක 183
▁වේදනාව 183
ious 182
way 182
ණයක 182
දිම 182
නෑ 182
▁48 182
▁beauty 182
▁belong 182
▁bridge 182
▁central 182
▁dropped 182
▁feelings 182
▁ghost 182
▁holy 182
▁ooh 182
▁surprised 182
▁අයගේ 182
▁ආයුබෝවන 182
▁තරය 182
▁දැ 182
▁පෙනී 182
▁සතියේ 182
-2 181
of 181
ිකා 181
ිලි 181
▁blame 181
▁draw 181
▁genius 181
▁heavy 181
▁issue 181
▁matters 181
▁milk 181
▁pat 181
▁rid 181
▁understood 181
▁warm 181
▁අරමුණ 181
▁ජනාධිපති 181
▁නැගෙනහිර 181
▁පණිවිඩය 181
▁පාලක 181
▁ලමයි 181
ුවොත 180
▁club 180
▁damage 180
▁def 180
▁id 180
▁mask 180
▁papers 180
▁plant 180
▁sending 180
▁අමතන 180
▁කරාද 180
▁ගනීවි 180
▁ගහගෙන 180
▁දයි 180
▁දැඩි 180
▁දෛවය 180
▁නාම 180
▁පමණ 180
▁බාල 180
▁යත 180
▁යාග 180
▁විදින 180
▁වුනු 180
▁සංඥා 180
▁සමින 180
▁හැකියාවක 180
ඹ 179
වුනා 179
ුණේ 179
▁client 179
▁comp 179
▁dirty 179
▁kevin 179
▁punch 179
▁received 179
▁repeat 179
▁request 179
▁sawyer 179
▁sha 179
▁කාව 179
▁කිවේ 179
▁දුරට 179
▁බැස 179
▁බොක 179
▁රටේ 179
▁රීඩා 179
▁ලැක 179
▁වදින 179
ain 178
ලින 178
ොර 178
▁johnny 178
▁loose 178
▁loss 178
▁mention 178
▁natural 178
▁nowhere 178
▁par 178
▁prepared 178
▁rescue 178
▁taste 178
▁තලා 178
▁නටම 178
▁නායකයා 178
▁නැගිට 178
▁මෙනවිය 178
▁යයක 178
▁යාම 178
▁රීසි 178
▁වු 178
▁වෙලේම 178
▁සරල 178
-1 177
cHFFFFFF 177
▁CIA 177
▁dogs 177
▁drinking 177
▁fuel 177
▁gods 177
▁ඇමරිකානු 177
▁එකතුව 177
▁චෙක 177
▁දහයක 177
▁පිටවෙන 177
▁පුවත 177
▁මානව 177
▁මායි 177
▁හරවන 177
our 176
වනේ 176
▁anna 176
▁eh 176
▁emily 176
▁hat 176
▁pictures 176
▁remind 176
▁richard 176
▁whom 176
▁ගාණක 176
▁තරු 176
▁නැතිවෙන 176
▁යාලයට 176
▁වටිනවා 176
▁වාව 176
▁ෂයෙක 176
▁සයිමන 176
▁හවස 176
▁හැමවෙලාවෙම 176
ical 175
per 175
ud 175
▁2015 175
▁O 175
▁harm 175
▁lots 175
▁nearly 175
▁official 175
▁suicide 175
▁view 175
▁zero 175
▁අහස 175
▁ඩෝ 175
▁බලයක 175
▁මරපු 175
▁මෝඩයෝ 175
▁වතාව 175
▁හැංගෙන 175
ches 174
වනම 174
ිනවා 174
▁bringing 174
▁certainly 174
▁criminal 174
▁finger 174
▁fred 174
▁mum 174
▁roger 174
▁stories 174
▁upstairs 174
▁warrior 174
▁කියෙව 174
▁කේත 174
▁තයේ 174
▁දෙකෙන 174
▁පරම 174
▁පාරට 174
▁මනෝ 174
▁රාදේශීය 174
▁රේන 174
▁හීනයක 174
▁beer 173
▁che 173
▁hidden 173
▁legs 173
▁millions 173
▁process 173
▁rep 173
▁sa 173
▁walked 173
▁කේක 173
▁ධර 173
▁මඟුලක 173
▁මූන 173
▁ලොන 173
▁සෙට 173
▁හිටගෙන 173
▁හිතුනා 173
▁හිරවෙලා 173
ial 172
ta 172
ted 172
ys 172
තන 172
බල 172
රෙන 172
ොව 172
ෝම 172
▁bother 172
▁ho 172
▁mal 172
▁memories 172
▁review 172
▁ආවට 172
▁ඉගැන 172
▁උපසිරැසි 172
▁කැමතිම 172
▁කුල 172
▁ජේසන 172
▁ටුයි 172
▁තයෝ 172
▁බිලියන 172
▁මෙහ 172
▁රදර 172
▁ෂාවට 172
amp 171
end 171
res 171
ෙහි 171
▁27 171
▁32 171
▁band 171
▁easier 171
▁guest 171
▁mmm 171
▁ur 171
▁අමතර 171
▁ඇහුවේ 171
▁ඉමු 171
▁ඊලඟට 171
▁උවමනා 171
▁එනකන 171
▁කත 171
▁චීන 171
▁තියනේනෙ 171
▁දුවට 171
▁දුවව 171
▁පටිගත 171
▁රහාර 171
▁ලීම 171
▁වැටුනා 171
▁සැමියා 171
ley 170
ob 170
▁35 170
▁chloe 170
▁ears 170
▁eddie 170
▁opened 170
▁stage 170
▁එකකින 170
▁ඕනෑ 170
▁කරු 170
▁කිසිදෙයක 170
▁කුයි 170
▁ගමනක 170
▁තරහා 170
▁දුරස 170
▁නැතිවුනා 170
▁පරිගණක 170
▁මාණ 170
▁වෙමු 170
dy 169
ves 169
year 169
දීම 169
යව 169
හි 169
▁biggest 169
▁cow 169
▁disappeared 169
▁gl 169
▁inter 169
▁percent 169
▁prem 169
▁runs 169
▁size 169
▁spirit 169
▁ඉඳගෙන 169
▁එලවන 169
▁චෝදනා 169
▁ජලය 169
▁නමින 169
▁පුදුමයි 169
▁බදු 169
▁මැරුණ 169
▁සැලකිල 169
▁හරිගස 169
L 168
දේ 168
ුවම 168
▁agreed 168
▁apparently 168
▁contract 168
▁crying 168
▁inspector 168
▁knowledge 168
▁rose 168
▁sand 168
▁searching 168
▁threat 168
▁අඩුවෙන 168
▁අපගේ 168
▁ආයෙමත 168
▁එකිනෙකා 168
▁කනේ 168
▁දුරක 168
▁රෙ 168
▁වගේමයි 168
▁සියළු 168
▁හමුව 168
ner 167
ore 167
බි 167
▁barely 167
▁british 167
▁dig 167
▁directly 167
▁dont 167
▁including 167
▁kitchen 167
▁notice 167
▁raju 167
▁scott 167
▁social 167
▁warning 167
▁අනතුර 167
▁අමන 167
▁කෙරෙන 167
▁කොහෙත 167
▁ගියාද 167
▁ජී 167
▁තියල 167
▁නිවස 167
▁රීන 167
▁ලත 167
▁වසරේ 167
▁විදියටම 167
▁හරිනේ 167
▁හල 167
▁හැංගිලා 167
▁bat 166
▁billy 166
▁covered 166
▁daniel 166
▁fired 166
▁hunting 166
▁jim 166
▁laughing 166
▁pants 166
▁sal 166
▁sees 166
▁shows 166
▁steps 166
▁victim 166
▁එතැන 166
▁තොර 166
▁නැතත 166
▁නුඹේ 166
▁නොදන 166
▁පිටසක 166
▁බැංකු 166
▁මාටින 166
▁යහපත 166
▁රවට 166
▁ලාස 166
▁වාම 166
▁සැපයුම 166
▁හිරු 166
ome 165
ඩු 165
▁onto 165
▁permission 165
▁pieces 165
▁responsibility 165
▁එරෙහිව 165
▁ඔයාගෝ 165
▁ඔල 165
▁කුලියට 165
▁ගනී 165
▁දැනුවත 165
▁දිනයක 165
▁ධාන 165
▁නිලධාරියෙක 165
▁පලමු 165
▁පළාත 165
▁මොලේ 165
▁රජය 165
▁රපට 165
▁රයේ 165
▁සැර 165
bye 164
ina 164
ැල 164
ේක 164
ෝට 164
▁apologize 164
▁buried 164
▁cole 164
▁dev 164
▁hired 164
▁lo 164
▁trap 164
▁walls 164
▁whenever 164
▁අතුරුදන 164
▁අඳින 164
▁ඒකකය 164
▁ගෙම 164
▁චෙස 164
▁තයක 164
▁තිබේ 164
▁නැතිවෙයි 164
▁නොම 164
▁පියාඹන 164
▁බාහිර 164
▁මිනී 164
▁යෝක 164
▁රීම 164
▁ලයින 164
▁හැගීම 164
▁හැඩ 164
▁හොරෙන 164
B 163
හැ 163
ිහ 163
▁admit 163
▁bastard 163
▁enter 163
▁falling 163
▁famous 163
▁herself 163
▁members 163
▁priya 163
▁records 163
▁shame 163
▁source 163
▁surveillance 163
▁tail 163
▁value 163
▁අකමැති 163
▁අහිමි 163
▁එනකොට 163
▁ගොස 163
▁තේරුණා 163
▁දේව 163
▁නායක 163
▁බලපන 163
▁මරා 163
▁මැරෙයි 163
▁යනකොට 163
▁විදිහේ 163
▁සතෙක 163
▁සුම 163
▁ෙත 163
M 162
by 162
ically 162
ඔයාට 162
ෙකට 162
▁assume 162
▁awesome 162
▁belongs 162
▁button 162
▁easily 162
▁jay 162
▁noticed 162
▁truly 162
▁twenty 162
▁එද 162
▁කනවා 162
▁ගියාට 162
▁ඡන 162
▁මටම 162
▁රථ 162
▁විවාහය 162
▁ෂන 162
▁හිතට 162
▁හිනාවෙන 162
ill 161
te 161
ven 161
යෙහි 161
▁battery 161
▁brand 161
▁dna 161
▁nation 161
▁priest 161
▁ro 161
▁ඕනදෙ 161
▁කාලයේ 161
▁ජස 161
▁නපුරු 161
▁ලොව 161
▁ලොස 161
▁වාසයක 161
▁ෂික 161
▁හානියක 161
ise 160
වෙනි 160
ුප 160
ොට 160
▁bella 160
▁cameras 160
▁color 160
▁filled 160
▁flowers 160
▁freak 160
▁heat 160
▁pocket 160
▁shirt 160
▁tie 160
▁tiny 160
▁trigger 160
▁අනුකම 160
▁එරික 160
▁ඒවගේ 160
▁කපලා 160
▁කියලවත 160
▁කුස 160
▁කොණ 160
▁ගාස 160
▁ජෙනී 160
▁තිබුණු 160
▁තියේවි 160
▁පණිවිඩ 160
▁රමාණයක 160
▁රයි 160
▁වදවෙන 160
ana 159
ile 159
ියයි 159
ිරි 159
▁ab 159
▁although 159
▁appears 159
▁device 159
▁inform 159
▁media 159
▁nonsense 159
▁turning 159
▁ආරංචි 159
▁ඔයාටයි 159
▁කපිතාන 159
▁ටමේ 159
▁ඩයක 159
▁තේරුනාද 159
▁පෙළ 159
▁යාළුවෝ 159
▁ලෑන 159
▁වනේනෙ 159
▁සිරුර 159
ack 158
ering 158
ris 158
ඉ 158
▁000 158
▁U 158
▁fund 158
▁heaven 158
▁pet 158
▁points 158
▁soldier 158
▁thomas 158
▁trade 158
▁කහ 158
▁කාගේ 158
▁කැට 158
▁ගනුදෙනු 158
▁බැංකුව 158
▁භෞතික 158
▁මොනවාහරි 158
▁රහසක 158
▁වෙයන 158
▁හිතුව 158
▁හිතුවද 158
é 157
බා 157
▁aw 157
▁bottle 157
▁checked 157
▁guards 157
▁joy 157
▁laugh 157
▁pr 157
▁sn 157
▁theory 157
▁ආරාධනා 157
▁ඉතාමත 157
▁තුලින 157
▁දැනටම 157
▁නිවේදනය 157
▁මරල 157
▁රැජිණ 157
▁ලැන 157
▁සනට 157
▁සහා 157
▁හැමෝවම 157
de 156
ගැනීම 156
පර 156
ැස 156
▁add 156
▁climb 156
▁disappear 156
▁distance 156
▁former 156
▁hugo 156
▁meaning 156
▁spread 156
▁අසනීප 156
▁ඇහුන 156
▁එළ 156
▁කළොත 156
▁කොටම 156
▁ගැනීමේ 156
▁ණයි 156
▁තිර 156
▁පමන 156
▁පවුලෙ 156
▁බො 156
▁මගේම 156
▁රෝන 156
▁ලේසියෙන 156
▁හැදිලා 156
▁හෑන 156
ck 155
ls 155
ඇ 155
ජන 155
වීමක 155
ිකයන 155
▁V 155
▁defense 155
▁escaped 155
▁event 155
▁nick 155
▁ram 155
▁rec 155
▁silly 155
▁අධික 155
▁කෙවින 155
▁තුනකට 155
▁තුනයි 155
▁දියුණු 155
▁බිද 155
▁මොකවත 155
▁රමාද 155
▁වටිනාකම 155
▁වැද 155
▁විම 155
▁හානි 155
▁හෙලිකොප 155
කරු 154
ණි 154
රික 154
ෝව 154
▁based 154
▁division 154
▁dragon 154
▁ended 154
▁excited 154
▁insane 154
▁oil 154
▁recently 154
▁showing 154
▁simply 154
▁swim 154
▁ඇක 154
▁ඇහෙනවා 154
▁ගි 154
▁තීරණ 154
▁තුර 154
▁ධතා 154
▁පහු 154
▁පැල 154
▁බින 154
▁භක 154
▁මතකය 154
▁මුත 154
▁සහයක 154
▁සහෝදර 154
▁සිතියම 154
විට 153
හල 153
හේ 153
▁assistant 153
▁cases 153
▁clock 153
▁di 153
▁enemies 153
▁fairy 153
▁higher 153
▁iron 153
▁loud 153
▁mac 153
▁remove 153
▁soldiers 153
▁spy 153
▁survived 153
▁අවි 153
▁ඇබ 153
▁උතුමාණෙනි 153
▁එලියේ 153
▁ඕවා 153
▁කරුණු 153
▁කියමු 153
▁කෝටි 153
▁ජීවිතයේ 153
▁දැනුනා 153
▁දිගේ 153
▁මේස 153
▁මොහොත 153
▁ශුද 153
▁සැප 153
G 152
ub 152
එයා 152
▁arrested 152
▁bite 152
▁chain 152
▁chef 152
▁crack 152
▁familiar 152
▁folks 152
▁led 152
▁painting 152
▁secrets 152
▁settle 152
▁singh 152
▁stock 152
▁wet 152
▁wherever 152
▁අධිරාජ 152
▁අසරණ 152
▁ඉඳ 152
▁ඒකනේ 152
▁ඔහේව 152
▁කඩේ 152
▁කරනකොට 152
▁කැඩ 152
▁ගොන 152
▁තනවා 152
▁තුවා 152
▁මරණයට 152
▁මිනීමැරුම 152
▁යවකාශ 152
▁ලැ 152
▁සතියක 152
▁සවන 152
▁සූ 152
ched 151
ered 151
ey 151
ism 151
oh 151
▁..... 151
▁credit 151
▁duke 151
▁finds 151
▁flat 151
▁fucked 151
▁nervous 151
▁results 151
▁systems 151
▁ted 151
▁units 151
▁universe 151
▁wayne 151
▁අති 151
▁ආණ 151
▁ආලෝකය 151
▁ඇඳ 151
▁ගැනත 151
▁ජොබ 151
▁තෙත 151
▁දෙස 151
▁නඩුව 151
▁පදවන 151
▁පසුගිය 151
▁පුළුවනි 151
▁මඟින 151
▁රේක 151
▁ලැබූ 151
▁වෙලාවකට 151
ell 150
ීවි 150
▁brings 150
▁convince 150
▁grandfather 150
▁license 150
▁plenty 150
▁season 150
▁stayed 150
▁sweetie 150
▁traffic 150
▁victims 150
▁අනාගත 150
▁අඳුරු 150
▁ඇඩ 150
▁ඉදගන 150
▁උයන 150
▁එවිට 150
▁කලාට 150
▁කැලේ 150
▁කුමන 150
▁ගිවිසුම 150
▁ඩාර 150
▁තාට 150
▁තියාගත 150
▁දානව 150
▁පහළට 150
▁පුච 150
▁බිලී 150
▁බිව 150
▁ලොකුයි 150
▁වසන 150
▁වැටෙනවා 150
▁හැද 150
ning 149
so 149
ug 149
රම 149
වෙයි 149
ානේ 149
ියකට 149
ියනේ 149
ීමෙන 149
▁04 149
▁blew 149
▁concerned 149
▁congratulations 149
▁dec 149
▁george 149
▁hanging 149
▁holmes 149
▁indian 149
▁lets 149
▁marks 149
▁paying 149
▁possibly 149
▁tony 149
▁ty 149
▁ඉඳගන 149
▁කෝලේ 149
▁ගලයා 149
▁ගෞරවයක 149
▁ටයින 149
▁ඩේවිඩ 149
▁ථනා 149
▁නගරයට 149
▁පැරණි 149
▁බලපෑම 149
▁මාල 149
▁මොහොතක 149
▁වෙමින 149
▁ෂකයෙක 149
එ 148
මි 148
ානම 148
▁anger 148
▁bu 148
▁colonel 148
▁incident 148
▁ind 148
▁services 148
▁shock 148
▁sin 148
▁අනුගමනය 148
▁අළු 148
▁එයයි 148
▁ඔයාත 148
▁චක 148
▁තියෙද 148
▁දඬුවම 148
▁රහණය 148
▁සමෙන 148
▁සයෝ 148
▁සහකාර 148
▁සාධාරණ 148
▁සැකයක 148
▁හියුගෝ 148
▁හුවමාරු 148
get 147
just 147
ැද 147
▁aside 147
▁capable 147
▁cards 147
▁deliver 147
▁direct 147
▁expected 147
▁pregnant 147
▁release 147
▁spell 147
▁trained 147
▁ඉගෙනගන 147
▁එහනෙම 147
▁ඔයාවත 147
▁කිරිම 147
▁ජෝර 147
▁දරන 147
▁දොරවල 147
▁පුහුණුව 147
▁මුම 147
▁යාලුවෝ 147
▁රල 147
▁රිචඩ 147
▁රොස 147
ේස 146
▁apple 146
▁dam 146
▁dies 146
▁discuss 146
▁investigation 146
▁monkey 146
▁mu 146
▁pen 146
▁remote 146
▁russian 146
▁surface 146
▁කාලීන 146
▁ගලයෙක 146
▁තියෙයි 146
▁දුරින 146
▁දෙවැනි 146
▁නිලධාරී 146
▁පැහැදිලියි 146
▁පුස 146
▁මණින 146
▁මෙතෙන 146
▁සංගීත 146
▁සො 146
▁හංගන 146
ging 145
ide 145
ks 145
ust 145
ලයි 145
හැකි 145
▁02 145
▁ana 145
▁armed 145
▁avoid 145
▁outta 145
▁paris 145
▁students 145
▁ඇතිවෙන 145
▁ඒකාබද 145
▁කලිසම 145
▁කාමරයක 145
▁කීවේ 145
▁තාන 145
▁තුමා 145
▁තෝර 145
▁දෙපාරක 145
▁දේවි 145
▁නවට 145
▁පාද 145
▁රංශ 145
ane 144
ast 144
iv 144
ying 144
උ 144
කලා 144
ගෙයි 144
ටන 144
ුවෙලා 144
▁agents 144
▁carrying 144
▁chest 144
▁equipment 144
▁fully 144
▁motherfucker 144
▁moves 144
▁seemed 144
▁අනුමත 144
▁ඔහෙට 144
▁ජාතියේ 144
▁ඩෙ 144
▁දිගු 144
▁දෙවල 144
▁නිලධාරි 144
▁පො 144
▁පොතක 144
▁බයවෙලා 144
▁වළ 144
▁විදියේ 144
▁සිජන 144
▁සීතල 144
let 143
මය 143
ියත 143
▁2013 143
▁africa 143
▁bee 143
▁castle 143
▁cave 143
▁chose 143
▁counter 143
▁direction 143
▁exact 143
▁ins 143
▁kidnapped 143
▁screw 143
▁yaar 143
▁ඇමති 143
▁කරුවෙක 143
▁ගනියි 143
▁ගියෙ 143
▁චෝ 143
▁ජනප 143
▁දායි 143
▁දීප 143
▁දේශීය 143
▁නාකි 143
▁නැටුම 143
▁නිය 143
▁පෝ 143
▁මැරුනා 143
▁ලූතර 143
▁හිල 143
▁ළ 143
ition 142
කමක 142
▁150 142
▁ethan 142
▁faces 142
▁forgotten 142
▁helicopter 142
▁loan 142
▁lower 142
▁mumbai 142
▁nuclear 142
▁online 142
▁ralph 142
▁ri 142
▁shh 142
▁soft 142
▁tall 142
▁tape 142
▁trapped 142
▁trick 142
▁අඩන 142
▁එවුන 142
▁ඒකක 142
▁ඔහුත 142
▁කැමරාව 142
▁කිරීමෙන 142
▁කොහෙටද 142
▁ගෙනාවේ 142
▁ජංගම 142
▁ජාන 142
▁ටෙඩ 142
▁තොප 142
▁නොමැති 142
▁මැරිල 142
▁මුඛ 142
▁රේඩියෝ 142
▁සමත 142
▁සූර 142
▁සෙත 142
ld 141
ory 141
නි 141
ලාව 141
ිවල 141
▁council 141
▁curse 141
▁hitting 141
▁member 141
▁species 141
▁steve 141
▁surely 141
▁th 141
▁useless 141
▁victor 141
▁අහුවෙන 141
▁ඇයත 141
▁ඇලස 141
▁කීවා 141
▁ටී 141
▁ටොන 141
▁තොරව 141
▁ධෛර 141
▁නෙවි 141
▁පූජා 141
▁මචන 141
▁මුස 141
▁රවේශ 141
▁රෙද 141
▁වහාම 141
▁සවය 141
▁හොරෙක 141
▁ෆොටෝ 141
ash 140
off 140
ping 140
this 140
මෙ 140
ිමින 140
▁bones 140
▁breathing 140
▁cousin 140
▁doctors 140
▁forced 140
▁grown 140
▁medicine 140
▁range 140
▁reports 140
▁supply 140
▁tracking 140
▁tunnel 140
▁කාරණය 140
▁ඩික 140
▁තරා 140
▁තාප 140
▁දවසට 140
▁නුබ 140
▁පහසු 140
▁මුහුද 140
▁යානයක 140
▁ලෑෂ 140
▁ලියක 140
▁ෂාවක 140
▁සලකා 140
▁සියදිවි 140
▁හැදෙන 140
▁75 139
▁available 139
▁balls 139
▁chair 139
▁chappie 139
▁chi 139
▁community 139
▁da 139
▁devil 139
▁gray 139
▁junior 139
▁li 139
▁mary 139
▁personally 139
▁plus 139
▁rancho 139
▁shadow 139
▁split 139
▁staring 139
▁transfer 139
▁walter 139
▁අසාමාන 139
▁කාමරේට 139
▁ගියපු 139
▁ජාත 139
▁තියෙනවාද 139
▁තුරු 139
▁දහ 139
▁නාද 139
▁නීත 139
▁නෙන 139
▁පැහැදිලිවම 139
▁බීලා 139
▁බෙරී 139
▁යොදා 139
▁ලබාගත 139
▁ලානා 139
▁වහගෙන 139
▁විහිලුවක 139
▁සමීප 139
▁සැත 139
ala 138
gu 138
hes 138
ini 138
nd 138
ures 138
ඉන 138
කයන 138
ාගන 138
ියස 138
▁appear 138
▁attempt 138
▁cab 138
▁deck 138
▁fuckin 138
▁juliet 138
▁june 138
▁metal 138
▁parts 138
▁pray 138
▁sacrifice 138
▁shake 138
▁tickets 138
▁treat 138
▁අතරතුර 138
▁ඇඳුමක 138
▁ඉදිරියේ 138
▁ඔයාටම 138
▁කඩුව 138
▁කාවවත 138
▁තයට 138
▁තරමක 138
▁තාගේ 138
▁තිබුණි 138
▁තොරතුරක 138
▁දුප 138
▁පිරිසක 138
▁බාන 138
▁මිනිසෙක 138
▁වතා 138
▁වයන 138
▁වැදිලා 138
▁ෂියක 138
ats 137
ind 137
රු 137
▁bow 137
▁changes 137
▁liar 137
▁penny 137
▁programme 137
▁pulling 137
▁ryan 137
▁section 137
▁student 137
▁අතරමං 137
▁අවම 137
▁කැඩිලා 137
▁ඛාන 137
▁දෑ 137
▁පැයක 137
▁රීඩ 137
▁විදිහටම 137
▁සිටියා 137
▁හදුන 137
ants 136
ified 136
int 136
යිට 136
ිං 136
▁05 136
▁1000 136
▁1206 136
▁64 136
▁DNA 136
▁desert 136
▁egg 136
▁guilty 136
▁male 136
▁oliver 136
▁ray 136
▁ridiculous 136
▁winter 136
▁ඉවසන 136
▁එකෙ 136
▁ඒවගෝම 136
▁ඔෆිස 136
▁කුමාර 136
▁දරුවෙක 136
▁දෙවියෝ 136
▁පුව 136
▁ලබාදෙන 136
▁වනෙවා 136
gh 135
ible 135
ok 135
ටි 135
බන 135
ොම 135
▁400 135
▁43 135
▁The 135
▁balance 135
▁bike 135
▁courage 135
▁female 135
▁gu 135
▁income 135
▁oxygen 135
▁parking 135
▁pro 135
▁result 135
▁returned 135
▁solve 135
▁thoughts 135
▁ඇප 135
▁ඔනෙ 135
▁කවදද 135
▁චාල 135
▁ටල 135
▁දඩුවම 135
▁දෙකකින 135
▁පවුලට 135
▁බවයි 135
▁වගන 135
▁වාන 135
▁වෙට 135
▁සලස 135
F 134
az 134
co 134
ned 134
ute 134
තාවය 134
ෑම 134
ිකයෙක 134
ුනෙ 134
▁03 134
▁29 134
▁bucks 134
▁closing 134
▁cream 134
▁dressed 134
▁expecting 134
▁fallen 134
▁footage 134
▁fox 134
▁gear 134
▁grid 134
▁handsome 134
▁indeed 134
▁lines 134
▁mill 134
▁reasons 134
▁revenge 134
▁rocks 134
▁throat 134
▁weather 134
▁කලු 134
▁කේතය 134
▁ටීව 134
▁තාවන 134
▁දකිනවා 134
▁නිදි 134
▁පාරෙ 134
▁පුතෙක 134
▁යටින 134
▁රාස 134
▁ලිමේන 134
▁ලේසියි 134
▁සුප 134
ace 133
ail 133
do 133
ib 133
ගේම 133
ුවනේ 133
▁33 133
▁cap 133
▁chinese 133
▁exit 133
▁fort 133
▁ill 133
▁kent 133
▁min 133
▁mon 133
▁opening 133
▁owner 133
▁pit 133
▁planned 133
▁prime 133
▁robert 133
▁sat 133
▁ve 133
▁එකග 133
▁කාමරයේ 133
▁ඝාතනය 133
▁තෝමස 133
▁තෝරගන 133
▁දයකෝ 133
▁දව 133
▁දේපල 133
▁නිස 133
▁ඵ 133
▁මළ 133
▁රපටි 133
▁ලගින 133
▁විප 133
▁සතුරන 133
▁හොය 133
.5 132
art 132
house 132
ort 132
ාස 132
▁bright 132
▁families 132
▁federal 132
▁highly 132
▁launch 132
▁likely 132
▁mentioned 132
▁ne 132
▁ow 132
▁pee 132
▁performance 132
▁period 132
▁smells 132
▁sooner 132
▁threw 132
▁uniform 132
▁wise 132
▁ඇයගෙ 132
▁එහෙනං 132
▁කසාදෙ 132
▁කාලෙක 132
▁කාවද 132
▁කෙර 132
▁ගැබ 132
▁තගන 132
▁තගෙ 132
▁තිබුණෙ 132
▁තියනෙ 132
▁ථය 132
▁දණ 132
▁දීපු 132
▁නනවා 132
▁නියෝජිතයෙක 132
▁පසුපස 132
▁පිරි 132
▁බබ 132
▁බම 132
▁මිලදී 132
▁මිසයිල 132
▁රසායන 132
▁රේමන 132
▁වහ 132
▁සභාවේ 132
▁හිතපු 132
N 131
head 131
කයෙක 131
▁37 131
▁facility 131
▁interview 131
▁jin 131
▁kinda 131
▁mile 131
▁opinion 131
▁reality 131
▁rome 131
▁ruined 131
▁tech 131
▁අනතුරේ 131
▁අනුග 131
▁අබ 131
▁අයගෙන 131
▁අහගෙන 131
▁ඊටත 131
▁කවර 131
▁කළාද 131
▁කෙළ 131
▁ඩායමට 131
▁තරංග 131
▁නකම 131
▁පැමිණෙන 131
▁පිරිස 131
▁බයික 131
▁මයක 131
▁මරු 131
▁ලාගෙන 131
▁සාස 131
ath 130
ess 130
ised 130
own 130
ved 130
කයා 130
ියානු 130
ීක 130
▁36 130
▁alaska 130
▁brilliant 130
▁connected 130
▁den 130
▁exchange 130
▁garden 130
▁identity 130
▁noise 130
▁picking 130
▁prefer 130
▁prisoner 130
▁scare 130
▁speech 130
▁terms 130
▁unfortunately 130
▁ආයුධයක 130
▁ඉඩක 130
▁ඉතිහාසය 130
▁උබලා 130
▁එඩී 130
▁කියනවනම 130
▁ගොඩනැගිලි 130
▁ගොනු 130
▁චය 130
▁චාන 130
▁චිකිත 130
▁ජනයක 130
▁නැවතිලා 130
▁නොවී 130
▁පාල 130
▁පැහැර 130
▁ලැබේවි 130
▁වමට 130
▁වලක 130
▁විදුලිය 130
▁විවේකයක 130
▁සනීප 130
▁සමන 130
▁සැරේ 130
how 129
ines 129
ඔ 129
කාරයා 129
ගස 129
ැට 129
ියව 129
ෙයක 129
ෝද 129
▁afford 129
▁ag 129
▁annie 129
▁authority 129
▁carefully 129
▁christmas 129
▁dust 129
▁fo 129
▁foreign 129
▁health 129
▁mass 129
▁mid 129
▁mood 129
▁nights 129
▁palace 129
▁suck 129
▁wire 129
▁~ 129
▁අවසානයේ 129
▁කිසිදු 129
▁ගඳ 129
▁දෙමු 129
▁නිලධාරිවරයා 129
▁පදක 129
▁පුදුමයක 129
▁මතකයන 129
▁මේකද 129
▁රාණ 129
▁රෙක 129
▁ලැහැස 129
▁විනිශ 129
▁සුර 129
▁සුවා 129
▁හදල 129
▁ෆර 129
▁෴ 129
▁“ 129
U 128
ara 128
ied 128
ka 128
line 128
ren 128
ියකින 128
▁Dr 128
▁ancient 128
▁asleep 128
▁confirmed 128
▁designed 128
▁fought 128
▁international 128
▁knight 128
▁movies 128
▁paul 128
▁pretend 128
▁pri 128
▁rush 128
▁streets 128
▁veer 128
▁watched 128
▁ඇපල 128
▁කරාට 128
▁කවුන 128
▁ගෑස 128
▁ගෙවීම 128
▁තිෙයන 128
▁තුලට 128
▁භාවිත 128
▁මෙයාල 128
▁ලැබුණ 128
▁වවිද 128
▁වැදුනා 128
▁සපයන 128
▁සේප 128
▁හුරු 128
.2 127
hmm 127
ited 127
med 127
ගල 127
ලද 127
ුවල 127
ුවෝ 127
▁bone 127
▁checking 127
▁coast 127
▁eventually 127
▁happiness 127
▁lover 127
▁majesty 127
▁norm 127
▁protection 127
▁sharp 127
▁society 127
▁vision 127
▁vote 127
▁zoe 127
▁ඊස 127
▁ඌන 127
▁කීප 127
▁ගො 127
▁ටෝන 127
▁ථික 127
▁ථිර 127
▁දීමට 127
▁නෙවෙයිද 127
▁නෝර 127
▁පටි 127
▁බොරුවට 127
▁මලා 127
▁මාම 127
▁යකා 127
▁රණය 127
▁ලැබිය 127
▁සහෝදරිය 127
ark 126
itt 126
ran 126
වාගෙන 126
හෙන 126
ුරා 126
ෙකින 126
ෙර 126
ෝස 126
▁ajay 126
▁alert 126
▁aunty 126
▁career 126
▁cells 126
▁char 126
▁darkness 126
▁design 126
▁gri 126
▁hook 126
▁model 126
▁practice 126
▁satellite 126
▁sec 126
▁tw 126
▁අඩුයි 126
▁අතීතය 126
▁අවලංගු 126
▁ආයතනයේ 126
▁ඉදිකිරීම 126
▁එකනේ 126
▁ඔලුවට 126
▁කිහිපයකට 126
▁ගිලන 126
▁ජරාවක 126
▁ටෙ 126
▁පරාජය 126
▁බරයි 126
▁භාගයක 126
▁රූප 126
▁රොම 126
▁ලගේ 126
▁වෙතට 126
▁ශනයක 126
▁සලකුණක 126
▁සිංහල 126
▁හයියක 126
▁හෝව 126
.1 125
his 125
ities 125
oy 125
ඕ 125
ටර 125
තින 125
සේ 125
▁49 125
▁alien 125
▁complicated 125
▁dancing 125
▁grew 125
▁illegal 125
▁jacob 125
▁jo 125
▁jobs 125
▁leads 125
▁miracle 125
▁older 125
▁option 125
▁pool 125
▁rights 125
▁rohan 125
▁stronger 125
▁talks 125
▁wine 125
▁wood 125
▁අධිකාරිය 125
▁අයේ 125
▁අවංකවම 125
▁අසාර 125
▁ආයුධය 125
▁උපදේශක 125
▁චූ 125
▁ජෙනරල 125
▁ජොනී 125
▁ණත 125
▁තෝරගත 125
▁දාගත 125
▁දෙසැම 125
▁නැවතුම 125
▁නෙවත 125
▁පරද 125
▁පරිත 125
▁පිරිලා 125
▁පෙති 125
▁මරයි 125
▁මොහොතේ 125
▁සටනක 125
▁හමුදාවේ 125
har 124
ov 124
ගා 124
දන 124
පං 124
▁47 124
▁aryan 124
▁aye 124
▁billion 124
▁confused 124
▁desk 124
▁excellent 124
▁grade 124
▁int 124
▁kicked 124
▁monroe 124
▁nah 124
▁san 124
▁shower 124
▁task 124
▁teddy 124
▁wallet 124
▁¶ 124
▁ඉදිරි 124
▁උෂ 124
▁කාම 124
▁ගණනය 124
▁ගණුදෙනු 124
▁ගානකට 124
▁ඩොන 124
▁තරං 124
▁දරාගන 124
▁පොළ 124
▁භාෂාව 124
▁මෝටර 124
▁යයෙක 124
▁යාමට 124
▁ලාර 124
▁වෝ 124
▁ෂිතව 124
▁සැල 124
▁සියක 124
ick 123
og 123
බී 123
සර 123
ුළ 123
▁azhar 123
▁babe 123
▁bal 123
▁beg 123
▁bhai 123
▁cast 123
▁character 123
▁charlotte 123
▁hon 123
▁issues 123
▁legal 123
▁murph 123
▁selling 123
▁shots 123
▁und 123
▁wash 123
▁අපරාධයක 123
▁උමං 123
▁ඔතනින 123
▁කපා 123
▁නිද 123
▁පීට 123
▁බවත 123
▁යෝර 123
▁රූ 123
▁වයෙන 123
▁ශරීර 123
▁සහගත 123
▁හැසිරීම 123
▁හිතා 123
▁ළග 123
ama 122
ho 122
iss 122
ius 122
ord 122
ured 122
ෝල 122
▁99 122
▁blast 122
▁lanka 122
▁moments 122
▁res 122
▁rise 122
▁royal 122
▁tank 122
▁tears 122
▁wound 122
▁ඇරොන 122
▁ඉව 122
▁ඕනනම 122
▁කෙසේ 122
▁ජීව 122
▁දෙමාපියන 122
▁පවසන 122
▁බෙක 122
▁මමම 122
▁මිසක 122
▁රේල 122
▁ලැබුණු 122
▁ලියේ 122
▁ලෝයි 122
▁විතරද 122
▁වුණොත 122
▁වෙබ 122
▁වෙයින 122
▁සිගරට 122
▁සිහි 122
▁සොයාගත 122
▁හමුවෙමු 122
ages 121
back 121
ists 121
ුග 121
ේෂ 121
▁angel 121
▁ant 121
▁cart 121
▁delivery 121
▁depends 121
▁engineer 121
▁farm 121
▁hardly 121
▁honestly 121
▁kills 121
▁mirror 121
▁port 121
▁provide 121
▁remains 121
▁warn 121
▁wing 121
▁අංශයේ 121
▁අවදානම 121
▁ආදරණීය 121
▁ඇඟිල 121
▁උං 121
▁කාරණාව 121
▁ගාඩ 121
▁ගුරුත 121
▁ථානාධිපති 121
▁දකට 121
▁නැවේ 121
▁පාටයි 121
▁බැද 121
▁මවා 121
▁මෙයාගෙ 121
▁රාව 121
▁ලිට 121
▁ශාන 121
▁ශාප 121
▁සබ 121
▁සෛල 121
▁සොයාගන 121
20 120
50 120
ians 120
va 120
කරුවෙක 120
▁71 120
▁babies 120
▁bags 120
▁ban 120
▁committed 120
▁considered 120
▁drinks 120
▁education 120
▁flower 120
▁heroes 120
▁load 120
▁mountains 120
▁properly 120
▁rough 120
▁sherlock 120
▁sol 120
▁tour 120
▁ 120
▁කවදාහරි 120
▁කියලත 120
▁ගඟ 120
▁ගහගන 120
▁ඩිස 120
▁දේසි 120
▁නාව 120
▁පනත 120
▁පැහැදිලිව 120
▁පිටුව 120
▁පිර 120
▁පුපුරවන 120
▁බේරා 120
▁භූත 120
▁යනකම 120
▁රාජු 120
▁රූම 120
▁ලමයින 120
▁වැටුන 120
▁වැටුප 120
▁හිටියත 120
che 119
hed 119
ost 119
ිමු 119
▁alarm 119
▁bobby 119
▁brown 119
▁bur 119
▁crowd 119
▁detail 119
▁extremely 119
▁fishing 119
▁funeral 119
▁ideas 119
▁package 119
▁professional 119
▁proper 119
▁snake 119
▁taylor 119
▁thirty 119
▁tommy 119
▁university 119
▁yep 119
▁අවහිර 119
▁ඇතිව 119
▁ඇහුනද 119
▁ඉදල 119
▁ඔහුගෙන 119
▁කාත 119
▁කෑමක 119
▁චැපී 119
▁තානාපති 119
▁තුවට 119
▁දියත 119
▁නනම 119
▁නිලධාරියා 119
▁පනය 119
▁පැද 119
▁පැහැරගෙන 119
▁පිළිතුරු 119
▁පොලිසියේ 119
▁මකයි 119
▁මෝර 119
▁යයිද 119
▁රහාරයක 119
▁වීරයා 119
▁සංග 119
▁සභාපති 119
▁සිව 119
-0 118
ach 118
bs 118
ium 118
රය 118
ොයි 118
▁americans 118
▁beans 118
▁becoming 118
▁forces 118
▁hundreds 118
▁introduce 118
▁mall 118
▁nuts 118
▁precious 118
▁stealing 118
▁style 118
▁tests 118
▁tied 118
▁trail 118
▁yourselves 118
▁ආකාරය 118
▁ඊලගට 118
▁එකෝ 118
▁ඕෙන 118
▁කුට 118
▁චා 118
▁ටැක 118
▁ණයයි 118
▁ථාපනය 118
▁දරුවෝ 118
▁දෙසට 118
▁පති 118
▁පෝල 118
▁බලාගත 118
▁මේඩ 118
▁රිප 118
▁රොබ 118
▁වංචා 118
▁වැරදියට 118
▁විසඳ 118
▁සමාගමේ 118
▁සිටිය 118
▁හැමෝගෙම 118
12 117
aps 117
king 117
lo 117
වරුන 117
වුනේ 117
▁34 117
▁advantage 117
▁allah 117
▁bury 117
▁corporation 117
▁effect 117
▁golden 117
▁letters 117
▁lf 117
▁positive 117
▁served 117
▁skills 117
▁slowly 117
▁status 117
▁stopping 117
▁youth 117
▁zone 117
▁අනෙකුත 117
▁උබව 117
▁එලියෙ 117
▁කලාම 117
▁කොස 117
▁ගහල 117
▁ගුඩ 117
▁ජුලියට 117
▁තමුසෙව 117
▁තියට 117
▁පීඩනය 117
▁මිශ 117
▁වාඩිවෙන 117
▁වෙනකල 117
▁ශණ 117
▁ෂෝ 117
▁සිප 117
▁හාද 117
▁ෆැක 117
don 116
yes 116
▁ability 116
▁backup 116
▁bleeding 116
▁cares 116
▁changing 116
▁crown 116
▁example 116
▁hurts 116
▁lesson 116
▁machines 116
▁nurse 116
▁pa 116
▁particular 116
▁piss 116
▁sean 116
▁stark 116
▁tamil 116
▁treasure 116
▁useful 116
▁writing 116
▁අතුරු 116
▁අවදි 116
▁ගණ 116
▁ගෝල 116
▁තාරකා 116
▁තැ 116
▁තියේද 116
▁තේරෙනවද 116
▁දිවි 116
▁දෙවියනි 116
▁ධාවන 116
▁නිත 116
▁නිදාගත 116
▁පාසලේ 116
▁මරණවා 116
▁මෙයාලා 116
▁රථම 116
▁ලෝකයට 116
▁වගකීමක 116
▁වාතය 116
▁වෙලේ 116
▁ශිත 116
▁ෂයා 116
▁සියේ 116
▁සේවක 116
▁හමුදාවක 116
▁හරිය 116
▁හැඟීමක 116
.00 115
K 115
ny 115
▁815 115
▁911 115
▁ac 115
▁beast 115
▁christian 115
▁deputy 115
▁entered 115
▁homes 115
▁landing 115
▁louis 115
▁mud 115
▁odd 115
▁rare 115
▁regret 115
▁restaurant 115
▁seenu 115
▁spring 115
▁tax 115
▁velayudham 115
▁ආදරයක 115
▁ඇඳගෙන 115
▁ඒවාට 115
▁කණගාටු 115
▁කුකුල 115
▁ගනිමින 115
▁චෙන 115
▁ජොන 115
▁ටියම 115
▁තිමේදි 115
▁තූරයක 115
▁නගරයක 115
▁පූ 115
▁බලං 115
▁බැලුවේ 115
▁මතු 115
▁මේකනම 115
▁මේජර 115
▁මොකෙක 115
▁රතිඵල 115
▁රයිව 115
▁රැයක 115
▁වගකියන 115
▁වහනවා 115
▁වැඩිදියුණු 115
▁විර 115
▁විලියම 115
▁සිදුවීම 115
▁හඳුනා 115
▁හස 115
but 114
hip 114
well 114
එන 114
ටෙ 114
විල 114
ියල 114
ුවෙනවා 114
▁08 114
▁cake 114
▁carl 114
▁chick 114
▁coward 114
▁expenditure 114
▁fruit 114
▁groom 114
▁guts 114
▁identify 114
▁murderer 114
▁ordered 114
▁paint 114
▁sighs 114
▁sm 114
▁අයිතියක 114
▁උඹලට 114
▁ඔලිවර 114
▁ඕව 114
▁කලත 114
▁කලෝ 114
▁කෝවිල 114
▁ගිම 114
▁ගොදුරු 114
▁ඩෙල 114
▁තනියෙන 114
▁දලා 114
▁දවසෙ 114
▁නග 114
▁නුඹට 114
▁පුරුද 114
▁මනමාල 114
▁මෙහෙයුමක 114
▁යාළුවන 114
▁රග 114
▁ලේස 114
▁වලයි 114
▁ශරීරය 114
▁සංගීතය 114
▁හැකියාවන 114
▁” 114
cha 113
ster 113
කරගන 113
ගර 113
ගැනීමට 113
ඩෝ 113
දෙි 113
වීමට 113
ානු 113
ිමේ 113
▁You 113
▁approach 113
▁beating 113
▁bless 113
▁chitti 113
▁entirely 113
▁liz 113
▁manager 113
▁metropolis 113
▁ministry 113
▁shoulder 113
▁tear 113
▁tracks 113
▁tri 113
▁weekend 113
▁wheel 113
▁whitney 113
▁ඉත 113
▁උහ 113
▁එහෙමනම 113
▁කිහිප 113
▁ඡායාරූප 113
▁තැනින 113
▁තේරුණාද 113
▁තොට 113
▁දිත 113
▁පියාසර 113
▁බාත 113
▁මගුලේ 113
▁යහ 113
▁ලමයෙක 113
▁වතිය 113
▁වෙළඳ 113
▁සංඥාව 113
▁සාමය 113
▁සුරාබදු 113
, 112
ink 112
pe 112
ටයි 112
හු 112
ේදි 112
▁burning 112
▁comfortable 112
▁confirm 112
▁eggsy 112
▁factory 112
▁garage 112
▁lincoln 112
▁page 112
▁policy 112
▁proceed 112
▁pure 112
▁screwed 112
▁singing 112
▁william 112
▁zoom 112
▁අවට 112
▁කවුරුන 112
▁කාරය 112
▁කිවුව 112
▁කීර 112
▁කුලී 112
▁ගුල 112
▁ගෙනල 112
▁තියෙනවනම 112
▁දීපන 112
▁නෙම 112
▁පහරක 112
▁පිටුපස 112
▁පිත 112
▁බවුනා 112
▁මිනිහගේ 112
▁මුදලක 112
▁මොවුන 112
▁යයා 112
▁රදේශ 112
▁රසන 112
▁රීස 112
▁රෝයි 112
▁වායු 112
▁සතියකට 112
▁සුරකින 112
ari 111
කො 111
යේදි 111
හර 111
ියර 111
▁blade 111
▁carried 111
▁celebrate 111
▁district 111
▁pair 111
▁ranaviru 111
▁resources 111
▁square 111
▁statement 111
▁unique 111
▁අවේ 111
▁ඉදගෙන 111
▁එලිය 111
▁ඔහෙ 111
▁කරනවාද 111
▁කෝලෙ 111
▁ගැහුවේ 111
▁ගියත 111
▁ජාල 111
▁නනේ 111
▁නිදන 111
▁නෝන 111
▁පරි 111
▁පැවත 111
▁පුලූවන 111
▁පෙක 111
▁පේනව 111
▁බනින 111
▁බනේ 111
▁මෙතෙක 111
▁වයංක 111
▁වාහනය 111
▁සැහැල 111
▁සිහිය 111
▁සීමා 111
▁සුක 111
▁සුවද 111
-3 110
fully 110
කරණ 110
යකු 110
විලා 110
ිනම 110
ුවකට 110
ූර 110
▁ash 110
▁attend 110
▁cancer 110
▁collect 110
▁concern 110
▁current 110
▁earn 110
▁fingers 110
▁friendship 110
▁growing 110
▁inc 110
▁managed 110
▁med 110
▁mister 110
▁photos 110
▁pin 110
▁poison 110
▁regular 110
▁roy 110
▁scar 110
▁standard 110
▁torture 110
▁අතිරේක 110
▁අභියෝග 110
▁අලි 110
▁අවන 110
▁ආශිර 110
▁කතාකර 110
▁කරුනාකරල 110
▁කික 110
▁කෙරෙහි 110
▁කෝම 110
▁ගණුදෙනුවක 110
▁ගෙයක 110
▁චරක 110
▁ඡ 110
▁ටේලර 110
▁පෑන 110
▁පීනන 110
▁පුරවන 110
▁මචේචර 110
▁යානයට 110
▁රිකා 110
▁ලෝකයක 110
▁වෙනම 110
▁සිවිල 110
▁හිටියනම 110
▁හේතුවෙන 110
▁ළමා 110
-7 109
bo 109
clock 109
ray 109
ress 109
sy 109
uk 109
කරල 109
ිකර 109
▁2000 109
▁att 109
▁bond 109
▁chosen 109
▁competition 109
▁corn 109
▁eggs 109
▁falls 109
▁fortune 109
▁greater 109
▁mail 109
▁management 109
▁motor 109
▁phones 109
▁physical 109
▁pia 109
▁protocol 109
▁remembered 109
▁someday 109
▁stood 109
▁success 109
▁te 109
▁tiger 109
▁unable 109
▁vault 109
▁victory 109
▁අතහැර 109
▁අපිටත 109
▁කගනෙ 109
▁කියද 109
▁කොළඹ 109
▁ගලිකව 109
▁තබන 109
▁නිවාඩු 109
▁පරාද 109
▁පැමිණිලි 109
▁පියෙක 109
▁පුරාවටම 109
▁යවනවා 109
▁රිෂ 109
▁ලිම 109
▁ලුවේ 109
-6 108
ative 108
hand 108
ire 108
ංක 108
කාරයෙක 108
රිස 108
ීල 108
▁bull 108
▁burned 108
▁chat 108
▁circle 108
▁claim 108
▁core 108
▁crashed 108
▁cur 108
▁kit 108
▁levels 108
▁manage 108
▁passing 108
▁programmes 108
▁rel 108
▁scary 108
▁secretary 108
▁senior 108
▁separate 108
▁shift 108
▁tha 108
▁touched 108
▁අජේ 108
▁අතක 108
▁අනුමැතිය 108
▁අයිතිවාසිකම 108
▁ආකාරයට 108
▁ආදරවන 108
▁ආදරෙන 108
▁ඉංජිනේරු 108
▁ඊළඟට 108
▁උදේට 108
▁ඕකට 108
▁ඕනිද 108
▁කියාවි 108
▁ගබඩා 108
▁ගිණි 108
▁චරම 108
▁තිමේදී 108
▁දූපතට 108
▁දෙව 108
▁පැයකට 108
▁පිළිගත 108
▁බක 108
▁මැල 108
▁රෝහලේ 108
▁වයර 108
▁වාදනය 108
▁වැඩසටහනක 108
▁විඩ 108
▁වේලායුධම 108
▁වේවිද 108
▁ශීත 108
▁හොඳද 108
▁ෆයිල 108
app 107
ci 107
ving 107
ලෙන 107
වස 107
ාගත 107
▁accounts 107
▁began 107
▁bound 107
▁bullets 107
▁candy 107
▁century 107
▁convinced 107
▁degrees 107
▁festival 107
▁greetings 107
▁jai 107
▁negative 107
▁perfectly 107
▁ruin 107
▁setting 107
▁silver 107
▁sim 107
▁texas 107
▁ugly 107
▁wide 107
▁අංකයක 107
▁ඇවිදගෙන 107
▁ඈතට 107
▁ගද 107
▁ජීවතුන 107
▁ථාවේ 107
▁දූ 107
▁නේනැ 107
▁නොස 107
▁බැඳ 107
▁බැරිවෙයි 107
▁මෙහෙයවන 107
▁මොනවගේ 107
▁ලිගෙ 107
▁විධියට 107
▁සිරාවටම 107
▁හාහ 107
▁හී 107
▁හෙලවෙන 107
ances 106
ble 106
not 106
pp 106
ze 106
කාරයෝ 106
යෙදි 106
ලම 106
සම 106
ාප 106
ුරක 106
▁aah 106
▁abandoned 106
▁agency 106
▁dave 106
▁eagle 106
▁engaged 106
▁fifty 106
▁howard 106
▁joined 106
▁keen 106
▁lands 106
▁potential 106
▁transport 106
▁අරිනවා 106
▁ඉදිරියෙන 106
▁ඉහලට 106
▁එකතුවෙලා 106
▁එතෙන 106
▁එමෙන 106
▁කරුනාකරලා 106
▁කුර 106
▁කුවේ 106
▁කෙස 106
▁ගෙයි 106
▁ටියට 106
▁පරන 106
▁මොනතරම 106
▁යෝධ 106
▁ලාභ 106
▁සිදුවන 106
▁සුරක 106
ax 105
hat 105
izing 105
ming 105
they 105
තේ 105
විය 105
ළි 105
ැර 105
ිනි 105
ුකාර 105
ොද 105
▁behavior 105
▁border 105
▁budget 105
▁cam 105
▁custody 105
▁dealing 105
▁demon 105
▁dom 105
▁eric 105
▁expensive 105
▁harder 105
▁hearts 105
▁link 105
▁nia 105
▁obvious 105
▁offered 105
▁palmer 105
▁protecting 105
▁rachel 105
▁rate 105
▁seal 105
▁signs 105
▁tar 105
▁trace 105
▁waited 105
▁warned 105
▁ඉපදුනේ 105
▁එකිනෙකාට 105
▁කඳවුර 105
▁කරවනවා 105
▁කාගෙන 105
▁කෑන 105
▁කියලාද 105
▁කීයද 105
▁චෞද 105
▁දවසම 105
▁දුවනවා 105
▁දුවේ 105
▁නැට 105
▁පිටතට 105
▁බේරිලා 105
▁බොබී 105
▁මාට 105
▁රාජකීය 105
▁රැජින 105
▁ලල 105
▁ලැබුවා 105
▁වාගෙන 105
▁විදේශ 105
▁විරහිත 105
▁වේදනාවක 105
▁ෂම 105
▁ෂෙරිෆ 105
▁සංවිධානය 105
▁සාමාජිකයන 105
▁සිග 105
▁හමුදාවට 105
H 104
ank 104
ater 104
ents 104
ock 104
uck 104
ගමු 104
තුරු 104
බේ 104
බෝ 104
වරු 104
වීමේ 104
හෙ 104
ාජ 104
ියනි 104
▁aim 104
▁alice 104
▁becomes 104
▁belt 104
▁bombs 104
▁boo 104
▁bruce 104
▁chip 104
▁chop 104
▁conference 104
▁creature 104
▁decisions 104
▁explosion 104
▁grass 104
▁incredible 104
▁insurance 104
▁ja 104
▁meal 104
▁meat 104
▁naked 104
▁network 104
▁ordinary 104
▁reg 104
▁smallville 104
▁str 104
▁vishal 104
▁අංශක 104
▁අමාරුවෙන 104
▁ඇහුවෙ 104
▁උඹල 104
▁එකපාරක 104
▁ඕනවට 104
▁ඕනේද 104
▁කළේය 104
▁කෑවා 104
▁තිෙයනවා 104
▁දොරට 104
▁නවතිනවා 104
▁නාඩ 104
▁නිදහසේ 104
▁නිදාගෙන 104
▁පවතිනවා 104
▁පාඩම 104
▁පිහිට 104
▁පුපුර 104
▁බවෙලා 104
▁බහ 104
▁බාරගන 104
▁බුක 104
▁මගන 104
▁මිද 104
▁යයනය 104
▁යාපනය 104
▁රවණ 104
▁රිත 104
▁ලඟින 104
▁ලාන 104
▁ලුම 104
▁විඳින 104
▁ෂකයින 104
▁සතා 104
▁සතු 104
▁සිඩ 104
chi 103
ph 103
que 103
yeah 103
තික 103
ලයක 103
වගන 103
වනෙ 103
ළු 103
ානා 103
ිකාව 103
ූන 103
▁5000 103
▁basically 103
▁cleared 103
▁clever 103
▁dawn 103
▁decent 103
▁entrance 103
▁literally 103
▁screaming 103
▁signed 103
▁survivors 103
▁trial 103
▁wells 103
▁whale 103
▁wings 103
▁අංකල 103
▁අඬන 103
▁ඉගෙනගත 103
▁උතුම 103
▁ඔබත 103
▁කෙට 103
▁චාලි 103
▁ජනපද 103
▁ඩිම 103
▁තරගය 103
▁තේරෙනව 103
▁දෙනාම 103
▁දෙමළ 103
▁දෝ 103
▁ධති 103
▁නොහැක 103
▁පැටවුන 103
▁බෙර 103
▁මංගල 103
▁මහෙෙ 103
▁යොදාගන 103
▁රදේශය 103
▁සරහින 103
ave 102
br 102
nt 102
ung 102
wood 102
ථ 102
ුළු 102
ේශ 102
▁09 102
▁cargo 102
▁chopper 102
▁classified 102
▁coat 102
▁coincidence 102
▁degree 102
▁failure 102
▁false 102
▁fore 102
▁grant 102
▁lack 102
▁lam 102
▁leading 102
▁medal 102
▁moriarty 102
▁pink 102
▁presence 102
▁reddington 102
▁role 102
▁solution 102
▁stops 102
▁sugar 102
▁tattoo 102
▁tip 102
▁tongue 102
▁trusted 102
▁uday 102
▁wasting 102
▁wolf 102
▁අතෑරලා 102
▁අරමුණු 102
▁අහම 102
▁ඉතාම 102
▁ඉඳීවි 102
▁උපකරණය 102
▁ඔර 102
▁කොලේජ 102
▁කොහාටද 102
▁ගනුදෙනුව 102
▁ගේනවා 102
▁චරිත 102
▁තිබූ 102
▁ධියක 102
▁නැනේ 102
▁නොහැකියි 102
▁පෙල 102
▁බඩගින 102
▁බලල 102
▁බුනේ 102
▁මටනම 102
▁යෙ 102
▁රගතිය 102
▁ලාහ 102
▁ලුතිනන 102
▁වතුරට 102
▁විෂය 102
▁වුඩ 102
▁ෂනය 102
▁සාරා 102
▁හොඳක 102
ably 101
ff 101
ith 101
ji 101
mp 101
there 101
vers 101
ඩන 101
බව 101
වපු 101
▁arctic 101
▁attitude 101
▁bedroom 101
▁betray 101
▁bi 101
▁borrow 101
▁buying 101
▁cabin 101
▁china 101
▁crimes 101
▁dump 101
▁dylan 101
▁friday 101
▁guests 101
▁guide 101
▁internet 101
▁invited 101
▁karthik 101
▁laid 101
▁passengers 101
▁pete 101
▁pig 101
▁profile 101
▁reward 101
▁shed 101
▁අතරෙ 101
▁එකේදි 101
▁ඔයට 101
▁කළමනාකරණ 101
▁කියවනවා 101
▁කීපයකට 101
▁ඩේව 101
▁තනම 101
▁තරඟය 101
▁තීය 101
▁දද 101
▁දියමන 101
▁නිලධාර 101
▁පැහැරගත 101
▁පුපුරන 101
▁මැරුන 101
▁මොල 101
▁යයේ 101
▁යාජ 101
▁රයෝජනවත 101
▁රවාහන 101
▁වලටත 101
▁ශණය 101
▁සීනු 101
▁සීය 101
▁හදවතේ 101
▁හැට 101
ex 100
ows 100
ගය 100
තුර 100
පෙන 100
▁38 100
▁ba 100
▁bay 100
▁drone 100
▁engagement 100
▁fin 100
▁football 100
▁guarantee 100
▁heh 100
▁horrible 100
▁hum 100
▁jacket 100
▁jam 100
▁lately 100
▁mental 100
▁receive 100
▁released 100
▁seek 100
▁shape 100
▁studies 100
▁sweat 100
▁swing 100
▁understanding 100
▁usual 100
▁vasu 100
▁අධි 100
▁ඔබතුමා 100
▁කොක 100
▁කොමසාරිස 100
▁ගැඹුරු 100
▁ජීවිතයට 100
▁ජීවිතේට 100
▁ජෝයි 100
▁දමා 100
▁දුපතේ 100
▁දොරෙන 100
▁නිකී 100
▁නොමිලේ 100
▁පිලිබද 100
▁භිද 100
▁යෙද 100
▁රදේශයේ 100
▁රැකියාව 100
▁රිදවන 100
▁රිදෙනවා 100
▁ලෝකෙට 100
▁වුවමනා 100
▁ශර 100
▁සාද 100
▁සීයේ 100
15 99
ence 99
ened 99
fe 99
ky 99
lan 99
mer 99
ram 99
ric 99
වාද 99
හට 99
ුවලට 99
ෙමින 99
▁2010 99
▁72 99
▁andrew 99
▁awful 99
▁batman 99
▁brains 99
▁cH 99
▁chances 99
▁chess 99
▁chicago 99
▁cleaning 99
▁drag 99
▁du 99
▁expert 99
▁goa 99
▁logan 99
▁noble 99
▁pot 99
▁projects 99
▁related 99
▁screen 99
▁shark 99
▁stab 99
▁wishes 99
▁witch 99
▁woke 99
▁අධීක 99
▁අවා 99
▁අහපු 99
▁ඇනී 99
▁ඇරල 99
▁එහ 99
▁කයක 99
▁ගමට 99
▁ඩින 99
▁තෙම 99
▁දීර 99
▁නිකමට 99
▁නෝනාවරුනි 99
▁භයක 99
▁රැකියා 99
▁රැවුල 99
▁වයං 99
▁සය 99
▁හදාගත 99
▁හරියයි 99
▁හැමවිටම 99
▁හුරතල 99
ani 98
con 98
day 98
ight 98
ored 98
q 98
තුමා 98
ෂා 98
ියකේ 98
ිෂ 98
▁ate 98
▁bang 98
▁cent 98
▁chasing 98
▁chaudhary 98
▁desmond 98
▁developed 98
▁england 98
▁flesh 98
▁gather 98
▁gentleman 98
▁los 98
▁mat 98
▁maya 98
▁messages 98
▁pan 98
▁rem 98
▁rupees 98
▁scientist 98
▁sk 98
▁sons 98
▁stairs 98
▁sudden 98
▁violence 98
▁අතහරින 98
▁අවදානමක 98
▁ආගමික 98
▁ඊළගට 98
▁ඔබෙ 98
▁කූ 98
▁ගැලපෙනවා 98
▁ගෝන 98
▁චිප 98
▁ටෙන 98
▁ටේ 98
▁ටොමී 98
▁ධතියක 98
▁නලා 98
▁පදින 98
▁පාඩුවේ 98
▁පොතේ 98
▁බුල 98
▁බේස 98
▁යමුද 98
▁රොබට 98
▁රෝම 98
▁විලවුන 98
▁ශයිඩ 98
▁සමානයි 98
▁සිදුව 98
▁හැඳුනුම 98
-9 97
.3 97
ase 97
ators 97
gs 97
hey 97
min 97
pt 97
uring 97
ඇයි 97
එල 97
පාර 97
මං 97
වු 97
ැයි 97
ිකයි 97
ෘ 97
▁actual 97
▁bride 97
▁cha 97
▁charges 97
▁chuckles 97
▁defend 97
▁del 97
▁desperate 97
▁discovered 97
▁drill 97
▁fed 97
▁gay 97
▁grave 97
▁hunter 97
▁lakhs 97
▁lieutenant 97
▁material 97
▁minds 97
▁missile 97
▁mostly 97
▁perimeter 97
▁phil 97
▁row 97
▁sisters 97
▁specific 97
▁survival 97
▁taxi 97
▁underground 97
▁ver 97
▁අධිකරණ 97
▁ඉරණම 97
▁ඉහලින 97
▁එහෙදි 97
▁කටයුත 97
▁කැරක 97
▁ගෙදරක 97
▁දිනේ 97
▁දුපත 97
▁නගරේ 97
▁නාමය 97
▁පිම 97
▁පිහියක 97
▁බැලුවොත 97
▁බේරාගන 97
▁බොල 97
▁භන 97
▁යං 97
▁රමණය 97
▁වාහනයක 97
▁හාස 97
▁හැකිද 97
cher 96
da 96
ify 96
over 96
ගයක 96
ුවො 96
▁ambulance 96
▁ap 96
▁arrive 96
▁arrow 96
▁boring 96
▁circumstances 96
▁creatures 96
▁crores 96
▁dar 96
▁dory 96
▁edge 96
▁gar 96
▁hits 96
▁internal 96
▁kelly 96
▁mer 96
▁panic 96
▁perform 96
▁quest 96
▁rip 96
▁robbery 96
▁suffer 96
▁threatened 96
▁wat 96
▁අනකේ 96
▁අයිය 96
▁ඇලිස 96
▁එකටම 96
▁එහෙමත 96
▁එළිය 96
▁ඕනලු 96
▁කං 96
▁කුමරිය 96
▁ගුරු 96
▁ජිවිතය 96
▁ටිකකින 96
▁දොරක 96
▁නැවක 96
▁නිවැරදියි 96
▁නොමැත 96
▁පියවරක 96
▁බයෙන 96
▁මුහුන 96
▁මෙලෝ 96
▁මොහු 96
▁යවස 96
▁යූ 96
▁රො 96
▁ලීමක 96
▁වාසු 96
▁සමරන 96
▁සහභාගි 96
▁සිනා 96
▁හැච 96
▁හිමිකම 96
▁හොරා 96
ali 95
ery 95
uc 95
ull 95
ඒත 95
පස 95
යිනේ 95
ියාට 95
▁55 95
▁activities 95
▁andy 95
▁approaching 95
▁boom 95
▁bust 95
▁butter 95
▁caused 95
▁chase 95
▁childhood 95
▁conditions 95
▁doin 95
▁dozen 95
▁gravity 95
▁impact 95
▁joseph 95
▁laws 95
▁midnight 95
▁mobile 95
▁organization 95
▁print 95
▁rub 95
▁shi 95
▁shown 95
▁victoria 95
▁waters 95
▁wh 95
▁අනවශ 95
▁අහුවුනා 95
▁ආවරණ 95
▁ඇගිලි 95
▁උතුමාණන 95
▁උපකරණයක 95
▁උඹත 95
▁ඔරලෝසුව 95
▁කඩාගෙන 95
▁කරණය 95
▁ගලවලා 95
▁තරන 95
▁දායක 95
▁නුම 95
▁නොදැන 95
▁පාපන 95
▁බයගුල 95
▁යශ 95
▁යාඥයෙක 95
▁රජතුමා 95
▁රඳවා 95
▁රෙග 95
▁ලපු 95
▁ලේඛන 95
▁වගේනේ 95
▁වාසියක 95
▁විදිහකට 95
▁වුනානම 95
▁වේග 95
▁සමස 95
▁සයි 95
▁සීල 95
▁හැනා 95
▁ෆි 95
▁ෆේන 95
cl 94
hh 94
ids 94
ots 94
sh 94
ඩී 94
ණු 94
දින 94
බලන 94
යෙකු 94
වින 94
හක 94
▁X 94
▁app 94
▁arrange 94
▁brian 94
▁combat 94
▁counting 94
▁emperor 94
▁ge 94
▁grandmother 94
▁guessing 94
▁helps 94
▁hug 94
▁image 94
▁jones 94
▁operating 94
▁plants 94
▁shield 94
▁stomach 94
▁sunday 94
▁tele 94
▁violent 94
▁younger 94
▁අඳුන 94
▁අපව 94
▁ඇදගන 94
▁උගුලක 94
▁උතුමාණනි 94
▁උදෑසන 94
▁උපක 94
▁එයාලගෙන 94
▁කතන 94
▁කමාන 94
▁කරනවට 94
▁කාරයො 94
▁කොටු 94
▁කොහ 94
▁ගූ 94
▁චෑන 94
▁ජු 94
▁ටිකයි 94
▁තුවෙ 94
▁නොවැම 94
▁නොසලකා 94
▁බලු 94
▁බෑන 94
▁භූ 94
▁මොට 94
▁රචණ 94
▁සමාවනේන 94
▁සුපර 94
▁හතක 94
▁හිතල 94
▁හෝටල 94
ained 93
ney 93
ont 93
use 93
රව 93
ිකව 93
ුනි 93
▁39 93
▁41 93
▁65 93
▁@ 93
▁advance 93
▁badly 93
▁betrayed 93
▁chocolate 93
▁commit 93
▁connie 93
▁delay 93
▁dirt 93
▁erik 93
▁fancy 93
▁guru 93
▁hanna 93
▁ignore 93
▁impressed 93
▁iris 93
▁lane 93
▁languages 93
▁largest 93
▁lips 93
▁mars 93
▁nandu 93
▁navy 93
▁object 93
▁ought 93
▁pounds 93
▁respond 93
▁reverse 93
▁riding 93
▁safely 93
▁shannon 93
▁spider 93
▁suffering 93
▁susan 93
▁term 93
▁අටක 93
▁අමතරව 93
▁ඇහ 93
▁උරුම 93
▁කැඳ 93
▁කැලෑ 93
▁ගාල 93
▁ගෙවනවා 93
▁දිගින 93
▁දිලා 93
▁නගරෙ 93
▁පුල 93
▁පෝට 93
▁බොනවා 93
▁මානය 93
▁මැදිහත 93
▁මැරුව 93
▁මුරණ 93
▁රෙදි 93
▁රෝද 93
▁වැඩියා 93
▁වැඩෙන 93
▁විශේෂිත 93
▁වීමෙන 93
▁සීසර 93
▁හොදද 93
▁ෙකෙනක 93
hal 92
mm 92
ron 92
ual 92
චාර 92
පිය 92
විත 92
ිකම 92
ිවන 92
▁UTI 92
▁accepted 92
▁actions 92
▁active 92
▁agreement 92
▁artist 92
▁ber 92
▁channel 92
▁clue 92
▁col 92
▁comm 92
▁considering 92
▁county 92
▁digging 92
▁disp 92
▁dive 92
▁drove 92
▁elevator 92
▁escort 92
▁existence 92
▁increase 92
▁jean 92
▁laughs 92
▁lit 92
▁murders 92
▁mystery 92
▁nemo 92
▁product 92
▁squad 92
▁stays 92
▁stranger 92
▁surrender 92
▁text 92
▁toilet 92
▁unusual 92
▁valentine 92
▁valuable 92
▁vehicles 92
▁visual 92
▁winning 92
▁අදුරු 92
▁අපෝ 92
▁එකකුත 92
▁ඔළුවට 92
▁කිල 92
▁ගණනාවක 92
▁ඝන 92
▁ටවුන 92
▁ටිකකට 92
▁ටෝර 92
▁තරුව 92
▁තොල 92
▁දනේන 92
▁දාස 92
▁නපුර 92
▁පිටු 92
▁බැඳලා 92
▁බොට 92
▁මගහැර 92
▁මිසිස 92
▁යතා 92
▁යමින 92
▁රහසිගත 92
▁වරු 92
▁වාඩිවෙලා 92
▁සංවිධාන 92
▁සිහ 92
▁හැදුව 92
▁’ 92
-5 91
atic 91
ign 91
lin 91
ond 91
කරා 91
ගනේ 91
ගැනීමක 91
දැන 91
නක 91
රිලා 91
සක 91
ැත 91
ිගේ 91
ිනේ 91
▁52 91
▁arthur 91
▁awake 91
▁basement 91
▁challenge 91
▁complex 91
▁criminals 91
▁curious 91
▁disc 91
▁express 91
▁goin 91
▁hindu 91
▁horses 91
▁hostage 91
▁hurting 91
▁josh 91
▁karen 91
▁monkeys 91
▁monsters 91
▁plate 91
▁raft 91
▁scan 91
▁schedule 91
▁ships 91
▁sneak 91
▁stress 91
▁wal 91
▁warrant 91
▁අවසානයක 91
▁ඇලිසන 91
▁එංගලන 91
▁එයාලත 91
▁ඔලුවේ 91
▁කරයිද 91
▁කාරණයක 91
▁කිස 91
▁කුණාටුව 91
▁ගෙනියනවා 91
▁ජීන 91
▁තේරුනේ 91
▁නෙට 91
▁නොතිබුණි 91
▁පිටි 91
▁පූජ 91
▁බත 91
▁බැහැලා 91
▁මෙතනම 91
▁රියාමාර 91
▁රියාව 91
▁රූපවාහිනී 91
▁රෝහලට 91
▁ලියාපදිංචි 91
▁ලෝහ 91
▁වැරදීමක 91
▁විකාශය 91
▁විභාග 91
▁සතුටෙන 91
▁සියි 91
▁සොරකම 91
▁හරියේ 91
▁හිතමු 91
▁හිනාව 91
▁හිරේට 91
▁ෆින 91
ale 90
can 90
gr 90
ino 90
ped 90
sa 90
side 90
අපිට 90
කරණය 90
නේන 90
ැති 90
ිකාර 90
ිණ 90
ීයි 90
ුඩ 90
ොප 90
▁1,000 90
▁believes 90
▁cassie 90
▁citizens 90
▁construction 90
▁dep 90
▁everyday 90
▁function 90
▁gene 90
▁habit 90
▁harris 90
▁instructions 90
▁museum 90
▁normally 90
▁pk 90
▁player 90
▁population 90
▁safer 90
▁score 90
▁silent 90
▁surrounded 90
▁wil 90
▁අමාරුවක 90
▁ආයිත 90
▁ඔයාලත 90
▁ඕස 90
▁කුළුණ 90
▁ගයා 90
▁ගලක 90
▁ගහක 90
▁ජෙනරාල 90
▁ටූ 90
▁ඩැනියල 90
▁දවසකට 90
▁දායකත 90
▁දෙකට 90
▁දෙයකට 90
▁ධතාවය 90
▁නවාතැන 90
▁නැගලා 90
▁පවතී 90
▁බෙදාගන 90
▁මැඩ 90
▁මැරුණු 90
▁මිනිහකේ 90
▁මේල 90
▁රපටියක 90
▁රුසියානු 90
▁වඩ 90
▁වැසියන 90
▁විකිණ 90
▁ශල 90
▁සංකල 90
▁සනවා 90
▁සහායක 90
▁සාදයක 90
▁සීනි 90
▁හැරිලා 90
▁හොට 90
els 89
five 89
ola 89
uri 89
යිල 89
වලු 89
ුකම 89
▁250 89
▁assure 89
▁bail 89
▁butt 89
▁cage 89
▁commissioner 89
▁desire 89
▁effort 89
▁exp 89
▁firm 89
▁highest 89
▁hop 89
▁horn 89
▁idiots 89
▁lucy 89
▁pushing 89
▁required 89
▁shashi 89
▁shelter 89
▁spoken 89
▁surgery 89
▁treatment 89
▁winner 89
▁අච 89
▁අපෙ 89
▁උණා 89
▁එමිලි 89
▁එවැනි 89
▁කරණ 89
▁කැමැති 89
▁කෑගහන 89
▁දකුණ 89
▁දැනුනේ 89
▁දිර 89
▁නංගිව 89
▁නැතිවෙනවා 89
▁පතක 89
▁පාපොච 89
▁පැහැදිළි 89
▁පිටුවහල 89
▁පූජක 89
▁පොහොසත 89
▁බලෙන 89
▁බැගින 89
▁බේන 89
▁මැරුනේ 89
▁මිතුරන 89
▁මූව 89
▁මේකා 89
▁යාංශයේ 89
▁යාලුවො 89
▁රකින 89
▁රජා 89
▁රසවත 89
▁රේචල 89
▁ලඟා 89
▁වනේනේ 89
▁සිසුන 89
▁හඳ 89
▁හැමදේටම 89
ards 88
ft 88
gen 88
here 88
kar 88
will 88
තම 88
පාට 88
මේක 88
යිනෙ 88
වුම 88
ැව 88
ෛ 88
▁authorities 88
▁capital 88
▁colony 88
▁daily 88
▁december 88
▁garbage 88
▁jumped 88
▁mexico 88
▁mistakes 88
▁ref 88
▁scream 88
▁similar 88
▁tag 88
▁talent 88
▁technically 88
▁tent 88
▁thin 88
▁valley 88
▁අඩුව 88
▁අතරට 88
▁අපහු 88
▁අසම 88
▁ඉවස 88
▁උණු 88
▁උර 88
▁ඔයාගෙම 88
▁තෝරා 88
▁ථාපිත 88
▁දස 88
▁දාම 88
▁නාල 88
▁නිආ 88
▁නිතර 88
▁පරිසර 88
▁බවෙමු 88
▁රබල 88
▁රාජකාරි 88
▁රියාකාරකම 88
▁ලබයි 88
▁ලෙහාට 88
▁වැඩිම 88
▁වැලි 88
▁සංක 88
▁සදහන 88
▁හැඟ 88
apping 87
ges 87
orn 87
pping 87
ring 87
ru 87
ඛ 87
ගෙම 87
වරයා 87
ිච 87
ිමට 87
ිවලට 87
▁answering 87
▁beloved 87
▁blu 87
▁chris 87
▁civil 87
▁disease 87
▁employees 87
▁events 87
▁flag 87
▁houses 87
▁loyal 87
▁mayor 87
▁nasty 87
▁offering 87
▁sail 87
▁simran 87
▁software 87
▁steady 87
▁suits 87
▁supplies 87
▁sur 87
▁trans 87
▁treated 87
▁tricks 87
▁trunk 87
▁එසේම 87
▁ඒකිව 87
▁කියව 87
▁ගණුදෙනුව 87
▁ගහපු 87
▁ටීවී 87
▁ටෝනි 87
▁ඩුව 87
▁තෝරාගත 87
▁දාහක 87
▁දැනෙනව 87
▁දිවුරනවා 87
▁නිවන 87
▁පරිච 87
▁පාක 87
▁පික 87
▁පිණිස 87
▁පොලිසියෙන 87
▁බැරිනම 87
▁මයො 87
▁යාලුවනේ 87
▁යොදවන 87
▁රියාවක 87
▁රෝහී 87
▁ලීස 87
▁ලෙයර 87
▁ලෙයාර 87
▁වතාවෙ 87
▁වාරය 87
▁වැලන 87
▁වුණාම 87
▁ෂකයා 87
▁සාමන 87
▁සැකයි 87
▁හදුනා 87
▁හැරිස 87
▁හෙමීට 87
aged 86
com 86
hen 86
ites 86
ni 86
ries 86
val 86
කාරී 86
ගනෙ 86
ගමන 86
වය 86
ාවකට 86
ිග 86
ෙනව 86
▁07 86
▁10,000 86
▁2009 86
▁angeles 86
▁breach 86
▁cal 86
▁caves 86
▁conducted 86
▁despite 86
▁eaten 86
▁empire 86
▁engineering 86
▁extraordinary 86
▁favour 86
▁fil 86
▁franklin 86
▁gal 86
▁honour 86
▁jealous 86
▁mil 86
▁modern 86
▁odds 86
▁ph 86
▁random 86
▁rig 86
▁steel 86
▁throwing 86
▁unknown 86
▁uns 86
▁wizard 86
▁ඊතන 86
▁කරනවනම 86
▁ගෙනිච 86
▁ජාවක 86
▁ජැනට 86
▁ටෙස 86
▁ටේන 86
▁ඩිලන 86
▁තමුසෙලා 86
▁තරුවක 86
▁ථානගත 86
▁දුරකතන 86
▁නහ 86
▁නළ 86
▁පහසුවෙන 86
▁බලප 86
▁බලයන 86
▁බු 86
▁භාජනය 86
▁යබහුල 86
▁රයිම 86
▁රහලෝක 86
▁රැඩ 86
▁ලුයිස 86
▁ලේක 86
▁වලස 86
▁වාසි 86
▁වෙහෙස 86
▁වොන 86
▁වොයර 86
▁ෂෝන 86
▁සමහරු 86
▁සමා 86
▁සේවකයෙක 86
▁හරක 86
▁හැඳින 86
▁ෙවනවා 86
air 85
ils 85
ology 85
right 85
wa 85
war 85
මොකද 85
රී 85
වෙල 85
ාග 85
ාණ 85
ිකයා 85
ෝක 85
▁activity 85
▁assassin 85
▁attacks 85
▁capitol 85
▁capture 85
▁chill 85
▁cisco 85
▁drama 85
▁embassy 85
▁hari 85
▁injured 85
▁lamp 85
▁limit 85
▁loving 85
▁maintain 85
▁mod 85
▁mor 85
▁personnel 85
▁prey 85
▁quarter 85
▁rad 85
▁removed 85
▁rent 85
▁returning 85
▁rope 85
▁scofield 85
▁shouting 85
▁summit 85
▁suri 85
▁sydney 85
▁teaching 85
▁tick 85
▁union 85
▁ඇහුණා 85
▁ඉවරද 85
▁උපාධි 85
▁එහෙන 85
▁ඔබයි 85
▁කඩවසම 85
▁කතාකලා 85
▁ගලා 85
▁ගැහැනු 85
▁ජෛව 85
▁ටාෆ 85
▁ටුවෙන 85
▁දඩයක 85
▁දුකයි 85
▁නඩත 85
▁නියෝජ 85
▁පසුම 85
▁පාඩමක 85
▁පාලකය 85
▁පැමිණීම 85
▁බබෙක 85
▁බාබ 85
▁බැදලා 85
▁බේරුවා 85
▁බොම 85
▁මහජන 85
▁මෙල 85
▁යවරයා 85
▁යාපාරයක 85
▁යාලුවන 85
▁රුධිර 85
▁ලාගන 85
▁ලෝගන 85
▁වාසනාවක 85
▁විසන 85
▁වුවත 85
▁වෛරස 85
▁සංරක 85
▁සහිතව 85
▁සාමාජික 85
▁හප 85
ball 84
der 84
hu 84
ich 84
lic 84
your 84
චර 84
යද 84
ානෙ 84
▁TV 84
▁ashes 84
▁background 84
▁beneath 84
▁brief 84
▁continues 84
▁downstairs 84
▁ev 84
▁gain 84
▁gru 84
▁hail 84
▁impressive 84
▁inner 84
▁jasmine 84
▁joking 84
▁learning 84
▁legend 84
▁loaded 84
▁luthor 84
▁monday 84
▁nasa 84
▁pattern 84
▁pissed 84
▁pizza 84
▁puts 84
▁renu 84
▁scent 84
▁sed 84
▁vacation 84
▁අකුරු 84
▁ආරංචිය 84
▁ආවරණයක 84
▁එතරම 84
▁එහායින 84
▁කරුණාවන 84
▁කසාදේ 84
▁ගෝවා 84
▁චරද 84
▁ටයර 84
▁ටිස 84
▁ඩිත 84
▁තමාන 84
▁නගෙන 84
▁පහරදෙන 84
▁පැමිණි 84
▁පිරිම 84
▁පිහිටි 84
▁බැලුවෙ 84
▁බොහෝම 84
▁මාසයක 84
▁මොළ 84
▁මෝඩයි 84
▁රතිපාදන 84
▁රවාහනය 84
▁රෝගීන 84
▁වචනේ 84
▁වේදනා 84
▁ෂණයට 84
▁සංඥාවක 84
▁සඳ 84
▁සහජ 84
▁සහයෝගය 84
▁ළමය 84
ea 83
ends 83
ily 83
ගිය 83
පාල 83
පි 83
පුර 83
යනේ 83
හස 83
ළක 83
ිකාවක 83
ුනට 83
ුනත 83
ෙවන 83
▁06 83
▁aare 83
▁achieve 83
▁amy 83
▁anytime 83
▁blowing 83
▁cheese 83
▁cock 83
▁collector 83
▁documents 83
▁gut 83
▁hu 83
▁im 83
▁infected 83
▁janet 83
▁miller 83
▁nest 83
▁ohh 83
▁passport 83
▁prayers 83
▁rev 83
▁rocket 83
▁roman 83
▁series 83
▁slip 83
▁squ 83
▁stri 83
▁successful 83
▁tim 83
▁touching 83
▁unc 83
▁washington 83
▁අසිපත 83
▁ඉට 83
▁උපකාර 83
▁එකපාරටම 83
▁ඔබෙන 83
▁ඕෆ 83
▁කටු 83
▁කමෝන 83
▁කරාම 83
▁කීයටද 83
▁කූඩුව 83
▁ගානෙ 83
▁ගී 83
▁ගුණ 83
▁ඩග 83
▁ථාවර 83
▁දේශප 83
▁ඳ 83
▁පරිපූර 83
▁පැමින 83
▁බඩගිනි 83
▁බලද 83
▁මේරි 83
▁මේවගේ 83
▁යාඥ 83
▁රකාශන 83
▁රතිසංස 83
▁රහය 83
▁රිදෙන 83
▁රියාවලිය 83
▁ලුවිස 83
▁වයසට 83
▁විකුනන 83
▁වෙරළ 83
▁සංචාරය 83
▁සහාය 83
▁සුල 83
▁සේවයේ 83
▁හිතුවට 83
▁හෘද 83
10 82
act 82
ek 82
like 82
ook 82
කරුවා 82
භාවය 82
මගේ 82
මාව 82
යාම 82
යාර 82
ුනාම 82
▁begins 82
▁broad 82
▁chang 82
▁conf 82
▁emotional 82
▁entering 82
▁gandalf 82
▁hill 82
▁invite 82
▁kapoor 82
▁library 82
▁moose 82
▁nina 82
▁patrol 82
▁pooja 82
▁protected 82
▁quietly 82
▁roads 82
▁romantic 82
▁sar 82
▁ta 82
▁transferred 82
▁yard 82
▁ආගන 82
▁ඇතුලෙන 82
▁ඇහැර 82
▁ඉතිහාසයේ 82
▁ඊජිප 82
▁උගෙ 82
▁එබ 82
▁ඔබන 82
▁කැක 82
▁කියලනේ 82
▁කුම 82
▁කොතරම 82
▁කොහේවත 82
▁ගැනීමක 82
▁ගෑණ 82
▁ගෙනාව 82
▁චරිතය 82
▁චීස 82
▁තිබිල 82
▁තිව 82
▁දිනුම 82
▁දුවගේ 82
▁දෙයින 82
▁නායු 82
▁නොගත 82
▁පැමිණිල 82
▁පිරිතාල 82
▁පොක 82
▁බැටරි 82
▁මලක 82
▁මැරුම 82
▁මෙතැනින 82
▁මොඩ 82
▁යාංශ 82
▁රහිත 82
▁රැකියාවක 82
▁රිඩ 82
▁ලාම 82
▁ලෙහා 82
▁වරයා 82
▁සහන 82
▁සීයක 82
▁සෙනෙට 82
▁සේනා 82
▁හමුවෙලා 82
▁හැතැප 82
▁ෆේ 82
▁ෙවලා 82
aring 81
ational 81
aya 81
bed 81
ena 81
ene 81
ones 81
ope 81
කටත 81
කාරය 81
ගැනීමේ 81
නයට 81
හැර 81
ාවකින 81
ූට 81
▁alicia 81
▁appointment 81
▁beaten 81
▁buddha 81
▁caesar 81
▁cre 81
▁fantastic 81
▁fischer 81
▁freeze 81
▁hack 81
▁jan 81
▁latest 81
▁lightning 81
▁linda 81
▁lonely 81
▁neighborhood 81
▁operations 81
▁patch 81
▁politics 81
▁rot 81
▁sentence 81
▁shy 81
▁sink 81
▁thieves 81
▁thrown 81
▁toward 81
▁unt 81
▁wade 81
▁whore 81
▁අනාථ 81
▁අවසානයි 81
▁ආය 81
▁ඇතිවෙලා 81
▁ඇහුවොත 81
▁උපත 81
▁කඳ 81
▁කාරයන 81
▁කියවලා 81
▁කෙනාගේ 81
▁ගානට 81
▁ගැනවත 81
▁ඩලයේ 81
▁තරහින 81
▁තුනකින 81
▁දිම 81
▁දියාවේ 81
▁දිහාට 81
▁දූපතේ 81
▁දෙයියන 81
▁ධවෙන 81
▁නඩුවක 81
▁නොවූ 81
▁පහයි 81
▁පාටි 81
▁පැහැරගන 81
▁පීන 81
▁මඟුලේ 81
▁මැරීන 81
▁මුහුණු 81
▁මොහොතකට 81
▁යටට 81
▁යාප 81
▁රටට 81
▁රියාකාරී 81
▁රෝගියා 81
▁ලිංගික 81
▁වෙනවට 81
▁ශාලාව 81
▁ශික 81
▁ෂයෝ 81
▁සමාගමක 81
▁සුරාජ 81
▁හාරන 81
ending 80
iting 80
mail 80
who 80
work 80
ගාර 80
සට 80
ිති 80
ුරන 80
ුවනම 80
▁ann 80
▁asks 80
▁cities 80
▁des 80
▁drones 80
▁engines 80
▁experiment 80
▁kings 80
▁lion 80
▁located 80
▁march 80
▁nic 80
▁pad 80
▁pam 80
▁patience 80
▁popular 80
▁prize 80
▁recall 80
▁sample 80
▁saturday 80
▁slap 80
▁soup 80
▁spending 80
▁wins 80
▁අඩියක 80
▁අහුවෙලා 80
▁ආතල 80
▁ආදරයි 80
▁උම 80
▁ඒවගෙන 80
▁කලක 80
▁කිලෝ 80
▁ගිවිස 80
▁චාරිත 80
▁චිකාගෝ 80
▁ජීවිතේම 80
▁ටිකත 80
▁තිබිය 80
▁නගරයෙන 80
▁නවානේ 80
▁නෙමී 80
▁නොප 80
▁පාව 80
▁පැනගත 80
▁පිළ 80
▁මගුලෙ 80
▁මහාමාර 80
▁මාලු 80
▁මිනිය 80
▁මොත 80
▁යර 80
▁යවලා 80
▁රිජ 80
▁වසා 80
▁වැඩිව 80
▁විසදන 80
▁සිනමා 80
▁සිපගන 80
▁සොහොන 80
aj 79
aking 79
ati 79
bit 79
ced 79
ching 79
gers 79
pl 79
ues 79
vel 79
ගහන 79
ඥ 79
තාවක 79
යර 79
වාගන 79
ළා 79
ාවය 79
ුනද 79
ෙයන 79
▁aladin 79
▁alpha 79
▁amanda 79
▁areas 79
▁blown 79
▁bread 79
▁centre 79
▁cheap 79
▁compared 79
▁cooking 79
▁cor 79
▁cy 79
▁dealer 79
▁divorce 79
▁dropping 79
▁fools 79
▁heal 79
▁intend 79
▁invisible 79
▁lad 79
▁mag 79
▁mi 79
▁pills 79
▁q 79
▁rescued 79
▁rude 79
▁sara 79
▁slave 79
▁souls 79
▁statements 79
▁swimming 79
▁val 79
▁vegas 79
▁අපායට 79
▁ආපස 79
▁ඇතැම 79
▁එකේදී 79
▁එමගින 79
▁කවදහරි 79
▁කාලෙකින 79
▁ගනුදෙනුවක 79
▁ගෑන 79
▁ජාතියක 79
▁ජෙන 79
▁ටැන 79
▁ටොප 79
▁තනේ 79
▁දරුණුයි 79
▁නාඩි 79
▁නුවේ 79
▁නොවුන 79
▁පැක 79
▁පැටියා 79
▁පොට 79
▁බැහැර 79
▁බෙද 79
▁මහල 79
▁මුහුදට 79
▁යව 79
▁යාලුව 79
▁රඟ 79
▁ලැබුනද 79
▁ලිලා 79
▁වයා 79
▁වයෙි 79
▁වැටිල 79
▁විදියකට 79
▁වුණු 79
▁වේන 79
▁සංචාර 79
▁සහභාගී 79
▁සොයන 79
▁හදවතට 79
▁හරස 79
60 78
V 78
for 78
iles 78
ired 78
iz 78
lt 78
ners 78
thi 78
ඔහු 78
දාන 78
දෙයක 78
ිකරන 78
ිවි 78
ෙවා 78
ෙි 78
▁ali 78
▁alison 78
▁assignment 78
▁audit 78
▁banks 78
▁boone 78
▁bunny 78
▁bureau 78
▁chamber 78
▁cheating 78
▁cond 78
▁connect 78
▁crossed 78
▁defeat 78
▁destruction 78
▁elizabeth 78
▁farhan 78
▁fighter 78
▁fourth 78
▁gen 78
▁ghosts 78
▁gifts 78
▁glasses 78
▁grateful 78
▁highway 78
▁hostages 78
▁identified 78
▁intel 78
▁ip 78
▁jedi 78
▁marcus 78
▁movement 78
▁multiple 78
▁notes 78
▁outer 78
▁payment 78
▁political 78
▁quality 78
▁ronnie 78
▁slept 78
▁sting 78
▁thunder 78
▁wave 78
▁whi 78
▁wipe 78
▁wounded 78
▁අඳුර 78
▁අවසරය 78
▁ඇදුමක 78
▁උපකල 78
▁එවනවා 78
▁කාලකන 78
▁කාලෙම 78
▁කැපිටල 78
▁කැමතී 78
▁චොකලට 78
▁තහම 78
▁දැනෙනවද 78
▁නැගී 78
▁නීමෝ 78
▁පතන 78
▁පාටියක 78
▁පාප 78
▁පැටල 78
▁පිපිර 78
▁මකව 78
▁මරණයේ 78
▁මැරුවෙ 78
▁මෙතනයි 78
▁මොස 78
▁යවරයෙක 78
▁යාළුවනේ 78
▁රැව 78
▁රොඩ 78
▁ලබනවා 78
▁ලික 78
▁වධ 78
▁වාසනාවට 78
▁වැසි 78
▁සගෙන 78
▁සුදුසුකම 78
▁හපන 78
ades 77
board 77
ding 77
ep 77
hy 77
ju 77
ret 77
she 77
tering 77
und 77
කරපු 77
ගහ 77
යකි 77
හෝ 77
ියාවේ 77
▁1.2 77
▁alcohol 77
▁assets 77
▁attorney 77
▁bait 77
▁berlin 77
▁chennai 77
▁click 77
▁demons 77
▁donkey 77
▁effective 77
▁foolish 77
▁freaking 77
▁friendly 77
▁johnson 77
▁ke 77
▁kn 77
▁limits 77
▁marine 77
▁method 77
▁na 77
▁nash 77
▁oceanic 77
▁options 77
▁organ 77
▁percy 77
▁prevent 77
▁production 77
▁raid 77
▁ret 77
▁robots 77
▁shell 77
▁transmission 77
▁woo 77
▁ආගම 77
▁ආම 77
▁ආයෙම 77
▁ඇතිද 77
▁ඇලන 77
▁එකනම 77
▁කඩලා 77
▁කාගෙ 77
▁කැරන 77
▁ගනු 77
▁ගැණු 77
▁ගෝත 77
▁ජාවාරම 77
▁තුක 77
▁තොපි 77
▁දරා 77
▁දුවා 77
▁නායකත 77
▁නැගිටලා 77
▁පිටුපසින 77
▁පිහිය 77
▁බුව 77
▁භාවය 77
▁මසුන 77
▁මාංචු 77
▁මිනි 77
▁මේවට 77
▁යාඥා 77
▁යාය 77
▁රතිලාභ 77
▁රයෝජන 77
▁ලියා 77
▁වටෙන 77
▁විසඳන 77
▁වේඩ 77
▁සංදර 77
▁සිතන 77
▁ෙක 77
cer 76
ender 76
ga 76
istic 76
ix 76
ja 76
win 76
ගින 76
ඩම 76
ණිය 76
පිට 76
රිය 76
ුවකේ 76
ෙනි 76
▁Y 76
▁amongst 76
▁assistance 76
▁ast 76
▁basis 76
▁begun 76
▁casino 76
▁cats 76
▁clan 76
▁contain 76
▁costs 76
▁cure 76
▁currently 76
▁delivered 76
▁devi 76
▁dome 76
▁exam 76
▁faraday 76
▁fifth 76
▁formal 76
▁generation 76
▁images 76
▁interrupt 76
▁inv 76
▁ir 76
▁landed 76
▁officially 76
▁pride 76
▁profit 76
▁pushed 76
▁republic 76
▁robbed 76
▁sealed 76
▁sides 76
▁spotted 76
▁stake 76
▁stephen 76
▁sully 76
▁suspects 76
▁swan 76
▁targets 76
▁tor 76
▁අදුර 76
▁ආබාධිත 76
▁ඇගෙ 76
▁ඇඟේ 76
▁ඉපද 76
▁උඔ 76
▁එවලා 76
▁ඒගැන 76
▁කදු 76
▁කියනදේ 76
▁කෙනයි 76
▁තෑගි 76
▁තීර 76
▁තෝරන 76
▁දෙනෙකුට 76
▁නිවසට 76
▁පඩි 76
▁පුරාවට 76
▁මියගිය 76
▁මෝස 76
▁ලැප 76
▁ලිත 76
▁ලියකියවිලි 76
▁වයෙක 76
▁වේගාස 76
▁හෝටලේ 76
13 75
era 75
mo 75
oth 75
දෙනෙක 75
යික 75
රල 75
රිල 75
ාරක 75
ිරීම 75
ුනක 75
ුෂ 75
ෙලා 75
▁adventure 75
▁amp 75
▁approval 75
▁armor 75
▁ashamed 75
▁baseball 75
▁bath 75
▁benefit 75
▁bernard 75
▁cHowllye 75
▁carter 75
▁completed 75
▁cutting 75
▁dating 75
▁demand 75
▁der 75
▁entry 75
▁equal 75
▁fetch 75
▁fever 75
▁healthy 75
▁hoo 75
▁hur 75
▁influence 75
▁invented 75
▁lauda 75
▁ll 75
▁margaret 75
▁mehra 75
▁motion 75
▁mummy 75
▁nightmare 75
▁passion 75
▁placed 75
▁rag 75
▁response 75
▁rounds 75
▁sana 75
▁sober 75
▁studied 75
▁teams 75
▁temperature 75
▁toy 75
▁vincent 75
▁අතුල 75
▁අනු 75
▁අමාර 75
▁ඇමරිකාවේ 75
▁කළමනාකරණය 75
▁කාණ 75
▁කැසිනෝ 75
▁කිසියම 75
▁ගව 75
▁චුට 75
▁ජිව 75
▁ජෙස 75
▁ටීවන 75
▁ඩෲ 75
▁තෙර 75
▁දියාව 75
▁දිහාවට 75
▁නිවසේ 75
▁නිසාම 75
▁නොදෙන 75
▁පැතිර 75
▁බහිනවා 75
▁මාකස 75
▁මැරිච 75
▁යමය 75
▁යාර 75
▁රාජා 75
▁රැවට 75
▁රීඩාව 75
▁රීති 75
▁ලියපු 75
▁ලියුමක 75
▁විනෝදයක 75
▁විවර 75
▁වෙක 75
▁වෙඩිතියන 75
▁සැහෙන 75
▁සිකෝ 75
▁හමුවක 75
▁හැබෑ 75
▁හැමේම 75
▁හිතවත 75
16 74
ada 74
ita 74
ives 74
ush 74
ංච 74
කාල 74
ගී 74
ධාර 74
පුවා 74
ලව 74
ියෙදි 74
ුලා 74
▁30,000 74
▁44 74
▁affair 74
▁australia 74
▁bane 74
▁bas 74
▁bel 74
▁bri 74
▁captured 74
▁carrie 74
▁compound 74
▁crush 74
▁database 74
▁facts 74
▁firing 74
▁genetic 74
▁glen 74
▁goodness 74
▁grey 74
▁heir 74
▁highness 74
▁host 74
▁humanity 74
▁ii 74
▁iraq 74
▁jet 74
▁justin 74
▁liquor 74
▁mob 74
▁pretending 74
▁refuse 74
▁repair 74
▁shoe 74
▁stations 74
▁stones 74
▁studio 74
▁suspicious 74
▁symbol 74
▁tattoos 74
▁toast 74
▁troops 74
▁unlike 74
▁wi 74
▁අංග 74
▁අරගනෙ 74
▁එෙහම 74
▁ඔයාලගෙන 74
▁ඔයිට 74
▁කඩදාසි 74
▁කරුණ 74
▁කලිනුත 74
▁කාරණ 74
▁කියක 74
▁කෙනෙකු 74
▁ගතකරන 74
▁ගොදුර 74
▁ජෙ 74
▁ටො 74
▁තුළින 74
▁දනය 74
▁දහම 74
▁දාපන 74
▁දුකක 74
▁දෙකේ 74
▁දෙයයි 74
▁දෙවනි 74
▁නිපද 74
▁පහකට 74
▁පාලනයක 74
▁පැටියෙක 74
▁පැටියේ 74
▁පැති 74
▁පුන 74
▁පෙත 74
▁බැංකුවේ 74
▁මාක 74
▁මායාවක 74
▁මුගේ 74
▁මුහුදේ 74
▁මුළුමනින 74
▁මෙහෙමයි 74
▁යානුකූල 74
▁රථයක 74
▁රයට 74
▁රේට 74
▁ලංකාවේ 74
▁ලුහුබඳින 74
▁වළක 74
▁විසද 74
▁වුවා 74
▁වෙතත 74
▁සජීවී 74
▁සමර 74
▁සිටී 74
▁සූදානමින 74
▁හතරයි 74
▁හැකිව 74
▁හැමද 74
▁හෙලන 74
▁ළමයෝ 74
,7 73
ower 73
ump 73
අන 73
යුතු 73
රයක 73
ානය 73
ායක 73
▁2008 73
▁61 73
▁Charles 73
▁actor 73
▁arranged 73
▁asset 73
▁choices 73
▁comin 73
▁earned 73
▁emotions 73
▁enjoying 73
▁ensure 73
▁exciting 73
▁gardens 73
▁german 73
▁hire 73
▁inf 73
▁ji 73
▁mand 73
▁meantime 73
▁meteor 73
▁mot 73
▁mustn 73
▁nar 73
▁os 73
▁pintu 73
▁procedure 73
▁prop 73
▁religious 73
▁rogue 73
▁rolling 73
▁strangers 73
▁studying 73
▁television 73
▁twelve 73
▁virgin 73
▁visiting 73
▁warden 73
▁wasted 73
▁web 73
▁widmore 73
▁අහසේ 73
▁ඇවිදිනවා 73
▁ඉදියි 73
▁ඉවතට 73
▁ඉහත 73
▁උපාය 73
▁උසයි 73
▁එග 73
▁ඔනි 73
▁කාලි 73
▁කැළ 73
▁කොටසේ 73
▁ගරාජ 73
▁ගෑ 73
▁ජනතාවට 73
▁ජිවිතයක 73
▁ණයට 73
▁තරගයක 73
▁තො 73
▁දේශපාලන 73
▁නකන 73
▁නමට 73
▁නියෝගයක 73
▁පතනවා 73
▁පප 73
▁පිටට 73
▁පොන 73
▁පොරක 73
▁පෝසත 73
▁බැටරිය 73
▁භූම 73
▁භූමිය 73
▁මොළේ 73
▁රමණ 73
▁රැම 73
▁ලිප 73
▁වටිනාකමක 73
▁වනෙුවනේ 73
▁වාක 73
▁විගණන 73
▁විධායක 73
▁වූයේ 73
▁වොෂින 73
▁සතුව 73
▁සමහරක 73
▁සමහරවෙලාවට 73
▁සවි 73
▁සැලකිලිමත 73
▁සියයට 73
▁සිරුරු 73
▁සෝදිසි 73
▁හිතයි 73
▁හිමි 73
▁හොරු 73
▁ළමයව 73
.4 72
000 72
82 72
af 72
ear 72
ford 72
ising 72
oss 72
ree 72
tr 72
vin 72
ඩියා 72
රේ 72
ැහැ 72
ිකන 72
ිනා 72
ියද 72
ොඩ 72
▁57 72
▁abort 72
▁anti 72
▁basic 72
▁beings 72
▁blocks 72
▁breaks 72
▁cheat 72
▁coach 72
▁coordinates 72
▁creating 72
▁cub 72
▁describe 72
▁develop 72
▁diamonds 72
▁drew 72
▁helmet 72
▁keeper 72
▁knocked 72
▁leak 72
▁lizzy 72
▁messed 72
▁monitor 72
▁nut 72
▁pardon 72
▁previously 72
▁provided 72
▁radiation 72
▁ramona 72
▁require 72
▁requires 72
▁retired 72
▁rooms 72
▁sales 72
▁schools 72
▁scratch 72
▁shadows 72
▁spark 72
▁stubborn 72
▁sweets 72
▁tap 72
▁tend 72
▁therefore 72
▁tuesday 72
▁ut 72
▁waves 72
▁අදියර 72
▁අපහසු 72
▁අපේම 72
▁අයදුම 72
▁අවබෝධ 72
▁අවුලෙන 72
▁ආදරයෙන 72
▁ආසම 72
▁උගුල 72
▁එකතුවෙන 72
▁ඔබලාට 72
▁කතාවට 72
▁කොකා 72
▁කොර 72
▁ගතියක 72
▁ගෙවා 72
▁ජේකබ 72
▁ටේප 72
▁තනිවම 72
▁තුවාලයක 72
▁දෙවි 72
▁දොරටුව 72
▁නහය 72
▁නායකයෙක 72
▁නොකියා 72
▁නොලැබ 72
▁පියෝ 72
▁බලනව 72
▁බලපෑමක 72
▁බාධකය 72
▁බැරිව 72
▁බැලුවම 72
▁බැවින 72
▁බූ 72
▁බෝතල 72
▁මගෙයි 72
▁මාරක 72
▁මැලි 72
▁යතාව 72
▁යුතුව 72
▁යෝග 72
▁රෙඩින 72
▁ලේෂණය 72
▁වටේට 72
▁වීදුරු 72
▁ෂිය 72
▁සරලයි 72
▁හොදක 72
▁හොයාගමු 72
▁හෝල 72
▁ෆෙඩරල 72
acy 71
ew 71
know 71
lers 71
lly 71
other 71
ti 71
ulate 71
ගට 71
තය 71
රාජ 71
ුරේ 71
ුලු 71
ුවර 71
ෙය 71
▁Oh 71
▁affairs 71
▁alexander 71
▁anthony 71
▁beats 71
▁begging 71
▁bon 71
▁cancel 71
▁champion 71
▁comfort 71
▁cons 71
▁cursed 71
▁doug 71
▁easter 71
▁effects 71
▁ego 71
▁elder 71
▁exercise 71
▁fleet 71
▁goddess 71
▁granny 71
▁happily 71
▁hood 71
▁ju 71
▁labs 71
▁lisa 71
▁mel 71
▁nephew 71
▁password 71
▁patients 71
▁possibility 71
▁raymond 71
▁reactor 71
▁refused 71
▁reveal 71
▁russians 71
▁shore 71
▁stands 71
▁stat 71
▁stretch 71
▁terror 71
▁twins 71
▁undercover 71
▁urgent 71
▁wrap 71
▁අණදෙන 71
▁අධිවේගී 71
▁අනතුරට 71
▁අනාවරණය 71
▁ආවහම 71
▁ඇමත 71
▁උපාධිය 71
▁උරහිස 71
▁එලිස 71
▁එළවන 71
▁ඕගොල 71
▁කටවහගන 71
▁කීන 71
▁චියක 71
▁ජයිකාන 71
▁ඤ 71
▁ටෙල 71
▁ඩම 71
▁දැල 71
▁නෑනා 71
▁නිළ 71
▁නීනා 71
▁නේය 71
▁පයිප 71
▁පරිපාලන 71
▁පැහැ 71
▁පූස 71
▁බොර 71
▁බෝංචි 71
▁භා 71
▁මජ 71
▁මාද 71
▁මාසේ 71
▁මේසෙ 71
▁මොනම 71
▁රගපාන 71
▁රඟපාන 71
▁රවුම 71
▁රොකට 71
▁ලගෙ 71
▁ලඟම 71
▁ලැබුනොත 71
▁ලෝකෙම 71
▁ලෝඩ 71
▁වනාන 71
▁විකා 71
▁විකිරණ 71
▁වුණාට 71
▁ශාලා 71
▁ශිව 71
▁සිතියමක 71
▁සිතුවිල 71
▁හදවතින 71
▁හමුවුනා 71
▁හැරල 71
▁හොයල 71
▁හොස 71
▁ෙහාදයි 71
boy 70
ime 70
kes 70
mes 70
rest 70
sp 70
unt 70
කයින 70
කරගෙන 70
කිරීම 70
ඩේ 70
ඬ 70
පට 70
මොකක 70
රකම 70
වූ 70
ිටි 70
ුවකින 70
▁600 70
▁St 70
▁anjali 70
▁av 70
▁beam 70
▁booth 70
▁costume 70
▁danny 70
▁deer 70
▁differently 70
▁flood 70
▁goal 70
▁hal 70
▁helen 70
▁hung 70
▁imm 70
▁informed 70
▁jaikant 70
▁juice 70
▁karl 70
▁kurt 70
▁mysterious 70
▁nap 70
▁pant 70
▁pie 70
▁planted 70
▁pleased 70
▁rabbit 70
▁react 70
▁reaction 70
▁recent 70
▁revealed 70
▁ser 70
▁servant 70
▁silence 70
▁slipped 70
▁smooth 70
▁solved 70
▁ste 70
▁struck 70
▁struggle 70
▁sum 70
▁swords 70
▁traitor 70
▁vampire 70
▁vic 70
▁villain 70
▁අජ 70
▁අපියි 70
▁අවධානම 70
▁අවධානයෙන 70
▁අවාසනාවට 70
▁අහපන 70
▁ඇතිනේ 70
▁ඉබ 70
▁එනම 70
▁එළියෙ 70
▁ඔලිම 70
▁කටහඬ 70
▁කතාකරනවා 70
▁කෙළින 70
▁කොප 70
▁කොයිතරම 70
▁ඛණ 70
▁ගැලවෙන 70
▁ජාතිය 70
▁තැපැල 70
▁තෝරාගන 70
▁දැනෙයි 70
▁දිනුවා 70
▁දේශපාල 70
▁නොද 70
▁නෝවා 70
▁පවර 70
▁පහන 70
▁බැක 70
▁මකර 70
▁මතය 70
▁මැදිරිය 70
▁යුදෙව 70
▁රජුගේ 70
▁රදායික 70
▁රමුඛ 70
▁රිට 70
▁රොජර 70
▁ලොයිඩ 70
▁වෘක 70
▁සග 70
▁සභ 70
▁සමාලෝචිත 70
▁සහයකයා 70
▁සාමාජිකයෙක 70
▁සැග 70
▁සිසිල 70
▁හැමදාටම 70
▁හිටියට 70
▁ෆිට 70
,3 69
49 69
X 69
ct 69
cut 69
cy 69
gged 69
ided 69
ises 69
itch 69
with 69
е 69
යකෝ 69
යගෙ 69
වරයෙක 69
වාර 69
ාය 69
ුබ 69
ෙහ 69
▁activated 69
▁aid 69
▁behalf 69
▁cho 69
▁deserves 69
▁dreaming 69
▁emp 69
▁flies 69
▁frozen 69
▁hid 69
▁judgment 69
▁lifetime 69
▁math 69
▁messing 69
▁mighty 69
▁mode 69
▁murphy 69
▁nicholas 69
▁particularly 69
▁pathetic 69
▁recorded 69
▁reporter 69
▁rice 69
▁rings 69
▁sale 69
▁scout 69
▁sexy 69
▁shortly 69
▁singham 69
▁sooraj 69
▁sucks 69
▁tablet 69
▁various 69
▁vest 69
▁අගුළු 69
▁අතහැරලා 69
▁අනතුරුදායක 69
▁අයෙක 69
▁ආල 69
▁ඇදන 69
▁ඊළග 69
▁උදාහරණයක 69
▁ඔයානම 69
▁ඔහොමම 69
▁ඖෂධ 69
▁කිවුවොත 69
▁කොපමණ 69
▁ගයෙන 69
▁ගලන 69
▁ගලයන 69
▁ගිබ 69
▁ගියානම 69
▁චින 69
▁ජලීස 69
▁ජැකට 69
▁තැම 69
▁ථකත 69
▁දුවෙක 69
▁දෙදෙනා 69
▁නියමුවා 69
▁පසුබිම 69
▁පැටලෙන 69
▁මියගියා 69
▁මූට 69
▁මූණට 69
▁මෙයාලට 69
▁මොනහරි 69
▁යාපාරය 69
▁රටවල 69
▁රථය 69
▁රැකගන 69
▁රීක 69
▁ලෝකයම 69
▁වාමියා 69
▁විකුණ 69
▁ශේෂ 69
▁ෂකයන 69
▁සංචාරක 69
▁සැපයීම 69
▁සිකුරාදා 69
▁සියට 69
▁සීන 69
▁සීමාවක 69
▁හයෙි 69
▁හරිනම 69
▁හැදුවොත 69
▁හිටපන 69
▁හිරිහැර 69
,2 68
80 68
ata 68
bi 68
face 68
fl 68
ined 68
iya 68
omb 68
ops 68
tell 68
uff 68
where 68
කයො 68
ජී 68
දිය 68
වාදී 68
සික 68
හේයි 68
ිශ 68
ීගේ 68
ුණොත 68
ුදු 68
▁77 68
▁added 68
▁bars 68
▁beck 68
▁behave 68
▁ca 68
▁cigarette 68
▁circus 68
▁commission 68
▁communications 68
▁concentrate 68
▁controls 68
▁cowboy 68
▁culture 68
▁customs 68
▁disappointed 68
▁disaster 68
▁electricity 68
▁erica 68
▁europe 68
▁fans 68
▁gotham 68
▁governor 68
▁gym 68
▁height 68
▁hostile 68
▁irene 68
▁jackson 68
▁laura 68
▁mia 68
▁nate 68
▁necklace 68
▁nope 68
▁november 68
▁opposite 68
▁pi 68
▁plays 68
▁religion 68
▁revolution 68
▁seats 68
▁sector 68
▁serving 68
▁speaks 68
▁structure 68
▁ton 68
▁walks 68
▁worship 68
▁අනින 68
▁ආප 68
▁ඇදල 68
▁ඇහුනේ 68
▁ඉපදෙන 68
▁උතුර 68
▁උපද 68
▁කාරණා 68
▁කැමතිනම 68
▁කියාගන 68
▁කුන 68
▁කුමර 68
▁ගනිමු 68
▁චාරණය 68
▁ඡානුග 68
▁ජාලයක 68
▁ජීවන 68
▁ටමක 68
▁ඩෑන 68
▁තනිවෙලා 68
▁තබ 68
▁තැනකින 68
▁දිනට 68
▁දෙනු 68
▁ධකම 68
▁ධාර 68
▁නවම 68
▁නිවුන 68
▁නීතිඥ 68
▁නොයන 68
▁පනපිටින 68
▁පෘථිවියේ 68
▁පොප 68
▁බලනවද 68
▁බළලුන 68
▁බැර 68
▁මතකයක 68
▁මමද 68
▁මාග 68
▁යයයි 68
▁යු 68
▁රහාරය 68
▁ලභ 68
▁ලවා 68
▁වරයෙක 68
▁වලද 68
▁විහිද 68
▁වූවා 68
▁වෙළද 68
▁වො 68
▁ශාව 68
▁ශාස 68
▁සංවේදී 68
▁සමගින 68
▁සිංහම 68
▁සිටීම 68
▁සිතුවිලි 68
▁හදාගෙන 68
▁හයිඩ 68
▁හිඟ 68
▁හිරගෙදර 68
▁ළඟින 68
▁ළම 68
▁ෙවයි 68
30 67
apped 67
bl 67
come 67
ef 67
ency 67
gan 67
hing 67
ony 67
rom 67
а 67
අම 67
උන 67
ගාව 67
ඩිය 67
දුන 67
මද 67
මොන 67
යිස 67
ිකල 67
ුනම 67
▁2006 67
▁aliens 67
▁chancellor 67
▁charged 67
▁classes 67
▁concept 67
▁contains 67
▁deny 67
▁dwarf 67
▁exposed 67
▁frame 67
▁gates 67
▁individual 67
▁items 67
▁massive 67
▁niki 67
▁organized 67
▁pos 67
▁preparing 67
▁pump 67
▁pussy 67
▁recovered 67
▁ringing 67
▁separated 67
▁smoking 67
▁solid 67
▁sometime 67
▁thick 67
▁timing 67
▁underwear 67
▁vast 67
▁weakness 67
▁witnesses 67
▁අඩිය 67
▁අවුස 67
▁ඇමුණුම 67
▁ඈස 67
▁උබල 67
▁උවමනාවක 67
▁එපැයි 67
▁ඔයානේ 67
▁කබා 67
▁කරමුද 67
▁කරෝ 67
▁කාවේ 67
▁කිම 67
▁කුමාරයා 67
▁ඛන 67
▁චී 67
▁ඩයි 67
▁තමුසෙල 67
▁තරමටම 67
▁තවද 67
▁තිරණය 67
▁තුමනි 67
▁දයකෙ 67
▁දරු 67
▁දිවා 67
▁ධනාගාර 67
▁නැතිද 67
▁නැවට 67
▁නැවුම 67
▁නී 67
▁නෙමේද 67
▁නොතිබ 67
▁පාසැල 67
▁පිරික 67
▁පුජ 67
▁පුදුමාකාර 67
▁පුනරුත 67
▁පුළුල 67
▁බාග 67
▁මැසේජ 67
▁මිනීමරුවෙක 67
▁මිලර 67
▁මීයෙක 67
▁යවශ 67
▁යාගාර 67
▁යාවත 67
▁රං 67
▁රමෝනා 67
▁රාග 67
▁රිකට 67
▁රෝක 67
▁රෝහ 67
▁ලවුඩා 67
▁ලැබුනෙ 67
▁ලිද 67
▁ලෙඩක 67
▁වෙරල 67
▁සලකුණ 67
▁සහිතයි 67
▁සැලසුමක 67
▁ළමයට 67
aff 66
ca 66
dle 66
down 66
eter 66
ev 66
ient 66
ool 66
ටනම 66
නං 66
ඳු 66
පාත 66
පොල 66
යටත 66
ුහ 66
ෘත 66
▁46 66
▁baba 66
▁bears 66
▁burrows 66
▁ceremony 66
▁compromised 66
▁cos 66
▁cricket 66
▁drum 66
▁edward 66
▁election 66
▁ent 66
▁ep 66
▁facing 66
▁fitz 66
▁fraud 66
▁gregson 66
▁handed 66
▁hel 66
▁heroin 66
▁hers 66
▁holes 66
▁holiday 66
▁hoped 66
▁hopefully 66
▁immediate 66
▁institutions 66
▁jerry 66
▁kenny 66
▁lloyd 66
▁medic 66
▁narsing 66
▁nypd 66
▁ofthe 66
▁om 66
▁partners 66
▁pol 66
▁principal 66
▁recovery 66
▁relatives 66
▁retreat 66
▁sanjay 66
▁skull 66
▁spin 66
▁technical 66
▁threatening 66
▁tu 66
▁unf 66
▁upper 66
▁අඟවන 66
▁අතීත 66
▁එකී 66
▁එතනදි 66
▁එප 66
▁එහෙමම 66
▁කපූර 66
▁කාලයට 66
▁කෘත 66
▁කෙනාම 66
▁කෙලී 66
▁කොලින 66
▁ගති 66
▁චයක 66
▁ජනාධිපතිතුමා 66
▁තඩි 66
▁තිත 66
▁දල 66
▁දැනුයි 66
▁දියන 66
▁දෘෂ 66
▁නංගිට 66
▁නයෙන 66
▁නාමයෙන 66
▁නැතිවුන 66
▁පාහර 66
▁පැටියො 66
▁පෑ 66
▁පිළිබද 66
▁පෙනුමක 66
▁බෑනේ 66
▁බිග 66
▁බේරුනා 66
▁මමනම 66
▁මීර 66
▁මෙසේ 66
▁මොරියාටි 66
▁යයට 66
▁යාවශ 66
▁යාළ 66
▁යාළුව 66
▁රාජධානිය 66
▁රිම 66
▁රියදුරු 66
▁රෝගියෙක 66
▁ලියට 66
▁ලුස 66
▁ලුහු 66
▁ලොකුවට 66
▁වටහා 66
▁විඳ 66
▁සමට 66
▁සියෙන 66
▁සේර 66
▁සේවාවන 66
▁හදවතක 66
▁හාවඩ 66
▁හූ 66
W 65
ann 65
ffff 65
ki 65
kin 65
ora 65
rate 65
rel 65
rie 65
room 65
row 65
vi 65
why 65
ඇත 65
කටද 65
ගැ 65
දම 65
දු 65
යනවා 65
හත 65
ිකයෝ 65
ිතුමා 65
ීයයි 65
ුරට 65
▁ananya 65
▁avatar 65
▁barnes 65
▁boots 65
▁cas 65
▁cruel 65
▁daylight 65
▁dial 65
▁disgusting 65
▁elders 65
▁elephants 65
▁environment 65
▁es 65
▁fashion 65
▁fields 65
▁fights 65
▁films 65
▁graiman 65
▁invitation 65
▁kal 65
▁kinds 65
▁mercy 65
▁mic 65
▁naomi 65
▁norman 65
▁op 65
▁parties 65
▁pipe 65
▁players 65
▁possess 65
▁programs 65
▁rear 65
▁regarding 65
▁reported 65
▁salary 65
▁senator 65
▁sid 65
▁sticks 65
▁superhero 65
▁throughout 65
▁tooth 65
▁trash 65
▁traveling 65
▁tur 65
▁update 65
▁whistle 65
▁whoo 65
▁yards 65
▁අනිවාරෙන 65
▁අයිතිකාරයා 65
▁අරමුණක 65
▁අරයා 65
▁ආපිට 65
▁ඇටකටු 65
▁ඇඳට 65
▁ඇරන 65
▁ඉතිහාස 65
▁උතුරට 65
▁උදවුවක 65
▁උදෙසා 65
▁උනානම 65
▁ඔයගේ 65
▁ඕයි 65
▁කනගාටුයි 65
▁කළාට 65
▁කාළ 65
▁කිර 65
▁කිසිවෙක 65
▁කුරුමිට 65
▁ගනනක 65
▁ගෝතම 65
▁ඝාතන 65
▁ටව 65
▁ටිකෙන 65
▁ටෝරියා 65
▁ඩියුක 65
▁ඩූක 65
▁තයෙක 65
▁තවාදියෙක 65
▁තාවකාලික 65
▁තිමේ 65
▁දහයයි 65
▁දිගට 65
▁දිනාගන 65
▁දෙනෙකු 65
▁නකේ 65
▁නෙයි 65
▁නෝට 65
▁පම 65
▁පිටපතක 65
▁පිරිමියෙක 65
▁පුරාවෘත 65
▁පෘථිවිය 65
▁බටර 65
▁බබාව 65
▁බේත 65
▁භාග 65
▁මාරයි 65
▁මිලට 65
▁මුදුන 65
▁මූලස 65
▁මෙහේට 65
▁යකෙක 65
▁යථාර 65
▁යමන 65
▁රණවිරුවන 65
▁රූස 65
▁ලමයා 65
▁ලියම 65
▁ලෝරි 65
▁වලල 65
▁වැරදිලා 65
▁විමස 65
▁ශතවර 65
▁සමාජය 65
▁සවයට 65
▁හැසිර 65
▁ළගට 65
▁ෆැරඩේ 65
,5 64
87 64
ately 64
ett 64
field 64
good 64
ides 64
ization 64
ns 64
oke 64
point 64
ration 64
rop 64
thing 64
ually 64
කටවත 64
කාරයො 64
වුනු 64
ාමය 64
▁5,000 64
▁acc 64
▁addition 64
▁advanced 64
▁assault 64
▁average 64
▁blessed 64
▁branch 64
▁cobb 64
▁companies 64
▁confidence 64
▁delicious 64
▁dispatch 64
▁downtown 64
▁drives 64
▁employee 64
▁explanation 64
▁hannah 64
▁harold 64
▁japanese 64
▁jennifer 64
▁jerk 64
▁kidnap 64
▁kyle 64
▁legacy 64
▁liam 64
▁loki 64
▁muscle 64
▁oz 64
▁packed 64
▁parked 64
▁passes 64
▁peach 64
▁plain 64
▁planes 64
▁polar 64
▁primary 64
▁priority 64
▁proposal 64
▁punished 64
▁punishment 64
▁puppy 64
▁radha 64
▁rifle 64
▁smarter 64
▁solo 64
▁tars 64
▁traditional 64
▁vice 64
▁vodka 64
▁අගවන 64
▁අගෝස 64
▁අයවැය 64
▁අවසානයේදී 64
▁අහංකාර 64
▁ඇරලවන 64
▁ඈන 64
▁උදා 64
▁එයාර 64
▁කුක 64
▁කුණාටුවක 64
▁කෝඩ 64
▁කෝන 64
▁ගුස 64
▁ජූලි 64
▁ජො 64
▁ටීෆන 64
▁දඩ 64
▁දෙදෙනෙක 64
▁ධත 64
▁නගන 64
▁නමෙේ 64
▁නසා 64
▁පථය 64
▁පනයක 64
▁පාඨමාලා 64
▁පැවර 64
▁පිලිප 64
▁ඵල 64
▁බඩුවක 64
▁බේරන 64
▁භාව 64
▁මියා 64
▁මෘදුකාංග 64
▁මෙවැනි 64
▁මොකට 64
▁යාලයෙන 64
▁රසකැවිලි 64
▁රිදී 64
▁රේෂණය 64
▁රොට 64
▁වගා 64
▁වඳ 64
▁විදිහෙ 64
▁විරෝධ 64
▁වෙලාවල 64
▁වෝද 64
▁සිංහ 64
▁සික 64
▁සියුම 64
▁සේරටම 64
▁හිටි 64
▁හුදෙක 64
▁ළමයකේ 64
▁ෆා 64
▁ෙනවේ 64
.30 63
.7 63
cing 63
eth 63
fish 63
hers 63
hm 63
job 63
kins 63
ups 63
ඝ 63
තුම 63
ලෙ 63
වාස 63
හොත 63
ිකයින 63
▁aarush 63
▁beethoven 63
▁boar 63
▁campaign 63
▁cape 63
▁chand 63
▁chaos 63
▁conduct 63
▁deeper 63
▁dri 63
▁elephant 63
▁evacuate 63
▁fella 63
▁flow 63
▁frodo 63
▁fu 63
▁grandson 63
▁intention 63
▁introduced 63
▁keller 63
▁lee 63
▁marudheera 63
▁mechanic 63
▁monsieur 63
▁mut 63
▁naina 63
▁oath 63
▁orphan 63
▁owen 63
▁plastic 63
▁pointing 63
▁promotion 63
▁psycho 63
▁relative 63
▁rivers 63
▁scientific 63
▁seth 63
▁sets 63
▁shankar 63
▁smith 63
▁telecast 63
▁turtle 63
▁western 63
▁අයගෙ 63
▁අවාසනාවන 63
▁ආයෝජනය 63
▁ඇතුව 63
▁ඇරියා 63
▁ඉකුත 63
▁එනකල 63
▁එයාටත 63
▁ඕනෙනම 63
▁කටක 63
▁කටහඩ 63
▁කනෙකෝ 63
▁කලුවර 63
▁කැමර 63
▁කැමරාවක 63
▁කුඩ 63
▁කෙරේ 63
▁ගෑනි 63
▁ගුටි 63
▁ගුහාව 63
▁ජෙම 63
▁ටුවා 63
▁ටුවෙ 63
▁තවාදී 63
▁තාපසතුමන 63
▁තින 63
▁දාවි 63
▁ධතියට 63
▁නොගන 63
▁පනතේ 63
▁පැර 63
▁පැරිස 63
▁පිලි 63
▁බනෙ 63
▁බැග 63
▁බැලුව 63
▁බිහ 63
▁බොරුව 63
▁භූමි 63
▁මූලාශ 63
▁මෙයාලව 63
▁මෙහෙදි 63
▁යතාවය 63
▁යතුමා 63
▁යාවේ 63
▁රජයට 63
▁රියාකාරිත 63
▁රෙගුලාසි 63
▁වටා 63
▁වයිරස 63
▁වුවද 63
▁සහෝදරය 63
▁සීතලයි 63
▁සුදුසුයි 63
▁සුළුයි 63
▁හයකට 63
▁හැංග 63
▁හිතුවොත 63
▁හුගාක 63
85 62
ading 62
any 62
chan 62
hs 62
ished 62
ox 62
senpai 62
ses 62
වගෙන 62
හැම 62
ිරිය 62
▁67 62
▁Fischer 62
▁II 62
▁aboard 62
▁aircraft 62
▁assigned 62
▁auto 62
▁blocked 62
▁boston 62
▁boxes 62
▁champagne 62
▁chemical 62
▁combination 62
▁committee 62
▁dale 62
▁damu 62
▁dorothy 62
▁duck 62
▁electric 62
▁foundation 62
▁gross 62
▁homework 62
▁ifyou 62
▁insult 62
▁jon 62
▁laptop 62
▁neighbor 62
▁net 62
▁noah 62
▁parent 62
▁pres 62
▁prints 62
▁prisoners 62
▁prom 62
▁rising 62
▁rod 62
▁routine 62
▁screams 62
▁settled 62
▁terrorists 62
▁thi 62
▁thirsty 62
▁title 62
▁twist 62
▁ward 62
▁wolves 62
▁zombie 62
▁zoo 62
▁ආතර 62
▁ආයුද 62
▁ආලෝක 62
▁ඇතුළුව 62
▁ඉගන 62
▁ඉලෙක 62
▁එනිසා 62
▁ඒකකයක 62
▁ඒවත 62
▁ඔරලොසුව 62
▁ඕකෙන 62
▁ඕනිම 62
▁ඕවර 62
▁කලෙින 62
▁කාලයකට 62
▁කෙහෙල 62
▁ගලවා 62
▁ගෙනාවෙ 62
▁චරිතයක 62
▁චියට 62
▁චුම 62
▁ජෙරී 62
▁ඩෝරි 62
▁තියද 62
▁ථාවන 62
▁දානවද 62
▁නියා 62
▁පශ 62
▁පැළ 62
▁පිහියෙන 62
▁බොහොමයක 62
▁බොහෝවිට 62
▁බෲස 62
▁මතයි 62
▁මැරුවොත 62
▁මුහ 62
▁මෘදු 62
▁මෙතනදි 62
▁මෙයින 62
▁මෙෙහ 62
▁මේසේ 62
▁මොනවටද 62
▁මෝල 62
▁යාලු 62
▁රසිකයෙක 62
▁රේණු 62
▁රෝව 62
▁ලිගේ 62
▁වනය 62
▁වභාවික 62
▁වාට 62
▁විග 62
▁විරෝධී 62
▁වුල 62
▁වෙනුවනේ 62
▁වේලා 62
▁ශැනොන 62
▁ශීර 62
▁ශෝක 62
▁සටහනක 62
▁සහතිකයි 62
▁සැලකිය 62
▁සේවාදායක 62
▁හැරලා 62
▁හොටෙල 62
▁ළඟා 62
▁ෆොක 62
19 61
bing 61
box 61
cle 61
eration 61
ero 61
fire 61
ination 61
ison 61
ode 61
ouse 61
par 61
rap 61
ulation 61
о 61
ගාන 61
ජනක 61
ටික 61
ඩර 61
තාවයක 61
රණ 61
▁007 61
▁120 61
▁1549 61
▁800 61
▁affect 61
▁angle 61
▁august 61
▁bablu 61
▁beard 61
▁bend 61
▁bha 61
▁cared 61
▁cecil 61
▁claims 61
▁confusion 61
▁coop 61
▁deploy 61
▁diary 61
▁echo 61
▁external 61
▁extreme 61
▁fence 61
▁fulfill 61
▁gardner 61
▁heck 61
▁insist 61
▁issued 61
▁joan 61
▁kat 61
▁kissed 61
▁krish 61
▁labor 61
▁league 61
▁loyalty 61
▁matches 61
▁mc 61
▁nearby 61
▁nothin 61
▁orange 61
▁pill 61
▁pirate 61
▁positions 61
▁pound 61
▁rakesh 61
▁registered 61
▁resist 61
▁seed 61
▁skill 61
▁smiles 61
▁someplace 61
▁subway 61
▁thats 61
▁tyler 61
▁අනතුරුව 61
▁අභිප 61
▁අයිතියි 61
▁ඇඟට 61
▁ඇණ 61
▁ඇරත 61
▁එකකුයි 61
▁එවපු 61
▁ඒයා 61
▁කරනකම 61
▁කරෙ 61
▁කිප 61
▁කොනී 61
▁ගහපන 61
▁ගීත 61
▁ගු 61
▁ටස 61
▁ටිග 61
▁තටාක 61
▁තනිව 61
▁තයන 61
▁තිබුනත 61
▁තිබුනු 61
▁තියනේනේ 61
▁දාර 61
▁දුකින 61
▁දුග 61
▁දුවලා 61
▁නගරාධිපති 61
▁නැහැයි 61
▁නිවාඩුවක 61
▁පකිස 61
▁පාරටම 61
▁පැයකින 61
▁පිළිස 61
▁පොම 61
▁බිරිඳට 61
▁භාවිතය 61
▁මරණයෙන 61
▁මැරයෙක 61
▁මිනිහෙකුට 61
▁මෙතරම 61
▁යොදාගත 61
▁රතිඵලයක 61
▁රවුමක 61
▁රසායනික 61
▁ලයිසන 61
▁ලැබුණේ 61
▁වභාවය 61
▁වයසේ 61
▁විනාශය 61
▁වෙමි 61
▁වෙලත 61
▁වොඩ 61
▁සනම 61
▁සළකුණු 61
▁සිටියේ 61
▁සිදුවෙන 61
▁සිහිනය 61
▁සිහිනයක 61
▁සුත 61
▁සූසන 61
▁හැගීමක 61
▁හැමොම 61
▁හොයනව 61
▁ෆරාස 61
▁ෆේබියස 61
11 60
ald 60
cks 60
ert 60
fi 60
hem 60
ila 60
ility 60
oned 60
sw 60
uh 60
ward 60
එහෙම 60
ඔහ 60
නාවක 60
යගේ 60
ලී 60
වගත 60
ිතා 60
▁...... 60
▁apply 60
▁benjamin 60
▁bin 60
▁brush 60
▁bud 60
▁com 60
▁comment 60
▁companion 60
▁customer 60
▁deposit 60
▁dist 60
▁eloped 60
▁exists 60
▁fingerprints 60
▁focused 60
▁france 60
▁global 60
▁hay 60
▁meds 60
▁meta 60
▁metres 60
▁milverton 60
▁miranda 60
▁mistaken 60
▁northern 60
▁passports 60
▁perfume 60
▁photograph 60
▁policeman 60
▁privacy 60
▁purse 60
▁rats 60
▁replace 60
▁root 60
▁selfish 60
▁shooter 60
▁shrink 60
▁suffered 60
▁uses 60
▁vet 60
▁vi 60
▁wiped 60
▁wreck 60
▁අතිශයින 60
▁අනර 60
▁අපහසුයි 60
▁අපා 60
▁අපූරු 60
▁අභිරහස 60
▁අරුන 60
▁ආවත 60
▁ඉෂ 60
▁එරිකා 60
▁කපනවා 60
▁කරහන 60
▁කලාව 60
▁කාටත 60
▁කෙසේද 60
▁ඛ 60
▁ගැටළුවක 60
▁චල 60
▁චලනය 60
▁ජූනි 60
▁ටයිම 60
▁තරඟයක 60
▁තවාදීන 60
▁තැබීම 60
▁තී 60
▁දෝෂ 60
▁ධවල 60
▁නඟින 60
▁නයට 60
▁නරඹන 60
▁නාසා 60
▁නැතිකරගන 60
▁නිලධාරින 60
▁නොක 60
▁නොකළ 60
▁පටල 60
▁පයි 60
▁පීසා 60
▁පුරුෂ 60
▁පුහුණ 60
▁බලධාරීන 60
▁බෝතලයක 60
▁මැණික 60
▁රපටිය 60
▁රැඳී 60
▁වනෙස 60
▁විධිවිධාන 60
▁විලා 60
▁විශාලතම 60
▁වෙඩිල 60
▁වෛදය 60
▁ෂුවර 60
▁සාන 60
▁හතරකට 60
▁හයිය 60
▁හරිත 60
▁හැතැක 60
▁හැමදාමත 60
▁හුඟාක 60
▁ළං 60
▁ෙබන 60
,9 59
cc 59
ification 59
iled 59
jo 59
ood 59
ound 59
zz 59
උඹ 59
කං 59
සී 59
ියගේ 59
ියාගේ 59
ූල 59
▁59 59
▁We 59
▁academy 59
▁allen 59
▁alley 59
▁amit 59
▁attached 59
▁bean 59
▁blows 59
▁boot 59
▁bug 59
▁clearance 59
▁climate 59
▁codes 59
▁coma 59
▁commercial 59
▁communicate 59
▁confess 59
▁cord 59
▁deaf 59
▁debt 59
▁dharma 59
▁disk 59
▁ending 59
▁experiments 59
▁explosives 59
▁fighters 59
▁forty 59
▁glitch 59
▁instinct 59
▁jeremy 59
▁ken 59
▁leaders 59
▁locate 59
▁log 59
▁loser 59
▁mankind 59
▁measure 59
▁mix 59
▁mole 59
▁offense 59
▁ped 59
▁ranger 59
▁rape 59
▁recording 59
▁recover 59
▁reed 59
▁remaining 59
▁reyes 59
▁ronan 59
▁rourke 59
▁rv 59
▁sacred 59
▁saint 59
▁selected 59
▁sen 59
▁serial 59
▁somethin 59
▁spit 59
▁spoil 59
▁teachers 59
▁therapy 59
▁umm 59
▁varda 59
▁villages 59
▁wanting 59
▁warriors 59
▁අඩංගු 59
▁අධිකාරී 59
▁අනුකූල 59
▁අයටත 59
▁අලුතෙන 59
▁අවවාද 59
▁ආදී 59
▁ආභරණ 59
▁ඇතුළ 59
▁ඈතින 59
▁ඉරිදා 59
▁ඕනෙලු 59
▁කඩේට 59
▁කපිතන 59
▁කලෙක 59
▁කළාම 59
▁කැබ 59
▁කෙනකේට 59
▁ගතිය 59
▁ගුර 59
▁ගුරුවරයෙක 59
▁ගෘ 59
▁ජග 59
▁ජෙට 59
▁ඩැන 59
▁ඩියා 59
▁ඩෙස 59
▁තයො 59
▁තරහෙන 59
▁තිකාරම 59
▁තුනට 59
▁ථාවට 59
▁දළ 59
▁දිගා 59
▁දියක 59
▁දේකින 59
▁දොරටු 59
▁ධාවනය 59
▁නපු 59
▁නියමු 59
▁නොකල 59
▁නොකියන 59
▁පතින 59
▁පනෙ 59
▁පරදින 59
▁පැවති 59
▁පිහිටා 59
▁පෙබරවාරි 59
▁පේනවනේ 59
▁පොලීසියෙන 59
▁පෝන 59
▁බඳවා 59
▁බලයෙන 59
▁බැරී 59
▁බීල 59
▁බෲක 59
▁මයට 59
▁මැයි 59
▁මැරුණේ 59
▁මිනීමරුවා 59
▁මේසය 59
▁මොකාද 59
▁රාහක 59
▁රොනන 59
▁රොනී 59
▁රෝගය 59
▁ලබාදුන 59
▁වයිට 59
▁වරදින 59
▁වාගේ 59
▁විශේෂයි 59
▁වෙනකං 59
▁සමාගමට 59
▁සාපේක 59
▁සීම 59
▁සුලී 59
▁සෙනසුරාදා 59
▁සේරු 59
▁සොයාගෙන 59
▁හැල 59
▁ෆෙල 59
▁ෙකාෙහද 59
.9 58
25 58
65 58
bag 58
gg 58
hold 58
iah 58
rated 58
rist 58
rs 58
standing 58
two 58
ways 58
zy 58
අයි 58
ඔබ 58
ගුණ 58
පී 58
බිම 58
සු 58
හයි 58
හිත 58
ාලය 58
ැබ 58
ිවී 58
ුරුම 58
ුවීම 58
ූත 58
ූව 58
▁20,000 58
▁66 58
▁adult 58
▁answered 58
▁arrival 58
▁assuming 58
▁ay 58
▁bargain 58
▁bees 58
▁bills 58
▁buck 58
▁california 58
▁consequences 58
▁corpse 58
▁crisis 58
▁dim 58
▁efforts 58
▁enforcement 58
▁evacuation 58
▁fel 58
▁generator 58
▁gusteau 58
▁hates 58
▁initiative 58
▁irish 58
▁jackie 58
▁khanna 58
▁kidnapping 58
▁manner 58
▁mindy 58
▁mouse 58
▁naughty 58
▁opponent 58
▁pace 58
▁painful 58
▁prayer 58
▁rascal 58
▁ren 58
▁resort 58
▁retirement 58
▁rum 58
▁santa 58
▁scientists 58
▁senate 58
▁sheep 58
▁songs 58
▁strip 58
▁succeed 58
▁tries 58
▁tube 58
▁unstable 58
▁vampires 58
▁vital 58
▁wears 58
▁wilson 58
▁wont 58
▁අඟල 58
▁අඬ 58
▁අනුස 58
▁අඳුරන 58
▁අලෙවි 58
▁අවනත 58
▁අහක 58
▁ආයෝජන 58
▁ඇහුව 58
▁ඉවරවෙන 58
▁එයාම 58
▁කපල 58
▁කාවහරි 58
▁කැරැල 58
▁කූප 58
▁කෙක 58
▁කෙනක 58
▁කොපි 58
▁කොහෙහරි 58
▁ගැළපෙන 58
▁චම 58
▁චරටම 58
▁ඩැනියෙල 58
▁තකාල 58
▁තාද 58
▁තැපෑල 58
▁දෂ 58
▁දැකගන 58
▁දැනුන 58
▁දියාවට 58
▁දූෂණය 58
▁නාමෙට 58
▁නිදියන 58
▁නිවසක 58
▁නොදී 58
▁පලි 58
▁පිපිරීම 58
▁බලකාය 58
▁මනී 58
▁මැරනෙ 58
▁යමං 58
▁යාගයක 58
▁යාවට 58
▁රච 58
▁රද 58
▁රයිලි 58
▁රසයි 58
▁රිකාව 58
▁රියාකාර 58
▁රෝල 58
▁වගුව 58
▁වලත 58
▁වැඩකරනවා 58
▁විසික 58
▁වීන 58
▁ශශී 58
▁සනේ 58
▁සිංදු 58
▁සිදුවෙනවා 58
▁සුළඟ 58
▁හැරෙනවා 58
▁ෙස 58
,8 57
17 57
arian 57
arth 57
berg 57
lu 57
sc 57
අත 57
ගොඩ 57
ජර 57
මාර 57
වෙච 57
ශීලී 57
ිටින 57
ේර 57
▁april 57
▁argue 57
▁bare 57
▁bearing 57
▁bid 57
▁bore 57
▁buildings 57
▁burnt 57
▁cheers 57
▁citizen 57
▁closest 57
▁cloud 57
▁covering 57
▁drown 57
▁egypt 57
▁ellis 57
▁feeding 57
▁fixing 57
▁flew 57
▁gosh 57
▁gps 57
▁groups 57
▁iv 57
▁jewel 57
▁knee 57
▁leaf 57
▁liquid 57
▁lockdown 57
▁maker 57
▁minor 57
▁mixed 57
▁moscow 57
▁mount 57
▁narrow 57
▁nerve 57
▁objects 57
▁occurred 57
▁platform 57
▁plot 57
▁propose 57
▁radar 57
▁reminds 57
▁reputation 57
▁ritual 57
▁samples 57
▁sensitive 57
▁shaft 57
▁signature 57
▁smaller 57
▁spirits 57
▁tested 57
▁threats 57
▁tools 57
▁triple 57
▁types 57
▁washed 57
▁weller 57
▁windows 57
▁worn 57
▁ye 57
▁yelling 57
▁අකමැතියි 57
▁අධිපති 57
▁අයන 57
▁අවලම 57
▁ආකල 57
▁ආසාදනය 57
▁ඇතුලු 57
▁ඇහැට 57
▁ඇහුණ 57
▁ඒකකයේ 57
▁කනට 57
▁කයිල 57
▁කයේ 57
▁කරලද 57
▁කවි 57
▁කසාදෙට 57
▁කාටර 57
▁කානම 57
▁කාරණේ 57
▁කැර 57
▁කෑමකට 57
▁කිරිමට 57
▁කීදෙනෙක 57
▁කෝක 57
▁ගෙනාපු 57
▁ජීවින 57
▁ඩොරති 57
▁තරහක 57
▁තවාද 57
▁තියයි 57
▁තුනේ 57
▁දුටු 57
▁දෙපැත 57
▁නබි 57
▁නිතිය 57
▁නිදහසට 57
▁නීතියක 57
▁පැමිණියා 57
▁පිං 57
▁පිහි 57
▁පීඩ 57
▁බඳ 57
▁බයි 57
▁බවුනේ 57
▁මුදා 57
▁මෙයත 57
▁යුනිට 57
▁රහක 57
▁රොප 57
▁ලැබිල 57
▁ලැබෙනව 57
▁ලැරී 57
▁වටපිට 57
▁වතුරෙන 57
▁වරුණි 57
▁වෙලර 57
▁වේද 57
▁සංවාද 57
▁සතියෙ 57
▁සමය 57
▁සමාලෝචනය 57
▁සලර 57
▁සහෝදරයෙක 57
▁සාදය 57
▁සැලක 57
▁සීනුව 57
▁සුභපැතුම 57
▁සෙරෙප 57
▁හදනව 57
▁හැස 57
ame 56
gging 56
inder 56
mb 56
otic 56
ove 56
ඩින 56
තිය 56
දය 56
මෙන 56
වේවි 56
ශය 56
සිට 56
සිය 56
ළේ 56
ිතිය 56
ිවත 56
▁accused 56
▁anniversary 56
▁beacon 56
▁belly 56
▁bre 56
▁caleb 56
▁cle 56
▁compass 56
▁cont 56
▁disrespect 56
▁engage 56
▁existed 56
▁fart 56
▁formula 56
▁gathered 56
▁generally 56
▁germany 56
▁guilt 56
▁han 56
▁hated 56
▁hindi 56
▁imagined 56
▁institute 56
▁investigate 56
▁jimmy 56
▁joey 56
▁kin 56
▁knees 56
▁knocking 56
▁krishna 56
▁luke 56
▁marty 56
▁mini 56
▁mun 56
▁newspaper 56
▁october 56
▁patriots 56
▁possession 56
▁posted 56
▁previous 56
▁prof 56
▁psych 56
▁requested 56
▁sandy 56
▁scr 56
▁shopping 56
▁shrek 56
▁smiling 56
▁sonar 56
▁sources 56
▁strategy 56
▁sy 56
▁terminal 56
▁thea 56
▁thus 56
▁torch 56
▁toss 56
▁transform 56
▁tribe 56
▁wha 56
▁wore 56
▁අංශයට 56
▁අනතුරකින 56
▁අමාරුවේ 56
▁අරුශ 56
▁ඇගිල 56
▁ඇහැක 56
▁උඹගේ 56
▁ඌගේ 56
▁එකපාරම 56
▁එයාගෙම 56
▁ඒනිසා 56
▁ඔටුන 56
▁ඔහේගෙ 56
▁කතාවේ 56
▁කමට 56
▁කලාතුරකින 56
▁කාරෙක 56
▁කැබින 56
▁කූඩු 56
▁ගැම 56
▁චියේ 56
▁චෝද 56
▁ජිවිතයේ 56
▁ජූන 56
▁ජෙනිෆර 56
▁ජෙෆ 56
▁තමුසෙගේ 56
▁තැබ 56
▁තිබුනොත 56
▁ථි 56
▁දාදුවෙක 56
▁දේශපාලනය 56
▁ධනාත 56
▁නරකක 56
▁නැගිටිනවා 56
▁පපුව 56
▁පාටිය 56
▁පුවේ 56
▁පූල 56
▁පොලව 56
▁බයේ 56
▁බලනකොට 56
▁බවුණා 56
▁බේරාගත 56
▁බොරුකාරයෙක 56
▁බෝඩ 56
▁මකබෑ 56
▁මායාකාර 56
▁මැරේවි 56
▁මැෂින 56
▁මෙයට 56
▁යකර 56
▁යනේ 56
▁රතිඵලය 56
▁රදවා 56
▁රීඩාවක 56
▁රුධිරය 56
▁රොබින 56
▁ලැබී 56
▁ලිබ 56
▁වගෝද 56
▁වලටයි 56
▁වාභාවික 56
▁වාමි 56
▁විතරමයි 56
▁විදුහල 56
▁විහින 56
▁වුණාද 56
▁ශාපය 56
▁සතුරා 56
▁සප 56
▁සමු 56
▁සීර 56
▁සුලු 56
▁සොම 56
▁හෝදන 56
.10 55
45 55
47 55
cent 55
ented 55
ese 55
huh 55
ica 55
iding 55
inal 55
itions 55
ked 55
lessly 55
lf 55
load 55
malley 55
ough 55
pes 55
take 55
urs 55
uss 55
ville 55
අර 55
කයෝ 55
කිය 55
ගි 55
ටා 55
නයෙන 55
වගේ 55
වනේන 55
වැනි 55
ායන 55
ාවර 55
ැනි 55
ුගෙ 55
ූප 55
ෙඩ 55
ෝප 55
▁Alicia 55
▁And 55
▁Chitti 55
▁Z 55
▁ambassador 55
▁anakin 55
▁apollo 55
▁apologise 55
▁assumed 55
▁bold 55
▁carly 55
▁chap 55
▁courtney 55
▁creative 55
▁creator 55
▁daughters 55
▁defect 55
▁dent 55
▁described 55
▁diss 55
▁dragons 55
▁dun 55
▁established 55
▁fee 55
▁fifteen 55
▁filthy 55
▁forgiveness 55
▁frost 55
▁golf 55
▁gorgeous 55
▁imagination 55
▁include 55
▁junk 55
▁ka 55
▁lea 55
▁loans 55
▁lucia 55
▁manifest 55
▁manny 55
▁moron 55
▁naturally 55
▁opens 55
▁operate 55
▁paperwork 55
▁parrish 55
▁phase 55
▁plat 55
▁praise 55
▁prank 55
▁presented 55
▁produced 55
▁pub 55
▁punish 55
▁py 55
▁rage 55
▁ravi 55
▁relation 55
▁shares 55
▁sharing 55
▁shout 55
▁significant 55
▁spanish 55
▁stable 55
▁stacks 55
▁stream 55
▁sweep 55
▁tak 55
▁tale 55
▁ties 55
▁uncomfortable 55
▁underneath 55
▁visitors 55
▁wig 55
▁worlds 55
▁අගනුවර 55
▁අඳුනගන 55
▁අපත 55
▁අවධානමක 55
▁ඇණවුම 55
▁ඊර 55
▁උක 55
▁උපායක 55
▁එමෙට 55
▁එයාත 55
▁ඒකිට 55
▁කතාකරලා 55
▁කදවුර 55
▁කලාප 55
▁කාළය 55
▁කාළයක 55
▁කියනකොට 55
▁කිලෝමීටර 55
▁කුඹ 55
▁ගාණ 55
▁ගිවිසුමක 55
▁ගෙවලා 55
▁චිට 55
▁ජයි 55
▁ජිල 55
▁ජේස 55
▁ජෝජ 55
▁ඥ 55
▁ටිකෝ 55
▁ටීම 55
▁ටුවර 55
▁ටෙඩි 55
▁ඩැරන 55
▁ඩොස 55
▁තටු 55
▁තුත 55
▁තේරෙනවනේ 55
▁දුසිම 55
▁නැවතුනා 55
▁නිලූ 55
▁නොමැතිව 55
▁පදාර 55
▁පහරදීම 55
▁පාහරයා 55
▁පිටවීම 55
▁පිටස 55
▁පිසාච 55
▁පුවක 55
▁බරක 55
▁බැලීම 55
▁මනසේ 55
▁මූණක 55
▁මූණු 55
▁මෙහෙදී 55
▁මොර 55
▁යනය 55
▁යවර 55
▁රටක 55
▁රාජකාරියක 55
▁රාහකයා 55
▁රොත 55
▁ලුසී 55
▁වදයක 55
▁විකට 55
▁විකෘති 55
▁විටම 55
▁වෙලාවකම 55
▁වේච 55
▁ෂයට 55
▁සතුරු 55
▁සදා 55
▁සවුත 55
▁සුළ 55
▁සොර 55
▁සෝපාන 55
▁හංගලා 55
▁හිතනවාද 55
▁හුඟ 55
▁හෝරස 55
▁ෆේස 55
▁ෙකාෙහාමද 55
67 54
aid 54
akes 54
aries 54
bur 54
ces 54
fall 54
gle 54
have 54
hot 54
iness 54
ote 54
ott 54
rt 54
sec 54
sha 54
stone 54
used 54
zo 54
ංශ 54
එකක 54
ඔයාගේ 54
ඩුව 54
යස 54
යාගෙන 54
යෙි 54
වකෝ 54
විම 54
ාලා 54
▁Shaw 54
▁acts 54
▁adjust 54
▁adopted 54
▁armour 54
▁arrangements 54
▁atmosphere 54
▁baggins 54
▁believing 54
▁belonged 54
▁carlos 54
▁conscience 54
▁conspiracy 54
▁corporate 54
▁crossing 54
▁detect 54
▁doss 54
▁dragged 54
▁enjoyed 54
▁exc 54
▁ext 54
▁frog 54
▁gall 54
▁gettin 54
▁greene 54
▁groans 54
▁halfway 54
▁haw 54
▁helpless 54
▁hol 54
▁hudson 54
▁japan 54
▁joining 54
▁joint 54
▁larry 54
▁limited 54
▁maria 54
▁maze 54
▁nell 54
▁ob 54
▁occasion 54
▁origin 54
▁overtime 54
▁pond 54
▁quot 54
▁receiving 54
▁relief 54
▁responding 54
▁sandwich 54
▁sari 54
▁sayin 54
▁scrap 54
▁sharks 54
▁shocked 54
▁si 54
▁snap 54
▁spl 54
▁stamp 54
▁talented 54
▁temporary 54
▁theories 54
▁threaten 54
▁throne 54
▁towel 54
▁tunnels 54
▁ugh 54
▁unconscious 54
▁wrist 54
▁අඟ 54
▁අඟහරු 54
▁අඩුමගානේ 54
▁අතිරික 54
▁ඇතිතරම 54
▁උදේම 54
▁එකේද 54
▁කපට 54
▁කමිටුව 54
▁කැඩුවා 54
▁කුරු 54
▁කෙරෙව 54
▁කොතනද 54
▁කොමිෂන 54
▁ගායනා 54
▁ගැටළු 54
▁ගැටුම 54
▁ගැහ 54
▁ගුහා 54
▁චතුර 54
▁චාලට 54
▁චූටි 54
▁ජාලය 54
▁ටරයක 54
▁ඩස 54
▁ඩොනල 54
▁ඩොල 54
▁තනිකඩ 54
▁තියපු 54
▁තුම 54
▁තේරීම 54
▁දරුව 54
▁දවසෙම 54
▁දැමීම 54
▁දිනනවා 54
▁දූවිලි 54
▁දෙවියෙක 54
▁දොරේ 54
▁ධතියේ 54
▁නඩ 54
▁නාක 54
▁නාර 54
▁නැඟිටින 54
▁නිමැවුම 54
▁නියමුවෙක 54
▁නියෝගය 54
▁නිවර 54
▁නුවර 54
▁නෙවෙයිනේ 54
▁නොවීම 54
▁නෝමන 54
▁පාටියට 54
▁පාවක 54
▁පැටලිලා 54
▁පුහුණුවක 54
▁පොලීසියේ 54
▁බලශක 54
▁බහු 54
▁බාධාවක 54
▁බැලුවද 54
▁බුර 54
▁බූම 54
▁බෙදන 54
▁බෙනට 54
▁මගීන 54
▁මාවම 54
▁මිලියනයක 54
▁මෙහෙය 54
▁යනකන 54
▁යාගන 54
▁යොදන 54
▁රවය 54
▁රියට 54
▁ලාගත 54
▁ලිෆ 54
▁ලොට 54
▁ලොම 54
▁වතුරේ 54
▁වනම 54
▁වැටුනේ 54
▁විශේෂයක 54
▁වෛරසය 54
▁ශාලාවේ 54
▁ෂයක 54
▁ෂාකරන 54
▁සවයක 54
▁සැඟ 54
▁සීට 54
▁හමුවේ 54
▁හීනෙන 54
▁හෙක 54
,4 53
.0 53
J 53
ases 53
ashed 53
ava 53
ds 53
hole 53
hour 53
human 53
icks 53
maker 53
mann 53
osed 53
ule 53
කයේ 53
ඳින 53
මුද 53
ලත 53
වරක 53
හිට 53
ාලු 53
ාවයි 53
ියාවට 53
ිවෙන 53
▁additional 53
▁ages 53
▁ak 53
▁applied 53
▁armaan 53
▁attract 53
▁autobots 53
▁bea 53
▁beera 53
▁bilbo 53
▁blackmail 53
▁blah 53
▁blank 53
▁bum 53
▁chan 53
▁chautala 53
▁civilians 53
▁clients 53
▁confirmation 53
▁constant 53
▁contest 53
▁damaged 53
▁deaths 53
▁diet 53
▁discover 53
▁distress 53
▁disturb 53
▁drawing 53
▁earl 53
▁embarrassed 53
▁feds 53
▁fees 53
▁forth 53
▁fountain 53
▁francis 53
▁generous 53
▁goods 53
▁grief 53
▁grunts 53
▁guitar 53
▁ham 53
▁honeymoon 53
▁intelligent 53
▁intercept 53
▁islands 53
▁item 53
▁jew 53
▁jury 53
▁kar 53
▁katniss 53
▁kubo 53
▁lawyers 53
▁ln 53
▁messenger 53
▁missiles 53
▁mort 53
▁ogre 53
▁parole 53
▁physics 53
▁pm 53
▁produce 53
▁reception 53
▁reject 53
▁rizvan 53
▁shan 53
▁shoulders 53
▁signals 53
▁soil 53
▁spencer 53
▁sport 53
▁suite 53
▁suspended 53
▁temp 53
▁theirs 53
▁trusting 53
▁vol 53
▁winds 53
▁අඳුරගන 53
▁අමාරුව 53
▁ඇතුළේ 53
▁ඇරඹ 53
▁ඉදිද 53
▁ඉඳලම 53
▁ඉපදුන 53
▁උනුසුම 53
▁උපා 53
▁ඌරු 53
▁එහෙමනේ 53
▁කඳවුරු 53
▁කමකට 53
▁කරදරේ 53
▁කලාපය 53
▁කියහන 53
▁කොහේහරි 53
▁ගයට 53
▁ගියහම 53
▁ගෘහ 53
▁ඝට 53
▁ජමින 53
▁ජාති 53
▁ජාතියෙ 53
▁ඥාති 53
▁ටරය 53
▁ඩෙක 53
▁තණ 53
▁දිහ 53
▁දෙකටම 53
▁ධතාව 53
▁නමත 53
▁නිසාවෙන 53
▁නිසි 53
▁නිහඩ 53
▁පඩ 53
▁පයිඩර 53
▁පරිගණකය 53
▁පාරම 53
▁පැටව 53
▁පැයට 53
▁පිටවෙලා 53
▁පිරුණු 53
▁පිහිටුවන 53
▁පුරුදුයි 53
▁බැහි 53
▁බෑවුම 53
▁බිලා 53
▁මගපෙන 53
▁මගහරින 53
▁මඟහැර 53
▁මතුපිට 53
▁මයේ 53
▁මරුවා 53
▁මැදින 53
▁මේර 53
▁යාච 53
▁යාපාරික 53
▁රොෆෙසර 53
▁ලාබ 53
▁ලිපිගොනු 53
▁ලියනවා 53
▁ලේෂ 53
▁ලෝරා 53
▁වාසිය 53
▁වැඩිහිටියන 53
▁වීදුර 53
▁වෙඩිත 53
▁ශුක 53
▁ෂොට 53
▁සැකකරු 53
▁සෙබලෙක 53
▁හයිද 53
▁හැරි 53
▁හිතුන 53
▁හිතුනේ 53
▁හිතෙනව 53
▁හෙළ 53
▁හොදේ 53
▁ෙහාදින 53
ano 52
ape 52
athi 52
has 52
ict 52
ologist 52
oms 52
ract 52
shi 52
unk 52
wn 52
කරයි 52
කාරයන 52
කාරි 52
ඨ 52
රයි 52
රියන 52
ාවෙලා 52
ිමි 52
ිසි 52
ුනාද 52
ේටර 52
▁addict 52
▁advised 52
▁alliance 52
▁appeared 52
▁argument 52
▁assist 52
▁audience 52
▁award 52
▁broadcast 52
▁bunk 52
▁cancelled 52
▁cass 52
▁chairman 52
▁charm 52
▁chased 52
▁cheque 52
▁cleaned 52
▁climbing 52
▁complain 52
▁compliment 52
▁copies 52
▁dates 52
▁doll 52
▁doyle 52
▁erdogan 52
▁fa 52
▁filed 52
▁fooled 52
▁foster 52
▁grabbed 52
▁granted 52
▁grounds 52
▁hyderabad 52
▁ideal 52
▁impress 52
▁incoming 52
▁initial 52
▁intense 52
▁iwill 52
▁jewelry 52
▁kidney 52
▁lewis 52
▁lucas 52
▁ly 52
▁marshal 52
▁mart 52
▁maximum 52
▁misunder 52
▁motive 52
▁phoebe 52
▁plague 52
▁poetry 52
▁poisoned 52
▁prick 52
▁prophecy 52
▁proved 52
▁rango 52
▁reaching 52
▁rebecca 52
▁reddy 52
▁sanjana 52
▁searched 52
▁sequence 52
▁session 52
▁shelby 52
▁shiva 52
▁simmons 52
▁sinhala 52
▁sounded 52
▁steven 52
▁terrific 52
▁testing 52
▁thy 52
▁tire 52
▁version 52
▁waist 52
▁wallace 52
▁wisdom 52
▁worthy 52
▁අවු 52
▁ඇගට 52
▁ඇගයීම 52
▁ඇඳන 52
▁ඇමරිකන 52
▁ඇමරිකාව 52
▁උඩු 52
▁ඔයාගෙයි 52
▁ඔසවන 52
▁කතාබහ 52
▁කඳුළු 52
▁කරපුවා 52
▁කැසී 52
▁කියනු 52
▁කියමනක 52
▁කීයටවත 52
▁ගමනේ 52
▁ගයන 52
▁ගිටාර 52
▁ගෙවිය 52
▁ගොඩනැග 52
▁ගෝපදේශ 52
▁චිලා 52
▁ජනපදය 52
▁ජාව 52
▁ටද 52
▁ටවුම 52
▁ටිම 52
▁තපන 52
▁තොග 52
▁දරාගෙන 52
▁දියණිය 52
▁දුකෙන 52
▁දුඹුරු 52
▁නියෝජනය 52
▁නුඹලා 52
▁නෙමෙයිද 52
▁පානය 52
▁පැකේජය 52
▁පැණි 52
▁බෑනා 52
▁භට 52
▁මනමාලයා 52
▁මයිලි 52
▁මිහ 52
▁මුතු 52
▁යාපෘතියක 52
▁යායාම 52
▁රජයෙන 52
▁රතිචාරයක 52
▁රයිවර 52
▁රවී 52
▁රාහ 52
▁රියාන 52
▁රෝඩ 52
▁ලුව 52
▁වගෙම 52
▁වෙලාවයි 52
▁ෂුද 52
▁ෂෙල 52
▁සංවත 52
▁සමබර 52
▁සස 52
▁සුරි 52
▁සේම 52
▁සේවකයන 52
▁හදනවද 52
▁හමුදාවෙ 52
▁ළමයිනේ 52
▁ළමුන 52
asa 51
bert 51
een 51
ening 51
hill 51
illa 51
mit 51
oda 51
pa 51
rep 51
str 51
unch 51
ඔවුන 51
කරගත 51
ටමයි 51
ටු 51
දෙනවා 51
යල 51
ෙප 51
ෝග 51
▁Rango 51
▁abandon 51
▁abuse 51
▁af 51
▁amelia 51
▁assholes 51
▁associate 51
▁beside 51
▁boats 51
▁bowl 51
▁buff 51
▁chatter 51
▁cheated 51
▁classic 51
▁colleague 51
▁computers 51
▁congress 51
▁correctly 51
▁corruption 51
▁dean 51
▁denied 51
▁description 51
▁dignity 51
▁display 51
▁dull 51
▁dynamite 51
▁ease 51
▁element 51
▁emotion 51
▁expenses 51
▁facebook 51
▁facilities 51
▁fathers 51
▁figures 51
▁finest 51
▁flu 51
▁glory 51
▁goons 51
▁housing 51
▁impression 51
▁industries 51
▁interests 51
▁investment 51
▁jeff 51
▁lang 51
▁liberty 51
▁listened 51
▁majnu 51
▁mann 51
▁marines 51
▁mothers 51
▁mus 51
▁muslim 51
▁nail 51
▁nan 51
▁nimah 51
▁occur 51
▁officials 51
▁orbit 51
▁owns 51
▁pages 51
▁parker 51
▁pitch 51
▁pity 51
▁poll 51
▁porn 51
▁racing 51
▁remarkable 51
▁salad 51
▁sch 51
▁sher 51
▁stuffed 51
▁ter 51
▁territory 51
▁thr 51
▁thumb 51
▁travelling 51
▁treating 51
▁trevor 51
▁tub 51
▁unite 51
▁wealth 51
▁අගුල 51
▁අනාගතයක 51
▁අපරාද 51
▁අභියාචනා 51
▁අරනෙරි 51
▁අවමාන 51
▁අහිංසකයි 51
▁අෙප 51
▁ආයි 51
▁ආහාරයට 51
▁ඉංජිනේරුවෙක 51
▁උපදේශ 51
▁උපරිමයෙන 51
▁එකඟයි 51
▁එකපාර 51
▁එහිදී 51
▁ඔයාලාට 51
▁කටෝ 51
▁කථ 51
▁කථාකරන 51
▁කඳවුරට 51
▁කබාය 51
▁කලෙ 51
▁කළුවර 51
▁කොලේ 51
▁ගබඩාව 51
▁ගුණයක 51
▁ගෙනාවද 51
▁ගෝර 51
▁ටියන 51
▁ටෙලි 51
▁ඩලයට 51
▁ඩුවක 51
▁ඩොම 51
▁ඩොයිල 51
▁තාවේ 51
▁තූතිවන 51
▁තෙරුම 51
▁දිනක 51
▁දිරා 51
▁දුට 51
▁ධියේ 51
▁පරණයි 51
▁පළිගන 51
▁පිපුරුම 51
▁පූසෙක 51
▁බඩවැල 51
▁බීජ 51
▁මකට 51
▁මණටම 51
▁මැනී 51
▁මැරිලද 51
▁මැරෙනව 51
▁මෙතැනට 51
▁මේන 51
▁යනවනම 51
▁යෑම 51
▁යෝජනාව 51
▁රඳ 51
▁රවේශය 51
▁රියතම 51
▁රොනික 51
▁ලඟදි 51
▁ලාල 51
▁ලිසී 51
▁ලොර 51
▁වභාව 51
▁වයිද 51
▁වාදය 51
▁විජ 51
▁විධිමත 51
▁විශාලම 51
▁වෙඩික 51
▁සමුද 51
▁සමූහ 51
▁සීයට 51
▁සුවෙන 51
▁සූට 51
▁සේව 51
▁හානිය 51
▁හිරෙන 51
▁හුග 51
▁හොයමින 51
▁ෙහාද 51
62 50
aa 50
ability 50
amed 50
aus 50
hoo 50
iff 50
ipp 50
ko 50
oid 50
okay 50
pped 50
ressed 50
stick 50
tered 50
then 50
une 50
අප 50
ගොඩක 50
නු 50
වේදී 50
ානුවන 50
ෑර 50
ීප 50
ුමන 50
ුළුවන 50
ේනම 50
▁100,000 50
▁56 50
▁86 50
▁DNP 50
▁ahh 50
▁ajju 50
▁analysis 50
▁anne 50
▁announcement 50
▁arts 50
▁badge 50
▁bent 50
▁bleed 50
▁bor 50
▁bribe 50
▁bruno 50
▁cant 50
▁ceo 50
▁cliff 50
▁clouds 50
▁clown 50
▁collection 50
▁complaint 50
▁confident 50
▁corrupt 50
▁creation 50
▁declared 50
▁deeply 50
▁delta 50
▁distant 50
▁document 50
▁dollar 50
▁eager 50
▁email 50
▁essential 50
▁eve 50
▁flame 50
▁frightened 50
▁gre 50
▁holds 50
▁hy 50
▁included 50
▁jenna 50
▁jumping 50
▁kel 50
▁lily 50
▁lu 50
▁mani 50
▁mason 50
▁native 50
▁ops 50
▁peanut 50
▁peel 50
▁pleasant 50
▁preity 50
▁preparation 50
▁prototype 50
▁prov 50
▁raising 50
▁relevant 50
▁requesting 50
▁resistance 50
▁riley 50
▁rom 50
▁rookie 50
▁ru 50
▁scheduled 50
▁spray 50
▁stall 50
▁stepped 50
▁thread 50
▁tits 50
▁toys 50
▁tracked 50
▁trauma 50
▁wars 50
▁wed 50
▁wheels 50
▁worthless 50
▁wounds 50
▁zip 50
▁අපහාස 50
▁අරලිය 50
▁අලින 50
▁අලුතින 50
▁අවංකව 50
▁ආකාර 50
▁ආකාරයේ 50
▁ආයතනයක 50
▁ඇතිකරන 50
▁ඇනකින 50
▁ඉප 50
▁උඹලගේ 50
▁උසාවි 50
▁එයාද 50
▁එළදෙන 50
▁ඔඩ 50
▁ඔබලාගේ 50
▁ඔයාවයි 50
▁ඔෆ 50
▁කටෙ 50
▁කරනවනේ 50
▁කිරණ 50
▁කිහිපයකින 50
▁කුරුම 50
▁ගෑණි 50
▁ගෞරවයෙන 50
▁චාරු 50
▁ජනපදයේ 50
▁ජැකී 50
▁ජීවීන 50
▁ඩත 50
▁තනිකරම 50
▁තරමෙ 50
▁තේඩියස 50
▁දමලා 50
▁දවසකින 50
▁දවෙන 50
▁දාඩිය 50
▁දැවැන 50
▁දිශ 50
▁දීමක 50
▁දුවයි 50
▁දෙනයි 50
▁නගරෙට 50
▁නගිනවා 50
▁නැතුවම 50
▁නැම 50
▁නිළධාරියෙක 50
▁නේක 50
▁නොකරපු 50
▁පතුල 50
▁පලාත 50
▁පලිගන 50
▁පහලින 50
▁පෙනුනේ 50
▁පොඩියි 50
▁බාධක 50
▁බුණා 50
▁මරණයක 50
▁මාතෘ 50
▁මිනිහො 50
▁රජාව 50
▁රජෙක 50
▁රථමාධාර 50
▁රදේශයක 50
▁රිව 50
▁රුක 50
▁ලඟයි 50
▁ලමට 50
▁ලාච 50
▁ලීසා 50
▁වදිනවා 50
▁වලහෙක 50
▁වානේ 50
▁වීදිය 50
▁වෙනවාද 50
▁ශාලාවට 50
▁ෂණිකව 50
▁ෂාවෙන 50
▁ෂිට 50
▁සහනයක 50
▁සාධක 50
▁සැළසුම 50
▁හමුවන 50
▁හලක 50
▁හසුරවන 50
▁හැමදේකටම 50
▁හෙමිට 50
▁හෝද 50
▁ෆොල 50
,0 49
ains 49
att 49
away 49
bal 49
ette 49
gi 49
ider 49
itting 49
master 49
now 49
ork 49
port 49
ras 49
rd 49
rid 49
see 49
ude 49
umb 49
was 49
ඉතින 49
කුත 49
ගැස 49
නාව 49
පය 49
යී 49
වේද 49
ෆර 49
ාගාර 49
ානයේ 49
ිකරණය 49
ිතයි 49
ුවයි 49
ෙණ 49
▁51 49
▁79 49
▁It 49
▁MI 49
▁affected 49
▁ammo 49
▁approved 49
▁attacking 49
▁bald 49
▁bass 49
▁batteries 49
▁boxing 49
▁brake 49
▁brakes 49
▁brooklyn 49
▁burns 49
▁chew 49
▁chin 49
▁compete 49
▁conce 49
▁cycle 49
▁discussed 49
▁discussion 49
▁divorced 49
▁embrace 49
▁et 49
▁experienced 49
▁explained 49
▁fabious 49
▁fellas 49
▁fled 49
▁fond 49
▁ford 49
▁fucker 49
▁harper 49
▁harvest 49
▁hyp 49
▁ian 49
▁jar 49
▁jill 49
▁julia 49
▁kim 49
▁knights 49
▁legion 49
▁length 49
▁linus 49
▁lip 49
▁lobby 49
▁locker 49
▁lust 49
▁medication 49
▁mist 49
▁nardo 49
▁outfit 49
▁photographs 49
▁ple 49
▁potter 49
▁rajat 49
▁realise 49
▁represent 49
▁sheet 49
▁sins 49
▁storage 49
▁tracy 49
▁tragedy 49
▁upload 49
▁viktor 49
▁whats 49
▁whereabouts 49
▁worker 49
▁yea 49
▁අඛණ 49
▁අතාරිනවා 49
▁අතිශය 49
▁අධිකාරියේ 49
▁අයෙත 49
▁අලංකාර 49
▁අවදානය 49
▁අහවල 49
▁ආරාධ 49
▁ඇමෙරිකානු 49
▁උපරිමය 49
▁උබෙ 49
▁උරුමය 49
▁එකාව 49
▁ඔයාවම 49
▁ඔලු 49
▁කටුස 49
▁කඩයක 49
▁කතෘ 49
▁කපු 49
▁කරගැනීම 49
▁කාලගුණ 49
▁කුමරු 49
▁කුයිල 49
▁කොටසට 49
▁ගඟට 49
▁ගනෙියන 49
▁ගානකින 49
▁ගුරුවරයා 49
▁ගොත 49
▁ගොවිපල 49
▁චැනල 49
▁තිබුනද 49
▁තූරය 49
▁ථකයි 49
▁ථනය 49
▁දමෙව 49
▁දරුවට 49
▁දිලිසෙන 49
▁දෙට 49
▁නිති 49
▁නිළධාර 49
▁නීතිමය 49
▁නීතියට 49
▁නුඹව 49
▁නෙල 49
▁නේවාසික 49
▁නොන 49
▁නොනැවතී 49
▁පපුවේ 49
▁පයර 49
▁පහකින 49
▁පාඤ 49
▁පාඩුවෙ 49
▁පාදක 49
▁පාවා 49
▁පාසලට 49
▁පුතාගේ 49
▁පෙළඹ 49
▁බාධ 49
▁බැංකුවක 49
▁බැරිවුණා 49
▁භාෂාවෙන 49
▁මාසෙකට 49
▁මීමැස 49
▁මීරා 49
▁මුක 49
▁මුලික 49
▁මෙට 49
▁යාකූල 49
▁යානාව 49
▁යැයි 49
▁යේධ 49
▁රගන 49
▁රවේශම 49
▁රසම 49
▁රාජකාර 49
▁රාධා 49
▁රෙවර 49
▁ලිංගිකව 49
▁ලිඛිත 49
▁ලේයර 49
▁ලෝස 49
▁වයසයි 49
▁වැටුණා 49
▁විකුන 49
▁විනාශයක 49
▁වුනෙ 49
▁වෘ 49
▁වෙඩින 49
▁ෂයන 49
▁සංජේ 49
▁සියා 49
▁හංග 49
▁හඳුනාගන 49
▁හාව 49
-8 48
.6 48
40 48
ado 48
aka 48
ames 48
book 48
ences 48
hel 48
ional 48
ister 48
ital 48
key 48
oon 48
rating 48
rin 48
එයාට 48
චන 48
තර 48
තැන 48
නව 48
නවාද 48
බු 48
රින 48
රෝ 48
ලයට 48
වුර 48
වෙද 48
ශීලි 48
හො 48
ාරි 48
ාවෙනවා 48
ියොත 48
ුදෙන 48
ුවුනා 48
ෙනෙක 48
▁2005 48
▁50,000 48
▁alan 48
▁alike 48
▁amounting 48
▁anatomy 48
▁authorized 48
▁baahubali 48
▁babu 48
▁barn 48
▁bind 48
▁bol 48
▁bothering 48
▁brace 48
▁burst 48
▁canada 48
▁catching 48
▁chester 48
▁closet 48
▁cough 48
▁critical 48
▁damned 48
▁dea 48
▁distract 48
▁dock 48
▁embarrassing 48
▁epic 48
▁finance 48
▁fur 48
▁gambling 48
▁gentle 48
▁gibson 48
▁grenouille 48
▁hm 48
▁hor 48
▁humor 48
▁hunger 48
▁infection 48
▁invest 48
▁jelly 48
▁july 48
▁luggage 48
▁machiraju 48
▁madame 48
▁menu 48
▁methods 48
▁mexican 48
▁mp 48
▁neha 48
▁noon 48
▁optim 48
▁orchid 48
▁pakistan 48
▁practically 48
▁pulse 48
▁pyramid 48
▁ramp 48
▁rebels 48
▁rebuild 48
▁rejected 48
▁riya 48
▁robin 48
▁ron 48
▁runway 48
▁russia 48
▁shaking 48
▁sire 48
▁sports 48
▁spr 48
▁superman 48
▁telephone 48
▁terribly 48
▁torn 48
▁tortured 48
▁troubles 48
▁vs 48
▁wondered 48
▁yash 48
▁අගෞරව 48
▁අනිච 48
▁අයියට 48
▁ආවාම 48
▁ඇගෙන 48
▁ඇතිවන 48
▁ඇඳේ 48
▁උච 48
▁උතුරේ 48
▁එකිනෙකට 48
▁එනිස 48
▁එයාලාට 48
▁එයාවත 48
▁එහමයි 48
▁කටින 48
▁කටුව 48
▁කතාකලේ 48
▁කථාව 48
▁කදිම 48
▁කබායක 48
▁කඹ 48
▁කරගැනීමට 48
▁කලකිර 48
▁කවත 48
▁කවුරැ 48
▁කාපාත 48
▁කැද 48
▁කැලේට 48
▁කිරිල 48
▁කීපදෙනෙක 48
▁ගාර 48
▁ගුරුතුම 48
▁ගෙඩියක 48
▁ජනා 48
▁ටනවා 48
▁ටියව 48
▁ඩකට 48
▁තැනකම 48
▁තියෙනවනේ 48
▁තුකාරයෙක 48
▁තේරීමක 48
▁දඟලන 48
▁දවසකම 48
▁දාදුවන 48
▁දුවත 48
▁දෙනකේ 48
▁දේවු 48
▁ධතාවයක 48
▁නියත 48
▁පාවෙන 48
▁පැරිෂ 48
▁පිළිපදින 48
▁බදුල 48
▁බලපාන 48
▁බෙරි 48
▁බෝර 48
▁භාරගන 48
▁මාංශ 48
▁මැරුනොත 48
▁මැරුවද 48
▁මිනීමැරුමක 48
▁මිර 48
▁මුට 48
▁මෙටා 48
▁මෝදී 48
▁යමාන 48
▁රඩ 48
▁රතිශක 48
▁රමාන 48
▁රියදුරා 48
▁රේඩාර 48
▁රෝහන 48
▁ලකුණක 48
▁ලගම 48
▁ලැට 48
▁ලුණු 48
▁ලෙඩෙක 48
▁වගකිව 48
▁වගයි 48
▁වැළැක 48
▁විවාහයට 48
▁විශේෂත 48
▁විසඳගන 48
▁විහිල 48
▁වෙනවනම 48
▁වෙනිදා 48
▁වෙර 48
▁වෙවි 48
▁ශව 48
▁ශි 48
▁සංචාරයක 48
▁සංසද 48
▁සටනට 48
▁සභාවට 48
▁සැටලයිට 48
▁සිදුවූ 48
▁සුරංගනා 48
▁සුවිශේෂ 48
▁සේවයට 48
▁හතයි 48
▁හදමු 48
▁හැමකෙනෙක 48
▁හැමදෙනාම 48
▁හිටගන 48
▁හෙඩ 48
▁හෙතුව 48
▁හේත 48
▁හොලවන 48
▁ෙප 48
aging 47
ense 47
fer 47
handed 47
ili 47
ires 47
ku 47
lar 47
lets 47
ole 47
place 47
rent 47
stop 47
ugg 47
umber 47
urn 47
ඊ 47
කරවන 47
ජි 47
දක 47
ධර 47
ධාන 47
නාත 47
භාව 47
සීම 47
සෝ 47
ානි 47
ිකරුවන 47
ිමත 47
ිවර 47
ුලේ 47
ුවලින 47
ෝඩ 47
▁3000 47
▁68 47
▁91 47
▁95 47
▁98 47
▁accounting 47
▁avenue 47
▁baker 47
▁bitches 47
▁bout 47
▁bump 47
▁cad 47
▁caitlin 47
▁carla 47
▁cemetery 47
▁centuries 47
▁charity 47
▁checks 47
▁cheek 47
▁coconut 47
▁controlled 47
▁crushed 47
▁depth 47
▁determine 47
▁dialogue 47
▁discovery 47
▁driven 47
▁drivers 47
▁duggal 47
▁eastern 47
▁educated 47
▁favourite 47
▁fiona 47
▁fluid 47
▁gasps 47
▁gaurav 47
▁hans 47
▁horsemen 47
▁imperial 47
▁increased 47
▁incredibly 47
▁independent 47
▁instincts 47
▁isabel 47
▁jeep 47
▁jonathan 47
▁learnt 47
▁meera 47
▁melt 47
▁nancy 47
▁nat 47
▁obey 47
▁observed 47
▁paradise 47
▁passenger 47
▁pawn 47
▁pays 47
▁poem 47
▁poly 47
▁poo 47
▁proven 47
▁pun 47
▁rao 47
▁raven 47
▁recognition 47
▁register 47
▁rein 47
▁rick 47
▁rio 47
▁ripped 47
▁salt 47
▁sebastian 47
▁select 47
▁selvi 47
▁shared 47
▁shephard 47
▁sil 47
▁sites 47
▁soap 47
▁starving 47
▁string 47
▁surgeon 47
▁surprises 47
▁swallow 47
▁sync 47
▁talkin 47
▁titanic 47
▁treason 47
▁viol 47
▁visited 47
▁witches 47
▁අතඅරින 47
▁අදට 47
▁අපරාධකාරයෙක 47
▁අපාය 47
▁අඹ 47
▁අයුරින 47
▁අරහේ 47
▁අවදිව 47
▁ආකාරයක 47
▁ආධුනික 47
▁ඇමරික 47
▁ඉතුරුවෙලා 47
▁ඉයන 47
▁ඉරි 47
▁ඉවරකරන 47
▁උග 47
▁උතුමානනි 47
▁උමග 47
▁එකටද 47
▁එමු 47
▁කදවුරට 47
▁කබල 47
▁කලන 47
▁කාලකණ 47
▁කියුබ 47
▁කුහර 47
▁කෙනාද 47
▁කේලබ 47
▁ගලිකත 47
▁ගිනික 47
▁ගුණාත 47
▁ඤා 47
▁ටැග 47
▁ටෙට 47
▁ඩව 47
▁තරණය 47
▁තීරනය 47
▁තොරතුර 47
▁දනවා 47
▁දවන 47
▁දියානු 47
▁නගේ 47
▁නයේමි 47
▁නසාගන 47
▁නායි 47
▁පනිනවා 47
▁පමණි 47
▁පරයකට 47
▁පවුම 47
▁පවුලම 47
▁පාමර 47
▁පාලනයෙන 47
▁පැමිණෙනවා 47
▁පෙදෙස 47
▁පොද 47
▁බාස 47
▁බැඳිලා 47
▁බූරුවා 47
▁භාෂ 47
▁භූමියට 47
▁මාවයි 47
▁මිළ 47
▁මෙයයි 47
▁යෝජනාවක 47
▁රජන 47
▁රණයක 47
▁රප 47
▁රමයට 47
▁රමයෙන 47
▁රවේශපත 47
▁රියාවට 47
▁ලාගේ 47
▁වචනෙ 47
▁වටපිටාව 47
▁වලම 47
▁වැටීම 47
▁වැදුන 47
▁වැම 47
▁විනෝදයි 47
▁විශාලයි 47
▁ශාරීරික 47
▁ෂකයෝ 47
▁ෂාකාරී 47
▁සමලිංගික 47
▁සයිට 47
▁සහෝදරයෝ 47
▁සැපය 47
▁සිංදුව 47
▁සිදුරු 47
▁සිනහ 47
▁සුරතල 47
▁සුවේ 47
▁සොරි 47
▁හාපර 47
▁හැමෝ 47
▁හිමින 47
aming 46
ared 46
ashing 46
ask 46
ern 46
hara 46
ices 46
iest 46
iling 46
inda 46
ker 46
lands 46
light 46
lling 46
lock 46
ography 46
oma 46
ories 46
oses 46
pper 46
reat 46
rum 46
ular 46
ජනය 46
ණී 46
බලා 46
බෑ 46
රට 46
රණය 46
වේවා 46
ාධ 46
ැදි 46
ුමා 46
▁62 46
▁777 46
▁85 46
▁89 46
▁92 46
▁DEA 46
▁Frodo 46
▁Nash 46
▁acid 46
▁adam 46
▁ang 46
▁apologies 46
▁apology 46
▁approve 46
▁aria 46
▁arrangement 46
▁asses 46
▁bored 46
▁bot 46
▁bravo 46
▁busted 46
▁charming 46
▁coin 46
▁cooperate 46
▁countries 46
▁crane 46
▁diamond 46
▁diana 46
▁download 46
▁dug 46
▁efficient 46
▁ellie 46
▁emmet 46
▁ennis 46
▁evos 46
▁expose 46
▁farmer 46
▁gabriel 46
▁gratitude 46
▁grunting 46
▁harrison 46
▁hollywood 46
▁hom 46
▁hopes 46
▁intended 46
▁interrogation 46
▁jersey 46
▁lecture 46
▁magazine 46
▁maiden 46
▁maintenance 46
▁matthew 46
▁mig 46
▁needle 46
▁negotiate 46
▁nicely 46
▁objective 46
▁obsessed 46
▁packing 46
▁personality 46
▁politicians 46
▁raja 46
▁rebel 46
▁regulations 46
▁romance 46
▁rousseau 46
▁rubbish 46
▁rumors 46
▁severe 46
▁slightly 46
▁sor 46
▁sorts 46
▁spoon 46
▁static 46
▁stein 46
▁superior 46
▁tab 46
▁tanks 46
▁tat 46
▁tension 46
▁teri 46
▁tet 46
▁theatre 46
▁tissue 46
▁tool 46
▁toretto 46
▁unexpected 46
▁unfortunate 46
▁vacuum 46
▁values 46
▁vis 46
▁wally 46
▁අදම 46
▁අදර 46
▁අවකාශය 46
▁අවයව 46
▁ආංශික 46
▁ආහාරය 46
▁ඇවටර 46
▁ඉති 46
▁ඉඳියි 46
▁ඉහලම 46
▁ඊවෝ 46
▁උසාවියට 46
▁එකකේ 46
▁එකිනෙකාව 46
▁එනගමන 46
▁ඒකමයි 46
▁කටට 46
▁කඩු 46
▁කමු 46
▁කරුවා 46
▁කළත 46
▁කාපු 46
▁කැතයි 46
▁කැරී 46
▁කියනකම 46
▁කියපුවා 46
▁කෝර 46
▁ගැටලු 46
▁ගැහිලා 46
▁ගුරුවරුන 46
▁ඟ 46
▁ජනවාරි 46
▁ටමට 46
▁ටයා 46
▁ටවත 46
▁ටාක 46
▁ටීන 46
▁ඩැඩී 46
▁ඩේල 46
▁තබාගන 46
▁තයෙන 46
▁තරුණයි 46
▁තාවකාලිකව 46
▁දකුනු 46
▁දානිෂ 46
▁දැමුවා 46
▁දුවෙන 46
▁දෙනාට 46
▁දේපලක 46
▁දේපළ 46
▁දේවා 46
▁දොල 46
▁නංගිගේ 46
▁නලෙ 46
▁නවීන 46
▁නිහඬ 46
▁නෙමයි 46
▁නෙර 46
▁නොමග 46
▁පටක 46
▁පටවන 46
▁පැවස 46
▁පිහ 46
▁පිළිකුල 46
▁පීඩනයක 46
▁බරෙ 46
▁බැදපු 46
▁බිදින 46
▁බිමින 46
▁බුදුන 46
▁බෙට 46
▁බොහෝදුරට 46
▁මලු 46
▁මායාව 46
▁මැච 46
▁මැනේජර 46
▁මිදෙන 46
▁මිරැන 46
▁මුදු 46
▁මෙහා 46
▁මෙහිදී 46
▁යල 46
▁යවරුන 46
▁යාගය 46
▁රකාශයට 46
▁රසාද 46
▁රහනය 46
▁රිල 46
▁රුහරි 46
▁ලිපිය 46
▁ලෝකයෙන 46
▁ලෝකෙන 46
▁වයිල 46
▁වාසකරන 46
▁වැඩවලට 46
▁විශේෂඥ 46
▁විශේෂඥයෙක 46
▁විසිකරන 46
▁වීරයන 46
▁වුනහම 46
▁වෙලාවෙදි 46
▁වෙළෙන 46
▁වේලාව 46
▁ෂැම 46
▁සටර 46
▁සලක 46
▁සහගතයි 46
▁සෘජු 46
▁සෙබළ 46
▁සෙයි 46
▁සේට 46
▁සේවකයින 46
▁හංගගෙන 46
▁හසු 46
▁හැරියා 46
▁හැරුනා 46
▁හිටන 46
▁ෙපන 46
23 45
34 45
aster 45
bb 45
four 45
iring 45
ito 45
mark 45
ological 45
orm 45
pers 45
set 45
sing 45
uce 45
uous 45
ye 45
zed 45
ඃ 45
එපා 45
කරමින 45
ඩියක 45
පුව 45
රිම 45
ලගේ 45
ෂන 45
සල 45
හාන 45
හෙම 45
ිවෙල 45
ිහින 45
ුනාට 45
ෟ 45
▁10- 45
▁GPS 45
▁accelerator 45
▁announce 45
▁annual 45
▁appropriate 45
▁arriving 45
▁attach 45
▁austen 45
▁blamed 45
▁blanket 45
▁blink 45
▁carver 45
▁cheer 45
▁colour 45
▁containment 45
▁crewes 45
▁customers 45
▁dallas 45
▁destroying 45
▁dorian 45
▁ender 45
▁enhance 45
▁etc 45
▁evolution 45
▁exams 45
▁fastest 45
▁flip 45
▁fold 45
▁freddy 45
▁gig 45
▁graduation 45
▁greg 45
▁gro 45
▁hammer 45
▁handled 45
▁headquarters 45
▁hen 45
▁hobby 45
▁inch 45
▁industrial 45
▁injustice 45
▁kiddo 45
▁leap 45
▁liber 45
▁loses 45
▁madness 45
▁magical 45
▁magnificent 45
▁mere 45
▁micro 45
▁miserable 45
▁nana 45
▁ninja 45
▁orb 45
▁pac 45
▁pacific 45
▁pale 45
▁parade 45
▁permanent 45
▁pockets 45
▁presentation 45
▁providing 45
▁quarters 45
▁questioning 45
▁quill 45
▁rap 45
▁replaced 45
▁reporting 45
▁residence 45
▁returns 45
▁satellites 45
▁seeker 45
▁slipper 45
▁subconscious 45
▁suitcase 45
▁sutter 45
▁switched 45
▁syndicate 45
▁tasty 45
▁testify 45
▁tig 45
▁toby 45
▁tons 45
▁traced 45
▁unbelievable 45
▁understands 45
▁vaccine 45
▁wednesday 45
▁whit 45
▁yell 45
▁zombies 45
▁අඩුමගානෙ 45
▁අරාබි 45
▁ආකෘති 45
▁ආදරණිය 45
▁ඇමරිකාවට 45
▁ඇයගෙන 45
▁ඇරෝ 45
▁ඉතන 45
▁උදාර 45
▁උඹෙ 45
▁එරෙහි 45
▁ඔතනම 45
▁ඔහෙලා 45
▁කනෙ 45
▁කරක 45
▁කරගමු 45
▁කළබල 45
▁කැරකෙන 45
▁කිවුවද 45
▁කුබෝ 45
▁කෝෆීල 45
▁ගහනව 45
▁ගෙනිය 45
▁ගොඩනගන 45
▁ගොවිප 45
▁ඝාතක 45
▁ජලිස 45
▁ටයිලර 45
▁ටැංකි 45
▁ටෙරී 45
▁ඨයි 45
▁ඩයනා 45
▁ඩැනී 45
▁ඩිවීඩි 45
▁ණයගැති 45
▁තනන 45
▁තියනවාද 45
▁තිරය 45
▁තුමාට 45
▁තේරෙයි 45
▁ථානයකට 45
▁දමනවා 45
▁දරත 45
▁දහය 45
▁දැකිය 45
▁දිනයේ 45
▁දේසියක 45
▁දො 45
▁නාගේ 45
▁නාඩෝ 45
▁නාමෙන 45
▁නැතිවයි 45
▁නිරාවරණය 45
▁නීතීඥ 45
▁නූල 45
▁නේම 45
▁නොකිව 45
▁නොපෙනී 45
▁පණගන 45
▁පතු 45
▁පියක 45
▁පිවිස 45
▁පිහාටු 45
▁පිහින 45
▁පිළිකාවක 45
▁පුපුරණ 45
▁පෘථිවියෙ 45
▁බාබා 45
▁බිරිදට 45
▁භුම 45
▁මතට 45
▁මමී 45
▁මාලිග 45
▁මැට 45
▁මිතුර 45
▁මීනම 45
▁මුණගැස 45
▁මුහුණට 45
▁මෙහෙයුමට 45
▁මේසන 45
▁මොකකින 45
▁යතුරක 45
▁යනවාද 45
▁රයෝ 45
▁රයෝජනයට 45
▁රැවටිල 45
▁රියාකාරීත 45
▁රියාවන 45
▁රිවර 45
▁ලගයි 45
▁ලඩ 45
▁ලනව 45
▁ලය 45
▁ලුවෙන 45
▁ලුහුබැඳ 45
▁ලොත 45
▁වතුන 45
▁වයකට 45
▁වරාය 45
▁විනිසුරු 45
▁විපරම 45
▁විභ 45
▁ශී 45
▁ශේ 45
▁සංගම 45
▁සාවෙන 45
▁සීමාසහිත 45
▁සුදුස 45
▁සේවාව 45
▁සෝවියට 45
▁හමුදාවෙන 45
▁හවසට 45
▁හැදුනුම 45
▁හැරිසන 45
▁හැරීම 45
▁හිතමින 45
▁හිරිහැරයක 45
▁හෙම 45
▁ෆයින 45
▁ෙව 45
ables 44
aded 44
ander 44
atch 44
bar 44
coming 44
den 44
di 44
got 44
had 44
hic 44
itation 44
oring 44
ould 44
py 44
tle 44
කලේ 44
දිත 44
යුත 44
සුන 44
හාර 44
ාගේ 44
ැඩ 44
ියෙම 44
▁2,000 44
▁96 44
▁Q 44
▁aal 44
▁admire 44
▁affection 44
▁altered 44
▁annex 44
▁approximately 44
▁attempted 44
▁attractive 44
▁bastards 44
▁bats 44
▁bombing 44
▁breeze 44
▁burden 44
▁buzz 44
▁capacity 44
▁chapter 44
▁cleaner 44
▁conducting 44
▁conscious 44
▁cookie 44
▁counts 44
▁custom 44
▁darhk 44
▁depend 44
▁disorder 44
▁drops 44
▁electrical 44
▁elves 44
▁embarrass 44
▁envelope 44
▁episode 44
▁evan 44
▁faced 44
▁feast 44
▁fibonacci 44
▁fiddle 44
▁fits 44
▁flynn 44
▁follows 44
▁formed 44
▁freezing 44
▁freighter 44
▁functions 44
▁greedy 44
▁grip 44
▁grows 44
▁hacked 44
▁holly 44
▁infect 44
▁install 44
▁investigating 44
▁lap 44
▁larger 44
▁lessons 44
▁lndu 44
▁loop 44
▁mandira 44
▁mansion 44
▁mariko 44
▁meanwhile 44
▁minimum 44
▁molly 44
▁overnight 44
▁pancakes 44
▁pistol 44
▁plates 44
▁proposed 44
▁published 44
▁qualified 44
▁queens 44
▁recommend 44
▁rhyme 44
▁sack 44
▁samantha 44
▁scooby 44
▁scum 44
▁shine 44
▁siding 44
▁slapped 44
▁slide 44
▁southern 44
▁spaceship 44
▁stabbed 44
▁sticking 44
▁subjects 44
▁temper 44
▁tensed 44
▁trains 44
▁twitter 44
▁unp 44
▁vent 44
▁vey 44
▁vow 44
▁walker 44
▁workers 44
▁worries 44
▁අංජලී 44
▁අඩංගුවේ 44
▁අතනට 44
▁අතිකාල 44
▁අදහන 44
▁අදුන 44
▁අදුරගන 44
▁අනුන 44
▁අපරාධකාරයෝ 44
▁අපහසුත 44
▁අයිරීන 44
▁අවාසනාව 44
▁අසුන 44
▁ඇලී 44
▁ඉදපන 44
▁එපිට 44
▁එලාම 44
▁ඒරන 44
▁කඩුවක 44
▁කපටි 44
▁කමිස 44
▁කයට 44
▁කරනවානම 44
▁කරුන 44
▁කරුම 44
▁කලිං 44
▁කැරකෙනවා 44
▁කිසිකෙනෙක 44
▁කෙනී 44
▁කෙලවර 44
▁කෙළවර 44
▁ගණිත 44
▁ගනේ 44
▁ගබඩාවක 44
▁ගලයින 44
▁ගෑනියෙක 44
▁චෙෆ 44
▁චොපර 44
▁ජාතීන 44
▁ටඩ 44
▁ටිල 44
▁ටොර 44
▁ඩාගාර 44
▁ඩාන 44
▁ඩෙවන 44
▁ණෙ 44
▁තියනවො 44
▁තුමාණන 44
▁ථීර 44
▁දවසින 44
▁දියුණ 44
▁දෙබස 44
▁නගරෙන 44
▁නවක 44
▁නිලදාර 44
▁නිවහන 44
▁පංතියේ 44
▁පණිවුඩ 44
▁පදිංචි 44
▁පලතුරු 44
▁පහරදුන 44
▁පාටට 44
▁පැනි 44
▁පැරද 44
▁පැරදුනා 44
▁පියාට 44
▁පෙරල 44
▁පොටර 44
▁බරේ 44
▁බලාගනෙ 44
▁බැරිවෙන 44
▁බෝන 44
▁භායි 44
▁භූමියේ 44
▁මදුර 44
▁මනාල 44
▁මාච 44
▁මැගී 44
▁මැදට 44
▁මැලේස 44
▁මිතුරා 44
▁මීනා 44
▁මුදුනට 44
▁මොළය 44
▁ඹ 44
▁රටකජු 44
▁රටාව 44
▁රමාණ 44
▁රළු 44
▁රාය 44
▁රාවක 44
▁රැය 44
▁රෙට 44
▁රොහාන 44
▁රෝගී 44
▁ලබාගෙන 44
▁ලාහු 44
▁ලිපියක 44
▁ලියවිල 44
▁ලියෝ 44
▁වංශ 44
▁වැලක 44
▁විදේශීය 44
▁වීදුරුව 44
▁වේගෙ 44
▁ෂල 44
▁ෂව 44
▁සංකේත 44
▁සමාෙවන 44
▁සමුගන 44
▁සැකසීම 44
▁සැකසුම 44
▁සැලස 44
▁සිතුවම 44
▁සීයාගේ 44
▁සූද 44
▁සේවයක 44
▁සොයාගැනීම 44
▁සෝයී 44
▁හමුදාපති 44
▁හමුවීමක 44
▁හරී 44
▁හලේ 44
▁හවුස 44
▁හාදයෙක 44
▁හැදුවද 44
▁හැදෙනවා 44
▁හිතෙයි 44
▁හිරි 44
▁හේතුවකට 44
▁හෝඩුවාවක 44
▁ෙනමයි 44
▁ෙවනුෙවන 44
,6 43
14 43
33 43
body 43
cr 43
did 43
gar 43
ii 43
ively 43
izz 43
looking 43
mond 43
more 43
ount 43
ously 43
rem 43
three 43
ula 43
ulating 43
utes 43
ංගම 43
ංශය 43
කමින 43
ගියා 43
පති 43
බද 43
යිනි 43
ලර 43
වැට 43
ාගාරය 43
ියනවා 43
ුකාරයා 43
ුකාරයෙක 43
ුගෙන 43
ුලක 43
ෞ 43
▁101 43
▁700 43
▁Cobb 43
▁Mrs 43
▁NYPD 43
▁abilities 43
▁aku 43
▁appearance 43
▁aqu 43
▁awkward 43
▁bangkok 43
▁battles 43
▁bible 43
▁boarding 43
▁booked 43
▁cartel 43
▁ceiling 43
▁charu 43
▁chips 43
▁circ 43
▁closely 43
▁coll 43
▁consent 43
▁contacts 43
▁couch 43
▁creek 43
▁creepy 43
▁deb 43
▁defence 43
▁dia 43
▁drawn 43
▁dummy 43
▁extraction 43
▁fame 43
▁fiance 43
▁flooded 43
▁forms 43
▁freaked 43
▁freckles 43
▁galaxy 43
▁genuine 43
▁halloween 43
▁harvey 43
▁heist 43
▁hive 43
▁honesty 43
▁hostiles 43
▁improve 43
▁injury 43
▁katie 43
▁kennedy 43
▁killers 43
▁lawn 43
▁libby 43
▁lj 43
▁lovers 43
▁martha 43
▁mas 43
▁masks 43
▁melissa 43
▁merely 43
▁merry 43
▁miami 43
▁modi 43
▁nandini 43
▁nanny 43
▁nova 43
▁observation 43
▁particle 43
▁peeta 43
▁photographer 43
▁piano 43
▁pret 43
▁prost 43
▁rac 43
▁rang 43
▁rayna 43
▁reform 43
▁relay 43
▁rupavahini 43
▁scarlet 43
▁shields 43
▁shr 43
▁sniff 43
▁soda 43
▁specifically 43
▁stink 43
▁sunny 43
▁suspected 43
▁tej 43
▁tina 43
▁tink 43
▁tit 43
▁ultimate 43
▁vas 43
▁ven 43
▁voices 43
▁vulnerable 43
▁wa 43
▁wicked 43
▁අදත 43
▁අදිනවා 43
▁අනතුරුදායකයි 43
▁අපිටම 43
▁අමර 43
▁අරුම 43
▁අවජාතක 43
▁අහුවුනොත 43
▁ආධ 43
▁ආයතනවල 43
▁ආශාව 43
▁ඇරිලා 43
▁ඉතුර 43
▁ඉදලම 43
▁ඉදී 43
▁ඉපදිලා 43
▁එලී 43
▁එළියක 43
▁ඒම 43
▁ඔතනට 43
▁කඩාකප 43
▁කරලයි 43
▁කීපයකින 43
▁කුවට 43
▁කෙතරම 43
▁ගවේෂණය 43
▁ගැඹුර 43
▁ගිර 43
▁ගුට 43
▁ගුප 43
▁ගොඩබිම 43
▁චෝටාලා 43
▁ජාලයට 43
▁ජීප 43
▁ටයිල 43
▁ටාන 43
▁ටෙඩී 43
▁ඩාංක 43
▁ඩො 43
▁ණා 43
▁තගෙන 43
▁තරයේ 43
▁තශාලා 43
▁තිමය 43
▁තුරයක 43
▁දැනිලා 43
▁දෑස 43
▁දෙමින 43
▁ධයට 43
▁නයේ 43
▁නරකද 43
▁නාහ 43
▁නැවතුනේ 43
▁නිකංම 43
▁නිමා 43
▁නියපොතු 43
▁නුවණ 43
▁නොදකින 43
▁නොවුනොත 43
▁පහස 43
▁පහේ 43
▁පළාතේ 43
▁පාලකයා 43
▁පැටවා 43
▁පැස 43
▁පීලි 43
▁පුදුමයට 43
▁බලපු 43
▁බවුන 43
▁බාරදෙන 43
▁බිට 43
▁බීතොවෙන 43
▁බෙමු 43
▁බෝනික 43
▁මටෙෙ 43
▁මාණයක 43
▁මැරි 43
▁මැරෙණ 43
▁මිනිහගෙ 43
▁මුණගැ 43
▁මුවා 43
▁මේවත 43
▁මොලය 43
▁යටිතල 43
▁යෙෂ 43
▁රටින 43
▁රතිජීවක 43
▁රතිස 43
▁රමානයක 43
▁රයෙක 43
▁රයෙන 43
▁රලේඛ 43
▁රාපොලිස 43
▁රැදී 43
▁රැවැට 43
▁රීට 43
▁රෙඩි 43
▁රේසි 43
▁රෝහලකට 43
▁ලබාද 43
▁ලමයව 43
▁ලෙව 43
▁ලේඩ 43
▁වංච 43
▁වටය 43
▁විදිහටයි 43
▁විධාන 43
▁විභාගය 43
▁විසඳුමක 43
▁විසිනි 43
▁විසිර 43
▁වීට 43
▁ශූර 43
▁ශෝව 43
▁ෂණාගාර 43
▁සිටීමට 43
▁සිරි 43
▁සීසිල 43
▁හයේ 43
▁හාවෙක 43
▁හිටින 43
▁හොයාගනී 43
▁ෙහා 43
-12 42
.8 42
aces 42
acks 42
alk 42
aven 42
aze 42
burn 42
die 42
ended 42
gal 42
gard 42
hab 42
inc 42
osa 42
rit 42
sel 42
su 42
uel 42
ult 42
usion 42
water 42
එයාල 42
කරුවෝ 42
කියලා 42
කෙ 42
චක 42
ජේ 42
ටෝ 42
බාද 42
වරියක 42
විච 42
වුණා 42
හෙට 42
හෙයි 42
ෆි 42
ාරා 42
ැලි 42
ියේදී 42
ුණෙ 42
ුරුත 42
ුරුද 42
ොග 42
ෝලා 42
ෝෂ 42
▁197 42
▁69 42
▁76 42
▁Ar 42
▁RV 42
▁accordingly 42
▁admitted 42
▁adorable 42
▁amb 42
▁application 42
▁architect 42
▁asgard 42
▁avenge 42
▁becca 42
▁cabinet 42
▁carol 42
▁clot 42
▁comb 42
▁confusing 42
▁content 42
▁cotton 42
▁cracked 42
▁cue 42
▁daanish 42
▁dealt 42
▁deon 42
▁determined 42
▁dinosaur 42
▁directions 42
▁districts 42
▁disturbing 42
▁eats 42
▁ec 42
▁electronic 42
▁employer 42
▁estate 42
▁evac 42
▁felicity 42
▁fires 42
▁flavor 42
▁flows 42
▁gandhi 42
▁gap 42
▁gently 42
▁guardian 42
▁hence 42
▁honored 42
▁hun 42
▁inches 42
▁industry 42
▁initiate 42
▁insisted 42
▁institution 42
▁involve 42
▁iran 42
▁jeez 42
▁jokes 42
▁judges 42
▁judging 42
▁julie 42
▁kai 42
▁laundry 42
▁locations 42
▁models 42
▁mortal 42
▁niece 42
▁nigger 42
▁operational 42
▁papi 42
▁pile 42
▁planets 42
▁predators 42
▁pressed 42
▁purchase 42
▁puzzle 42
▁qual 42
▁ramse 42
▁rav 42
▁region 42
▁risks 42
▁romeo 42
▁ruled 42
▁sacrificed 42
▁sanju 42
▁satisfied 42
▁scaring 42
▁shen 42
▁shotgun 42
▁slay 42
▁snakes 42
▁spreading 42
▁stare 42
▁stash 42
▁statue 42
▁stuart 42
▁suff 42
▁suggestion 42
▁tastes 42
▁tinker 42
▁tradition 42
▁troll 42
▁ungli 42
▁vac 42
▁visible 42
▁waking 42
▁welfare 42
▁wives 42
▁worrying 42
▁wrapped 42
▁අඩුමතරමේ 42
▁අනාගතේ 42
▁අපතයා 42
▁අපහසුතාවයට 42
▁අමුතුම 42
▁අයිත 42
▁අයිරිෂ 42
▁අවධාන 42
▁අවබෝධයක 42
▁අවමන 42
▁අවසරයක 42
▁ආතත 42
▁ආවනම 42
▁ඇපලෝ 42
▁ඇහිලා 42
▁ඉරලා 42
▁ඉහළට 42
▁උඹයි 42
▁උසාවිය 42
▁එලි 42
▁ඔහේලා 42
▁කඩල 42
▁කනවද 42
▁කරදරේක 42
▁කරුණක 42
▁කාගෙද 42
▁කාද 42
▁කායි 42
▁කැරලිකාර 42
▁කිරිමක 42
▁කුරුස 42
▁කෘතඥ 42
▁කෙටුම 42
▁කේඩ 42
▁කෝනර 42
▁කෞතුකාගාර 42
▁ගණිකාවක 42
▁ගයි 42
▁ගාලා 42
▁ගුහාවට 42
▁ගෙට 42
▁ගෙනයන 42
▁ගොට 42
▁ගොව 42
▁චු 42
▁ජනක 42
▁ජනයා 42
▁ටියේ 42
▁ඩිංගක 42
▁ඩුකාර 42
▁තරෙ 42
▁තායි 42
▁තුනෙන 42
▁ථායි 42
▁ථිරයි 42
▁දරුවො 42
▁දශ 42
▁දැනුත 42
▁දැර 42
▁දිශාවට 42
▁දීමනා 42
▁දෙගුණ 42
▁දෙද 42
▁දෙයකින 42
▁දෙවියො 42
▁ධනයට 42
▁ධාවක 42
▁ධියට 42
▁නමවත 42
▁නිදර 42
▁නිදහසක 42
▁නොර 42
▁පටිය 42
▁පරෙස 42
▁පාළ 42
▁පැහැදිළිවම 42
▁පිටේ 42
▁පිරිසිදුයි 42
▁පිරිසිඳු 42
▁පිවිසුම 42
▁පීච 42
▁පුංච 42
▁පෝස 42
▁බලයට 42
▁බහුල 42
▁බැඳීම 42
▁බිරිදව 42
▁බූර 42
▁බෙනවා 42
▁බෝයි 42
▁මැරුණට 42
▁මිණ 42
▁මියයන 42
▁මුණගැහ 42
▁මුලා 42
▁මොකකටද 42
▁යුහ 42
▁රඳා 42
▁රයිෆල 42
▁රර 42
▁රැහැන 42
▁රිපල 42
▁රීයයි 42
▁ලිපින 42
▁ලියාගන 42
▁වනවිට 42
▁වහම 42
▁වළල 42
▁වාසවන 42
▁වැඩසටහනේ 42
▁වැරදිකාර 42
▁වැසියෙක 42
▁වේටර 42
▁වොලස 42
▁ශාර 42
▁ශිතයි 42
▁ශේප 42
▁සඳුදා 42
▁සභාපත 42
▁සමගම 42
▁සමාජීය 42
▁සයිබර 42
▁සලාම 42
▁සෙව 42
▁හඳුනාගත 42
▁හමුවුනේ 42
▁හාල 42
▁හුර 42
▁ෆෝ 42
acing 41
anger 41
appy 41
berry 41
enses 41
gie 41
gy 41
icking 41
iet 41
ille 41
ips 41
izes 41
made 41
mic 41
mont 41
oming 41
outs 41
rot 41
ship 41
ten 41
ugs 41
ums 41
uts 41
won 41
â 41
ගමෙ 41
ගයි 41
ගු 41
ජය 41
නේට 41
රත 41
රෙනවා 41
වෙත 41
හිර 41
ෑස 41
ිටර 41
ිතුමනි 41
ිනෙ 41
ියිද 41
ිවා 41
ුකමක 41
ුලන 41
ෘතිය 41
ෙනා 41
▁180 41
▁287 41
▁40,000 41
▁63 41
▁Car 41
▁accomplish 41
▁activ 41
▁admiral 41
▁aggressive 41
▁amjad 41
▁ants 41
▁basket 41
▁benji 41
▁bir 41
▁blessings 41
▁boards 41
▁bounty 41
▁brandon 41
▁causing 41
▁consciousness 41
▁consult 41
▁courier 41
▁cra 41
▁cro 41
▁deeds 41
▁demands 41
▁digital 41
▁dimension 41
▁dimpy 41
▁din 41
▁donald 41
▁economic 41
▁employment 41
▁engineers 41
▁executive 41
▁faint 41
▁fascinating 41
▁forbidden 41
▁forgetting 41
▁gil 41
▁goon 41
▁heavily 41
▁hobbit 41
▁injuries 41
▁italian 41
▁kingsman 41
▁lafleur 41
▁leland 41
▁lmmy 41
▁lor 41
▁maggie 41
▁maid 41
▁meena 41
▁meredith 41
▁mutant 41
▁nano 41
▁nom 41
▁nowadays 41
▁observations 41
▁peep 41
▁ping 41
▁pred 41
▁programmed 41
▁pursuit 41
▁quantico 41
▁quarantine 41
▁renautas 41
▁repay 41
▁respons 41
▁restricted 41
▁sachin 41
▁satan 41
▁sav 41
▁shipping 41
▁slaves 41
▁smiley 41
▁spiritual 41
▁steam 41
▁stevens 41
▁struggling 41
▁tin 41
▁toe 41
▁visitor 41
▁volunteer 41
▁අකුණු 41
▁අපූර 41
▁අයද 41
▁අවසානයට 41
▁ඇඟවීමක 41
▁ඇනවුම 41
▁ඇමරිකානුවන 41
▁ඇලඩින 41
▁ඇහුණද 41
▁ඇහෙනව 41
▁ඉංජිනේර 41
▁ඉදීවි 41
▁ඉවසීම 41
▁ඉහළින 41
▁ඊතල 41
▁උගත 41
▁උඹගෙ 41
▁උරා 41
▁උෙඕ 41
▁එකටත 41
▁එකටයි 41
▁ඒවායේ 41
▁ඔයාගනේ 41
▁ඕනෑවට 41
▁කටම 41
▁කඩනවා 41
▁කනගාටු 41
▁කමිටු 41
▁කමින 41
▁කරලත 41
▁කලබලයක 41
▁කාගෙවත 41
▁කාලයත 41
▁කාලයෙන 41
▁කාලෙදි 41
▁කැඩිල 41
▁කැලෝ 41
▁කෑදර 41
▁කිරුළ 41
▁කූල 41
▁කෙනෙකුගේ 41
▁කෙලවන 41
▁කොතන 41
▁කොලුවෝ 41
▁කොහෙදිද 41
▁කොහොමවත 41
▁ගලවනවා 41
▁ගාම 41
▁ගැහුව 41
▁ගැහුවෙ 41
▁ගෙදරදි 41
▁චාද 41
▁චාව 41
▁ඡේද 41
▁ජුන 41
▁ජූල 41
▁ජෙලි 41
▁ටයිප 41
▁ඩිය 41
▁ඩෝවර 41
▁තටමද 41
▁තඹ 41
▁තුවාලයි 41
▁තුළට 41
▁තූන 41
▁තෝබර 41
▁ථයක 41
▁දැඩිව 41
▁දෑත 41
▁දෙතුන 41
▁දොත 41
▁දොළ 41
▁ධයේ 41
▁නවතම 41
▁නැගිටපන 41
▁නැඟිට 41
▁නැහැනෙ 41
▁නිවා 41
▁නීතිඥයෙක 41
▁නොපෙනෙන 41
▁පරාදයි 41
▁පාලුයි 41
▁පාසලක 41
▁පැතිරෙන 41
▁පියාගේ 41
▁පිලිබඳ 41
▁පිහිටීම 41
▁පිළිවෙල 41
▁පුටුවක 41
▁පෙනුනා 41
▁පොස 41
▁බඩගිනියි 41
▁බණ 41
▁බාගදා 41
▁බෙහෙතක 41
▁බේබද 41
▁බේබි 41
▁බොනවද 41
▁මගනේ 41
▁මදිවට 41
▁මනසට 41
▁මහලේ 41
▁මැග 41
▁මියගිහින 41
▁මූඩ 41
▁මෝඩයො 41
▁යාඥයින 41
▁යාවන 41
▁යුහය 41
▁යො 41
▁රමාණයේ 41
▁රමික 41
▁රාකේෂ 41
▁රාජධානියේ 41
▁රැද 41
▁රියේදී 41
▁රේසර 41
▁ලයොර 41
▁ලාට 41
▁ලිහ 41
▁ලෙසට 41
▁වංචාකාර 41
▁වනවො 41
▁වරම 41
▁වහලේ 41
▁වාත 41
▁වානරයන 41
▁වාමිනි 41
▁වාරයක 41
▁වැඩසටහනට 41
▁වැඩී 41
▁විශේශ 41
▁වීදි 41
▁වුවමනාවක 41
▁වූහ 41
▁වේදිකාව 41
▁ශේෂය 41
▁සභා 41
▁සමීක 41
▁සහායකයා 41
▁සාගර 41
▁සාවට 41
▁සාහසික 41
▁සිමන 41
▁සීකර 41
▁හමුවීමට 41
▁හයයි 41
▁හැදුනේ 41
▁හිය 41
▁හිලක 41
▁හෙද 41
▁ෙෂ 41
35 40
43 40
AN 40
achi 40
car 40
fect 40
form 40
free 40
gel 40
het 40
iel 40
ika 40
inated 40
ishing 40
itz 40
oes 40
oli 40
oll 40
sto 40
ura 40
vent 40
wait 40
කොහොමද 40
ජා 40
ටිය 40
ඩුවක 40
ණීය 40
තාත 40
නැහැ 40
පොඩ 40
රිට 40
වැන 40
වෝ 40
හගත 40
හිල 40
ැප 40
ිකරණ 40
ිමය 40
ෙනක 40
▁110 40
▁Sana 40
▁accent 40
▁accurate 40
▁administration 40
▁advise 40
▁allergic 40
▁amberle 40
▁andre 40
▁arrives 40
▁bells 40
▁bishop 40
▁blonde 40
▁bombay 40
▁botanic 40
▁caution 40
▁chuck 40
▁claimed 40
▁collins 40
▁confession 40
▁const 40
▁contin 40
▁continued 40
▁conver 40
▁cried 40
▁cultural 40
▁deposits 40
▁disabled 40
▁divisional 40
▁dot 40
▁dozens 40
▁dressing 40
▁dup 40
▁elsewhere 40
▁encounter 40
▁explains 40
▁filling 40
▁fir 40
▁fist 40
▁flank 40
▁florida 40
▁gordon 40
▁handling 40
▁harsh 40
▁helpful 40
▁illusion 40
▁integration 40
▁jorge 40
▁kalpana 40
▁kam 40
▁kicking 40
▁km 40
▁knots 40
▁las 40
▁laurie 40
▁luther 40
▁maximus 40
▁measures 40
▁mug 40
▁nightmares 40
▁nikki 40
▁nora 40
▁oldest 40
▁owned 40
▁oxford 40
▁pepper 40
▁pirates 40
▁prep 40
▁quantum 40
▁quar 40
▁radius 40
▁railroad 40
▁raining 40
▁raw 40
▁respected 40
▁ressler 40
▁sang 40
▁sens 40
▁senses 40
▁september 40
▁shining 40
▁shutting 40
▁sorrow 40
▁sour 40
▁spared 40
▁sparrow 40
▁spear 40
▁spinning 40
▁strict 40
▁sue 40
▁taller 40
▁targeting 40
▁taxes 40
▁tess 40
▁tomb 40
▁torturing 40
▁tow 40
▁translate 40
▁untie 40
▁vari 40
▁veronica 40
▁vows 40
▁wandering 40
▁whispering 40
▁withdraw 40
▁workshop 40
▁wr 40
▁අකමැත 40
▁අඩුගානෙ 40
▁අඩුගානේ 40
▁අතැරලා 40
▁අපතයෙක 40
▁අබිරහස 40
▁අමිත 40
▁අයයි 40
▁ආයතනයට 40
▁ඇමෙරික 40
▁ඇරගෙන 40
▁ඇරපන 40
▁ඇහැරෙන 40
▁ඉවසිල 40
▁උපදෙසක 40
▁එකගත 40
▁ඕකේ 40
▁කඩාවැට 40
▁කවන 40
▁කළමණා 40
▁කාමරෙන 40
▁කාලසටහන 40
▁කාස 40
▁කැරොල 40
▁කැලි 40
▁කුරුළු 40
▁කූඩුවට 40
▁කෙම 40
▁කෙරුවා 40
▁කොහොමටවත 40
▁ගංග 40
▁ගගත 40
▁ගාවින 40
▁ගික 40
▁ගිණ 40
▁ගොඩබ 40
▁ගෝලය 40
▁චලා 40
▁චිකන 40
▁ජනතාවගේ 40
▁ජපන 40
▁ජිමී 40
▁ජෝෂ 40
▁ටගන 40
▁ටවන 40
▁ටීනා 40
▁ටේට 40
▁තවශයෙන 40
▁තාපල 40
▁තියෙ 40
▁තිරිංග 40
▁තේය 40
▁තොගේ 40
▁ථකව 40
▁ථානයෙන 40
▁දනා 40
▁දරයි 40
▁දරුණ 40
▁දැනං 40
▁දැනුමක 40
▁දිවුරන 40
▁දුයි 40
▁දේකටම 40
▁දේවස 40
▁නලු 40
▁නවන 40
▁නහර 40
▁නියෝජිතයන 40
▁නිරන 40
▁නිවැරදිව 40
▁නුව 40
▁නොකලොත 40
▁පඩිපෙල 40
▁පමනක 40
▁පමනයි 40
▁පරිණාමය 40
▁පැකේජ 40
▁පිලිවෙල 40
▁පිහිටයි 40
▁පුවරුව 40
▁බලපං 40
▁බිලි 40
▁මගුලයි 40
▁මාරාන 40
▁මිහිරි 40
▁මීන 40
▁මුනගැහෙන 40
▁මූලපත 40
▁මෙහෝ 40
▁යබහුලයි 40
▁යොද 40
▁යොම 40
▁රාතිහාර 40
▁රීඩකයෙක 40
▁රුම 40
▁රුස 40
▁රෙනාටස 40
▁ලගදි 40
▁ලනි 40
▁ලයිස 40
▁ලේලි 40
▁ලෝරන 40
▁වටයක 40
▁වැසුම 40
▁වැහිලා 40
▁විවිධත 40
▁විසදුමක 40
▁ශයක 40
▁ෂිප 40
▁සකසන 40
▁සගයා 40
▁සතිය 40
▁සතියකින 40
▁සමාවක 40
▁සේන 40
▁සෝඩා 40
▁හක 40
▁හතුරා 40
▁හදිසියක 40
▁හිසට 40
▁හුවමාරුව 40
▁හේවා 40
▁ෆොර 40
89 39
Y 39
anda 39
antly 39
ently 39
ever 39
father 39
heads 39
hood 39
ilized 39
iner 39
ining 39
ipping 39
ira 39
kan 39
look 39
mat 39
mate 39
nam 39
rah 39
reen 39
rer 39
rey 39
rick 39
ston 39
uther 39
walk 39
wr 39
කියන 39
කොටම 39
ගෙට 39
ජිත 39
ණයන 39
තරම 39
පද 39
පොළ 39
යු 39
ලිලා 39
වුනොත 39
වෙමින 39
සිංහ 39
ානුවෙක 39
ානුවෝ 39
ාලයක 39
ාවිද 39
▁1977 39
▁25,000 39
▁absolute 39
▁aer 39
▁african 39
▁auction 39
▁ax 39
▁barrier 39
▁benny 39
▁blackwell 39
▁bothered 39
▁bottles 39
▁brazil 39
▁breed 39
▁brickton 39
▁cease 39
▁champak 39
▁chemicals 39
▁chemistry 39
▁cinderella 39
▁civilian 39
▁clay 39
▁collecting 39
▁consultant 39
▁courtesy 39
▁cove 39
▁deadline 39
▁decor 39
▁depression 39
▁devon 39
▁dip 39
▁dor 39
▁dover 39
▁dumped 39
▁elise 39
▁examination 39
▁executed 39
▁farewell 39
▁fatal 39
▁fe 39
▁flights 39
▁fritz 39
▁fulfilled 39
▁funds 39
▁ga 39
▁globe 39
▁goodnight 39
▁hanh 39
▁haul 39
▁headache 39
▁henri 39
▁hereby 39
▁iz 39
▁january 39
▁journal 39
▁kissing 39
▁krypton 39
▁lamb 39
▁lantern 39
▁lions 39
▁mak 39
▁marked 39
▁marketing 39
▁mayday 39
▁mcc 39
▁meenamma 39
▁meetings 39
▁mutants 39
▁nag 39
▁neighbors 39
▁notebook 39
▁oak 39
▁oct 39
▁optimus 39
▁peaceful 39
▁peterson 39
▁phantom 39
▁pod 39
▁poker 39
▁punk 39
▁reasonable 39
▁recon 39
▁reply 39
▁retire 39
▁rumor 39
▁scram 39
▁script 39
▁seeds 39
▁seeking 39
▁shah 39
▁shane 39
▁ske 39
▁snatch 39
▁speaker 39
▁spec 39
▁spill 39
▁strain 39
▁suitable 39
▁supp 39
▁surf 39
▁surround 39
▁surya 39
▁tal 39
▁tales 39
▁tan 39
▁tang 39
▁theft 39
▁todd 39
▁toxic 39
▁troubled 39
▁trucks 39
▁typical 39
▁verma 39
▁villagers 39
▁wagon 39
▁wand 39
▁warren 39
▁whiskey 39
▁අතීතයේ 39
▁අදුරන 39
▁අධිකාර 39
▁අයරිස 39
▁අරමුදලේ 39
▁අවතාර 39
▁අවල 39
▁අහනව 39
▁අහුව 39
▁ආදරයේ 39
▁ආරියා 39
▁ඇකඩම 39
▁ඇඳගන 39
▁ඇමරිකාවෙ 39
▁ඉරිද 39
▁උබත 39
▁එකිනෙක 39
▁එපාද 39
▁එමලි 39
▁එවර 39
▁එෆ 39
▁ඕකව 39
▁ඕනේම 39
▁කරැණාකරලා 39
▁කාමුක 39
▁කැළය 39
▁කිරීමයි 39
▁කුටිය 39
▁කෞ 39
▁ගබඩාවට 39
▁ගැලප 39
▁ගැලෙව 39
▁ගැහැණියක 39
▁ගැහැන 39
▁ගොදුරක 39
▁චික 39
▁චෙ 39
▁ජලා 39
▁ටලා 39
▁ටිමස 39
▁ඩබ 39
▁ඩයිනසෝර 39
▁ඩියෝන 39
▁ඩිල 39
▁ඩීන 39
▁තදට 39
▁තරලා 39
▁තහ 39
▁තිබෙනව 39
▁තිවෙන 39
▁තිහ 39
▁ථන 39
▁දහසක 39
▁දිනා 39
▁දුරයි 39
▁දෙගුණයක 39
▁දෙගොල 39
▁නටනවා 39
▁නවයක 39
▁නැතිවුණා 39
▁නිපදවන 39
▁නියෝජිතයින 39
▁නිරවුල 39
▁නුවෙ 39
▁නොට 39
▁නොහිත 39
▁පඩිපෙළ 39
▁පාරිසරික 39
▁පාළු 39
▁පැහැදිල 39
▁පිංතූර 39
▁පිඩ 39
▁පුරවලා 39
▁බංකොලොත 39
▁බැංක 39
▁බැංකොක 39
▁බැරුව 39
▁බැහැරව 39
▁බිඳින 39
▁බිරිඳක 39
▁බූත 39
▁බේරුමක 39
▁මනක 39
▁මයන 39
▁මහළු 39
▁මානයක 39
▁මැතිව 39
▁මැරුනෙ 39
▁මිරාල 39
▁මූනට 39
▁මේකෙදි 39
▁මොනාවත 39
▁මොළයේ 39
▁යතාර 39
▁යුග 39
▁රකාශය 39
▁රතිවිපාක 39
▁රතුපාට 39
▁රාබාද 39
▁රිංග 39
▁රිශ 39
▁රීඩකයන 39
▁රුවල 39
▁රූගත 39
▁රෝමය 39
▁ලකෑම 39
▁ලැබුනු 39
▁ලියල 39
▁ලියි 39
▁ලුවොත 39
▁ලේඛ 39
▁ලේසර 39
▁වටිනව 39
▁වදේශ 39
▁වමනේ 39
▁වමින 39
▁වලෙේම 39
▁වහින 39
▁වාඩිව 39
▁වාරේ 39
▁විකාශන 39
▁විදිනවා 39
▁විනාඩියෙන 39
▁වියළි 39
▁විහිළ 39
▁වුනානේ 39
▁වෙනවනේ 39
▁වෛරය 39
▁ශේන 39
▁සංජනා 39
▁සංවේද 39
▁සනද 39
▁සාධාරණයි 39
▁සැමිය 39
▁සිංදුවක 39
▁සිදුවීමක 39
▁සිනහව 39
▁සිමස 39
▁සීමාවෙන 39
▁සුයි 39
▁සූදු 39
▁සූම 39
▁සේවයෙන 39
▁සෝලෝ 39
▁හතරවෙනි 39
▁හරිනෙ 39
▁හරියාවි 39
▁හිද 39
▁ෆෙරෙඩ 39
▁ෆෝඩ 39
▁ෙඩාන 39
.08 38
ady 38
aked 38
amm 38
ays 38
block 38
hee 38
hn 38
ien 38
kn 38
list 38
mma 38
ocation 38
oe 38
oor 38
term 38
ulated 38
uted 38
very 38
ංගු 38
අහන 38
ඇය 38
කරුණාකර 38
ටවත 38
ඩියේ 38
වුමක 38
වුල 38
හරිනවා 38
ාලේ 38
ැරි 38
ිදා 38
ිමෙන 38
ිලිමත 38
ුරෝ 38
ෝධ 38
▁78 38
▁But 38
▁Do 38
▁Dom 38
▁acted 38
▁agnes 38
▁allows 38
▁altitude 38
▁ambush 38
▁aranery 38
▁ari 38
▁association 38
▁balloon 38
▁beezus 38
▁belief 38
▁bloom 38
▁buddies 38
▁carries 38
▁causes 38
▁certificate 38
▁chavez 38
▁cigarettes 38
▁collapse 38
▁coup 38
▁creativity 38
▁deacon 38
▁deserved 38
▁det 38
▁developing 38
▁devices 38
▁dod 38
▁doubts 38
▁dramatic 38
▁dudes 38
▁duties 38
▁error 38
▁evey 38
▁excuses 38
▁exhausted 38
▁explore 38
▁extinct 38
▁fears 38
▁flee 38
▁flor 38
▁forthe 38
▁fre 38
▁fri 38
▁georgia 38
▁guerrero 38
▁heather 38
▁hector 38
▁hooker 38
▁hovv 38
▁inspiration 38
▁invent 38
▁israel 38
▁jammed 38
▁jer 38
▁lancelot 38
▁lar 38
▁legally 38
▁lend 38
▁linc 38
▁loc 38
▁louder 38
▁mant 38
▁moses 38
▁ned 38
▁negoti 38
▁newspapers 38
▁ooo 38
▁patty 38
▁penguins 38
▁pointed 38
▁pole 38
▁precisely 38
▁prior 38
▁products 38
▁pu 38
▁pur 38
▁quote 38
▁qureshi 38
▁rack 38
▁reduce 38
▁relations 38
▁relationships 38
▁sally 38
▁sant 38
▁schultz 38
▁sends 38
▁sexual 38
▁shel 38
▁shove 38
▁signing 38
▁sketch 38
▁slam 38
▁sle 38
▁smashed 38
▁snacks 38
▁squeeze 38
▁starboard 38
▁strang 38
▁surviving 38
▁sustain 38
▁swat 38
▁swell 38
▁sworn 38
▁tanya 38
▁telugu 38
▁temples 38
▁thri 38
▁thrust 38
▁thursday 38
▁ti 38
▁tide 38
▁tips 38
▁treasury 38
▁trent 38
▁vanished 38
▁vengeance 38
▁vip 38
▁vo 38
▁whip 38
▁winston 38
▁wit 38
▁wor 38
▁£ 38
▁අගයක 38
▁අගුලු 38
▁අතකට 38
▁අපිවත 38
▁අමතනවා 38
▁අරූ 38
▁අවාසනාවකට 38
▁අසනීපයි 38
▁අහඹු 38
▁අහසට 38
▁ආද 38
▁ආයා 38
▁ඇබී 38
▁ඇමක 38
▁ඇහුවද 38
▁ඉදික 38
▁ඉරාක 38
▁ඊමේල 38
▁ඊශ 38
▁එකාට 38
▁එතැනදී 38
▁එනකං 38
▁එයාටම 38
▁එලා 38
▁එෙහනම 38
▁ඕනාවට 38
▁ඕනැ 38
▁ඕනෙක 38
▁කරනකන 38
▁කරවලා 38
▁කරුණාව 38
▁කාරයින 38
▁කාලෙට 38
▁කැඩුනා 38
▁කැමත 38
▁කියපං 38
▁කියවල 38
▁කුළුණු 38
▁කෘතිය 38
▁කොහෙට 38
▁ගලිකවම 38
▁ගැඹුරට 38
▁ගැහුවොත 38
▁ගෙඩිය 38
▁ගෙත 38
▁ගෙදරද 38
▁ගොයින 38
▁චාත 38
▁චාරිකාව 38
▁ජොනතන 38
▁ටයිටැනික 38
▁ටැංකිය 38
▁ටෝස 38
▁ඩරිස 38
▁ඩෝර 38
▁තනව 38
▁තැනටම 38
▁තිකාර 38
▁තිගැස 38
▁තියපන 38
▁තුකාර 38
▁තේරුණේ 38
▁දඟ 38
▁දැකීමක 38
▁දිනපතා 38
▁දිවුරුම 38
▁දුපතට 38
▁දුවගෙන 38
▁දේවලුත 38
▁ධනවත 38
▁නනව 38
▁නළුවෙක 38
▁නෑන 38
▁නිවාඩුව 38
▁නීතියෙන 38
▁නෙමි 38
▁නොගෙන 38
▁නොදුන 38
▁පහට 38
▁පළමුව 38
▁පළමුවෙන 38
▁පාටක 38
▁පාරයි 38
▁පාළුයි 38
▁පැවරුම 38
▁පැසිෆික 38
▁පිප 38
▁පියර 38
▁පිලිගත 38
▁පිලිබදව 38
▁පුරාණ 38
▁පෙනේ 38
▁පොළව 38
▁පෝෂ 38
▁බයද 38
▁බහිරවා 38
▁බළ 38
▁බාගෙට 38
▁බැටළ 38
▁බීසස 38
▁බූරුවෝ 38
▁බොරුකාර 38
▁බෝතලේ 38
▁භටයෙක 38
▁මඩකලපුව 38
▁මතුපිටට 38
▁මරාවි 38
▁මාලිගාව 38
▁මැදිරි 38
▁මිරිස 38
▁මුළ 38
▁මුළින 38
▁මෙහෙයුමේ 38
▁මේකි 38
▁මේයර 38
▁මොකකට 38
▁මොකා 38
▁මොනවගේද 38
▁යනවලා 38
▁යේෂ 38
▁යෝන 38
▁රහසේ 38
▁රැප 38
▁රිකාවේ 38
▁රොව 38
▁රෝහි 38
▁ලිපිනයක 38
▁ලුක 38
▁ලේම 38
▁ලේලන 38
▁ලොග 38
▁වගමෙ 38
▁වටිනවද 38
▁වදේදී 38
▁වපු 38
▁වරදවා 38
▁වශී 38
▁වැඩිහිටි 38
▁වැළ 38
▁විකාශනය 38
▁විකුණනවා 38
▁වීදුරුවක 38
▁වීරයෝ 38
▁වෘකයෙක 38
▁වෙතින 38
▁වෙරි 38
▁වෙලානේ 38
▁වෝඩ 38
▁ෂකයො 38
▁ෂණයන 38
▁සංවේදක 38
▁සභික 38
▁සමාලෝචන 38
▁සමුරායි 38
▁සරාගී 38
▁සහෝදරයට 38
▁සෑ 38
▁සියවස 38
▁සිරකරුවන 38
▁සුනේ 38
▁සුබපැතුම 38
▁හදිසියේම 38
▁හසුරුවන 38
▁හැග 38
▁හැතැම 38
▁හැදිල 38
▁හෙණ 38
▁හෙරොයින 38
▁හෙළි 38
▁ෆීල 38
aches 37
aken 37
aled 37
amb 37
ancy 37
arts 37
aud 37
aur 37
cat 37
eds 37
esh 37
gl 37
ishes 37
lex 37
mal 37
mates 37
nar 37
night 37
ody 37
oop 37
osing 37
rad 37
rak 37
rian 37
roy 37
sm 37
think 37
vert 37
vy 37
when 37
za 37
ඔය 37
කෙනෙක 37
ගක 37
තනය 37
නැ 37
යකුත 37
වාදීන 37
විශ 37
ශක 37
ෆී 37
ාවේදී 37
ිකරලා 37
ිවලින 37
ිහා 37
ුකිරීම 37
ෙයින 37
ෙළ 37
▁112 37
▁2016 37
▁3.2 37
▁87 37
▁93 37
▁He 37
▁Se 37
▁annunzio 37
▁asc 37
▁aud 37
▁bab 37
▁backs 37
▁betting 37
▁callie 37
▁canal 37
▁casey 37
▁chandu 37
▁chicks 37
▁clicks 37
▁coffin 37
▁collected 37
▁concrete 37
▁conflict 37
▁confront 37
▁constantly 37
▁consum 37
▁controlling 37
▁crow 37
▁deals 37
▁defendant 37
▁depart 37
▁difficulty 37
▁dil 37
▁disable 37
▁disguise 37
▁distracted 37
▁dreamed 37
▁drowned 37
▁dur 37
▁dwarves 37
▁elementary 37
▁endure 37
▁erase 37
▁erased 37
▁felix 37
▁forests 37
▁foul 37
▁ft 37
▁funding 37
▁gam 37
▁glo 37
▁goanna 37
▁goines 37
▁govt 37
▁herd 37
▁hitler 37
▁holloway 37
▁homeland 37
▁independence 37
▁indicate 37
▁inspired 37
▁intentions 37
▁interfere 37
▁karan 37
▁kung 37
▁laughter 37
▁liesel 37
▁lure 37
▁madhavgarh 37
▁memor 37
▁mit 37
▁monica 37
▁monk 37
▁mutual 37
▁nails 37
▁oi 37
▁organic 37
▁parliament 37
▁patterson 37
▁peacefully 37
▁pigs 37
▁powder 37
▁precinct 37
▁predict 37
▁promises 37
▁protocols 37
▁rank 37
▁rash 37
▁remained 37
▁rover 37
▁rudy 37
▁salam 37
▁sanctuary 37
▁scale 37
▁scoundrel 37
▁secured 37
▁sharma 37
▁shifts 37
▁shikre 37
▁singhania 37
▁solar 37
▁stalking 37
▁stroke 37
▁strongly 37
▁tel 37
▁tires 37
▁tragic 37
▁twisted 37
▁variety 37
▁vessel 37
▁vew 37
▁vib 37
▁yg 37
▁අරම 37
▁අවධානයට 37
▁අවුරැදු 37
▁අසන 37
▁ආකාශ 37
▁ආදරයට 37
▁ඇදගත 37
▁ඇෆ 37
▁ඉදිරිපිට 37
▁ඉරා 37
▁ඉසබෙල 37
▁උපදවන 37
▁උරුමක 37
▁ඌර 37
▁එකතුවක 37
▁එතකන 37
▁එර 37
▁එලෙව 37
▁එළියෙන 37
▁ඒන 37
▁ඔහුයි 37
▁ඔෙහගේ 37
▁කටුක 37
▁කටේ 37
▁කබ 37
▁කමිටුවේ 37
▁කරදරකාර 37
▁කලානේ 37
▁කලාපීය 37
▁කහපාට 37
▁කාලට 37
▁කාලෙටම 37
▁කැනඩ 37
▁කියලාවත 37
▁කිවුවනේ 37
▁කුසලතා 37
▁කෙනකේව 37
▁ගහයි 37
▁ගැලරිය 37
▁ගුරුතුමා 37
▁ගෘහස 37
▁ගෙනිහින 37
▁ගෝස 37
▁චීනය 37
▁ජෙඩයි 37
▁ජෝඩුවක 37
▁ටේෂන 37
▁ඩිකේට 37
▁ඩිප 37
▁ණනා 37
▁තටයි 37
▁තබනවා 37
▁තරෙන 37
▁තාපස 37
▁තිමේට 37
▁තීරණේ 37
▁තෝස 37
▁දයාබර 37
▁දරම 37
▁දහන 37
▁දිද 37
▁දුරකතනය 37
▁දුරකථනයෙන 37
▁දෙම 37
▁ධනයක 37
▁නයිපර 37
▁නැතිවම 37
▁නිකමෙක 37
▁නියමම 37
▁නෙයිනා 37
▁නෙව 37
▁නේට 37
▁නේත 37
▁නොදැක 37
▁පටු 37
▁පථ 37
▁පිලා 37
▁පෙනෙනවා 37
▁පෝර 37
▁පෝෂණය 37
▁බදාදා 37
▁බයට 37
▁බලහත 37
▁බවෙයි 37
▁බහිමු 37
▁බැංකුවට 37
▁බැලුන 37
▁බෙයාර 37
▁බේරගෙන 37
▁භීතයි 37
▁මගහැරුනා 37
▁මනෝචිකිත 37
▁මවන 37
▁මාතර 37
▁මුදවා 37
▁මූත 37
▁මෙහෙමද 37
▁යාමක 37
▁යුරෝප 37
▁යොමුකරන 37
▁රටාවක 37
▁රණශූර 37
▁රයින 37
▁රෂ 37
▁රහසිගතයි 37
▁රැෆික 37
▁රියාවිරහිත 37
▁රීත 37
▁රෙකෝඩ 37
▁රේගු 37
▁රෝහලෙන 37
▁ලගා 37
▁ලෆුවර 37
▁ලැබුවේ 37
▁ලිලී 37
▁ලොකේ 37
▁ලෝකයෙ 37
▁වවුල 37
▁වාසන 37
▁වැසිකිල 37
▁විචාර 37
▁වුණෙ 37
▁වෙනකොටත 37
▁වෙලාවකින 37
▁වෙවී 37
▁ශනයට 37
▁ෂෝල 37
▁සතයක 37
▁සයිස 37
▁සායන 37
▁සිතා 37
▁සිදුක 37
▁සියෝ 37
▁සිරාවට 37
▁සිරුරක 37
▁සෙවනැලි 37
▁සොයමින 37
▁හතලිස 37
▁හමාර 37
▁හසුර 37
▁හැදුන 37
▁හුදෙකලා 37
▁හොලිවුඩ 37
▁ෆීලික 37
▁ෙකල 37
▁ෙකාච 37
22 36
37 36
adu 36
atory 36
bound 36
ctor 36
des 36
eer 36
eg 36
ez 36
ference 36
ild 36
inations 36
itude 36
lla 36
may 36
nder 36
nes 36
oster 36
oud 36
please 36
ral 36
uating 36
uction 36
ules 36
wan 36
උනා 36
කරනව 36
කරේ 36
කාම 36
ඟු 36
චි 36
ටනෙ 36
ඩක 36
ණා 36
දායක 36
දිලා 36
බට 36
භා 36
රනවා 36
වමින 36
වෙක 36
හද 36
හාට 36
ායි 36
ිකාවේ 36
ියටම 36
ීනා 36
ුණි 36
▁195 36
▁1996 36
▁3.1 36
▁Mar 36
▁Sol 36
▁US 36
▁abduct 36
▁accomplice 36
▁adapt 36
▁alternative 36
▁anonymous 36
▁az 36
▁bench 36
▁benefits 36
▁bitter 36
▁blend 36
▁bra 36
▁britain 36
▁cav 36
▁channels 36
▁clearing 36
▁clinic 36
▁compromise 36
▁confessed 36
▁contained 36
▁crawl 36
▁cuts 36
▁deadly 36
▁ded 36
▁defeated 36
▁delivering 36
▁dem 36
▁dish 36
▁distribution 36
▁dominic 36
▁einstein 36
▁eko 36
▁elements 36
▁elf 36
▁elope 36
▁enc 36
▁escaping 36
▁fantasy 36
▁fiancé 36
▁flames 36
▁formation 36
▁fragile 36
▁frankly 36
▁fried 36
▁gaines 36
▁galvin 36
▁gary 36
▁gener 36
▁gimme 36
▁gin 36
▁glow 36
▁graduate 36
▁growth 36
▁guidance 36
▁handful 36
▁harbor 36
▁hartley 36
▁horns 36
▁identification 36
▁inbound 36
▁instant 36
▁integrity 36
▁ist 36
▁iti 36
▁jacq 36
▁jem 36
▁jude 36
▁kadam 36
▁len 36
▁lethal 36
▁limb 36
▁loo 36
▁maj 36
▁manners 36
▁manual 36
▁marrying 36
▁muscles 36
▁myth 36
▁nearest 36
▁nicky 36
▁ninth 36
▁nu 36
▁objection 36
▁observe 36
▁outbreak 36
▁paths 36
▁pencil 36
▁permit 36
▁perspective 36
▁polite 36
▁profession 36
▁protest 36
▁psychology 36
▁rail 36
▁rarely 36
▁recognized 36
▁rehab 36
▁rises 36
▁riva 36
▁samurai 36
▁scholarship 36
▁scotch 36
▁seas 36
▁sna 36
▁spect 36
▁spots 36
▁stalk 36
▁straw 36
▁suggesting 36
▁sund 36
▁surrounding 36
▁swore 36
▁tactical 36
▁tapasvi 36
▁technique 36
▁teresa 36
▁termin 36
▁thor 36
▁thou 36
▁thrilled 36
▁tone 36
▁tropical 36
▁unarmed 36
▁vel 36
▁viral 36
▁watney 36
▁yah 36
▁අංගන 36
▁අඟහරුවාදා 36
▁අනුරාධපුර 36
▁අමාරුම 36
▁අරමුණින 36
▁අරෙහෙ 36
▁අලාභ 36
▁ආතතිය 36
▁ආරංචියි 36
▁ආසාවෙන 36
▁ඇඬ 36
▁ඇව 36
▁ඇහුවම 36
▁ඉදිරිපස 36
▁ඉදිවි 36
▁ඉදිවී 36
▁උණේ 36
▁එකේම 36
▁එතැනට 36
▁එදාට 36
▁එමිල 36
▁එවරස 36
▁එහනමේ 36
▁එළි 36
▁ඔතැන 36
▁ඔනද 36
▁ඔබතුම 36
▁ඔයාලාගේ 36
▁ඔරලෝසුවක 36
▁ඔහුගෝ 36
▁ඕටෝබෝට 36
▁ඕඩර 36
▁කටවල 36
▁කටවහගෙන 36
▁කඳවුරක 36
▁කයන 36
▁කලවම 36
▁කාලයම 36
▁කාසි 36
▁කැඩෙන 36
▁කැතරින 36
▁කැරලි 36
▁කෑවේ 36
▁කියවනවද 36
▁කීපාරක 36
▁කුවෙන 36
▁කුහරය 36
▁කේතයක 36
▁කොලුවා 36
▁කොහොමවුනත 36
▁කෝෂ 36
▁ගජෙන 36
▁ගමනට 36
▁ගවේෂණ 36
▁ගැරි 36
▁ගුණාංග 36
▁ගොඩබාන 36
▁ගෝලීය 36
▁ජාඩ 36
▁ජූනියර 36
▁ටිකකුත 36
▁ටිව 36
▁ටොයිලට 36
▁ඩෙම 36
▁තනියෙම 36
▁තමාවියනි 36
▁තමුස 36
▁තරයට 36
▁තරුන 36
▁තලක 36
▁තිමටම 36
▁තුතිවන 36
▁තුරේ 36
▁තූරේ 36
▁දගලන 36
▁දරුවව 36
▁දහයකට 36
▁දාමරික 36
▁දාව 36
▁දැනීම 36
▁දූපෙතන 36
▁නඩුවට 36
▁නැතිවුනේ 36
▁නිකිල 36
▁නිගමනය 36
▁නීල 36
▁නෙවෙයිනෙ 36
▁නොවැ 36
▁පඹ 36
▁පරිශ 36
▁පාගන 36
▁පැටර 36
▁පැතිරිලා 36
▁පැළඳ 36
▁පිරමීඩ 36
▁පිවිසෙන 36
▁පිළිතුරක 36
▁පුවරු 36
▁පේජ 36
▁බටහිරට 36
▁බිර 36
▁බීප 36
▁භිත 36
▁මකරෙක 36
▁මකලා 36
▁මනසක 36
▁මයින 36
▁මාරම 36
▁මාළ 36
▁මෙත 36
▁මෙතනදී 36
▁මේසයක 36
▁මොලී 36
▁යතාවයක 36
▁යනවට 36
▁යමත 36
▁යමෙක 36
▁යවරු 36
▁යවල 36
▁යාධාර 36
▁යානාවක 36
▁යාලුවට 36
▁රජුට 36
▁රතිග 36
▁රධානම 36
▁රයිට 36
▁රයිස 36
▁රවාහ 36
▁රිකාවට 36
▁රිච 36
▁රුසියන 36
▁ලජ 36
▁ලබාදීම 36
▁ලයිනස 36
▁ලාභය 36
▁ලැබුණෙ 36
▁ලීසෙල 36
▁ලෙසින 36
▁වරෙළ 36
▁වාහනේට 36
▁වැඩිද 36
▁වැඩිපුරම 36
▁විකුණලා 36
▁විධියක 36
▁විනීත 36
▁විමක 36
▁විවාහයක 36
▁විසඳුම 36
▁විහ 36
▁වීප 36
▁වෝන 36
▁ෂෝක 36
▁සමාජයේ 36
▁සමාවන 36
▁සමෙ 36
▁සයට 36
▁සහෝදරී 36
▁සාධාර 36
▁සාධාරණය 36
▁හරිනවා 36
▁හැටන 36
▁හෙලි 36
▁හොඳේ 36
▁හොබිට 36
▁ෆීබී 36
,500 35
.20 35
70 35
ER 35
SA 35
ails 35
aling 35
ality 35
aut 35
chers 35
ction 35
ded 35
ees 35
eet 35
fo 35
gil 35
haw 35
headed 35
him 35
ience 35
iful 35
igh 35
lon 35
long 35
nie 35
oni 35
orse 35
ounce 35
rov 35
thank 35
uth 35
zing 35
එහෙනම 35
ජනකයි 35
ඤ 35
ණයට 35
දෙනා 35
නෙවා 35
බෝල 35
රස 35
ලස 35
වෙනව 35
හං 35
හනේ 35
හය 35
ළට 35
ාමි 35
ාලයේ 35
ාවී 35
ැටි 35
ිණි 35
ිපත 35
ීමේදී 35
ුකූල 35
ුටු 35
ෘති 35
ෙලි 35
▁Erik 35
▁Professor 35
▁abhay 35
▁afghanistan 35
▁attempting 35
▁axe 35
▁bachelor 35
▁beef 35
▁bender 35
▁blocking 35
▁bressler 35
▁bruchschnauser 35
▁bucket 35
▁bunker 35
▁calthrop 35
▁campus 35
▁carnival 35
▁cctv 35
▁cheeks 35
▁clears 35
▁colors 35
▁commitment 35
▁convenient 35
▁corporal 35
▁corps 35
▁crab 35
▁craft 35
▁crashing 35
▁dealers 35
▁domestic 35
▁drain 35
▁employ 35
▁execute 35
▁flaps 35
▁fle 35
▁footprints 35
▁forehead 35
▁fortress 35
▁frequency 35
▁fry 35
▁fugitive 35
▁gathering 35
▁gem 35
▁gill 35
▁glorious 35
▁goat 35
▁hamilton 35
▁hawk 35
▁hears 35
▁hunch 35
▁hush 35
▁hyd 35
▁immortal 35
▁implant 35
▁increasing 35
▁installed 35
▁introduction 35
▁invasion 35
▁jos 35
▁jud 35
▁kale 35
▁kamu 35
▁kilos 35
▁ladder 35
▁ladyship 35
▁laser 35
▁luca 35
▁maps 35
▁marker 35
▁meter 35
▁mild 35
▁nelson 35
▁nit 35
▁oscar 35
▁oye 35
▁panel 35
▁paranoid 35
▁patrick 35
▁pearl 35
▁phrase 35
▁pier 35
▁prophet 35
▁radi 35
▁reckless 35
▁recruit 35
▁recruited 35
▁reef 35
▁reign 35
▁remotely 35
▁reverend 35
▁reynolds 35
▁ridge 35
▁rotten 35
▁saroja 35
▁savings 35
▁scenes 35
▁scheme 35
▁seasons 35
▁settlement 35
▁setup 35
▁shar 35
▁snack 35
▁soccer 35
▁spine 35
▁ster 35
▁stir 35
▁tender 35
▁tong 35
▁traces 35
▁unlock 35
▁unnecessarily 35
▁upside 35
▁vain 35
▁var 35
▁veins 35
▁visa 35
▁wander 35
▁washing 35
▁weed 35
▁whack 35
▁yup 35
▁අධිකරණය 35
▁අනතුරකට 35
▁අනුක 35
▁අපතේ 35
▁අමාරුද 35
▁අවද 35
▁අවසානයේදි 35
▁අවුට 35
▁ඇඳලා 35
▁ඇමතිතුමා 35
▁ඇයයි 35
▁ඇයිද 35
▁ඇවිදලා 35
▁ඉදි 35
▁උකුස 35
▁උදෙන 35
▁උපාංග 35
▁උසාවියේ 35
▁එතනම 35
▁එනවාද 35
▁එයාලාව 35
▁එලිසබෙත 35
▁ඒකනං 35
▁ඔබලාව 35
▁ඔළු 35
▁ඕනේනම 35
▁කකුලට 35
▁කටකතා 35
▁කමයි 35
▁කවදාකවත 35
▁කසාදය 35
▁කහම 35
▁කාබන 35
▁කාමරයෙන 35
▁කිමිද 35
▁කිරන 35
▁කිසිදා 35
▁කීවෙ 35
▁කුළ 35
▁කේසි 35
▁කොමල 35
▁කොහේටද 35
▁ගණුදෙන 35
▁ගාණකට 35
▁ගුයින 35
▁ගෙඩි 35
▁ගොර 35
▁ජනෙල 35
▁ජම 35
▁ජාතිකයෙක 35
▁ජාලයේ 35
▁ටැංක 35
▁ඨික 35
▁ඩලස 35
▁ඩුක 35
▁ඩුයි 35
▁ඩුවට 35
▁ඩෙනිස 35
▁තඩංගුවට 35
▁තබාගැනීම 35
▁තමින 35
▁තරමින 35
▁තරාත 35
▁තලම 35
▁තලය 35
▁තෘණ 35
▁තොම 35
▁ථකාමී 35
▁දකම 35
▁දනෝන 35
▁දැනුනෙ 35
▁දැනේවි 35
▁දිනකට 35
▁දියර 35
▁දියා 35
▁දෙනවාද 35
▁දෙනාගේ 35
▁දෙනාටම 35
▁දොඩ 35
▁නමැති 35
▁නැක 35
▁නැනෝ 35
▁නිකොලස 35
▁නිළධාරීන 35
▁නේන 35
▁නේහා 35
▁නොල 35
▁පතල 35
▁පතුර 35
▁පනස 35
▁පසුත 35
▁පාඩු 35
▁පැටවු 35
▁පුලුවනි 35
▁පෙනෙයි 35
▁පේනහැටියට 35
▁ඵලකය 35
▁බලහන 35
▁බීමක 35
▁බෙත 35
▁බේරුණා 35
▁භාවිතයට 35
▁මදර 35
▁මරාගන 35
▁මුනගැ 35
▁මූර 35
▁මෙයාද 35
▁යටතට 35
▁යනකල 35
▁යමණ 35
▁යුන 35
▁රජාතන 35
▁රතිලාභීන 35
▁රභ 35
▁රහයක 35
▁රාශ 35
▁රිකුණාමලය 35
▁රියන 35
▁රොග 35
▁රෝවර 35
▁ලබාදෙනවා 35
▁වගකිවයුතු 35
▁වගර 35
▁වලහා 35
▁වහලෙක 35
▁වාකර 35
▁වාය 35
▁වාෂ 35
▁වැඩකාර 35
▁වැඩිවෙලා 35
▁වැලැක 35
▁විටත 35
▁විදි 35
▁විවේකය 35
▁වෙනුවන 35
▁වෙලයි 35
▁ශණයක 35
▁ශරීරයේ 35
▁ශාඛා 35
▁ශුර 35
▁ෂණයෙන 35
▁ෂින 35
▁ෂේ 35
▁ෂේක 35
▁සංදේශ 35
▁සනී 35
▁සබන 35
▁සයිබ 35
▁සහෝදරයන 35
▁සුට 35
▁සුස 35
▁සුහද 35
▁සුළං 35
▁සෙමින 35
▁සේනාව 35
▁හතුරන 35
▁හනී 35
▁හැපී 35
▁හැරෙව 35
▁හිටියනේ 35
▁හිමීට 35
▁හොදයිද 35
▁හොඳයිද 35
▁හොරක 35
▁ෆිය 35
▁‘ 35
.50 34
18 34
46 34
abad 34
ait 34
aker 34
anium 34
bor 34
cal 34
cess 34
cub 34
dr 34
eline 34
erson 34
hard 34
ida 34
ident 34
imes 34
imeter 34
ingly 34
ipe 34
keeper 34
lam 34
life 34
low 34
most 34
ought 34
oured 34
play 34
rant 34
ties 34
uit 34
ummy 34
van 34
wise 34
zer 34
á 34
í 34
ංගන 34
ඌ 34
කමට 34
කොල 34
ණයෙන 34
දීලා 34
බිල 34
යුතුයි 34
ලාට 34
ලාන 34
වනං 34
වමු 34
වැඩ 34
වික 34
සින 34
හෙනවා 34
ාටත 34
ාලි 34
ිරීමක 34
ීවී 34
ුවව 34
▁196 34
▁199 34
▁88 34
▁She 34
▁Taha 34
▁` 34
▁abbott 34
▁albi 34
▁ally 34
▁angela 34
▁anushka 34
▁arab 34
▁arrogant 34
▁artery 34
▁attracted 34
▁author 34
▁autopsy 34
▁barbarians 34
▁bark 34
▁basil 34
▁beep 34
▁bonds 34
▁boris 34
▁boxer 34
▁bravery 34
▁bumble 34
▁candidate 34
▁canyon 34
▁carp 34
▁chains 34
▁champ 34
▁claiming 34
▁cloth 34
▁cm 34
▁combined 34
▁cookies 34
▁cooperation 34
▁cows 34
▁cubs 34
▁cyber 34
▁dared 34
▁destination 34
▁detected 34
▁differences 34
▁ditch 34
▁div 34
▁dj 34
▁doomed 34
▁douche 34
▁dubai 34
▁envy 34
▁eternity 34
▁evaluation 34
▁everest 34
▁extract 34
▁february 34
▁feeds 34
▁fitzie 34
▁fridge 34
▁giants 34
▁goodwin 34
▁greet 34
▁gy 34
▁happier 34
▁hatred 34
▁hills 34
▁hind 34
▁horace 34
▁hostel 34
▁immune 34
▁implementation 34
▁incomplete 34
▁individuals 34
▁infirmary 34
▁inst 34
▁invested 34
▁isaac 34
▁jesse 34
▁jinx 34
▁jur 34
▁komali 34
▁kur 34
▁landlord 34
▁lat 34
▁laurel 34
▁lena 34
▁malcolm 34
▁malfunction 34
▁manhattan 34
▁memorial 34
▁missions 34
▁moral 34
▁nathan 34
▁nikhil 34
▁offers 34
▁organize 34
▁panting 34
▁payback 34
▁performed 34
▁petrol 34
▁physically 34
▁pillow 34
▁pilots 34
▁pinky 34
▁pipes 34
▁poisoning 34
▁practical 34
▁ransom 34
▁rebellion 34
▁refusing 34
▁remembers 34
▁repeating 34
▁rex 34
▁rickman 34
▁ricky 34
▁rite 34
▁shuttle 34
▁sits 34
▁skye 34
▁slit 34
▁slowing 34
▁smallest 34
▁soviet 34
▁stan 34
▁strikes 34
▁strongest 34
▁submarine 34
▁sunrise 34
▁taha 34
▁tokyo 34
▁triggered 34
▁truce 34
▁turkey 34
▁unin 34
▁unlikely 34
▁via 34
▁violation 34
▁wakes 34
▁walsh 34
▁wangdu 34
▁whisper 34
▁wires 34
▁xi 34
▁yank 34
▁zamani 34
▁අගමැති 34
▁අගේ 34
▁අපායක 34
▁අභිම 34
▁අභියෝගයක 34
▁අයෙ 34
▁අරයව 34
▁අවකාශ 34
▁අවැසි 34
▁අවියක 34
▁අසරුවන 34
▁ඇදේ 34
▁ඇමරිකා 34
▁ඇහැරවන 34
▁ඉඟ 34
▁ඉරාන 34
▁උපදේශකයෙක 34
▁උබලට 34
▁එලියෙන 34
▁එවල 34
▁ඔහුගේම 34
▁කනත 34
▁කනෙක 34
▁කාදම 34
▁කාරුණික 34
▁කාලගුණය 34
▁කිසිමදෙයක 34
▁කුණාටු 34
▁කුප 34
▁කුසලාන 34
▁කෙත 34
▁කෙසෙල 34
▁කොටි 34
▁කොව 34
▁ගංජා 34
▁ගඩොල 34
▁ගනිං 34
▁ගබ 34
▁ගිනිගන 34
▁ගුන 34
▁ගොඩනැඟිල 34
▁ජනාධිපතිතුම 34
▁ජෙල 34
▁තණකොළ 34
▁තරව 34
▁තාවට 34
▁තැල 34
▁තියනෙවද 34
▁තියමු 34
▁තියුණු 34
▁තිරණයක 34
▁තුමේන 34
▁තෙරපුම 34
▁තේම 34
▁දගාමී 34
▁දාදුවෝ 34
▁දිහාද 34
▁දුරකට 34
▁දුරකථනයක 34
▁දූතයා 34
▁දෙකේම 34
▁දේත 34
▁ධකාරය 34
▁නඟ 34
▁නනෙ 34
▁නමු 34
▁නවයෙි 34
▁නැඟ 34
▁නැතිවීම 34
▁නැවෙන 34
▁නිකලස 34
▁නියමය 34
▁නිවෙස 34
▁නීච 34
▁නුවරඑළිය 34
▁නෙකුට 34
▁නෙඩ 34
▁නෙවේද 34
▁නොයා 34
▁පවිත 34
▁පහුවෙලා 34
▁පාළුව 34
▁පෑම 34
▁පිටවෙනවා 34
▁පිදුරු 34
▁පියානෝ 34
▁පියාපත 34
▁පිළි 34
▁පෘතුවිය 34
▁පෙරළ 34
▁ඵලදායී 34
▁බඩේ 34
▁බරපතලයි 34
▁බාරගත 34
▁බිරිඳව 34
▁බිහි 34
▁බෙකා 34
▁බොමු 34
▁මගක 34
▁මටද 34
▁මාලේ 34
▁මැදිරියට 34
▁මිකයෙක 34
▁මිනිමර 34
▁මුලස 34
▁මෙනෙවිය 34
▁මේකනේ 34
▁යවපු 34
▁යානුකූලව 34
▁යාස 34
▁යැවීම 34
▁යොදාගෙන 34
▁රජතුමනි 34
▁රතිප 34
▁රමවත 34
▁රවුන 34
▁රහලෝකය 34
▁රැට 34
▁රෑකම 34
▁රිකානු 34
▁රුත 34
▁රෙඩිට 34
▁රේමීන 34
▁ලටම 34
▁ලූකස 34
▁ලොකර 34
▁වගක 34
▁වනචාර 34
▁වරදකරු 34
▁වලාකුළු 34
▁වානර 34
▁වැහ 34
▁විටෙක 34
▁විතරනේ 34
▁විදියෙ 34
▁විධ 34
▁විනා 34
▁වීටර 34
▁වුවමන 34
▁වෙළඳාම 34
▁වේලාවක 34
▁ශාපයක 34
▁ෂනයක 34
▁සංගමය 34
▁සතුටුද 34
▁සමහරුන 34
▁සමීකරණ 34
▁සරස 34
▁සහතිකවම 34
▁සාමාජිකයින 34
▁සාහිත 34
▁සීමාවට 34
▁සීමාවන 34
▁සුඛ 34
▁සූක 34
▁සොයුර 34
▁සොෆී 34
▁සෝස 34
▁හංස 34
▁හතුරෙක 34
▁හිංසා 34
▁හිතුවත 34
▁හීනය 34
▁හෙවත 34
▁හොයාගනෙ 34
▁හෝන 34
▁ෙකා 34
▁● 34
24 33
44 33
FF 33
aby 33
aran 33
bel 33
bot 33
dog 33
encing 33
eric 33
every 33
foot 33
fort 33
gate 33
gin 33
iers 33
ifies 33
ike 33
itely 33
osh 33
rod 33
seven 33
shit 33
six 33
ss 33
tu 33
uced 33
vere 33
view 33
අනේ 33
එස 33
කරනය 33
ගණ 33
ගෙදර 33
ගොල 33
ඩිත 33
තකට 33
තිබ 33
තු 33
දායි 33
දිග 33
දුම 33
ධිපති 33
ඳුර 33
බස 33
යකෙ 33
යිඩ 33
වකො 33
වාදය 33
ශිල 33
ශී 33
ශීල 33
ෂර 33
හරින 33
ළුම 33
ාවලින 33
ියෙනි 33
ුටම 33
ුලට 33
ූම 33
ෙේ 33
ේසා 33
▁109 33
▁1500 33
▁1999 33
▁2007 33
▁3- 33
▁54 33
▁74 33
▁900 33
▁Gil 33
▁LJ 33
▁Man 33
▁^ 33
▁abruzzi 33
▁acceler 33
▁activate 33
▁angels 33
▁anxious 33
▁ape 33
▁appreciated 33
▁arrows 33
▁article 33
▁auspicious 33
▁babji 33
▁backyard 33
▁bedtime 33
▁bio 33
▁blessing 33
▁bugs 33
▁bush 33
▁calc 33
▁calculations 33
▁calf 33
▁carpet 33
▁celebrating 33
▁chalk 33
▁cloak 33
▁cred 33
▁curve 33
▁daren 33
▁dentist 33
▁depths 33
▁derail 33
▁desp 33
▁detonate 33
▁disagree 33
▁drowning 33
▁dy 33
▁economy 33
▁editor 33
▁entertain 33
▁errand 33
▁est 33
▁explaining 33
▁explode 33
▁facial 33
▁factor 33
▁fails 33
▁feared 33
▁fig 33
▁folk 33
▁gerrard 33
▁gh 33
▁gum 33
▁gunfire 33
▁healing 33
▁hiro 33
▁honorable 33
▁hustle 33
▁includes 33
▁insight 33
▁intern 33
▁isolated 33
▁jupiter 33
▁knives 33
▁korean 33
▁lakh 33
▁lance 33
▁lawrence 33
▁lesser 33
▁lifted 33
▁ling 33
▁linguini 33
▁lousy 33
▁makeup 33
▁malvika 33
▁meals 33
▁mechanical 33
▁meets 33
▁mentor 33
▁minus 33
▁miracles 33
▁mona 33
▁monitoring 33
▁motel 33
▁nerves 33
▁norton 33
▁patriot 33
▁payments 33
▁persons 33
▁pindaris 33
▁pops 33
▁preceding 33
▁profits 33
▁rally 33
▁rapunzel 33
▁reaches 33
▁receipt 33
▁recognise 33
▁referred 33
▁regardless 33
▁remembering 33
▁reminded 33
▁retrieve 33
▁rewards 33
▁roommate 33
▁rosen 33
▁seize 33
▁sel 33
▁skinny 33
▁sleepy 33
▁smash 33
▁southeast 33
▁stanton 33
▁sunlight 33
▁sympathy 33
▁tables 33
▁tami 33
▁tapes 33
▁terrified 33
▁thadeous 33
▁topic 33
▁tourists 33
▁translation 33
▁underestimate 33
▁versus 33
▁williams 33
▁wink 33
▁අනාගතයට 33
▁අඳ 33
▁අපරාධය 33
▁අභිමානය 33
▁අමෙරික 33
▁අරගල 33
▁අවිශ 33
▁අහිමිව 33
▁ආපදා 33
▁ආබාධ 33
▁ආලෝකයක 33
▁ආසාවක 33
▁ඇබට 33
▁ඇරගන 33
▁ඇරෝන 33
▁ඇලඩීන 33
▁ඇහැගහගෙන 33
▁ඉටිපන 33
▁ඉදලද 33
▁ඌත 33
▁ඌරො 33
▁එකඟතාව 33
▁ඒකව 33
▁ඒතරම 33
▁ඔබගෙ 33
▁ඔයායි 33
▁ඔලුවෙ 33
▁ඔෂියෑනික 33
▁ඔහෝ 33
▁ඕනනේ 33
▁ඕර 33
▁කඳවුරේ 33
▁කරපං 33
▁කලානම 33
▁කාරණාවක 33
▁කාරයකේ 33
▁කැඳවන 33
▁කුද 33
▁කූඩුවක 33
▁කෘෂිකර 33
▁කේවල 33
▁කොලොම 33
▁කෝලෙට 33
▁ගමුද 33
▁ගලවගන 33
▁ගවේශ 33
▁ගායි 33
▁ගැණ 33
▁ගැනීමෙන 33
▁ගැහුවද 33
▁ගියානේ 33
▁ගියේය 33
▁ගේල 33
▁ගොඩට 33
▁චිල 33
▁ජපාන 33
▁ජාලයෙන 33
▁ජේසුස 33
▁ජොර 33
▁ටාව 33
▁ටෝරි 33
▁ඩෝරියන 33
▁ණේ 33
▁තටද 33
▁තැටිය 33
▁තුවකට 33
▁තූ 33
▁තොටුපල 33
▁තොටුපලට 33
▁තෝන 33
▁දඩයමේ 33
▁දෑවක 33
▁දිනේවා 33
▁දූත 33
▁දෙනවනම 33
▁නකල 33
▁නවය 33
▁නාගරික 33
▁නිගමන 33
▁නිරුවත 33
▁නෙමෙයිනේ 33
▁පංත 33
▁පදිංච 33
▁පරිසරයක 33
▁පවුලෙන 33
▁පසුතැවෙන 33
▁පහසුයි 33
▁පාදිත 33
▁පැමිනෙන 33
▁පිපිරුම 33
▁පියයුරු 33
▁පියාණන 33
▁පියුටර 33
▁පිළිබදව 33
▁පීඩන 33
▁පීඩා 33
▁පුට 33
▁පුදුමාකාරයි 33
▁පුපුරලා 33
▁පුරුදුවෙලා 33
▁පුලුවම 33
▁පුළුවං 33
▁පෙනුමෙන 33
▁පෙනේවි 33
▁පේල 33
▁පොයින 33
▁පෞරාණික 33
▁බයානක 33
▁බරයක 33
▁බලකොට 33
▁බලකොටුව 33
▁බලයි 33
▁බලයේ 33
▁බසින 33
▁බාගේ 33
▁බෑනෙ 33
▁බීර 33
▁බෙලික 33
▁බෝලයක 33
▁බෝලේ 33
▁මැහුම 33
▁මෑතක 33
▁මිතුරෙක 33
▁මිලක 33
▁මීයෝ 33
▁මෙයාගෙන 33
▁මේවගෙන 33
▁මොහොතෙ 33
▁යටි 33
▁යාළු 33
▁යැපෙන 33
▁රංග 33
▁රඟපෑම 33
▁රනවා 33
▁රපටය 33
▁රමාදයි 33
▁රැකිය 33
▁රැඳ 33
▁රියයි 33
▁රියාවල 33
▁රෙනොල 33
▁රොෆ 33
▁රෝහලක 33
▁ලයක 33
▁වච 33
▁වසංගත 33
▁වහපන 33
▁විටදී 33
▁විධිය 33
▁විනෝදාත 33
▁විමට 33
▁වියලි 33
▁විලේ 33
▁වීඩියෝව 33
▁වූවන 33
▁වෙලාවෙද 33
▁වෙව 33
▁වේදිකාවට 33
▁ශකය 33
▁ෂෙන 33
▁සගන 33
▁සඟර 33
▁සචින 33
▁සමාවෙයන 33
▁සයව 33
▁සරහම 33
▁සලකලා 33
▁සවල 33
▁සහොදර 33
▁සාත 33
▁සාහයක 33
▁සැබවින 33
▁සිලා 33
▁සීයයි 33
▁සුරදූත 33
▁සුවිශේෂී 33
▁සූත 33
▁සෝවක 33
▁හඹා 33
▁හාදුවක 33
▁හිතනවනම 33
▁හිතින 33
▁හිතුනෙ 33
▁හිතුවක 33
▁හිසේ 33
▁හුක 33
▁හුදකලා 33
▁ෆයි 33
▁ෆැල 33
▁ෆොන 33
▁ෙබ 33
▁ෙසායාගන 33
▁∞ 33
Z 32
ached 32
aint 32
ami 32
anna 32
aser 32
atha 32
bat 32
born 32
bridge 32
cel 32
destruct 32
eng 32
ffe 32
fic 32
lines 32
lying 32
mart 32
nu 32
omy 32
rain 32
raj 32
rels 32
safe 32
san 32
school 32
shirt 32
uko 32
ulator 32
uled 32
urt 32
wife 32
wing 32
ංකාර 32
එම 32
ඒකට 32
කවුද 32
කු 32
ගානක 32
ඥයෙක 32
ණියක 32
දැක 32
නේද 32
පාක 32
බො 32
මෙතන 32
සෙ 32
සො 32
ාමී 32
ිටිය 32
ිතාව 32
ුකලා 32
ෝනා 32
▁....... 32
▁1.5 32
▁155 32
▁2017 32
▁350 32
▁In 32
▁Is 32
▁Stacks 32
▁This 32
▁Watney 32
▁abducted 32
▁acquired 32
▁adopt 32
▁ancestors 32
▁antidote 32
▁appointed 32
▁astronomy 32
▁audio 32
▁bac 32
▁bansal 32
▁barbie 32
▁behaviour 32
▁bolt 32
▁borrowed 32
▁branches 32
▁breakthrough 32
▁brick 32
▁buckle 32
▁cable 32
▁canceled 32
▁casualties 32
▁cere 32
▁clip 32
▁clu 32
▁column 32
▁committing 32
▁concerns 32
▁contribution 32
▁coo 32
▁cooked 32
▁corrected 32
▁cortez 32
▁cou 32
▁couples 32
▁covers 32
▁creates 32
▁curtis 32
▁darn 32
▁defensive 32
▁definition 32
▁delete 32
▁democracy 32
▁destined 32
▁devasena 32
▁diner 32
▁dishes 32
▁diversion 32
▁dose 32
▁dutch 32
▁eleven 32
▁eloise 32
▁emb 32
▁ens 32
▁establish 32
▁execution 32
▁exhibit 32
▁exits 32
▁farther 32
▁float 32
▁forged 32
▁freed 32
▁furious 32
▁gangster 32
▁gaz 32
▁ger 32
▁grac 32
▁grad 32
▁heartbeat 32
▁heavens 32
▁hip 32
▁hobbs 32
▁hopeless 32
▁houston 32
▁importantly 32
▁indians 32
▁inquiry 32
▁inspect 32
▁intact 32
▁ironic 32
▁kabir 32
▁kathryn 32
▁kau 32
▁kilometers 32
▁korea 32
▁lass 32
▁ledger 32
▁les 32
▁logic 32
▁madras 32
▁mafia 32
▁magician 32
▁magnet 32
▁marsh 32
▁mika 32
▁modified 32
▁mol 32
▁morgue 32
▁neil 32
▁neutral 32
▁nsa 32
▁occupied 32
▁packs 32
▁philosophy 32
▁pimp 32
▁plains 32
▁plug 32
▁politician 32
▁practicing 32
▁principle 32
▁provides 32
▁rahl 32
▁ras 32
▁refer 32
▁referring 32
▁refuge 32
▁regain 32
▁regard 32
▁relatively 32
▁revenue 32
▁risked 32
▁roam 32
▁rolled 32
▁ronal 32
▁ros 32
▁sarge 32
▁sau 32
▁scares 32
▁scenario 32
▁servants 32
▁shaggy 32
▁sheer 32
▁shops 32
▁sixty 32
▁smugg 32
▁spain 32
▁spying 32
▁stepping 32
▁stores 32
▁stray 32
▁striking 32
▁sunshine 32
▁surprising 32
▁targeted 32
▁traveled 32
▁tune 32
▁uk 32
▁vigil 32
▁waitress 32
▁whichever 32
▁wick 32
▁worm 32
▁yashida 32
▁අංශු 32
▁අටයි 32
▁අඩුපාඩු 32
▁අඩෙ 32
▁අතුග 32
▁අදෘශ 32
▁අධම 32
▁අපරාදේ 32
▁අපායේ 32
▁අයිරිස 32
▁අයුතු 32
▁අලෛහිව 32
▁අවිය 32
▁අසනීපෙන 32
▁අසභ 32
▁අසාධාරණයි 32
▁අහුවෙනවා 32
▁ආකෘතිය 32
▁ආසියානු 32
▁ඇඩම 32
▁ඇතුලෙදි 32
▁ඇදෙන 32
▁ඇහුනෙ 32
▁ඇහුවට 32
▁ඉතිරිව 32
▁ඊටවඩා 32
▁උඩටම 32
▁උණත 32
▁උදුර 32
▁උනහම 32
▁උලව 32
▁එකවත 32
▁එනවනම 32
▁එවගේම 32
▁ඒකනෙ 32
▁ඔබතුමාට 32
▁ඔම 32
▁ඔයාමයි 32
▁ඔරව 32
▁ඕනවුනේ 32
▁ඕනෙවට 32
▁කණුව 32
▁කනව 32
▁කමිසය 32
▁කරලම 32
▁කරාවිද 32
▁කවුරුද 32
▁කාලක 32
▁කැනේචර 32
▁කැබලි 32
▁කෑමත 32
▁කියනවට 32
▁කියාගෙන 32
▁කුනු 32
▁කූඩුවේ 32
▁කෙරෙනවා 32
▁කෙලව 32
▁කොකේන 32
▁කොමලා 32
▁කොරල 32
▁කොලයක 32
▁කොහොමටත 32
▁කෝතු 32
▁ගඳයි 32
▁ගලිකයි 32
▁ගිලෙන 32
▁ගෙනෙන 32
▁ගෙවත 32
▁ඝාතකයෙක 32
▁චිම 32
▁චේතන 32
▁චොක 32
▁ජීවිතයෙන 32
▁ජූලියා 32
▁ඥාත 32
▁ටනය 32
▁ටමින 32
▁ටමෙන 32
▁ටියත 32
▁ඩවුන 32
▁ඩසෝමන 32
▁ඩිසෙප 32
▁ඩුබායි 32
▁ඩූ 32
▁ඩෝග 32
▁තදබද 32
▁තදයි 32
▁තනතුරු 32
▁තයව 32
▁තයාගේ 32
▁තාගෙ 32
▁තිකර 32
▁තිබු 32
▁තුරුම 32
▁ථාවේදී 32
▁දකියි 32
▁දැයි 32
▁දිගයි 32
▁දිනපොත 32
▁දෘ 32
▁දෙමාපියෝ 32
▁දේසිය 32
▁දොඩවන 32
▁ධක 32
▁ධාත 32
▁නප 32
▁නවානම 32
▁නැතහොත 32
▁නියමෙටම 32
▁නෙමේනේ 32
▁නොකිය 32
▁පටෝට 32
▁පරයා 32
▁පරාව 32
▁පලයක 32
▁පලයල 32
▁පවුලත 32
▁පළි 32
▁පාකර 32
▁පාඨ 32
▁පැකට 32
▁පිටතින 32
▁පිටරට 32
▁පිරිතාලේ 32
▁පිළිගැනීමේ 32
▁පුනා 32
▁පුරව 32
▁ඵලදායි 32
▁බලතල 32
▁බාහු 32
▁බැම 32
▁බැයිද 32
▁බිරා 32
▁බුරුල 32
▁බුවක 32
▁බෘස 32
▁බේංචි 32
▁බේට 32
▁බෲනෝ 32
▁මංද 32
▁මකරා 32
▁මනේ 32
▁මාරුව 32
▁මාවතේ 32
▁මාළුන 32
▁මැඩපවත 32
▁මැරෙනකම 32
▁මැලේ 32
▁මීයා 32
▁මුණගැහුනා 32
▁මෙලෙස 32
▁යානයෙන 32
▁යුව 32
▁යෙදෙන 32
▁රදානය 32
▁රපාත 32
▁රභවය 32
▁රාජාල 32
▁රාථමික 32
▁රාෆ 32
▁රියදුරෙක 32
▁රුච 32
▁රෝප 32
▁ලංඝනය 32
▁ලෙකුට 32
▁ලෝකයා 32
▁වමු 32
▁වයිකින 32
▁වරල 32
▁වශ 32
▁වහනව 32
▁වාසයෙන 32
▁වැටහීමක 32
▁වැඩිවෙන 32
▁වැරදීමකින 32
▁විදිහකින 32
▁විව 32
▁විහිළුයි 32
▁වීදියේ 32
▁වීමයි 32
▁වුවහොත 32
▁වෙඩිතිබ 32
▁වෙලඳ 32
▁වෙසෙන 32
▁ශත 32
▁ශාලාවක 32
▁ෂණයේ 32
▁ෂබ 32
▁ෂී 32
▁සංයුක 32
▁සතුටට 32
▁සතුර 32
▁සතුරෙක 32
▁සමාගමෙන 32
▁සරා 32
▁සලකනවා 32
▁සිකානු 32
▁සිටිමි 32
▁සීමාවේ 32
▁සොන 32
▁හපා 32
▁හරවලා 32
▁හරවා 32
▁හරියනවා 32
▁හාම 32
▁හාවා 32
▁හැත 32
▁හිතනවට 32
▁හූඩි 32
▁හොරුන 32
▁හෝලි 32
▁ෆන 32
▁ෙපාඩි 32
.- 31
.09 31
AR 31
OC 31
amy 31
anes 31
ange 31
anne 31
astic 31
asy 31
awa 31
dd 31
ec 31
endra 31
hered 31
hit 31
itive 31
lings 31
lle 31
lli 31
llow 31
matic 31
oooo 31
oul 31
po 31
power 31
ther 31
udge 31
ury 31
vable 31
ආර 31
කාරක 31
තාක 31
තියි 31
තුව 31
තෙක 31
දිනවා 31
නමුත 31
පහ 31
පාය 31
ලාස 31
ෂය 31
ෂි 31
හුණ 31
ාකාර 31
ැය 31
ෑව 31
ියාවෙ 31
ිවෙලා 31
ුවාට 31
ුවාද 31
ෙනාත 31
▁15,000 31
▁2003 31
▁An 31
▁Le 31
▁Pam 31
▁Sam 31
▁Will 31
▁Zamani 31
▁accidents 31
▁achievement 31
▁adm 31
▁adrenaline 31
▁adults 31
▁allowing 31
▁amar 31
▁anderson 31
▁ange 31
▁antibiotics 31
▁anyways 31
▁aravind 31
▁ark 31
▁astronaut 31
▁au 31
▁aut 31
▁billions 31
▁breslin 31
▁butler 31
▁buttons 31
▁choke 31
▁claudia 31
▁clothing 31
▁cockpit 31
▁colleagues 31
▁comic 31
▁concl 31
▁costumes 31
▁countdown 31
▁courts 31
▁crawling 31
▁cunning 31
▁dated 31
▁defending 31
▁directors 31
▁disappointment 31
▁discipline 31
▁discussing 31
▁dizzy 31
▁donor 31
▁elect 31
▁establishment 31
▁eternal 31
▁exploded 31
▁fairies 31
▁fairly 31
▁females 31
▁floors 31
▁fog 31
▁fuss 31
▁gale 31
▁galen 31
▁generations 31
▁gram 31
▁grenade 31
▁hallway 31
▁handcuffs 31
▁hardware 31
▁hauser 31
▁horizon 31
▁hospitals 31
▁hydrogen 31
▁ig 31
▁imag 31
▁infinite 31
▁judes 31
▁jumps 31
▁kay 31
▁kong 31
▁latin 31
▁lau 31
▁leonard 31
▁lighter 31
▁locks 31
▁lon 31
▁longest 31
▁lori 31
▁lottery 31
▁luc 31
▁mast 31
▁matt 31
▁mercenary 31
▁metro 31
▁minions 31
▁mir 31
▁misery 31
▁mock 31
▁murali 31
▁mutton 31
▁neat 31
▁neg 31
▁neur 31
▁novel 31
▁obtained 31
▁olivia 31
▁overcome 31
▁override 31
▁owl 31
▁ox 31
▁painted 31
▁paralyzed 31
▁parcher 31
▁peacock 31
▁peggy 31
▁pentagon 31
▁pigeon 31
▁potato 31
▁potatoes 31
▁praying 31
▁pressing 31
▁promoted 31
▁prospect 31
▁provision 31
▁rains 31
▁raped 31
▁restore 31
▁resur 31
▁rider 31
▁rosa 31
▁ross 31
▁seals 31
▁shade 31
▁shave 31
▁sickness 31
▁sippy 31
▁ski 31
▁slaughter 31
▁snatched 31
▁sniper 31
▁standards 31
▁stew 31
▁stu 31
▁supper 31
▁tailor 31
▁temperatures 31
▁tense 31
▁texting 31
▁thirst 31
▁trophy 31
▁unnecessary 31
▁unpredictable 31
▁urgently 31
▁vaseegaran 31
▁vera 31
▁vir 31
▁virtually 31
▁volume 31
▁website 31
▁worldwide 31
▁¿ 31
▁අතනින 31
▁අතරම 31
▁අනාගතයේ 31
▁අඳුරේ 31
▁අපතයෝ 31
▁අපරාධකරුවන 31
▁අමනුෂ 31
▁අයදිනවා 31
▁අරය 31
▁අසා 31
▁අහයි 31
▁අෑත 31
▁ආධුන 31
▁ආවනේ 31
▁ඇඹ 31
▁ඉගෙනගෙන 31
▁ඉතාලි 31
▁උගුර 31
▁උගුලකට 31
▁උපයා 31
▁උමත 31
▁උඹෙන 31
▁ඒවයින 31
▁ඓතිහාසික 31
▁ඔයතරම 31
▁ඔයාගෙද 31
▁ඔළුවේ 31
▁ඕනේනැ 31
▁කකුලේ 31
▁කණගා 31
▁කතාකරමු 31
▁කබීර 31
▁කරනන 31
▁කරමි 31
▁කරවා 31
▁කලාපයේ 31
▁කලිසමක 31
▁කායික 31
▁කාලයයි 31
▁කැඩිච 31
▁කියවීම 31
▁කිහිපය 31
▁කීව 31
▁කීවොත 31
▁කුත 31
▁කෙනත 31
▁කෙනෙකුත 31
▁කෝෆි 31
▁ගතක 31
▁ගබඩාවේ 31
▁ගැනිම 31
▁ගැනුම 31
▁ගැහැණ 31
▁ගියර 31
▁ගුද 31
▁ගොනාට 31
▁ගෝණා 31
▁චාරිකාවක 31
▁චිගේ 31
▁ඡේදය 31
▁ජනගහනය 31
▁ජනේලෙන 31
▁ජලයේ 31
▁ජුර 31
▁ටයෙක 31
▁ටැල 31
▁ටිකන 31
▁ටොඩ 31
▁ඩබල 31
▁ඩාමු 31
▁ඩීසල 31
▁ඩොර 31
▁ණි 31
▁තනියමද 31
▁තරට 31
▁තාල 31
▁තියෙනවානේ 31
▁තුලදී 31
▁තෘ 31
▁දවෙ 31
▁දැයට 31
▁දිනයන 31
▁දීපං 31
▁දූපතක 31
▁දෘශ 31
▁දේමයි 31
▁දෛව 31
▁ධිමතෙක 31
▁නඩුවේ 31
▁නාසි 31
▁නැතිවේවි 31
▁නෑදෑ 31
▁නිධානය 31
▁නියමයිනේ 31
▁නිරූප 31
▁නිවේදනයක 31
▁නොනැසි 31
▁නොවිය 31
▁නොහැකිව 31
▁පණිවුඩය 31
▁පරාජිත 31
▁පහෙන 31
▁පාතාල 31
▁පැමිණීමට 31
▁පිද 31
▁පිපිරීමක 31
▁පිපුර 31
▁පිළිපැද 31
▁පුතත 31
▁පූසන 31
▁පෘථිවියට 31
▁බදාගන 31
▁බරෙන 31
▁බහුලයි 31
▁බාගත 31
▁බාධකයක 31
▁බාබු 31
▁බැංකුවෙන 31
▁බැරිවේවි 31
▁බූරු 31
▁මනහර 31
▁මවාගන 31
▁මානසිකව 31
▁මායාවන 31
▁මාලාවක 31
▁මාලිම 31
▁මාලුවෙක 31
▁මාසයේ 31
▁මාසික 31
▁මැව 31
▁මුදාහරින 31
▁මුව 31
▁මූද 31
▁මෘත 31
▁මේකව 31
▁මේතරම 31
▁මෝග 31
▁යනුවෙන 31
▁යලි 31
▁යවමු 31
▁යළි 31
▁යුතුකම 31
▁රගත 31
▁රදේශයට 31
▁රපටයක 31
▁රබන 31
▁රයිනා 31
▁රසය 31
▁රහාරක 31
▁රළ 31
▁රාකාර 31
▁රාප 31
▁රිචර 31
▁රියද 31
▁රොබර 31
▁ලබාගැනීමට 31
▁ලමයිනේ 31
▁ලයිකන 31
▁ලාව 31
▁ලැබීමට 31
▁ලිබි 31
▁ලියෙක 31
▁ලිල 31
▁ලුවෙ 31
▁ලූක 31
▁ලේඛනය 31
▁ලෝකෙක 31
▁ලෝම 31
▁ලෝර 31
▁වංචාකාරයෙක 31
▁වයකින 31
▁වරප 31
▁වලි 31
▁වසරකට 31
▁වායුගෝල 31
▁වැඩද 31
▁වැරදී 31
▁වෑල 31
▁විදියෙන 31
▁විනාසයි 31
▁විනෝදජනක 31
▁විරැද 31
▁විවා 31
▁වෙලාවටද 31
▁වේගන 31
▁ශීල 31
▁සනක 31
▁සනාථ 31
▁සපයා 31
▁සමී 31
▁සමූහාණ 31
▁සලකුනු 31
▁සහෝදරියක 31
▁සළකුණක 31
▁සාදයට 31
▁සාහය 31
▁සැළකිල 31
▁සෑද 31
▁සිනේ 31
▁සියළුදෙන 31
▁සුපුරුදු 31
▁සෘත 31
▁සෙවීම 31
▁සේවාදායකයා 31
▁හදගැස 31
▁හරියෙ 31
▁හාදයෝ 31
▁හැගෙන 31
▁හැමදේකින 31
▁හිං 31
▁හික 31
▁හිනාවෙනවා 31
▁හුළඟ 31
▁හෙවනැල 31
▁හෙළිදරව 31
▁හොබ 31
▁හෝටලයට 31
▁ළමයො 31
▁ෆී 31
▁ෆෙරේඩ 31
▁ෙතන 31
.06 30
02 30
42 30
DA 30
RI 30
acted 30
athy 30
aul 30
bear 30
bell 30
bling 30
bu 30
cker 30
ela 30
ested 30
eta 30
gas 30
ilt 30
irt 30
kers 30
lie 30
lynn 30
oded 30
olved 30
ores 30
ple 30
reed 30
shot 30
stand 30
tes 30
umes 30
under 30
ushing 30
uwa 30
и 30
ංජ 30
ඔයාගෙ 30
කක 30
ණක 30
මො 30
යාගන 30
රුව 30
වටත 30
වරයාගේ 30
වරිය 30
වාවි 30
වොත 30
හරිද 30
හුණු 30
හොඳ 30
ාරය 30
ිකිරීම 30
ිඩ 30
ුටි 30
ෙයිද 30
ෙරි 30
▁3-1 30
▁300,000 30
▁4000 30
▁73 30
▁Bender 30
▁IG 30
▁Ladyship 30
▁My 30
▁No 30
▁adoption 30
▁alabama 30
▁alongside 30
▁alternate 30
▁ank 30
▁appeal 30
▁banana 30
▁begged 30
▁bennet 30
▁bits 30
▁bomber 30
▁boxers 30
▁bp 30
▁breached 30
▁broker 30
▁broom 30
▁bully 30
▁butcher 30
▁cannon 30
▁caste 30
▁catches 30
▁cau 30
▁choudhary 30
▁circles 30
▁clues 30
▁compare 30
▁contacted 30
▁conversations 30
▁cooler 30
▁cot 30
▁counsel 30
▁coverage 30
▁crook 30
▁cuckoo 30
▁dash 30
▁dc 30
▁deceit 30
▁decepticons 30
▁defin 30
▁designer 30
▁dh 30
▁diesel 30
▁difficulties 30
▁dismissed 30
▁disturbance 30
▁divine 30
▁donation 30
▁dope 30
▁dough 30
▁dum 30
▁eliminated 30
▁emerald 30
▁ew 30
▁excitement 30
▁fab 30
▁fal 30
▁farmers 30
▁faul 30
▁flaw 30
▁followers 30
▁forensic 30
▁framed 30
▁fran 30
▁fuller 30
▁gifted 30
▁goose 30
▁grounded 30
▁gunshot 30
▁hacker 30
▁handy 30
▁hesitate 30
▁hunted 30
▁hybrid 30
▁idol 30
▁ifs 30
▁immy 30
▁implic 30
▁indistinct 30
▁initiating 30
▁interference 30
▁jal 30
▁je 30
▁jessica 30
▁joong 30
▁jun 30
▁junkie 30
▁kansas 30
▁kh 30
▁kitty 30
▁kravid 30
▁lame 30
▁lauren 30
▁lear 30
▁leather 30
▁losers 30
▁louise 30
▁lycan 30
▁lycans 30
▁martial 30
▁materials 30
▁messy 30
▁mockingjay 30
▁moran 30
▁morse 30
▁mortgage 30
▁mowgli 30
▁mutation 30
▁nin 30
▁oblig 30
▁offended 30
▁ol 30
▁opera 30
▁paige 30
▁palm 30
▁passage 30
▁permanently 30
▁pest 30
▁petty 30
▁pickup 30
▁pork 30
▁predator 30
▁psychological 30
▁publicity 30
▁quicker 30
▁raina 30
▁realised 30
▁reduced 30
▁reference 30
▁reminder 30
▁retain 30
▁reznik 30
▁risky 30
▁rival 30
▁rode 30
▁rone 30
▁rusty 30
▁scope 30
▁sentimental 30
▁sentinel 30
▁serum 30
▁señor 30
▁shallow 30
▁shred 30
▁shreya 30
▁sixth 30
▁sleeps 30
▁solomon 30
▁spite 30
▁spoiled 30
▁sprink 30
▁squadron 30
▁steep 30
▁structures 30
▁stun 30
▁superb 30
▁swagger 30
▁taco 30
▁tarr 30
▁tj 30
▁tore 30
▁tracker 30
▁transmitter 30
▁turbo 30
▁tying 30
▁unre 30
▁verdict 30
▁vetri 30
▁vika 30
▁whereas 30
▁wrest 30
▁අකුර 30
▁අඩෝ 30
▁අතීතයට 30
▁අතෙන 30
▁අමතකද 30
▁ආදේශ 30
▁ආලෝකයට 30
▁ඇතිකරගන 30
▁ඇතිවුනා 30
▁ඇනන 30
▁ඇවිදන 30
▁ඉතිරිය 30
▁උකස 30
▁උනානේ 30
▁උපයන 30
▁උමතු 30
▁උඹලව 30
▁උවමන 30
▁එයිද 30
▁එලීස 30
▁ඒකෝ 30
▁ඔනා 30
▁ඔයි 30
▁ඔරං 30
▁ඔරලොසු 30
▁කකුලක 30
▁කදුළු 30
▁කරානම 30
▁කාබනික 30
▁කාලතුවක 30
▁කැමැතියි 30
▁කෑගැහ 30
▁කියලනම 30
▁කියවෙනවා 30
▁කිරීමේදී 30
▁කිසිවෙකුට 30
▁කුටියක 30
▁කෙලවගන 30
▁කෙෙනක 30
▁ගනුදෙන 30
▁ගමනාන 30
▁ගවේශනය 30
▁ගහනවද 30
▁ගැහෙනවා 30
▁ගිණුමක 30
▁ගුහාවක 30
▁ගෙරාඩ 30
▁ජනේලය 30
▁ජාවට 30
▁ජීවය 30
▁ජීවිතයම 30
▁ජීවිතෙන 30
▁ජුනි 30
▁ජෙනා 30
▁ටප 30
▁ටැ 30
▁ටෑන 30
▁ටිකේ 30
▁ටීල 30
▁ටෙම 30
▁ඩායමකට 30
▁ඩායමෙන 30
▁ණවත 30
▁තරයෙන 30
▁තිබුනනම 30
▁තියනවනේ 30
▁තුවකින 30
▁තේජ 30
▁තේරැම 30
▁තේරුන 30
▁තොටුප 30
▁ථාවෙන 30
▁දකීවි 30
▁දරුනු 30
▁දැනුණා 30
▁දුමක 30
▁දුරද 30
▁දූෂිත 30
▁දෙනෙත 30
▁දේවතාව 30
▁නගරයම 30
▁නලාව 30
▁නාවූ 30
▁නියෝජිතයා 30
▁නියෝජිතයෝ 30
▁නිවැරද 30
▁නීතීඥයා 30
▁නූ 30
▁නෙනෑ 30
▁නෝම 30
▁පටලැවිල 30
▁පටෙ 30
▁පරතරය 30
▁පරදිනවා 30
▁පලයං 30
▁පලියට 30
▁පැතිරෙනවා 30
▁පැහැති 30
▁පියතුමනි 30
▁පිළිතුර 30
▁පිළියෙල 30
▁පෙරහැර 30
▁පොටෝ 30
▁පොහොර 30
▁පොළඹ 30
▁බනම 30
▁බයකරන 30
▁බලකා 30
▁බලාගනියි 30
▁බැරන 30
▁බැරිවෙනවා 30
▁බිඳවැට 30
▁බිමක 30
▁බිෂොප 30
▁බෘක 30
▁බොරුකාරයා 30
▁භූතයා 30
▁මකරු 30
▁මගී 30
▁මනෝවිද 30
▁මයාට 30
▁මහද 30
▁මාටි 30
▁මායාකර 30
▁මැරුවට 30
▁මෑ 30
▁මීස 30
▁මුතුන 30
▁මුදලින 30
▁මුළුමුනින 30
▁මෘගයා 30
▁මෙව 30
▁මොකෙන 30
▁මොලයක 30
▁මෝරු 30
▁යාවිද 30
▁යාළුවකේ 30
▁යොන 30
▁රචාරය 30
▁රථයකට 30
▁රයෝජනය 30
▁රහල 30
▁රහසින 30
▁රාමුව 30
▁රීවා 30
▁රුවත 30
▁රේගල 30
▁රේෂණ 30
▁රෝගයක 30
▁රෝහියෙක 30
▁ලකට 30
▁ලැබයි 30
▁ලිහිල 30
▁ලුහුබඳිනවා 30
▁ලෙඩේ 30
▁ලෙවින 30
▁ලෙසත 30
▁ලෙසයි 30
▁ලොයි 30
▁වංචාවක 30
▁වකුටු 30
▁වතාවකට 30
▁වයිෆ 30
▁වරින 30
▁වරුනේ 30
▁වසරක 30
▁වාණිජ 30
▁වාධීන 30
▁වැව 30
▁විකුණුවා 30
▁විගණකාධිපති 30
▁විනාඩියකට 30
▁වියට 30
▁විසදුම 30
▁විසර 30
▁විහිළුව 30
▁වෙරළේ 30
▁වෙලාවත 30
▁වේදනාවෙන 30
▁වෛ 30
▁සපයනවා 30
▁සමාජයට 30
▁සයිකල 30
▁සරවෙලා 30
▁සරළ 30
▁සලාද 30
▁සහෝදරියන 30
▁සාමකාමී 30
▁සාමයෙන 30
▁සැකකාර 30
▁සැනස 30
▁සැරදේවා 30
▁සිලය 30
▁සිසිර 30
▁සීමිත 30
▁සුරැකුම 30
▁සේවාදායකයෙක 30
▁සෝම 30
▁හතුරෝ 30
▁හදිසියේ 30
▁හයවෙනි 30
▁හලෙන 30
▁හාදය 30
▁හැංගුවා 30
▁හැදෙයි 30
▁හීත 30
▁හීරෝ 30
▁හුකන 30
▁හුකර 30
▁හෙයින 30
▁හෝටලේට 30
▁ළඟටම 30
▁ළඟයි 30
▁ෆුට 30
▁ෆෙඩ 30
.15 29
ON 29
agers 29
aning 29
arium 29
asing 29
atives 29
aza 29
bered 29
bird 29
brien 29
bro 29
cell 29
chester 29
cking 29
cular 29
eed 29
etic 29
hello 29
iced 29
ifying 29
igan 29
isters 29
itted 29
lect 29
lyn 29
maid 29
met 29
mi 29
mile 29
mmm 29
new 29
nn 29
oning 29
pro 29
quet 29
rich 29
ros 29
rr 29
run 29
sters 29
tor 29
tw 29
verse 29
wara 29
xt 29
yard 29
Ç 29
ü 29
අද 29
කිරීමක 29
ගහලා 29
ගාම 29
ගැනිම 29
ඞ 29
ඡ 29
ජාන 29
තුමනි 29
ධිපත 29
පාරක 29
මී 29
යනය 29
යේම 29
ලගෙ 29
ලෝක 29
වුනාම 29
ශයෙන 29
ශා 29
හනය 29
හින 29
ාගාරයේ 29
ාවම 29
ැසි 29
ිතික 29
ිතුම 29
ීටර 29
ීඩ 29
ුනහම 29
ුවාම 29
ෙමු 29
ේටම 29
ොවෙන 29
ොවේ 29
ොළ 29
ෲ 29
▁Arthur 29
▁achieved 29
▁actors 29
▁adv 29
▁afterwards 29
▁ako 29
▁ale 29
▁aman 29
▁analyze 29
▁anyhow 29
▁applications 29
▁arguing 29
▁arizona 29
▁artificial 29
▁atleast 29
▁australian 29
▁backwards 29
▁badass 29
▁beeping 29
▁bennett 29
▁bhairava 29
▁bingo 29
▁biology 29
▁blackout 29
▁blake 29
▁ble 29
▁blindfold 29
▁bothers 29
▁bradley 29
▁brah 29
▁burglar 29
▁businesses 29
▁butterfly 29
▁buyer 29
▁bypass 29
▁choosing 29
▁civilization 29
▁comms 29
▁communicating 29
▁connections 29
▁conv 29
▁copper 29
▁corners 29
▁cors 29
▁coven 29
▁cris 29
▁critic 29
▁crop 29
▁cuffs 29
▁cynthia 29
▁debate 29
▁decides 29
▁delighted 29
▁dennis 29
▁departure 29
▁detailed 29
▁disappoint 29
▁disarm 29
▁disgrace 29
▁dodi 29
▁eagles 29
▁encrypted 29
▁enterprises 29
▁entr 29
▁equally 29
▁escal 29
▁ess 29
▁expl 29
▁expressed 29
▁extinction 29
▁fellows 29
▁ferry 29
▁fi 29
▁finishing 29
▁floating 29
▁floyd 29
▁fors 29
▁franck 29
▁freely 29
▁gag 29
▁gesture 29
▁gloves 29
▁gon 29
▁guessed 29
▁habits 29
▁harness 29
▁hermes 29
▁hoff 29
▁horror 29
▁horus 29
▁ibrahim 29
▁ign 29
▁imlay 29
▁importance 29
▁initiated 29
▁inspection 29
▁instance 29
▁instantly 29
▁instrument 29
▁intent 29
▁interviews 29
▁jaw 29
▁jeopard 29
▁juvenile 29
▁kaulder 29
▁keefe 29
▁kindly 29
▁kragle 29
▁kree 29
▁laboratory 29
▁labour 29
▁latif 29
▁leah 29
▁lifestyle 29
▁loading 29
▁lunatic 29
▁luthorcorp 29
▁magistrate 29
▁mainly 29
▁males 29
▁mammoth 29
▁marie 29
▁martinez 29
▁merlin 29
▁militia 29
▁module 29
▁mos 29
▁negro 29
▁newton 29
▁ni 29
▁nod 29
▁nov 29
▁obs 29
▁obst 29
▁omar 29
▁operative 29
▁operator 29
▁orphanage 29
▁owners 29
▁pap 29
▁pennsylvania 29
▁perpet 29
▁pers 29
▁philly 29
▁por 29
▁pour 29
▁prob 29
▁proves 29
▁pul 29
▁purcell 29
▁questioned 29
▁rand 29
▁ranjana 29
▁realm 29
▁recipe 29
▁recommended 29
▁reflect 29
▁relieved 29
▁rendezvous 29
▁reset 29
▁rigged 29
▁rightful 29
▁rodney 29
▁ropes 29
▁saya 29
▁scores 29
▁scouts 29
▁scrub 29
▁seated 29
▁shelf 29
▁sho 29
▁sig 29
▁skies 29
▁slippers 29
▁sore 29
▁specs 29
▁steak 29
▁steele 29
▁stig 29
▁stim 29
▁stinking 29
▁sway 29
▁tattooed 29
▁teller 29
▁texted 29
▁theater 29
▁thornton 29
▁thrill 29
▁titus 29
▁tolerate 29
▁touches 29
▁trump 29
▁turner 29
▁ultimately 29
▁unfair 29
▁unh 29
▁varun 29
▁vin 29
▁viper 29
▁wasim 29
▁wel 29
▁wished 29
▁wreckage 29
▁zapata 29
▁අංගුලිමාල 29
▁අඩවිය 29
▁අතඇරලා 29
▁අදුනගන 29
▁අනාරක 29
▁අනියම 29
▁අනුවර 29
▁අපනයන 29
▁අපූරුයි 29
▁අමනය 29
▁අයර 29
▁අවධානයක 29
▁අසතුට 29
▁අසාධාරණ 29
▁අහුර 29
▁ආකෝ 29
▁ආයතනික 29
▁ආලූ 29
▁ආසාත 29
▁ඇදට 29
▁ඇඳුමට 29
▁ඇමෙරිකා 29
▁ඇහැරිලා 29
▁ඊවෝල 29
▁උදුරගන 29
▁උනු 29
▁උපය 29
▁උපයෝගී 29
▁එකින 29
▁එකෙත 29
▁එතකොටයි 29
▁එයාලාගේ 29
▁ඔයගෙ 29
▁ඔරලෝසු 29
▁ඔරි 29
▁ඔළුවෙ 29
▁කගත 29
▁කථාවක 29
▁කදිමයි 29
▁කයිලි 29
▁කලියෙන 29
▁කාච 29
▁කැඩපත 29
▁කියනවාද 29
▁කුටියට 29
▁කුටීරය 29
▁කුණාට 29
▁කුතුහල 29
▁කූඩ 29
▁කූඹ 29
▁කෘතිම 29
▁කෙරිණි 29
▁කේබ 29
▁කොංග 29
▁කොරිය 29
▁කොහොද 29
▁ගනිස 29
▁ගයාගේ 29
▁ගවේෂ 29
▁ගැහැණිය 29
▁ගිජ 29
▁ගිනුම 29
▁ගිලිහ 29
▁ගුරුවර 29
▁ගොඩබෑම 29
▁ඝාතකයා 29
▁චමත 29
▁චියර 29
▁ඡේදයක 29
▁ජනතා 29
▁ජනේල 29
▁ජේකොබ 29
▁ජොශ 29
▁ටයිටස 29
▁ටාට 29
▁ටැංකියක 29
▁ටැප 29
▁ටීචර 29
▁ටුඩියෝ 29
▁ටෝකියෝ 29
▁තකන 29
▁තැනිතලා 29
▁තිබනෙවා 29
▁තිහක 29
▁තුමාගේ 29
▁තුයි 29
▁තොරයි 29
▁තෝරාගැනීමක 29
▁තෝල 29
▁දනී 29
▁දාට 29
▁දාදුවා 29
▁දිනලා 29
▁දිවයින 29
▁දිශාව 29
▁දුසිමක 29
▁දෙනවට 29
▁දේශන 29
▁දේශය 29
▁දෝශ 29
▁නැගල 29
▁නිසානේ 29
▁නුවන 29
▁නේතන 29
▁නේනෑ 29
▁නේවත 29
▁නෝනට 29
▁පපුවට 29
▁පරාසය 29
▁පරාසයක 29
▁පරිපථ 29
▁පරිපාලනය 29
▁පසුපසින 29
▁පහතට 29
▁පළතුරු 29
▁පාඨමාලාව 29
▁පාඩ 29
▁පැංච 29
▁පැවසීය 29
▁පියාඹ 29
▁පිරිච 29
▁පිරිමින 29
▁පිරිසිදුව 29
▁පිරී 29
▁පිහිටුව 29
▁පිහිටුවීම 29
▁පීල 29
▁පුපුරවලා 29
▁පුවතක 29
▁පුවෙන 29
▁පෘෂ 29
▁පෙපර 29
▁පොතට 29
▁පොරව 29
▁පෞර 29
▁බඳිනවා 29
▁බයෝ 29
▁බලගතු 29
▁බැහැල 29
▁බේරුනේ 29
▁බොරැ 29
▁මටවත 29
▁මතින 29
▁මරිකෝ 29
▁මවිත 29
▁මාකට 29
▁මායාකාරියන 29
▁මැදිරියේ 29
▁මැරියන 29
▁මිඩ 29
▁මුහුණක 29
▁මෙහෙද 29
▁මෙහෙවර 29
▁යනගමන 29
▁යසාර 29
▁යහළුවන 29
▁යාවෙනි 29
▁යැවුවා 29
▁යුගයේ 29
▁යෙහ 29
▁රකට 29
▁රකාශයක 29
▁රතිවාද 29
▁රදේශවල 29
▁රභා 29
▁රමානය 29
▁රයත 29
▁රවේසමෙන 29
▁රාජධාන 29
▁රායෝගික 29
▁රාවිඩ 29
▁රාහකයෙක 29
▁රැලි 29
▁රිකාවෙ 29
▁රුසියානුවන 29
▁රේඩියේ 29
▁රේණ 29
▁රොකී 29
▁රෝනල 29
▁රෝමයේ 29
▁රෝසා 29
▁ලකුණ 29
▁ලතින 29
▁ලබාදී 29
▁ලවය 29
▁ලැබීය 29
▁ලෙසම 29
▁වටිනාම 29
▁වටෙ 29
▁වතුරයි 29
▁වලෙ 29
▁වහා 29
▁වායුව 29
▁වැග 29
▁වැඩිහිට 29
▁විනිසුර 29
▁විනොද 29
▁විමසන 29
▁විලෝප 29
▁විවාද 29
▁වෙලාවටම 29
▁වෝව 29
▁ෂිණ 29
▁සංකිර 29
▁සංකේතය 29
▁සංවිධානයේ 29
▁සඟ 29
▁සතියට 29
▁සදාචාර 29
▁සබද 29
▁සමතුලිත 29
▁සලකනු 29
▁සළකුණ 29
▁සැකස 29
▁සිකන 29
▁සිටියේය 29
▁සිරගෙදර 29
▁සිරස 29
▁සෙබල 29
▁සේගේ 29
▁සොෆ 29
▁සෝන 29
▁හදද 29
▁හඳුනාගැනීම 29
▁හලට 29
▁හාදයව 29
▁හැදිලද 29
▁හැමවෙලා 29
▁හැමෝගෙන 29
▁හැසිරීමක 29
▁හීතල 29
▁හුත 29
▁හුල 29
▁හෝටලය 29
▁හෝටලයේ 29
▁ෆෝර 29
▁ෙනවයෙි 29
--- 28
RA 28
aced 28
actor 28
agon 28
atics 28
aug 28
ba 28
ban 28
bone 28
called 28
cket 28
class 28
ella 28
erry 28
gger 28
going 28
hol 28
istics 28
itty 28
iva 28
jack 28
ken 28
lish 28
llen 28
mails 28
minute 28
nel 28
ocr 28
osis 28
ounced 28
phone 28
pr 28
rell 28
ression 28
rew 28
rish 28
tech 28
tight 28
ua 28
uda 28
ulars 28
ulu 28
urity 28
ushed 28
ux 28
è 28
අහ 28
ගද 28
ජැක 28
ජින 28
ණෙ 28
දියි 28
දීන 28
නාට 28
පැත 28
මනය 28
යකුට 28
යමු 28
ලාගේ 28
වතාවක 28
වාන 28
වෙම 28
ාවෙදි 28
ිතය 28
ිලිස 28
ුණත 28
ුවහම 28
▁108 28
▁160 28
▁2.1 28
▁58 28
▁Gandalf 28
▁LLC 28
▁Quinton 28
▁abby 28
▁accidentally 28
▁admir 28
▁afterlife 28
▁alb 28
▁almighty 28
▁alu 28
▁angie 28
▁angulimala 28
▁ankle 28
▁annoying 28
▁antenna 28
▁apologizing 28
▁approached 28
▁arabic 28
▁artists 28
▁associates 28
▁balances 28
▁bapt 28
▁batch 28
▁blaming 28
▁blaze 28
▁bodyguard 28
▁boon 28
▁boost 28
▁booty 28
▁bradshaw 28
▁breast 28
▁bru 28
▁bubbles 28
▁builder 28
▁cabe 28
▁capt 28
▁carbon 28
▁cassandra 28
▁chanchad 28
▁chandni 28
▁chit 28
▁circuit 28
▁clar 28
▁cocaine 28
▁cocktail 28
▁cod 28
▁concentration 28
▁consist 28
▁consistent 28
▁construct 28
▁convincing 28
▁coughing 28
▁cour 28
▁crank 28
▁crystal 28
▁cuba 28
▁dang 28
▁delicate 28
▁devlin 28
▁dhar 28
▁discount 28
[...]
