▁் 3973447
▁. 177934
▁, 162627
▁கு 98681
▁கள 93672
▁த 93651
; 79257
▁& 79251
▁என 78863
▁து 56140
▁க 54967
▁பட 53736
▁கும 44452
quot 42641
▁று 39615
▁ட 34747
▁றும 34658
apos 34112
▁மற 30886
. 30833
▁டு 30086
▁ஒரு 29293
▁கட 28928
▁தில 28715
▁செய 27417
▁கொண 27291
▁கப 27112
▁அவர 27093
▁இந 26458
▁ற 26023
▁பு 25027
▁; 24292
▁தை 22955
▁களை 22275
▁தின 21400
▁ள 19772
▁களுக 19397
▁ப 18870
▁டும 18852
▁அமெரிக 17856
▁படுத 17794
▁உள 17064
▁இருந 16909
▁கத 16867
▁ந 16388
▁கொள 16291
▁லை 16171
▁முன 16134
▁துக 16116
▁ளது 15296
▁திற 15281
▁ஸ 14629
▁தான 14406
▁தது 14297
▁தன 13865
▁பின 13195
▁சி 13186
▁கம 13126
▁இருக 13013
▁தப 12635
▁பற 12498
▁அரசாங 12447
▁) 12289
▁( 12278
▁எதிர 12277
▁வேண 12111
▁: 11989
▁டுள 11958
▁கான 11871
▁கை 11832
▁தார 11788
▁களின 11632
▁நான 11573
▁ஏற 11315
▁களில 11216
▁டத 11038
▁துள 10891
▁கூட 10714
▁டது 10624
▁ச 10620
▁கின 10412
▁புக 10286
▁மக 10237
▁தொடர 10141
▁தி 9924
▁காட 9826
▁றி 9596
▁அந 9531
▁கிறது 9523
▁வந 9358
▁கர 9319
▁பார 9283
▁பத 9069
▁தங 9022
▁காக 8960
▁அல 8906
▁அப 8833
▁கண 8756
▁திட 8655
▁பல 8518
▁இல 8439
▁ஆண 8280
▁ஒன 8275
▁திய 8270
▁அரசியல 8111
▁நாட 8032
▁இன 7953
▁பது 7845
▁அது 7836
▁தாக 7836
▁கி 7833
▁ல 7802
▁வர 7593
▁தத 7560
▁டார 7489
▁போது 7488
▁கிய 7478
▁பாக 7362
▁இப 7325
▁சர 7139
▁நடவடிக 7131
▁டிருக 7015
▁இது 6980
▁படி 6957
▁பெற 6916
▁குறிப 6906
▁தல 6856
▁தொழிலாளர 6770
▁? 6658
ல 6649
▁களும 6646
▁கிறார 6544
▁- 6543
▁தக 6510
▁சம 6506
▁குப 6503
▁பாட 6479
▁சந 6476
- 6458
▁தேர 6445
▁படத 6393
▁வாக 6376
▁டுக 6335
▁படும 6295
▁தும 6286
▁டம 6152
▁பதற 6125
▁உண 6117
▁தம 6054
▁றன 6028
▁நிர 6024
▁இயக 6023
▁திருக 6005
▁இரண 5996
▁ஆனால 5981
க 5975
▁தர 5967
▁டன 5953
▁இஸ 5938
▁பங 5919
▁நடத 5776
▁ஈராக 5769
▁பெரும 5745
▁சொல 5729
ம 5686
▁னர 5641
▁செல 5635
▁டி 5558
▁குள 5554
▁சட 5529
▁பில 5522
▁மட 5449
▁டுப 5420
▁லது 5315
▁டிருந 5308
▁எல 5271
▁சங 5263
▁அதன 5261
▁உங 5253
▁முக 5242
▁பொழுது 5226
▁பிரச 5217
▁நோக 5216
▁ன 5097
▁மேற 5046
▁நீங 5011
▁பாதுகாப 4990
▁ஐரோப 4972
▁பண 4939
▁னும 4910
▁சில 4909
▁எந 4863
▁சிக 4851
▁விட 4847
▁சார 4818
▁பர 4780
▁குற 4778
▁டில 4773
▁கொடுத 4755
▁போர 4745
▁கருத 4737
▁கடந 4715
▁தீர 4708
▁பை 4696
▁சென 4681
▁றனர 4680
▁அமைப 4663
▁கில 4660
▁நம 4637
▁அடிப 4630
▁சேர 4608
ின 4602
▁டங 4600
▁ஒப 4572
▁றது 4564
▁ஆட 4557
▁அவன 4553
▁ளன 4553
▁உன 4528
▁கிற 4526
▁பிய 4500
▁கல 4494
▁டின 4477
▁கொடுக 4462
▁தொழிற 4439
▁கேட 4429
▁றார 4406
▁வைத 4339
▁பிட 4309
▁களையும 4308
▁பான 4290
▁ளார 4278
▁மீது 4236
ும 4193
▁றுக 4185
▁றிய 4154
▁தனது 4137
▁யப 4133
▁பதை 4121
▁எண 4120
▁தனர 4105
▁மத 4095
▁உயர 4089
▁சமூக 4078
▁போன 4072
▁மாற 4072
▁இருப 4041
▁பயன 4033
▁புஷ 4028
▁புதிய 4025
▁எங 4010
▁டிக 3988
▁துவ 3988
ப 3977
▁போக 3975
▁மை 3949
▁தால 3933
▁கங 3930
▁கா 3930
▁டை 3929
▁இராணுவ 3919
▁ளனர 3915
▁எடுத 3907
▁தற 3897
▁எனக 3890
▁நெருக 3879
▁திருந 3866
▁குக 3846
▁குத 3839
▁வகையில 3833
▁அங 3828
▁உட 3802
த 3791
▁பிற 3790
▁யுத 3786
▁செயல 3779
▁தலைவர 3736
▁அனைத 3730
▁வழங 3712
▁றத 3709
▁கணக 3693
▁தையும 3690
▁தெரிவித 3687
▁மேலும 3662
ே 3656
ை 3641
▁பொருளாதார 3638
▁வதேச 3584
▁போட 3583
▁லியன 3580
▁நடந 3575
▁சத 3573
▁முதல 3570
▁பேச 3560
▁குதல 3540
ில 3535
▁ஆக 3522
ச 3520
ையும 3482
▁எதிராக 3465
▁மூலம 3462
▁மேல 3459
ுக 3445
▁முயற 3445
▁புத 3427
▁திக 3416
▁வாழ 3404
▁பெரிய 3398
▁றம 3393
ான 3390
▁பேர 3386
ா 3381
▁அதற 3381
▁நிகழ 3376
▁சியின 3374
▁போல 3341
▁முதலாளித 3323
▁தேசிய 3315
▁னை 3310
▁மன 3308
▁நிறுத 3278
▁பிக 3274
▁டர 3266
▁கே 3265
▁ய 3264
ாக 3262
▁மூன 3259
▁சாட 3248
▁வு 3243
▁சோசலிச 3239
▁துவிட 3226
▁ஜேர 3214
▁வெளிப 3202
▁சக 3200
▁உடன 3199
▁பாளர 3196
▁ஆர 3172
▁அறிக 3162
▁அக 3148
▁மிக 3148
▁பந 3140
▁கையில 3122
▁டனர 3043
▁நீ 3029
▁வைக 3017
▁தவர 2998
▁போராட 2996
▁எப 2990
ி 2989
▁களது 2988
▁அத 2984
▁அச 2975
▁திரும 2961
▁! 2960
▁நாம 2932
▁சு 2922
▁திருப 2917
▁வளர 2915
▁முற 2906
▁ஜனாதிபதி 2905
▁வார 2901
ைப 2893
▁குச 2891
▁படம 2891
▁றை 2888
▁இவர 2887
▁அன 2880
▁உறுப 2873
▁கால 2843
ைக 2837
▁இத 2820
▁கூறினார 2817
▁கார 2815
▁காலத 2815
▁ஜனநாயக 2811
▁கக 2797
▁தகைய 2795
▁றால 2784
▁கீழ 2775
▁இலங 2766
▁ஆகும 2765
▁சித 2759
▁எதிரான 2756
▁னுடைய 2756
▁தமிழ 2755
ோ 2751
▁உலக 2742
▁வரும 2737
▁டப 2681
▁வாய 2681
▁அனுப 2677
▁தட 2667
▁கவில 2658
▁வெற 2655
▁குறைந 2644
▁தொழிலாள 2641
▁முறையில 2612
▁கையை 2591
▁மீண 2586
▁உத 2583
▁நாங 2583
▁அமைச 2564
▁மந 2557
▁களுடைய 2551
▁உருவாக 2548
ிக 2522
▁துப 2521
▁டிய 2516
▁நிலையில 2516
▁அடுத 2511
▁துடன 2505
ன 2492
▁பதில 2476
▁துறை 2452
▁மில 2452
▁கைகள 2443
▁பயங 2440
▁பினர 2439
▁பி 2435
▁அறிவித 2398
▁கிழக 2384
▁ஷ 2368
▁இராணுவத 2357
▁லாம 2357
▁அவரது 2355
▁தைக 2346
▁விரும 2341
ைத 2340
▁சுதந 2328
▁நலன 2326
▁றில 2316
▁வங 2302
▁தொடங 2293
ால 2284
▁குறித 2260
▁டவர 2257
▁வதற 2245
▁வாங 2243
▁பெயர 2241
▁நடிக 2232
▁உற 2225
▁/ 2224
▁இடம 2220
▁ளப 2207
ங 2206
▁மிகவும 2202
▁இதற 2201
▁பதாக 2196
▁பிரான 2196
▁பொறுப 2194
▁தள 2190
▁அதை 2188
▁திர 2183
▁தவிர 2179
▁நடைபெற 2178
▁மார 2175
▁யும 2175
▁ஐ 2167
▁ஆரம 2162
▁படுகிறது 2151
▁மிகப 2138
▁தொழில 2126
▁சுற 2123
▁ஆதரவு 2117
▁படங 2116
▁கைகளை 2101
▁மதிப 2099
▁படிக 2096
▁பாடு 2091
▁... 2084
▁களாக 2083
▁வாஷிங 2078
▁அதே 2070
▁இரு 2055
▁முடியும 2035
▁ஆப 2030
▁டிற 2023
▁அம 2022
▁ளும 2020
▁படை 2016
▁லாமல 2003
▁பும 2002
▁தயாரிப 2001
▁நிறுவனங 2001
▁வழக 1994
▁பவர 1985
▁பிரிட 1975
▁வேறு 1974
▁சிகள 1973
▁நேரத 1973
▁வரை 1971
▁கைக 1969
▁மீதான 1964
▁தாலும 1962
▁றான 1959
▁குண 1958
▁வேலை 1946
▁லாத 1944
▁முடைய 1939
▁ஜனநாயகக 1936
▁உணர 1930
▁ஒவ 1925
▁வெளியிட 1925
▁கன 1923
▁எடுக 1919
▁வேட 1912
▁பக 1907
▁சியை 1906
▁கலந 1904
▁ஆகியவற 1902
▁திலும 1902
▁அவருடைய 1901
▁பன 1898
▁பப 1894
▁வெள 1892
▁துவத 1891
▁வீட 1889
▁செயற 1886
ர 1873
▁இங 1871
▁நன 1870
▁களால 1869
▁ஐக 1860
▁குழு 1856
▁அழைப 1853
▁பரந 1852
▁எவ 1849
▁டான 1840
▁காத 1838
▁லா 1831
பி 1830
▁தண 1820
▁உம 1806
ட 1805
▁கிக 1802
ிப 1799
▁கற 1798
▁வருகின 1797
▁சுறுத 1796
▁வாகத 1791
▁டாம 1790
▁தித 1789
▁களைக 1787
▁றின 1782
▁இவ 1780
▁திரத 1780
ாய 1777
▁செலுத 1776
▁தகவல 1775
▁கூடிய 1771
▁மாதம 1764
▁அளவில 1761
▁கிறேன 1755
மும 1754
▁றப 1751
▁மையில 1749
▁திலிருந 1746
▁திலே 1745
▁பகுதியில 1741
▁படையில 1739
▁சொன 1736
▁டால 1736
ிய 1733
▁களைப 1732
▁நல 1732
▁போய 1724
▁டுமே 1723
▁வருகிறது 1723
▁லப 1721
▁ஆளும 1714
▁வலியுறுத 1710
▁படுகின 1709
ந 1708
▁விளக 1705
▁கடன 1704
▁தந 1702
▁வ 1700
▁காரர 1691
▁வாகம 1689
ார 1688
மாக 1687
ுள 1686
▁வெட 1686
▁இலக 1684
▁டாக 1681
▁கொல 1680
▁அதிகாரத 1678
▁கவும 1677
▁சுட 1668
▁எச 1667
▁சொந 1667
▁சிங 1658
▁சியில 1640
▁காப 1638
▁காவின 1637
▁வில 1635
▁கிட 1628
▁இதில 1627
▁துவதற 1627
▁புரட 1620
▁சீர 1617
▁தைப 1617
▁குடும 1611
▁டிருப 1604
ித 1602
▁பிரெஞ 1588
▁சின 1586
▁கூறப 1583
▁அவ 1581
▁குனர 1579
▁ஜனங 1575
▁முடியாது 1575
▁திருத 1565
▁சுவார 1562
▁ரஷ 1557
▁ஆய 1556
▁களுடன 1555
▁நடக 1555
▁பாராளுமன 1553
▁கனவே 1551
▁ணெய 1551
▁நீண 1549
▁அண 1548
▁ணிக 1547
▁அதிகாரிகள 1545
▁காண 1544
மான 1543
▁அதிக 1543
▁போருக 1541
▁பித 1539
▁கொடுப 1538
ுடன 1530
▁சமத 1529
▁றிலும 1528
▁இதன 1524
▁விற 1522
▁னாள 1519
▁நீதிமன 1510
▁தியத 1506
▁விடுதலைப 1506
▁ஒத 1502
▁காங 1497
▁மையான 1497
▁ஏகாதிபத 1493
▁வட 1492
▁நாள 1490
▁துவம 1486
▁கோரிக 1479
▁கிரமிப 1476
▁தமது 1474
▁துருப 1474
▁களிலும 1469
ாத 1468
▁துவக 1464
▁பள 1457
▁துகொண 1455
▁அவை 1454
▁வொரு 1454
▁= 1452
▁நடித 1452
வி 1451
▁நீர 1449
▁முறை 1441
▁நிதி 1440
▁கூடும 1438
▁பொது 1438
▁டுகள 1436
▁தேசத 1436
ென 1425
▁விக 1425
▁வல 1416
▁வித 1412
▁மொத 1409
▁தினர 1408
▁தலைமை 1405
▁ஈடுபட 1403
▁சாரத 1400
▁பம 1399
ுடைய 1397
▁மருத 1396
▁கிஸ 1394
▁லி 1393
▁கியுள 1381
▁ஒருவர 1380
ு 1377
▁நிற 1377
ையை 1375
▁றாக 1372
▁தியுள 1368
▁கானிஸ 1367
▁அவற 1365
▁றங 1365
▁வி 1364
▁அதின 1361
▁தருடைய 1360
▁நிலை 1358
ைச 1355
▁படவில 1355
▁வரலாற 1350
▁கவேண 1343
▁தேதி 1342
து 1341
▁புகள 1332
▁றிக 1332
▁டுத 1331
▁தோல 1330
ிலும 1327
▁பெண 1327
▁சூழ 1325
▁கேள 1323
▁தேன 1321
▁கூற 1318
▁பொருட 1318
▁கமாக 1317
▁முடிந 1310
▁தோற 1309
▁ஐந 1308
▁ம 1308
▁அதிகரித 1303
ாம 1300
ியின 1299
▁கடுமையான 1299
▁பால 1297
▁நாடுகள 1295
▁ண 1294
வும 1293
▁தோன 1292
▁சாத 1289
▁நூற 1286
▁இணைந 1285
▁குவதற 1283
▁ஒட 1282
▁னணி 1282
▁மாணவர 1279
▁குழுக 1278
▁வெளிநாட 1272
▁பிராந 1270
▁ஒரே 1269
▁காரணம 1267
▁பிள 1267
▁தியில 1266
▁நிலைப 1266
▁அளவிற 1264
▁இராணுவம 1261
▁திரம 1261
▁பிரதான 1260
▁முடிவு 1258
▁பாத 1255
▁மையை 1255
▁கையின 1251
▁சிறப 1250
▁அர 1246
▁வடக 1246
▁தாங 1245
▁பாதிக 1244
▁அழுத 1243
▁றுள 1239
▁திரி 1236
ற 1234
▁பாய 1231
▁குகள 1227
▁கூறியுள 1225
ையில 1224
▁அவருக 1223
வ 1221
▁கிடைக 1220
▁பாலஸ 1217
▁புள 1217
▁கைப 1215
▁பிடித 1214
▁பென 1211
▁வன 1206
▁யா 1202
▁தூண 1201
▁குட 1200
ிட 1198
▁சல 1197
ிடம 1195
▁ஆபத 1194
▁-- 1189
▁ஆஸ 1189
▁இடத 1189
▁தினார 1189
வர 1188
▁செப 1188
▁படப 1188
▁தனியார 1187
▁தலில 1187
▁டுவிட 1185
▁உனக 1181
▁ஓர 1181
▁டாலர 1180
▁இடது 1179
▁இளைஞர 1179
▁B 1178
▁M 1177
ண 1176
▁ரவேல 1172
▁ஓய 1171
▁சரிக 1170
▁S 1169
▁டமைப 1169
▁ஆத 1167
▁அவரை 1166
▁தைகள 1165
ிற 1158
▁டேன 1158
ாவின 1156
▁இடையே 1155
▁சிப 1153
lt 1152
ையின 1152
ிகள 1151
▁தளத 1149
▁விடுத 1145
▁களைத 1144
வில 1141
▁அதில 1141
▁ஜ 1141
▁பிடிப 1141
▁முழு 1141
gt 1139
▁படைகள 1133
▁கலாம 1129
▁கினார 1126
▁படியே 1125
▁ஆயுதங 1123
▁நின 1120
தும 1118
▁அறிந 1116
▁கமான 1115
ைகள 1113
▁சகல 1113
▁சன 1110
▁றிற 1107
▁கடி 1106
▁றச 1106
▁குழந 1103
▁தெற 1103
▁புறப 1097
▁மே 1097
▁காணப 1094
▁பகுதி 1094
▁தபோது 1089
▁தெரிவிக 1089
▁இவற 1087
ியும 1083
▁அளிக 1081
▁றியத 1081
▁களே 1078
▁கூடாது 1078
▁மண 1078
▁போலீஸ 1077
▁வது 1077
▁ஊழியர 1076
▁முழுவதும 1075
▁டல 1071
▁இரத 1068
▁ராஜ 1068
▁கைத 1066
▁ஜோர 1065
▁அமைந 1064
▁மறுத 1064
▁றவர 1063
▁வம 1063
▁கூடுதலான 1060
▁மாதங 1060
▁தொடக 1059
▁படிப 1057
▁அரசு 1055
▁சிறிய 1055
▁சமீபத 1054
▁சுக 1054
▁ஆகிய 1053
▁10 1052
▁கிடைத 1052
▁கியத 1052
▁யார 1046
▁டியுள 1045
▁தென 1045
▁மனித 1045
▁அடக 1040
▁அபிவிருத 1040
▁துச 1037
▁நிதிய 1035
▁நகர 1034
▁ஊக 1033
▁வேலைநிறுத 1029
▁வை 1026
▁நட 1023
▁விமர 1023
▁போதும 1022
▁பதால 1021
ிச 1017
▁டமிட 1016
▁பயிற 1016
▁பரிசுத 1014
▁அட 1012
▁டைம 1012
▁பா 1012
▁ர 1012
▁அவனுக 1010
▁மாறாக 1010
▁தைய 1008
▁நாடு 1005
▁20 1004
▁இடங 1004
▁பிறகு 1004
▁டுகளுக 1003
நா 1002
▁தயாரிக 1000
▁தியது 1000
▁ஒழுங 996
▁புப 996
▁மின 996
ாலும 994
▁சான 994
▁எகிப 993
▁கைகளுக 991
▁அகற 990
▁களிடம 990
▁கோ 990
▁பாடல 990
▁நடிகர 989
ஸ 988
▁திரங 988
ிருந 987
▁பொருளாதாரத 986
▁அடித 985
வை 984
▁உரிமைகள 983
▁பூர 981
▁கதை 980
▁பேட 979
▁மைக 979
▁கியது 977
ிடத 975
▁குழுவின 974
▁திப 974
ியா 969
ியை 969
▁ஆற 969
▁லும 968
▁ஏனைய 966
▁கலைக 965
▁முந 965
▁வின 965
▁இதோ 962
▁டித 962
▁கொழும 961
▁உயிர 960
▁ஜே 959
▁பேன 959
▁இக 957
ாட 955
▁ஏன 954
▁ரேல 954
▁அரச 953
▁உழைக 953
▁11 951
▁பொறுத 950
▁ளி 950
▁நிறைவேற 949
▁இராஜபக 946
▁உச 946
▁யூனிஸ 946
▁மாத 945
▁காலம 942
▁தைத 942
▁வாறு 941
▁P 940
▁துகொள 937
▁G 936
▁அளித 936
▁ஏப 936
▁தே 936
▁வலைத 936
▁காவில 934
▁ளே 933
▁டதாக 930
▁றாலும 925
▁சிறந 924
▁போதைய 924
▁வாரம 924
▁உதவி 923
▁கிறோம 920
▁தமாக 919
▁நேர 919
▁னவென 919
▁கிரஸ 918
▁டிஷ 918
▁பொருள 917
▁வீழ 917
▁டுமென 916
▁பொய 916
ிருக 915
▁அடைந 915
▁தேவனாகிய 915
▁னேற 915
▁கியமான 913
▁துருக 912
▁றுப 912
▁குறைப 910
▁விருப 907
ாகும 906
▁கிறிஸ 906
▁முடியாத 904
ாகிய 902
▁மேலாக 901
▁ரீ 901
▁எட 900
▁C 895
▁அவள 894
▁தினால 893
▁மோதல 893
▁தோட 890
▁தீவிர 885
▁நிறைந 885
▁நீக 881
▁மாநாட 881
▁ளை 880
▁விதத 880
▁அடங 878
▁டியது 878
▁தமான 878
▁தடுத 877
▁நிறுவனத 877
▁தேவன 876
▁உறுதிப 872
▁எழுந 871
வே 869
▁கோட 869
▁டோ 869
▁ஜப 868
▁விலக 868
▁வெளியேற 868
▁A 866
▁ஆகியவை 866
▁சிந 866
ாயிருக 861
▁வலதுசாரி 859
▁னால 857
▁காரணமாக 856
▁டக 855
▁ணப 855
▁தாய 854
▁தியா 854
▁அற 853
▁திகள 853
▁தெளிவாக 853
தாக 852
ினால 851
▁வேலைத 851
▁அறிவிக 848
▁அனுமதிக 845
▁அமைக 844
▁T 843
▁அழைத 843
ையாக 842
▁ஆதரவாளர 842
▁கொன 841
▁தடுப 841
▁ணி 839
▁டுவந 838
ெல 837
▁D 837
▁டுகிறது 837
▁காம 836
மாய 833
▁கிலும 833
▁நகரத 833
▁பாதிப 831
▁எழுப 827
ேயே 826
▁குறைக 826
▁கெட 825
▁பகுதிகளில 825
▁எம 824
▁றொரு 824
▁ஒதுக 823
▁படையாக 823
▁உடனடியாக 822
▁எதுவும 822
ியாக 820
▁L 820
▁தரப 819
▁றைய 819
▁மீட 818
▁இழப 816
▁பிடத 815
▁அவனை 814
▁சிய 814
▁தெரிந 813
▁2 812
▁ஆம 812
▁தச 812
▁நவம 812
▁நிறுவனம 812
▁கடற 810
▁நுட 810
▁தானில 809
▁பழைய 809
▁றியும 809
▁கச 808
▁தகப 808
ிகளை 807
▁1 807
▁R 807
▁ஹ 807
▁அளவு 806
▁ஏனெனில 804
▁இதை 803
▁சோவியத 803
▁பதிலாக 803
ைகளை 802
▁திரைப 802
▁பிரிவு 802
▁ரேலிய 801
▁15 800
▁இழந 799
▁சீன 799
▁பதிவு 799
▁கிழமை 797
▁நேற 797
▁படுவதற 797
▁அதாவது 793
▁நியாயப 793
▁இறுதியில 792
▁தனக 791
▁கைது 789
ய 788
▁சியான 788
▁பாற 787
▁சதவிகிதம 785
▁சோ 785
▁டினார 785
▁தவ 785
▁எஸ 784
▁பீட 784
▁ஈரான 783
▁பொதுமக 783
▁தாம 781
▁பாகிஸ 781
▁பாடுகள 779
▁தாத 778
▁புற 778
▁ஒடுக 777
▁சியும 777
▁பிப 777
▁போதிலும 777
▁ஆசிரியர 775
▁டாட 775
ாமல 774
ையையும 771
▁சோசலிஸ 771
▁3 770
▁னோக 770
▁கரவாதத 769
▁தருக 769
ுத 768
▁அழைக 767
▁இவை 767
▁சரி 767
▁முஸ 767
ியில 765
▁30 765
▁ஆழ 765
▁டனின 764
▁படக 764
▁ளவர 764
▁5 763
▁மிகக 763
▁ளூர 761
ாயிருந 759
▁மனிய 759
▁உமது 758
▁உலகப 756
▁டணி 755
▁பணம 755
▁குமாரனாகிய 754
▁தொலைக 754
▁பொன 753
▁F 752
▁K 751
▁விசாரணை 750
▁கமும 748
▁தெடுக 748
▁முதலீட 748
▁துத 747
▁பணியாற 747
▁உலகம 744
▁றே 744
▁தரத 743
▁துண 742
▁மாட 742
▁சை 741
▁வருகிறார 739
▁ஊடகங 738
▁ததாக 737
ிலிருந 733
ையே 733
▁உரிமை 733
▁சாரம 733
ையான 732
▁குடியரசுக 732
ாப 731
▁புலிகள 730
▁கரவாத 728
▁டுகளில 728
▁படாத 727
▁யின 727
▁விஜய 726
▁டமான 725
▁டுகின 725
▁பகிரங 724
▁களிப 723
ானது 722
ிகளுக 722
▁பெறும 720
▁புலிகளின 719
▁மாவட 719
▁சொத 718
▁டிப 717
▁எனவே 716
▁கணிப 716
▁கலாச 716
▁காளர 716
▁தலைப 716
▁உடைய 715
▁பாலான 715
▁ணீர 713
▁துகின 713
▁நாடுகளில 713
▁ஏ 712
▁நினைக 712
▁ஊர 711
▁சிம 709
▁பையும 709
▁போரை 709
▁4 707
▁இறங 707
▁சதவீதம 707
ாகவும 706
ாவை 705
▁பொல 705
▁பிரதம 704
▁எத 699
▁ஓட 698
▁வெளியே 698
▁குகளை 697
▁ராஜா 697
▁ரொட 696
▁ளத 695
ிகளின 694
▁சியாக 694
▁பதுடன 693
ாவ 692
ிர 692
▁டிசம 692
▁முயன 692
▁ஆராய 690
▁கோர 690
▁செயலாளர 690
▁பிடிக 690
▁சிகளை 689
▁பிரதமர 689
▁இட 688
▁வான 688
ோடு 687
▁நேரம 687
▁எடுப 686
▁வத 685
▁சண 683
ைகளில 682
▁அறிவிப 682
▁சுத 682
▁பாராட 682
▁விரைவில 682
▁ஆச 681
▁தாழ 681
▁கிளர 680
▁குமாரன 679
▁படவேண 679
ைய 678
▁`` 677
▁கிவிட 677
▁ததை 677
▁புலம 677
▁இரட 676
▁கையெழுத 675
▁தா 674
▁கைவிட 673
ியான 672
▁சுகாதார 672
▁டாவது 671
தான 670
▁H 669
▁கொட 669
▁டாலும 669
▁நடிப 669
▁கிப 668
▁முரண 668
▁.. 667
▁கொலை 667
▁12 666
▁எழுத 666
▁மேலாதிக 666
▁அதிர 665
ாச 664
▁தகர 663
▁ஒபாமா 662
▁ஒருவன 662
▁டபோது 660
▁புரிந 660
▁ஆகையால 659
▁சரித 659
ாள 658
▁அரசியலமைப 658
▁இயற 658
▁சாக 658
ாவது 657
ாவுக 657
ைகளுக 657
▁ஆறு 656
▁டளையிட 656
▁தசாப 656
▁தேவனுடைய 656
▁தேவை 655
▁சிராக 654
▁தடை 654
▁நிலையை 654
▁ஜூன 652
▁கருதப 651
▁லாரும 651
▁எமது 650
▁நண 650
ியர 649
▁அதிகமாக 648
▁ரசிகர 648
▁ளதாக 648
▁உக 647
வன 646
▁களைச 646
▁டே 646
▁6 645
▁யூ 644
ாவும 643
ோர 643
▁டுவதற 643
▁வாரங 643
▁தைச 642
▁தியை 640
▁ஆதிக 639
▁தலை 639
▁துவது 639
▁டோபர 638
▁அனைவரும 637
▁களான 637
▁தடுக 637
▁மணி 637
▁மூலோபாய 637
ைகளின 636
▁ததும 636
▁வக 636
▁பெட 635
▁கைகளில 634
▁காகவும 633
▁துன 630
▁இதே 629
▁காது 629
▁வைப 629
ிம 628
▁காவிற 628
▁டுச 628
▁தவொரு 628
▁சிலர 626
▁குர 624
▁புச 624
▁ரம 624
▁சமாதான 623
▁பலர 623
▁இறந 622
▁போ 622
ைகளும 621
▁அதிகம 621
▁ஆகியோர 621
▁இதர 621
▁கையும 621
▁ஆதரவை 620
▁கிகள 620
▁பேரில 620
▁ஆகஸ 619
▁தெலுங 619
▁பச 619
▁றிருக 619
▁லுகிறார 619
▁விண 619
▁தலைமையிலான 618
▁றிருந 617
▁றைக 617
▁கணிசமான 616
▁முத 616
▁அடிக 615
▁சுமார 615
▁25 614
▁இதுவரை 614
▁ஜனவரி 614
▁நிச 614
▁சீனா 612
▁துகிறது 612
▁முதலில 612
ுப 611
ோன 611
▁காமல 611
▁சாதாரண 611
▁ரவேலின 610
▁அவனுடைய 609
▁இனி 609
ிகளும 608
▁படுவது 608
▁தேவைப 607
தை 606
▁சூர 606
▁குமாறு 605
▁டியில 605
▁குதலை 604
▁தயாராக 604
▁நிலைமை 604
▁இடையில 603
▁கிறவர 603
▁டைக 603
வேண 600
▁சமூகத 600
▁டமாக 600
▁அரங 599
▁எழுச 599
▁குறிக 599
▁பெர 599
▁மூத 599
ைகளையும 598
▁18 598
▁அமைத 598
▁தரம 598
▁தொகை 598
▁புகளை 598
▁விளங 598
▁எனது 597
▁இம 596
▁தியோகபூர 596
னை 595
▁ஆனாலும 595
▁ஆல 595
ருக 594
▁காய 594
▁படைப 594
▁வரவேற 593
மானது 591
▁அதிகரிக 591
▁ஆலயத 591
▁ஜூலை 591
▁வுகள 591
▁கிர 590
▁பலப 589
▁மாநில 588
டி 587
▁தனமான 587
▁ரல 587
▁வமான 586
▁துணை 585
▁நடப 585
▁நினைத 585
▁முட 585
▁தமிழர 584
▁லட 583
▁வளவு 582
▁பெய 581
லை 580
ள 580
▁தலுக 580
▁துழைப 580
▁பதும 580
ிஸ 579
▁கடிக 579
▁சிகளுக 579
ஜ 578
▁மிகுந 578
▁வெளியுறவு 578
▁இச 577
▁கெல 577
▁புகழ 577
▁றுவதற 577
▁குதலுக 576
▁சும 576
▁9 575
▁ஆபிரிக 574
ுவதற 573
▁தியம 573
▁விடுதலை 573
▁மைய 572
▁சதவிகிதத 571
ோட 570
▁கிடையாது 570
▁துவரும 570
▁பணத 570
▁ராஜாவாகிய 570
▁வீரர 570
▁ஒருங 569
▁நாடுகளின 569
▁தனை 567
▁றாண 567
▁வெளியிடப 567
▁காதல 566
▁கியிருக 566
▁வேலைக 566
▁திறந 565
▁குறைத 564
▁நிலைக 564
▁போலவே 564
ேன 562
▁பெருக 562
▁யாக 562
▁8 561
ாது 560
▁டுகளாக 560
▁பதன 560
ிவ 559
▁கடத 559
▁திரட 559
▁பதுதான 559
▁தாள 558
▁குரிய 557
ூட 556
▁திரர 556
▁பே 556
▁போஸ 556
▁லாவற 556
▁சற 555
▁பதையும 555
▁பெப 555
▁நிபந 554
ுவ 553
▁குடிமக 553
▁மா 553
▁கெடுப 552
▁டனில 552
▁பதவி 552
▁ரூபா 552
▁&#91; 551
▁சப 551
▁மாதத 551
ரும 550
ைவிட 550
▁$ 550
▁பணி 550
ாவில 549
▁றல 549
▁&#93; 548
▁குவரத 548
▁தீன 548
▁றிட 548
▁விரிவாக 548
ுதல 547
▁களிடையே 547
▁லாமிய 547
▁தலைமையில 546
▁புறக 546
▁பெல 546
▁N 545
▁துதல 545
ிந 544
▁போரில 544
ீர 542
▁தலைவரான 542
▁செனட 541
▁தேவையான 541
▁50 540
▁இதனால 540
▁உலகின 540
▁கோப 540
▁தியாளர 540
▁தூக 539
▁விழுந 539
▁7 538
▁ஆதரிக 538
▁செவ 538
▁தயாரித 538
▁திரிகை 538
▁புர 538
ுற 537
▁திங 537
▁பிடப 536
▁ஆயிரக 535
▁ஆள 535
▁கவர 535
▁லாந 534
▁உறுதி 533
▁தனிப 533
▁றியம 533
ிலே 532
▁பாதுகாக 532
▁கிறீர 531
▁தாண 531
▁படலாம 531
▁படைக 531
▁பலத 531
ிகளையும 530
▁அதிகாரி 530
▁கேற 530
▁னிடத 530
▁ததுடன 529
▁ரி 529
▁2002 528
▁பிரித 527
▁போம 527
▁சிறு 526
▁நேரடியாக 526
▁கோசி 525
▁விரோத 525
▁வுக 525
▁சபை 524
▁சிற 524
▁நாடாளுமன 524
▁புடன 524
▁ஜோன 523
ிவிட 522
▁கோள 522
▁டணங 522
▁தமிழீழ 521
▁வமாக 521
▁குமாரதுங 519
▁பசுமைக 519
▁பிறந 519
▁பெறுவதற 519
▁அதனால 518
▁டணத 517
▁தெரியும 517
▁மகன 517
▁வகுப 517
▁வெடிப 517
▁னார 516
▁பூகோள 516
▁இருவரும 515
▁பெரிதும 515
▁றையும 515
▁வே 515
▁குமார 514
▁குழப 514
▁முகாம 514
ிகளில 512
▁இயங 512
▁ஜனத 512
▁பைக 512
▁கூறி 511
▁தொலைபேசி 511
▁திரிக 510
▁நித 510
▁மான 510
▁கடுமையாக 509
-- 507
▁எனவும 507
▁டதற 507
▁மோசமான 507
▁விஞ 507
▁பதாகவும 506
▁பதாகும 506
▁வருடங 505
▁விடுக 505
5 504
▁குகிறார 504
▁படையான 504
▁டோம 503
▁பனை 503
▁புடைய 503
▁ஒற 502
▁வழி 502
▁40 501
▁நபர 501
▁மேம 501
▁அணு 500
▁புதல 500
▁வேலைகள 500
வின 498
C 497
னின 497
▁விளைவாக 497
▁ஊடகத 496
▁டனை 496
▁13 495
▁கெர 495
▁காரணங 494
▁தரும 493
▁பிதாக 493
என 492
ஐ 492
▁ததில 492
▁இறுதி 491
▁தயார 491
▁பிரதிநிதிகள 491
▁17 490
▁ஆயினும 490
▁தளம 490
▁நிராகரித 490
▁பதவிக 490
▁மகத 490
▁of 489
▁இயேசு 489
▁வீச 489
▁வேலையின 489
▁தைகளை 488
▁ளடக 488
தே 486
ாண 486
▁திகதி 486
▁புறம 486
▁பொருத 486
ேர 485
▁அமர 485
▁ஆதரித 485
▁களோ 485
▁கடல 484
▁கூறிய 484
▁டா 484
▁பிர 484
▁மல 484
▁14 483
▁ஓ 483
▁சிகளும 483
▁நாணய 483
▁ராலினிச 483
னுக 482
▁J 482
▁உணவு 482
▁ஜெனரல 481
▁போகும 481
▁போரின 481
▁கென 480
▁நகரங 480
▁னல 480
▁வயது 480
▁அதிகரிப 479
▁திரு 479
▁னி 479
▁முழுமையாக 479
▁பரப 478
ியத 477
▁கோல 477
▁பிளேயர 477
▁வெளிவந 477
ோடே 476
▁டிலும 476
▁தானிய 476
▁சாப 475
▁தவும 475
▁ணின 474
▁முழுவதிலும 474
8 472
தில 472
▁இறக 472
▁கமல 472
▁சொற 472
▁நோய 472
▁இவன 471
▁கிச 471
▁சிகளின 471
▁தரித 471
▁டிவிட 470
▁னைக 470
▁படைத 470
தாகும 469
▁ஏழு 469
▁உடல 468
▁டதை 468
▁2003 467
▁களிடத 467
▁தொட 467
▁ரூபாய 467
▁நாடுகளுக 466
▁நேட 466
▁பெயின 466
▁விலை 466
▁அஞ 465
▁அழிக 465
▁துல 465
▁மீதும 465
ானால 464
▁ஏதும 464
▁களித 464
▁ளிக 464
ுங 463
ையைக 463
▁அடையாளம 463
▁உரிமைகளை 463
▁துவிடும 463
▁லிம 463
ிருப 462
ுவது 462
▁பிரிவுகள 462
▁தியாவின 461
▁நிலையம 461
▁கோத 460
▁பதட 460
▁லாப 460
ோத 459
▁குமாரத 459
▁சிகர 459
▁சுமத 459
▁டினர 459
▁திலுள 459
▁தோம 459
▁பாரிய 459
3 458
▁தீவிரமாக 458
▁லண 458
▁விமான 458
▁* 457
▁திரிகையாளர 457
ொன 456
▁நிருபர 456
ஞ 455
▁2004 455
▁W 455
▁நிக 455
▁பரில 455
▁புதுப 455
இ 454
▁கவனத 454
▁பீர 454
▁மனி 454
னும 453
ரின 453
▁இடையிலான 453
▁டனம 453
▁திரேலிய 453
▁இதுதான 452
▁தைகளில 452
▁பாண 452
▁வெடித 452
ியன 451
▁புலனாய 451
ஹ 450
▁அதிகமான 450
▁தீனிய 450
▁பவில 450
▁பூட 450
▁24 449
▁E 449
▁உதவ 449
▁எதையும 449
ுகின 448
▁உறுதியாக 448
▁படையினர 448
▁சமுதாயத 447
▁பாலும 446
▁வளங 446
ீ 445
▁மகிழ 445
▁சேவை 444
▁மறு 444
▁வதை 444
o 443
▁16 443
▁வண 442
▁படமாக 441
▁படுகொலை 441
▁பாடுகளை 441
▁2007 440
▁தராகிய 440
▁தெளிவான 440
▁பாவில 440
▁புலிகளுக 440
ஆர 439
▁ததோடு 439
▁மறுக 439
ிங 438
▁சினை 438
▁முகத 438
▁மேன 437
▁கிள 436
▁குடியேற 436
▁கோடிட 436
▁திறன 436
▁சியினர 435
▁ஜனநாயகத 435
▁தீ 435
▁காணிப 434
▁காவல 434
▁நடாத 434
▁பொதுவாக 434
▁குகின 433
▁ஜாக 433
▁தொகுப 433
▁முதலாவது 433
▁முறையை 433
ாஸ 432
ுட 432
▁கிரேக 432
▁சதவீதத 432
▁திடம 432
▁வஸ 432
▁அருகில 431
▁களிக 431
▁குகிறது 431
▁ததற 431
▁பீடு 431
▁நமக 430
ூர 429
▁உந 429
▁பொலிஸ 429
▁அழித 428
▁றியது 428
▁கியின 427
▁துறையில 427
▁னமும 427
▁றாம 427
▁அதிபர 426
▁ஆன 426
▁டுமல 426
▁படையெடுப 426
▁பொழுதும 425
▁.... 424
▁கித 423
▁குவ 423
▁பொதுக 423
▁வாத 423
ியாவின 422
▁டையும 422
▁தரின 422
▁லர 422
மு 421
▁டுவரும 421
▁கையாக 420
▁டுரை 420
▁ததால 420
▁தோடு 420
▁பினார 420
▁முகம 420
▁உலகத 419
▁கூறியது 419
▁னொரு 419
▁வரவு 419
▁ஆயுத 418
▁குரல 418
▁பொருளாதாரம 418
ையிலும 417
▁அதனை 417
▁இனவாத 417
▁தலத 417
1 416
ுகிறது 416
▁நிலையத 416
2 415
எஸ 415
ுகள 415
▁குறுகிய 415
▁தரமாக 415
▁போவதில 415
M 413
மாகும 413
▁உமக 412
▁கைகளின 412
▁திச 412
▁முடித 412
y 411
தற 411
▁100 411
▁குவது 411
▁கொஞ 411
▁பிரகடனம 411
▁மூடப 411
▁ஜிங 410
▁ஷின 410
▁2001 409
▁I 409
▁அதிருப 409
▁அஸ 409
▁ஆசிய 409
▁கீழே 409
▁நிறைய 409
▁மயமாக 409
ையைப 408
ோக 408
▁a 408
▁இறப 408
▁ஈர 408
▁உளவுத 408
▁யூனியன 408
▁ரஜினி 408
▁வழியில 408
▁படுவதை 407
▁பெயரில 407
▁சாய 406
▁டாளர 406
▁பிரதேசத 406
▁அவைகள 405
▁தளங 405
▁மும 405
▁ரத 405
லாம 404
▁சரியான 404
▁தரங 404
▁விரோதமாய 404
ோல 403
▁னைப 403
▁பிரதிநிதித 403
▁யோர 403
▁ராம 403
▁2000 402
▁அஜித 402
▁அளிப 402
▁கூறுகிறது 402
▁திவிட 402
▁னதாக 402
▁தபட 401
▁இரயில 400
▁சதாம 400
▁தாவீது 400
▁பெருகிய 400
▁யாழ 400
ுண 399
▁O 399
▁கூறுகின 399
எம 398
▁மனிதர 397
ிடமிருந 396
ைவ 396
▁2006 396
▁அதிகார 396
▁போனார 396
▁வகை 396
▁வா 396
▁வேல 396
ையிலிருந 395
▁60 395
▁முறையாக 395
▁னெடுக 394
▁படைகளை 394
▁லின 394
▁தமும 393
▁புகின 393
▁றஞ 393
▁அதைப 392
▁ஊழல 392
▁களா 392
▁தவிதமான 392
7 391
▁அதேபோல 391
▁இசை 391
▁குறை 391
▁புது 391
ுகிற 390
▁தகத 390
▁பெருமளவில 390
▁வதில 390
▁ஏராளமான 389
▁செலவு 389
▁விமானங 389
▁ஞான 388
▁தவற 388
▁உயரடுக 387
▁செலவினங 387
▁டபூர 387
▁வள 387
ைந 386
▁22 386
▁கியப 386
▁சுரண 386
▁தேவ 386
▁பாஸ 386
▁வீடுகள 386
▁வெறும 386
▁அதைக 385
▁காற 385
▁டதால 385
▁தபின 385
▁தீட 385
▁னணியில 385
▁பிந 385
▁மாநிலத 385
▁வாளர 385
▁விசாரணைக 385
▁அகிலத 384
▁இரகசிய 384
▁நமது 384
▁பஞ 384
▁பிரதிபலிக 384
A 383
S 383
ஷ 382
▁அரசியலில 382
▁சிறுபான 382
▁பஸ 382
▁முடியவில 382
▁றியுள 382
▁றுதான 382
▁வோல 382
▁தேகத 381
▁பிரிக 381
▁யில 381
▁லு 381
▁வேலையில 381
▁நீடித 380
▁மூட 380
▁எழும 379
▁சாலை 379
▁சைக 379
▁நாமத 379
▁நெருங 379
▁களத 378
▁சியுடன 378
▁படையாகக 378
▁போலீசார 378
▁வணிக 378
▁வெறுப 378
6 377
ோம 377
▁கொடூரமான 377
▁சியாளர 377
▁தானுக 377
▁திரமூட 377
▁னே 377
▁பரம 377
▁பேரழிவு 377
▁தமிழில 376
▁நிலைநாட 376
▁பவங 376
▁+ 375
▁அதேவேளை 375
▁கடும 375
▁தானின 375
▁துர 375
▁கடியை 374
▁கூறும 374
▁சிகிச 374
▁நசுக 374
▁பகுதியாக 374
ுவார 373
▁கூறிக 373
▁நில 373
▁மனுஷன 373
▁94 372
▁திரைக 372
▁சமூகப 371
▁நிலையங 371
▁னைத 371
▁பிரிவின 371
▁ளவில 371
ருடைய 370
▁இராணுவப 370
▁சதவீத 370
▁தானே 370
▁திராட 370
▁அரசின 369
▁இறுதியாக 369
▁தவரை 369
▁புறத 369
அ 368
ையுடன 368
▁சமுதாய 368
▁தனி 368
▁நிரந 368
▁படுவார 368
▁பினும 368
4 367
▁கழகத 367
▁கியிருந 367
▁தனித 367
▁தோர 367
▁மோட 367
▁விருது 367
ேல 366
▁அதிகாரம 366
▁பைத 366
▁மனியின 366
▁யவேண 366
i 365
ியப 365
▁அறிமுகப 365
▁எவரும 365
▁நியமிக 365
▁படித 365
▁போகிற 365
▁யூரோக 365
▁ரீட 365
P 364
▁எனப 364
▁மாஸ 364
▁வியட 364
in 363
▁ஆதரவாக 363
▁இலாப 363
▁சகோதரர 363
▁சிவாஜி 363
▁பொதுத 363
ினர 362
ுகளை 362
ேட 362
▁21 362
▁கடைசி 362
▁கூர 362
▁டுவர 362
▁டுமொத 361
▁ணினார 361
▁பகுதிகள 361
▁மெய 360
▁விழாவில 360
ியையும 359
ையோ 359
▁26 359
▁அணுசக 359
▁டாள 359
▁ணும 359
▁பேசிய 359
▁மனியில 359
ோடும 358
▁உ 358
▁சினிமா 358
▁டுபிடிக 358
▁வாதிகள 358
▁விளைவுகள 358
வரும 357
ுகிறார 357
ையானது 357
▁தெளிவுபடுத 357
▁நியூயோர 357
▁லிக 357
▁19 356
▁உறவுகள 356
▁டதுடன 356
▁தலையங 356
▁னரே 356
▁முதன 356
▁யத 356
▁வரப 356
ாங 355
▁V 355
▁காஷ 355
▁குஷ 355
▁நிராகரிக 355
▁லையென 355
ரை 354
▁கவிழ 354
▁கைய 354
▁டொலர 354
▁பியுள 354
ியல 353
▁கூப 353
▁தியாக 353
▁தீனியர 353
▁றுவிட 353
▁றோர 353
▁கிறவன 352
▁சதவிகித 352
▁சாளர 352
▁தினம 352
▁நவீன 352
▁மனுஷர 352
▁விழா 352
▁கேரக 351
▁பணிக 351
▁வெல 351
▁குடியிருப 350
▁தலிபான 350
▁பகிர 350
▁மீ 350
▁ளோம 350
▁விடும 350
▁விதிக 350
▁2008 349
▁அனுமதி 349
▁இருதயத 349
▁கலைஞர 349
▁குவிப 349
▁திருமணம 349
▁விளையாட 349
▁சுப 348
▁நியூ 348
ியாவில 347
▁கிறான 347
▁தலைவராக 347
▁பதவியில 347
▁வரி 347
▁தலையீட 346
▁லாக 346
வது 345
▁கடவன 345
▁தவறான 345
▁விவாதத 345
▁கினர 344
▁னெடுத 344
▁யூத 344
▁வெளியில 344
▁கடியின 343
▁சாம 343
▁சிகளில 343
▁புவதற 343
▁முடியாமல 343
E 342
ருடன 342
▁இற 342
▁கவலை 342
▁சீற 342
▁டமிடப 342
▁டிர 342
▁பாரம 342
▁பெருந 342
டிக 341
ூ 341
▁குமாரர 341
▁பதோடு 341
▁ளாக 341
ையாகும 340
▁எழுதியுள 340
▁டுவரப 340
▁னெடுப 340
▁மர 340
▁முடிவிற 340
▁விமானத 340
▁ஆ 339
▁ஊழியக 339
▁சீனாவின 339
▁தஞ 339
▁தளபதி 339
▁னான 339
▁எரிவாயு 338
▁கிடையில 338
▁பதே 338
▁றக 338
▁வீர 338
a 337
▁எரிபொருள 337
▁கிராமப 337
▁விளைவு 337
▁விழ 337
ாமலும 336
▁ஏனென 336
▁காலிக 336
▁குவிக 336
▁சவால 336
▁தைகளுக 336
சி 335
வு 335
▁ஊதிய 335
▁குறைவான 335
▁தெரிகிறது 335
▁போதுமான 335
▁போலந 335
▁மிரட 335
▁முடிவுகள 335
9 334
▁சரத 334
▁பயப 334
▁மானத 334
வரை 333
▁1990 333
▁அலுவலர 333
▁கறை 333
▁களிலிருந 333
▁வென 333
F 332
ியுள 332
▁அவரின 332
▁சுருக 331
▁தியாவில 331
▁தியின 331
▁நிதியத 331
▁இதனை 330
▁காரணத 330
▁நிலத 330
▁இயல 329
▁கூடுதல 329
▁பூசல 329
▁பேசும 329
▁மேலதிக 329
▁மோசே 329
s 328
▁உளவியல 328
▁காணிக 328
▁காலனித 328
▁தாராளவாத 328
▁தினை 328
▁டாயம 327
▁தேசியவாத 327
▁நாற 327
▁றுவிக 327
▁இளம 326
▁கிளின 326
▁சனை 326
▁டண 326
▁தாவே 326
▁பகுதிக 326
▁படிச 326
▁முடிவுக 326
▁றோம 326
▁ளிட 326
▁விவசாயிகள 326
ேய 325
ைம 325
▁இரவு 325
▁காலை 325
▁குதலில 325
▁சீட 325
▁றிப 325
▁ஆழமான 324
▁கணித 324
▁ஜெட 324
▁மடங 324
▁லிய 324
▁வெகுஜன 324
வோ 323
▁27 323
▁அதிகாரபூர 323
▁எக 323
▁ஏமாற 323
▁சால 323
▁வேறுபாடுகள 323
en 322
▁இ 322
▁கைதிகள 322
▁கொய 322
▁மருந 322
▁லீம 322
▁வாரத 322
ஜே 321
லுக 321
▁23 321
▁சரிந 321
▁பெரு 321
▁முறைக 321
ோவ 320
▁அளவுக 320
▁களன 320
▁டகன 320
▁ணம 320
▁முப 320
▁ளக 320
▁LCR 319
▁அலுவலகத 319
▁டதும 319
▁டியல 319
▁லைப 319
▁வருவதற 319
▁விளம 319
▁ஈ 318
▁காள 318
▁கூடுதலாக 318
▁நேரடி 318
▁பகுதியை 318
▁மிகத 318
▁வரம 318
▁விசாரிக 318
டன 317
ுடனான 317
▁இணைப 317
▁மாதிரி 317
▁வாழும 317
▁இணைத 316
▁துற 316
▁பாவ 316
▁பூமியின 316
சு 315
மாயிருக 315
▁குழாய 315
▁திலேயே 315
▁தையில 315
▁பழங 315
▁மாநிலங 315
▁வனாந 315
போது 314
மாகவும 314
ியம 314
▁CIA 314
▁அதிகாரங 314
▁கழக 314
▁டோர 314
▁புதிதாக 314
ையினால 313
ையெல 313
▁% 313
▁இடைக 313
▁ஒளிப 313
▁சோசலிசத 313
▁டுவ 313
▁தவரையில 313
▁நிலைமையை 313
▁புட 313
B 312
er 312
ுடனும 312
வற 311
ினார 311
▁களோடு 311
▁பொதுச 311
▁மாம 311
▁வச 311
▁விருத 311
▁கைச 310
▁யவில 310
ுர 309
▁காயமடைந 309
▁டிங 309
▁பணிகள 309
▁பவ 309
▁பாப 309
▁பிரமாண 309
▁மறுப 309
▁மீன 309
▁வருமானம 309
▁வானத 309
▁இதைத 308
தி 307
▁அரபு 307
▁ஒளிபரப 307
▁தபோதிலும 307
▁திரமான 307
▁பொருந 307
▁றவை 307
ெட 306
▁கது 306
▁மனைவி 306
▁வருங 306
ெர 305
▁அதைத 305
▁உறுதியான 305
▁ஊடக 305
▁டவ 305
▁டவன 305
▁துவந 305
▁துவப 305
ையால 304
▁தரை 304
▁தேட 304
▁பிரபுக 304
▁புகிறது 304
▁மாகாணத 304
▁மாண 304
▁மாலை 304
▁ரேலின 304
▁வகிக 304
▁வருமாறு 304
▁வற 304
ையிலே 303
▁ஆலோசனை 303
▁ஈரானுக 303
▁சரியாக 303
▁செட 303
▁திணைக 303
▁ரவரி 303
களில 302
▁அளவிலான 302
▁ஈரானிய 302
▁குழுவில 302
▁தனிமைப 302
▁னாட 302
▁புகிறேன 302
▁யூதாவின 302
▁ளதுடன 302
▁வரைக 302
▁ஆசீர 301
▁ஜன 301
▁நாளில 301
▁நோர 301
▁மாநாடு 301
▁மையின 301
▁வாட 301
ாகக 300
▁2005 300
▁28 300
▁காவலில 300
▁கிலாந 300
▁துரத 300
▁துவர 300
▁னா 300
▁மையாக 300
▁ராஜாக 300
▁CGT 299
▁உதவும 299
▁கமாட 299
▁குமுறை 299
▁படாமல 299
▁பதைக 299
▁பினால 299
▁விப 299
D 298
▁இர 298
▁தலையிட 298
▁தையின 298
▁மகா 298
▁ரீதியாக 298
ேச 297
ைதான 297
▁அகதிகள 297
▁அமுல 297
▁ஆணைக 297
▁சனிக 297
▁டியிட 297
▁யக 297
▁ராஜாவின 297
▁றவற 297
▁உறவுகளை 296
▁களம 296
▁கவனம 296
▁குகளில 296
▁கொந 296
▁சியடைந 296
▁தியக 296
▁போவதாக 296
▁வாதிட 296
ையைத 295
▁அடைக 295
▁டியிருக 295
▁னிப 295
▁பெத 295
▁மேட 295
T 294
▁span 294
▁குறுக 294
▁சபையின 294
▁ஜெய 294
▁தரவு 294
▁ளதோடு 294
▁ஊதியம 293
▁தனம 293
▁மரண 293
▁களெல 292
▁சிச 292
▁டியலில 292
▁டெல 292
▁புகார 292
▁வாசல 292
மற 291
▁ஆசாரியர 291
▁தியப 291
▁துறையின 291
▁னரும 291
▁பானிய 291
▁மீள 291
▁முடிவில 291
▁றாவது 291
▁ஷரோன 291
▁காகக 290
▁சேவைகள 290
▁டியை 290
▁பணிப 290
▁ரோ 290
▁ஆவார 289
▁உரிமையை 289
▁ஊதியங 289
▁டகால 289
▁ணுவேன 289
▁புல 289
▁மாகாண 289
▁றுத 289
▁லக 289
▁லத 289
▁வழ 289
▁SPD 288
▁அருகே 288
▁இணைக 288
▁உர 288
▁ஜிய 288
▁னத 288
▁பதின 288
▁மேர 288
▁ரூ 288
L 287
ைகளிலும 287
▁lang 287
▁அவசர 287
▁ஏழ 287
▁கியமாக 287
▁சமாதானத 287
▁டதில 287
▁பரத 287
▁மறைக 287
▁வடிவமைப 287
ாகத 286
▁WSWS 286
▁சாவ 286
▁டுகோள 286
▁புலி 286
▁புவ 286
▁வகித 286
I 285
ணி 285
ுவதை 285
▁2011 285
▁டுகளை 285
▁திடீரென 285
▁மோகன 285
▁ஷீட 285
லில 284
ாரத 284
▁U 284
▁இதையொட 284
▁கதையை 284
▁களோடே 284
▁சமுத 284
▁டுதல 284
▁தனத 284
▁திகளை 284
▁படியும 284
▁படுதல 284
ைகளைக 283
▁குடியரசு 283
▁தளிப 283
▁தவன 283
▁தெரியாது 283
▁விசாரித 283
e 282
ாந 282
▁ஆதாரங 282
▁ஏதாவது 282
▁கிராமத 282
▁கோரி 282
▁சஞ 282
▁சினைகள 282
▁ஜி 282
▁துவதில 282
▁நுழைந 282
▁முடிவ 282
▁யூதர 282
ீட 281
▁அதுவும 281
▁தையை 281
▁பானது 281
▁றேன 281
▁வாண 281
▁விரோதமாக 281
வைகள 280
▁ஆங 280
▁உலகில 280
▁ஜோடியாக 280
▁படுகிறார 280
▁பணக 280
▁லங 280
ுகளின 279
▁காச 279
▁சூழல 279
▁டாய 279
▁மெல 279
▁றுச 279
▁வழியாக 279
ீன 278
▁2012 278
▁Le 278
▁இயந 278
▁சரிவு 278
▁பதைத 278
▁பிரம 278
▁பூச 278
▁பொதுஜன 278
மை 277
▁கிராமங 277
▁தானத 277
▁நிறுவ 277
▁பூ 277
▁ரீதியான 277
▁விமானப 277
ுன 276
▁இவரது 276
▁சிட 276
▁டவை 276
▁பலிபீடத 276
▁ஸின 276
▁ஹிட 276
▁கழகம 275
▁நிரப 275
▁மூழ 275
▁வாகனங 275
▁வெளியுறவுக 275
னம 274
▁1980 274
▁கேர 274
▁தஸ 274
▁தியர 274
▁பிரதேசங 274
▁லாயிரக 274
▁வரலாறு 274
▁வருஷம 274
ளிக 273
▁அவைகளின 273
▁இடதுசாரி 273
▁நானும 273
▁பயந 273
▁ராக 273
▁லையா 273
▁ஸில 273
ஏ 272
ுகளில 272
▁31 272
▁ஃப 272
▁தியங 272
▁னம 272
▁னையில 272
▁ரொம 272
▁ஹெஸ 272
G 271
தால 271
மேக 271
▁ 271
▁ஆலோசகர 271
▁உறுதியளித 271
▁எழுதிய 271
▁கலை 271
▁பிணை 271
▁மானம 271
▁மிகச 271
▁ரிச 271
▁ரீதியில 271
▁விஷயம 271
▁வெளிச 271
▁29 270
▁அமீர 270
▁ஆயிரம 270
▁கவ 270
▁கையையும 270
▁மீற 270
▁விஜயகாந 270
▁விவரங 270
on 269
ரு 269
▁அரசுகள 269
▁ஆயத 269
▁உழைப 269
▁குவித 269
▁மேய 269
ுகளுக 268
▁ஆணையிட 268
▁றதாக 268
மாகக 267
ீம 267
▁காலமாக 267
▁தலையீடு 267
▁மொழி 267
▁ரா 267
▁கியம 266
▁னிக 266
▁யை 266
▁றுடன 266
▁வாதத 266
R 265
▁ஊடகம 265
▁முடிவை 265
▁இரக 264
▁எஞ 264
▁கெடுத 264
▁சுன 264
▁டாங 264
▁டுவீச 264
▁துவதை 264
▁பளம 264
▁முறையின 264
▁வரவிருக 264
ேக 263
▁டிகள 263
▁டென 263
▁தூதர 263
▁தூர 263
▁பிரிந 263
▁பிவிட 263
ேத 262
▁அறியப 262
▁உடனே 262
▁தெடுத 262
▁பேசினார 262
▁போலவும 262
ாகப 261
▁200 261
▁அதைச 261
▁உப 261
▁உரிய 261
▁தடைகள 261
▁திகளின 261
▁தியிருக 261
▁நிய 261
▁நியமித 261
▁நிரூபிக 261
▁பிடும 261
▁வசதிகள 261
டைந 260
▁கடிதம 260
▁கிறதற 260
▁சமாதானப 260
▁திரன 260
▁நகரம 260
▁பிச 260
▁பொதுவான 260
▁மையும 260
▁யராஜ 260
தன 259
ாவிற 259
ையிட 259
▁அடைய 259
▁ஆசியாவில 259
▁கியர 259
▁குளிர 259
▁னு 259
▁முயல 259
கத 258
▁காகப 258
▁புறுத 258
▁வலுவான 258
▁கரவாதிகள 257
▁கவலைப 257
▁டயத 257
▁டேவிட 257
▁நகரில 257
▁பகத 257
▁பிரத 257
▁றைப 257
▁வகையிலும 257
▁வீடு 257
ுந 256
▁அனைவருக 256
▁கூறுகிறார 256
▁சயமாக 256
▁சுவ 256
▁தாபிக 256
▁துவங 256
▁தொண 256
▁நீதிபதி 256
▁பணியாளர 256
▁பியிருக 256
▁பிரஸ 256
▁புணர 256
▁பெலிஸ 256
▁மனிதன 256
▁மறுபடியும 256
▁றாள 256
▁ளேயே 256
▁ஹார 256
U 255
கர 255
வாக 255
▁கலங 255
▁துலகக 255
▁படுவதில 255
▁விடுவிக 255
▁விவாதங 255
▁வுகளை 255
▁உரையாற 254
▁காஸ 254
▁சிறையில 254
▁தினாலும 254
▁தெருக 254
▁நிலவுகின 254
▁போனான 254
▁மீர 254
▁முழுக 254
▁றுகிறது 254
▁வேர 254
ாயின 253
▁அ 253
▁இவருக 253
▁கிருந 253
▁சேனைகளின 253
▁டதாகவும 253
▁மாளிகை 253
▁மோசமாக 253
▁லுகிறேன 253
▁வலுப 253
▁ஆதரிப 252
▁களாலும 252
▁குமான 252
▁குறைய 252
▁கூறினர 252
▁திரண 252
▁நடைமுறைப 252
▁பிரிவினைவாத 252
▁பெருநிறுவன 252
▁பெறப 252
▁மகள 252
▁வதாக 252
▁விடத 252
▁விஷயங 252
amp 251
ழ 251
▁அதனது 251
▁கசப 251
▁கடைசியில 251
▁காணும 251
▁கீல 251
▁தியோகத 251
▁நாளிலே 251
களின 250
ியது 250
▁ஆவர 250
▁ஏறத 250
▁சமயம 250
▁சுரங 250
▁டியாளர 250
▁டிலிருந 250
▁தேசியக 250
▁நிறுவப 250
▁புவாத 250
▁பூராவும 250
▁போடப 250
▁விடப 250
ுமான 249
▁80 249
▁காரன 249
▁பிரதிபலிப 249
▁முதலீடு 249
▁ஷங 249
▁அடையாள 248
▁அவைகளை 248
▁ஆயுதப 248
▁தியேட 248
▁துலக 248
▁நிலைமைகள 248
▁பாகவும 248
▁பேசி 248
▁போயிற 248
▁யவும 248
▁யோசேப 248
,000 247
தாகவும 247
▁and 247
▁font 247
▁ஆதலால 247
▁இருத 247
▁உருவ 247
▁பாதுகாத 247
▁பிலிம 247
ெக 246
▁அணுக 246
▁காவை 246
▁கீடு 246
▁சமர 246
▁ததன 246
▁நிறுவன 246
▁படைகளின 246
▁பதிகாரி 246
▁பிறப 246
▁பொதுப 246
▁அழிப 245
▁கடிதத 245
▁கோபத 245
▁திரப 245
▁போராளிகள 245
▁லைக 245
▁ளவேண 245
▁வால 245
ுல 244
▁ஆவணங 244
▁ஏதேனும 244
▁டமன 244
▁டுவது 244
▁தியும 244
▁தொற 244
▁நிதியம 244
▁பிரதியுத 244
▁வெளியீட 244
z 243
ியைப 243
ிறது 243
▁இருபத 243
▁டுபோய 243
▁பாரிஸ 243
▁முஷாரஃப 243
▁யாவின 243
▁2009 242
▁அறிவ 242
▁ஆவ 242
▁ஊடாக 242
▁கணிக 242
▁கிழமையன 242
▁கொலைசெய 242
▁சூப 242
▁தடவையாக 242
▁திடீர 242
▁திரக 242
▁மையத 242
▁வெளியான 242
டைய 241
ைகளைப 241
▁70 241
▁அடுக 241
▁ஒருவரும 241
▁தியிருந 241
▁படுகிற 241
▁பதாகக 241
▁பதிவ 241
▁புகளுக 241
▁வயதான 241
வுள 240
▁இழக 240
▁சிர 240
▁தடையற 240
▁பாள 240
▁மால 240
▁ரீகாந 240
▁றித 240
▁லாது 240
▁வறிய 240
▁விருந 240
▁ஈட 239
▁கந 239
▁கைகளையும 239
▁நீதி 239
▁பாசிச 239
▁பாளராக 239
▁புகிறார 239
▁வலது 239
▁விவரித 239
▁வேன 239
▁வேளை 239
ஜி 238
மே 238
▁களுள 238
▁குமுன 238
▁துவதாக 238
▁தெஹ 238
▁நவ 238
▁னைய 238
▁பாச 238
▁பியது 238
▁மித 238
▁முதற 238
▁லுனர 238
▁ளைகள 238
▁வருமானத 238
▁வையாளர 238
ோப 237
▁அள 237
▁காணாமல 237
▁கிணைப 237
▁செலவுத 237
▁சேன 237
▁டைட 237
▁நீட 237
▁பதைப 237
▁ரான 237
▁விரோதப 237
▁வேறுபட 237
யம 236
ுவதாக 236
▁SEP 236
▁குடி 236
▁கோசியின 236
▁டியின 236
▁புதன 236
ினாலும 235
▁சீ 235
▁டதன 235
▁டியெழுப 235
▁தணிக 235
▁தினாலே 235
▁பரவலாக 235
▁புகைப 235
▁மரணத 235
▁மாய 235
▁விதித 235
▁வெண 235
u 234
மாயிருந 234
▁இவருடைய 234
▁கரை 234
▁களப 234
▁குறைவாக 234
▁கையான 234
▁சினிமாவில 234
▁சுயாதீனமான 234
▁படையை 234
▁மென 234
▁மையிலேயே 234
▁வருத 234
▁விவாதிக 234
▁” 234
ியாத 233
▁500 233
▁எனத 233
▁கடவுள 233
▁கிரம 233
▁கோரும 233
▁தனமாக 233
▁தீவிரவாத 233
▁நடிகை 233
▁பிலிப 233
▁ரிக 233
▁ரைன 233
an 232
லின 232
ூக 232
ோவின 232
▁1999 232
▁தளர 232
▁பாதை 232
▁யூதா 232
▁வழிவகுத 232
ுவதில 231
▁அவனைக 231
▁எனும 231
▁சீனாவில 231
▁டமும 231
▁தாட 231
▁தீவிரப 231
▁நடைபெறும 231
▁பெயரை 231
▁மணிக 231
▁வறுமை 231
▁விய 231
▁விளைவுகளை 231
மில 230
▁திவால 230
▁பொலிசார 230
▁மறுசீரமைப 230
▁விச 230
▁வியை 230
▁வெளிக 230
t 229
விற 229
வுக 229
ெ 229
▁The 229
▁கமானது 229
▁காவ 229
▁கோபம 229
▁தவில 229
▁வாறெனினும 229
▁‘ 229
al 228
னாக 228
ாயிருப 228
▁அவளை 228
▁எழுதியிருக 228
▁கஷ 228
▁குறைவ 228
▁டாரங 228
▁ததாகவும 228
▁தீவின 228
▁தைகளின 228
▁தைவிட 228
▁நிதியில 228
▁வருடத 228
▁வருடம 228
▁வூதிய 228
at 227
ோச 227
▁அமையும 227
▁அலங 227
▁அலுவலகம 227
▁கீகரிக 227
▁கீர 227
▁கூறியதாவது 227
▁டனுக 227
▁படியான 227
▁பரிந 227
▁முகவரி 227
▁யம 227
▁றுவித 227
▁லவேண 227
▁ளவன 227
is 226
டிய 226
னத 226
▁கருவ 226
▁காரியத 226
▁டைப 226
▁தரிக 226
▁தேவர 226
▁முடிக 226
▁வும 226
l 225
ூல 225
ெய 225
▁குடன 225
▁சவுல 225
▁தேவையில 225
▁படைகளுக 225
▁உறவினர 224
▁எழுதப 224
▁காந 224
▁சகர 224
▁தலைம 224
▁தூரத 224
▁பரிய 224
▁முறைப 224
▁மூலதனத 224
▁மைப 224
▁றவ 224
▁விஷ 224
▁வேலைகளை 224
▁ஹீரோ 224
ியுடன 223
▁லிங 223
▁காவும 222
▁சே 222
▁நூறு 222
▁புறநகர 222
▁மிருகத 222
▁மூலமாக 222
▁மோன 222
▁இழுத 221
▁தலின 221
▁தேசம 221
▁தேவனுக 221
▁நடுவில 221
▁பவத 221
▁பூங 221
▁மூலோபாயத 221
▁யாத 221
▁வீதத 221
▁ஹைட 221
▁35 220
▁Z 220
▁இசையமைப 220
▁இதுபோன 220
▁இதுவே 220
▁இலாபத 220
▁இலாபம 220
▁உதவித 220
▁ஊட 220
▁காலகட 220
▁சகோதர 220
▁ணன 220
▁நாடுகளும 220
▁பிரிவினர 220
▁மறைந 220
▁வருவதாக 220
O 219
கு 219
னால 219
வாத 219
ுச 219
▁ஐம 219
▁செம 219
▁தவித 219
▁தீவிரமான 219
▁பிரகாஷ 219
▁வழிகாட 219
▁வாடிக 219
▁விரிவுபடுத 219
கா 218
▁களினால 218
▁செயலாற 218
▁சேவ 218
▁தொடரும 218
▁நடைமுறையில 218
▁னப 218
▁பாபிலோன 218
▁யாரும 218
▁றினார 218
▁வசனம 218
▁வதன 218
▁வருவது 218
ுவர 217
▁கருதுகின 217
▁கழுத 217
▁தகம 217
▁பதிப 217
▁பெறுகின 217
▁மு 217
▁றிவிட 217
▁விரிவான 217
ia 216
கே 216
▁இருபது 216
▁கவின 216
▁காலப 216
▁சீக 216
▁பயணம 216
திய 215
யத 215
▁ஒருவேளை 215
▁ஜனநாயகம 215
▁னோட 215
▁புகளின 215
▁புசிக 215
▁றுமதி 215
▁ளடங 215
f 214
▁அணிதிரட 214
▁அதிகப 214
▁உடைத 214
▁கிடக 214
▁சேமிப 214
▁டச 214
▁தலும 214
▁தாபனத 214
▁திரவதை 214
▁நுகர 214
▁படியிருந 214
▁விவசாய 214
ாகி 213
ாஜ 213
ாற 213
ேற 213
▁ஆயுதம 213
▁எதிராகவும 213
▁குகளின 213
▁சபையில 213
▁சூட 213
▁டவட 213
▁பாகும 213
▁பேற 213
▁பைப 213
ருவ 212
ாறு 212
▁the 212
▁அனைவரையும 212
▁ஈரானின 212
▁உரைக 212
▁ஒருபோதும 212
▁குவதில 212
▁சாலைகள 212
▁திரை 212
▁திரையரங 212
▁தெரியவில 212
▁நடுவே 212
▁பகுப 212
▁பாதித 212
▁மீறி 212
▁வரவில 212
▁ஷியைட 212
எதிர 211
ேம 211
▁எது 211
▁கைவிடப 211
▁செத 211
▁பராக 211
▁பினை 211
▁மேக 211
▁ரிலீஸ 211
▁ளிகள 211
ாதபடிக 210
ியிருக 210
▁உரிம 210
▁ஏர 210
▁ஓப 210
▁களிடமிருந 210
▁கூறுவது 210
▁கோவில 210
▁சினைகளை 210
▁திரமாக 210
▁தேக 210
▁நிறுவனமான 210
▁பளத 210
▁மரித 210
▁மாபெரும 210
▁ரைஸ 210
▁றுகள 210
▁வேடத 210
▁அனுமதித 209
▁ஊதியத 209
▁ஒருதலைப 209
▁சியம 209
▁டோக 209
▁நயன 209
▁ரவேலர 209
▁ளேன 209
▁வருகிற 209
▁விதமான 209
▁விஷயத 209
ிடையே 208
▁இரும 208
▁கவுள 208
▁குல 208
▁சராசரி 208
▁சியானது 208
▁சுய 208
▁டுரையில 208
▁டையில 208
▁தினதும 208
▁திறக 208
▁னணியின 208
▁பலரும 208
▁பிராங 208
▁முறையான 208
▁லன 208
லக 207
ொட 207
▁அவசரகால 207
▁உரையில 207
▁சனங 207
▁நியாயமான 207
▁பதவியை 207
▁பரவ 207
▁பேருக 207
▁போதே 207
▁லாதவர 207
▁விகிதம 207
▁2010 206
▁ஊ 206
▁ஐஸ 206
▁குழுவினர 206
▁கூடாரத 206
▁கைகளும 206
▁சிவப 206
▁டியன 206
▁டுபிடித 206
▁நாயகன 206
▁பவும 206
▁மூர 206
▁ரிஷா 206
▁வாஜ 206
h 205
ஃப 205
▁ஊற 205
▁கடைப 205
▁தலைவரும 205
▁தொ 205
▁நியாயத 205
▁னிடம 205
▁பணியில 205
▁பாருங 205
▁மதிக 205
▁மூலமும 205
▁றவியல 205
▁வரக 205
▁விசேட 205
ியே 204
ேஷ 204
▁2014 204
▁CDU 204
▁உடனடி 204
▁ஒர 204
▁கடியில 204
▁கறிஞர 204
▁சுவர 204
▁ஜோஸ 204
▁டளை 204
▁ணத 204
▁ததாவது 204
▁தரவாதம 204
▁தேவைகளை 204
▁நீடிக 204
▁றிபெற 204
▁றீட 204
▁வியப 204
▁விழிப 204
▁வெளியுறவுத 204
ar 203
விட 203
ாளர 203
▁அதுதான 203
▁ஆசாரியன 203
▁கிரமசிங 203
▁துவார 203
▁நிபுணர 203
▁படியாக 203
▁பரபரப 203
▁போகிறார 203
▁மீளாய 203
▁யூரோ 203
ுறை 202
▁கீட 202
▁கையாள 202
▁டியிருந 202
▁தளமாகக 202
▁தோத 202
▁பழமைவாத 202
▁பிரபல 202
▁ளலாம 202
▁விவாதம 202
N 201
திக 201
ானவர 201
ாயிற 201
▁கருக 201
▁காகத 201
▁டீர 201
▁னட 201
▁பமும 201
▁பலன 201
▁லம 201
0 200
▁தோடே 200
▁போத 200
▁ரோன 200
▁விடயங 200
ிதான 199
ியைக 199
ெற 199
ையாவது 199
▁1998 199
▁அனுபவம 199
▁கானவர 199
▁சாலொமோன 199
▁போனால 199
▁மறைத 199
▁வருட 199
▁விஜயம 199
▁விரைவாக 199
ிவிடும 198
ோஸ 198
▁கிராம 198
▁தமக 198
▁நிலப 198
▁னிச 198
▁மெர 198
▁லாவ 198
▁ளவும 198
▁வருஷத 198
▁வேறொரு 198
▁ஹெல 198
தின 197
▁Y 197
▁அதிகாரப 197
▁கதாக 197
▁தீங 197
▁பவன 197
▁றாகும 197
▁வாசஸ 197
▁விவகாரங 197
லும 196
வைக 196
ிகளால 196
ையாய 196
▁அவனைப 196
▁சியையும 196
▁தவேண 196
▁திகளுக 196
▁திரா 196
▁தேச 196
▁தொகையை 196
▁படுவதாக 196
▁பயணத 196
▁மூப 196
▁வெளிய 196
ாவையும 195
▁1970 195
▁90 195
▁ஆதரவுடன 195
▁கடவர 195
வித 194
ுவேன 194
ூப 194
ேயாகும 194
▁ஆசியா 194
▁ஆதரவ 194
▁கூடியதாக 194
▁சிறிது 194
▁டதாகும 194
▁டள 194
▁டுவதாக 194
▁ணோட 194
▁தளமாக 194
▁தொக 194
▁நடைமுறை 194
▁முறித 194
▁மெக 194
▁ளதாகவும 194
▁விஸ 194
ியாகும 193
ியால 193
ையற 193
▁அடையாளங 193
▁அழிவ 193
▁ஆந 193
▁உல 193
▁கமுடியாத 193
▁கலக 193
▁குஜராத 193
▁குடித 193
▁சிரியா 193
▁சுந 193
▁தாவீதின 193
▁திஷ 193
▁பகுதியின 193
▁பனாகிய 193
▁பவம 193
▁மூடி 193
ீஸ 192
ுகளும 192
▁அனுபவங 192
▁இணங 192
▁உரிமையாளர 192
▁காலக 192
▁சமாக 192
▁துறைக 192
▁பிரல 192
▁பெக 192
▁யாவரும 192
▁லோ 192
▁ளதை 192
ாவார 191
ியாய 191
▁UMP 191
▁கையுடன 191
▁தனுஷ 191
▁தய 191
▁தாளர 191
▁தேகம 191
▁நூல 191
▁மம 191
▁மறந 191
▁முகவர 191
▁றுவ 191
▁விவேக 191
▁வெளி 191
▁வேற 191
▁– 191
ேப 190
▁Times 190
▁இலட 190
▁ஒருவருக 190
▁காவுடன 190
▁கூறுகையில 190
▁சிறுவர 190
▁தோ 190
▁மாறுதல 190
▁மிச 190
▁மேலான 190
▁ரீலங 190
▁விபத 190
us 189
▁அதிகாரிகளுக 189
▁எழுதி 189
▁கியா 189
▁கூறியிருந 189
▁சாதகமாக 189
▁டிச 189
▁டிடத 189
▁தியமான 189
▁மது 189
▁முல 189
▁முழக 189
▁ரூப 189
▁விபரங 189
▁வொன 189
போல 188
ியக 188
ேயும 188
ோனின 188
▁கடித 188
▁ஜீவன 188
▁தரவிட 188
▁திருமண 188
▁துணைக 188
▁நெற 188
▁ரன 188
கம 187
▁p 187
▁உதாரணமாக 187
▁எவர 187
▁ஓடிப 187
▁கவே 187
▁காலிகமாக 187
▁கினால 187
▁சதவீதமாக 187
▁டதோடு 187
▁திவாய 187
▁தீய 187
▁தையே 187
▁படல 187
▁பணிந 187
▁போயுள 187
▁மாறுபட 187
▁முறைகள 187
ஆம 186
மைப 186
ாரி 186
▁75 186
▁அறிய 186
▁இடமில 186
▁கிளப 186
▁கிளம 186
▁குவதாக 186
▁குவார 186
▁சமிக 186
▁ஞாயிறன 186
▁டிலே 186
▁தவை 186
▁துரைக 186
▁துவைக 186
▁நக 186
▁படுக 186
▁படையின 186
▁பராமரிப 186
▁பிராண 186
▁போகிறேன 186
▁லூரி 186
▁வரவேண 186
ஆ 185
துமான 185
ையைச 185
ோய 185
▁300 185
▁New 185
▁உறவு 185
▁கதரிச 185
▁கிரமித 185
▁குடியிருக 185
▁சோசலிசக 185
▁நாளைக 185
▁பெருநிறுவனங 185
▁மரணம 185
▁’ 185
தொ 184
மாகிய 184
ிஷ 184
ேஸ 184
▁ஆதரவைக 184
▁குவதை 184
▁ணா 184
▁திண 184
▁தொகையில 184
▁தோடும 184
▁பணித 184
▁பிரதேச 184
▁ஹோவர 184
00 183
ினாலே 183
ிழ 183
▁கறுப 183
▁கிலிருந 183
▁குடிக 183
▁சனத 183
▁சிதைந 183
▁சுயாதீன 183
▁திபெத 183
▁துகள 183
▁பொற 183
▁மனைவ 183
▁முதலாளிகள 183
▁மைத 183
▁ரேலுக 183
▁றுவது 183
▁ளுவதற 183
▁வசிக 183
es 182
k 182
ாவிலும 182
ீக 182
▁இராஜதந 182
▁கையிலும 182
▁டுண 182
▁தவறு 182
▁பாவின 182
▁பிலும 182
▁பைனான 182
▁போகிறது 182
▁ஷவின 182
or 181
ானத 181
ாறும 181
ையாளர 181
ொண 181
▁உதவியாளர 181
▁உரை 181
▁ஓராண 181
▁காவது 181
▁குமுற 181
▁கேன 181
▁டனங 181
▁டாயப 181
▁திரருக 181
▁நஷ 181
▁படுபவர 181
▁பணவீக 181
▁புஸ 181
▁மானிக 181
▁வோர 181
H 180
b 180
▁BJP 180
▁அதிலே 180
▁இணைய 180
▁செக 180
▁டியே 180
▁டுடன 180
▁திடப 180
▁திருட 180
▁துகிறார 180
▁நாளை 180
▁நிலைய 180
▁மைகள 180
▁யதார 180
▁யான 180
▁றென 180
▁வாதிகார 180
▁வீத 180
▁வேலைவாய 180
சார 179
னர 179
▁அடைத 179
▁அதையொட 179
▁ஒருவனும 179
▁கிணைந 179
▁சமாதானம 179
▁சேக 179
▁ஜனாதிபதியின 179
▁திஸ 179
▁துவமின 179
▁நாய 179
▁பிரபு 179
▁முழுவதையும 179
▁மையையும 179
▁ரோல 179
▁லவா 179
▁வரிச 179
as 178
ுகளையும 178
▁அநேக 178
▁ஆழமாக 178
▁இதுவும 178
▁இதைப 178
▁கடம 178
▁களாகிய 178
▁கவனிக 178
▁காலங 178
▁குறைவு 178
▁கைதிகளை 178
▁ஜனாதிபதியாக 178
▁டாகும 178
▁தினத 178
▁தையாக 178
▁நாடாக 178
▁பிரவேசித 178
கன 177
▁1930 177
▁அமைதி 177
▁அரை 177
▁கஸ 177
▁கையிலே 177
▁சரண 177
▁தொடுக 177
▁நிலைமையில 177
▁படுவர 177
▁பதிலளிக 177
▁பொ 177
ie 176
▁45 176
▁அவசியம 176
▁கிடையே 176
▁கேல 176
▁கோஸ 176
▁சமாளிக 176
▁டாயத 176
▁தீம 176
▁பவுண 176
▁பிங 176
▁முடக 176
▁ளாட 176
▁வசதி 176
▁விலைகள 176
துடன 175
ளித 175
ளிப 175
வல 175
▁1991 175
▁அடி 175
▁ஆலை 175
▁எழுதினார 175
▁சீஷர 175
▁செலவிட 175
▁டவரே 175
▁டுர 175
▁ணித 175
▁திசை 175
▁நீதித 175
▁னைச 175
▁பமான 175
▁பலம 175
▁பாகத 175
▁பிரிவில 175
▁புலன 175
▁மணித 175
▁முடிவுகட 175
வான 174
ொல 174
▁LTTE 174
▁ஆகியன 174
▁ஆகிலும 174
▁காவற 174
▁டுவிடும 174
▁தளவில 174
▁நேச 174
▁னண 174
▁பகுதியினர 174
▁பணிகளை 174
▁பாங 174
▁பேரினவாத 174
▁முஷாரப 174
W 173
le 173
ிலுள 173
▁இராணுவச 173
▁கடினமான 173
▁ணை 173
▁தலைவ 173
▁பிஜேபி 173
▁மடிந 173
re 172
விக 172
▁அரண 172
▁இனத 172
▁கவல 172
▁துதான 172
▁துரையாடல 172
▁தெரிவிப 172
▁படையிலான 172
▁முழுமையான 172
▁ரவி 172
▁வாயன 172
னில 171
யர 171
▁அலுவலகங 171
▁ஆனந 171
▁குழுவை 171
▁கொம 171
▁ஜோடி 171
▁டணியில 171
▁டரில 171
▁ததுபோல 171
▁புகளில 171
▁முடிவடைந 171
▁மையம 171
▁றியை 171
▁வெகுஜனங 171
▁வெடிக 171
K 170
ராக 170
ியிலும 170
▁face 170
▁அதிகாரிகளும 170
▁அரசை 170
▁ஆமாம 170
▁எருசலேமுக 170
▁கடிதங 170
▁குமாறும 170
▁சாதனங 170
▁சோசலிசம 170
▁டவிரோத 170
▁தியாவிற 170
▁தீவு 170
▁நந 170
▁நிலைத 170
▁மானங 170
▁மீனவர 170
▁முகாமைத 170
▁மொழ 170
▁ளம 170
▁ளிவிட 170
ிகளைக 169
ுகிறவன 169
▁அயல 169
▁கடவது 169
▁கீகாரம 169
▁சனைகள 169
▁சிஸ 169
▁டுகளின 169
▁தகவலின 169
▁திறம 169
▁பிரிவ 169
▁மதுவரி 169
▁லிப 169
▁லுகிறது 169
▁ஹமாஸ 169
el 168
▁கருவிகள 168
▁திரரின 168
▁துடனும 168
▁பலக 168
▁வயல 168
▁வெப 168
ாரம 167
ிமித 167
▁EN 167
▁align 167
▁அலட 167
▁அவரிடத 167
▁அவளுக 167
▁இராணுவக 167
▁உயிரிழந 167
▁ணினான 167
▁தயக 167
▁நடைமுறைக 167
▁னிய 167
▁பாளரான 167
▁வடிவத 167
▁வியடைந 167
n 166
r 166
டுத 166
வேல 166
ொரு 166
▁St 166
▁அனுமதிப 166
▁அரசுக 166
▁கடைசியாக 166
▁கதாபாத 166
▁செயலர 166
▁செலவுகள 166
▁தடைகளை 166
▁நிலைம 166
▁னோடே 166
▁பினான 166
▁பிஷ 166
▁புதனன 166
▁பொம 166
▁மறைப 166
▁ராஜாவுக 166
▁ளுங 166
▁ளுபடி 166
▁விகிதத 166
திப 165
ியாவை 165
ீத 165
ுகிறேன 165
▁அடைவதற 165
▁இளைய 165
▁உலகெங 165
▁கலைப 165
▁காரியம 165
▁சலுகைகள 165
▁டிரில 165
▁டிவ 165
▁திணிக 165
▁தேவனே 165
▁மேயர 165
▁றிச 165
▁வருகை 165
▁வீதம 165
ch 164
கள 164
முள 164
ளவு 164
ளை 164
▁அறிவார 164
▁ஆசரிப 164
▁ஏக 164
▁சா 164
▁தனியாக 164
▁தேவரீர 164
▁நாடுகளிலும 164
▁நீதிமான 164
▁பேராசிரியர 164
▁மறுநாள 164
▁மிஸ 164
▁வரையில 164
▁“ 164
20 163
ிடப 163
ிறார 163
▁இலாபங 163
▁ஏதோ 163
▁குனராக 163
▁கூறவில 163
▁ஜெயம 163
▁தடைசெய 163
▁நாச 163
▁பணிய 163
▁பலியிட 163
▁பாவிற 163
▁பிரகடனப 163
▁விரட 163
▁வேடம 163
it 162
பேர 162
ுவோம 162
▁PS 162
▁http 162
▁அகப 162
▁அவனிடத 162
▁கமாகக 162
▁கைதுசெய 162
▁செந 162
▁ஜில 162
▁டணம 162
▁தவுடன 162
▁திலிருக 162
▁பதவிப 162
▁பதிலளித 162
▁பழ 162
▁பவற 162
▁பாடும 162
▁புரி 162
▁மூல 162
வாதிகள 161
ோவில 161
▁www 161
▁எதுவுமில 161
▁கொடும 161
▁சாந 161
▁சோதனை 161
▁டாது 161
▁நடிகைகள 161
▁பழிவாங 161
▁பாலானவர 161
▁புலிகளை 161
▁மனிதாபிமான 161
▁றுபோட 161
ணம 160
வா 160
ீச 160
▁1960 160
▁இயலாத 160
▁இரகசியமாக 160
▁ஒருவரை 160
▁கலாக 160
▁குமானால 160
▁குறைகூற 160
▁சூ 160
▁சூடான 160
▁செ 160
▁டிம 160
▁நேரங 160
▁னுமொரு 160
▁பணியை 160
▁முறையும 160
▁மூலோபாயம 160
▁அழ 159
▁உருக 159
▁உறுதிய 159
▁கூ 159
▁டமைக 159
▁டோவின 159
▁தகுந 159
▁தமானது 159
▁தேடி 159
▁தொலைத 159
▁நிதிக 159
▁நிந 159
▁பிடுகையில 159
▁மையைக 159
▁யாவும 159
GB 158
ing 158
மானவர 158
ிள 158
ெடுத 158
▁அசின 158
▁அவரைக 158
▁களாகும 158
▁குழுவிற 158
▁சியைக 158
▁சிறைச 158
▁டிடங 158
▁திரளான 158
▁படைய 158
▁முகங 158
▁றிருப 158
▁வரவுசெலவுத 158
▁விதிகள 158
org 157
ெங 157
▁அருவருப 157
▁இறுக 157
▁உரிமைகளுக 157
▁கதிர 157
▁கவைத 157
▁குதலின 157
▁சிவிலியன 157
▁ணயிக 157
▁தானும 157
▁திரேலியா 157
▁நியாய 157
▁னில 157
▁னுக 157
▁பேரை 157
▁மஹிந 157
▁றமும 157
▁வழிவகை 157
▁வுப 157
▁ஹோட 157
னைக 156
யங 156
யின 156
▁10,000 156
▁150 156
▁37 156
▁400 156
▁Ch 156
▁x 156
▁அரசியலுக 156
▁களிலே 156
▁களைவிட 156
▁கவனமாக 156
▁கிலோ 156
▁டணியின 156
▁தாலிய 156
▁நியாயம 156
▁நேரிட 156
▁பொக 156
▁போடு 156
▁போவ 156
▁லுகிற 156
▁லெபனான 156
▁வளம 156
▁வியாழனன 156
▁வெகு 156
ur 155
டித 155
ூன 155
▁இருவர 155
▁எர 155
▁கொத 155
▁சபைக 155
▁சிறிதும 155
▁டனப 155
▁டோனி 155
▁தியான 155
▁நாக 155
▁பழக 155
▁பாடசாலை 155
▁புகளும 155
▁புண 155
▁லீ 155
▁லுங 155
▁லெபனானில 155
▁வணிகத 155
▁வயிற 155
ாஷ 154
ுவின 154
ெள 154
▁0 154
▁இருதயம 154
▁உடையவர 154
▁காசா 154
▁கிருஷ 154
▁சலுகைகளை 154
▁சிவ 154
▁ஜனாதிபதித 154
▁டபின 154
▁தவறாக 154
▁திரையிட 154
▁பாவை 154
▁மனப 154
▁மாதவன 154
▁லியனுக 154
▁லையில 154
▁வழிவக 154
▁வேகமாக 154
▁அதி 153
▁கிரமத 153
▁கிருப 153
▁குவர 153
▁கூடத 153
▁சமான 153
▁சரிவ 153
▁ஜென 153
▁தேவாலயத 153
▁பீல 153
▁மாதிர 153
▁யமீன 153
▁விசாரணையில 153
▁வீண 153
மைக 152
ியாகவும 152
ியினால 152
▁1995 152
▁அணிந 152
▁ஆவணமற 152
▁எதற 152
▁ஏறக 152
▁ஒபாமாவின 152
▁கணவர 152
▁குகளுக 152
▁ஜிம 152
▁டணிக 152
▁டவிழ 152
▁டியும 152
▁டுகிறார 152
▁தகவலை 152
▁தவறிவிட 152
▁திரிகையின 152
▁தேற 152
▁பிளவுகள 152
▁மரப 152
▁ஹீரோயின 152
சர 151
ியோ 151
▁for 151
▁அறிவியல 151
▁அவரும 151
▁ஆதரவைப 151
▁உதவிய 151
▁ஏத 151
▁காரண 151
▁கையானது 151
▁சிகளையும 151
▁சீனாவிற 151
▁தியாசமான 151
▁பதவியிலிருந 151
▁பாவங 151
▁பாவஞ 151
▁முகப 151
▁ளாத 151
▁வருவதை 151
▁வாசகர 151
▁வாதம 151
▁விசாரணையை 151
▁விளைவ 151
தையும 150
ியாவுக 150
▁அருள 150
▁கியை 150
▁குவேன 150
▁டவும 150
▁டீ 150
▁தரைப 150
▁தலைநகர 150
▁தீவில 150
▁ளியன 150
▁வருவ 150
▁விசாரிப 150
▁விலங 150
ay 149
ou 149
வையும 149
▁அவரவர 149
▁ஆகவே 149
▁இரசாயன 149
▁உயிரியல 149
▁கழகங 149
▁குபற 149
▁கையாகும 149
▁கொடிய 149
▁கோளிட 149
▁சமரச 149
▁தமை 149
▁தரக 149
▁நாயகி 149
▁நால 149
▁படமும 149
▁பிரதிநிதி 149
▁பூகோளமயமாக 149
▁போடும 149
▁மனதில 149
▁மேலே 149
▁மைல 149
▁மோத 149
▁வழிவகுக 149
▁விவகாரத 149
▁வையில 149
et 148
யில 148
ியரின 148
▁size 148
▁அவரைப 148
▁சய 148
▁சியால 148
▁சோர 148
▁தாவ 148
▁தினிமித 148
▁துணைப 148
▁தேசியப 148
▁தொல 148
▁நானே 148
▁னையும 148
▁பமாக 148
▁மோசேயை 148
▁ரோடர 148
▁றுகின 148
▁வய 148
am 147
வாய 147
ியுங 147
▁\ 147
▁இணக 147
▁ஏந 147
▁களாகவும 147
▁கிடைப 147
▁கூறுபாடுகள 147
▁டலத 147
▁டெக 147
▁தாமல 147
▁தினுள 147
▁திரியாக 147
▁திவ 147
▁துவதன 147
▁நினைப 147
▁நிலம 147
▁பகுதிகளை 147
▁படையெடுத 147
▁பதிலும 147
▁பெளத 147
▁ராலினிஸ 147
▁றைத 147
▁வழியை 147
`` 146
c 146
m 146
வாறு 146
▁PSG 146
▁அரசுத 146
▁அழிந 146
▁ஆபிரகாம 146
▁இதைச 146
▁உடந 146
▁உதவியை 146
▁கலிபோர 146
▁காயமுற 146
▁காரியங 146
▁கூறியிருக 146
▁கொடுங 146
▁சுனாமி 146
▁டுபிடிப 146
▁நிலவும 146
▁னிரண 146
▁பருத 146
▁பாகமாக 146
▁பிரசுரிக 146
▁பிழைத 146
▁பீரங 146
▁புகிறோம 146
▁மாக 146
▁றுதல 146
▁வெஸ 146
▁வோம 146
ir 145
நாள 145
ாலே 145
ியிலே 145
▁32 145
▁UPA 145
▁அதிகாரிகளின 145
▁அழக 145
▁இதேபோன 145
▁இறுதிக 145
▁எதிராகப 145
▁காயம 145
▁கோடி 145
▁சச 145
▁சினையை 145
▁சிறைக 145
▁செலவில 145
▁ஜாத 145
▁தியதர 145
▁திரிகைக 145
▁திரிகையில 145
▁தீப 145
▁பகுதிகளிலும 145
▁பயனற 145
▁பறக 145
▁பிண 145
▁பிராயீம 145
▁மதத 145
▁மிடத 145
▁மையினர 145
▁ளாமல 145
▁வகையான 145
▁வலிம 145
▁வையும 145
os 144
சம 144
ாவுடன 144
▁href 144
▁அணிவகுத 144
▁கோரியுள 144
▁சகோதரன 144
▁டவில 144
▁நேரில 144
▁னின 144
▁பாகக 144
▁பாடுகளுக 144
▁பாயாக 144
▁மழ 144
▁மானித 144
▁முறையீட 144
▁மோசடி 144
ானி 143
ிகளைப 143
ொ 143
▁42 143
▁கபூர 143
▁கமற 143
▁கையாளர 143
▁சயம 143
▁செங 143
▁ஜியா 143
▁டுபண 143
▁தனிநபர 143
▁தமிட 143
▁தாபன 143
▁தாரா 143
▁தொகையான 143
▁நாலு 143
▁பகுத 143
▁பசிபிக 143
▁பய 143
▁பினரும 143
▁பியர 143
▁பொருளாதாரப 143
▁மாகாணங 143
▁மாவ 143
▁முழ 143
▁யூகோஸ 143
▁றபோது 143
▁றாட 143
▁லால 143
▁ளதால 143
▁வாகக 143
ாவிட 142
ுகையில 142
ுதான 142
ுவான 142
▁எழுதியது 142
▁கரமான 142
▁களென 142
▁குடிப 142
▁குடியிருந 142
▁கையாண 142
▁டாத 142
▁டிட 142
▁நெடுஞ 142
▁பாசாங 142
▁பிரமாணத 142
▁புகளையும 142
▁மனத 142
▁முதலாம 142
▁ரயில 142
▁ளான 142
▁ளிப 142
▁வளைகுடா 142
▁வாருங 142
▁விலகி 142
▁வேகத 142
▁வேறுபாடு 142
▁ஹெலிகாப 142
im 141
தோடு 141
வள 141
▁இயலாது 141
▁எருசலேமின 141
▁ஒழுக 141
▁கடக 141
▁கரத 141
▁குமதி 141
▁சிறைப 141
▁டஜன 141
▁டனும 141
▁டமானது 141
▁டிஸ 141
▁தாப 141
▁திரையிடப 141
▁நிலைநிறுத 141
▁னது 141
▁புவது 141
▁மனுக 141
▁ளின 141
▁வகைப 141
▁வாசிக 141
▁விகள 141
▁வியாபார 141
▁ஷூட 141
▁ஹட 141
▁ஹூசேன 141
.1 140
.4 140
ic 140
ாயிரம 140
ிகளுடன 140
ுபவர 140
ேலின 140
▁01 140
▁GM 140
▁Jean 140
▁அடையும 140
▁இனப 140
▁கடலில 140
▁காரம 140
▁கிறாய 140
▁கூறியதாக 140
▁கேப 140
▁கௌரவ 140
▁சிவில 140
▁தருவதற 140
▁படிய 140
▁பாதி 140
▁பியன 140
▁பிரவேசிக 140
▁முடியுமா 140
▁ரஹ 140
▁ரூட 140
▁ரோம 140
▁லவில 140
▁லவோ 140
▁வழிநடத 140
▁விடயத 140
டக 139
ாவர 139
ுழ 139
▁கமாகும 139
▁களுடனும 139
▁சலுக 139
▁செஞ 139
▁டமை 139
▁டருக 139
▁தழுவிய 139
▁நினைவு 139
▁னஞ 139
▁பகுதிய 139
▁பகுதியான 139
▁பரவலான 139
▁பறந 139
▁பாடுகளின 139
▁புலிகளுடன 139
▁முறையீடு 139
▁யாகவே 139
▁லேவியர 139
▁வகையிலான 139
▁ஹாலிவுட 139
டையும 138
தல 138
மர 138
வனுக 138
ியானது 138
ுகிறவர 138
ூம 138
▁38 138
▁65 138
▁அவநம 138
▁இழிந 138
▁உருவாகும 138
▁கவனித 138
▁கிரத 138
▁கிரிய 138
▁குழ 138
▁சிமாநாட 138
▁சியாகும 138
▁டயஸ 138
▁டாயிருக 138
▁டினால 138
▁தடைக 138
▁தியாவை 138
▁திறனை 138
▁தேவனை 138
▁நாடும 138
▁பைன 138
▁மலையாள 138
▁முண 138
▁யாருக 138
▁ராஜாவ 138
▁ராய 138
▁றுமில 138
▁லரசுகள 138
▁லினில 138
▁வசனத 138
▁வருவாய 138
▁விசுவாசத 138
d 137
ியங 137
▁34 137
▁NPA 137
▁Re 137
▁அவனைத 137
▁ஏஞ 137
▁கழித 137
▁கவன 137
▁காயங 137
▁காவிலும 137
▁கிடந 137
▁சமீப 137
▁சாலையில 137
▁தகனபல 137
▁துழைக 137
▁தெரியாத 137
▁நிலையிலும 137
▁பயிர 137
▁புசித 137
▁பேரழிவ 137
▁பேரிட 137
▁வியுற 137
▁விர 137
ad 136
மன 136
மா 136
மாட 136
ியார 136
▁33 136
▁articles 136
▁உறுதியற 136
▁குகிற 136
▁கோபு 136
▁சரியப 136
▁சேப 136
▁டகாலமாக 136
▁தலாக 136
▁நடைமுற 136
▁நிலவ 136
▁பானின 136
▁பிரதிபலித 136
▁பெருங 136
▁லாவிட 136
▁வாச 136
ard 135
எல 135
சன 135
டுக 135
திகள 135
ாரங 135
ெண 135
ேயின 135
ேவ 135
▁அமைய 135
▁அரசிற 135
▁எலும 135
▁களையே 135
▁காரத 135
▁கிலோமீட 135
▁கெதிரான 135
▁சகாப 135
▁சாமுவேல 135
▁ஞானத 135
▁டாயிற 135
▁தாபனம 135
▁துபோன 135
▁துரையாட 135
▁தோஷ 135
▁நிலைமைகளை 135
▁பரிச 135
▁பலவற 135
▁பிலிருந 135
▁பேரும 135
▁போரிட 135
▁லூ 135
▁ளிவிவரங 135
▁வெங 135
ிகளாக 134
▁1989 134
▁அவரிடம 134
▁அவளுடைய 134
▁ஆகிவிட 134
▁ஆயுதத 134
▁இகழ 134
▁உருவான 134
▁ஏழை 134
▁ஒருவரான 134
▁கிடப 134
▁கிரகங 134
▁சரக 134
▁சலுகை 134
▁தபோதும 134
▁திருமதி 134
▁துவைத 134
▁தோய 134
▁நாளும 134
▁நிரூபித 134
▁பேய 134
▁மனம 134
▁முகாமில 134
▁முடிவெடுத 134
▁வருவார 134
▁விகிதங 134
▁விவாதித 134
▁ஷர 134
டியாக 133
தியின 133
ளவும 133
ாமின 133
ைசெய 133
ொள 133
▁De 133
▁ஆணையாளர 133
▁எருசலேம 133
▁கவுன 133
▁கானான 133
▁கியவர 133
▁குதான 133
▁கேய 133
▁கொலைக 133
▁டியளித 133
▁தரமான 133
▁தருகின 133
▁துரைத 133
▁தொந 133
▁நேபாள 133
▁புகுந 133
▁பேசிக 133
▁மனுபுத 133
▁முடிவுகளை 133
▁வரையறுக 133
▁வையிட 133
▁Party 132
▁அணி 132
▁அவசியமான 132
▁ஆதரவளிக 132
▁இதழ 132
▁கரங 132
▁கலான 132
▁கிரமிக 132
▁குவிந 132
▁சமரசத 132
▁சிதற 132
▁திம 132
▁தொங 132
▁நிலங 132
▁பரீட 132
▁பாலியல 132
▁பிணைந 132
▁பியிருந 132
▁புளோரிடா 132
▁ருவரி 132
▁விசாரண 132
மிக 131
ியாவும 131
▁1997 131
▁ஆதாரம 131
▁எய 131
▁காமெடி 131
▁டுமிராண 131
▁துவேன 131
▁தொழிலாளி 131
▁நா 131
▁நாத 131
▁பெ 131
▁பெயினின 131
▁போனது 131
▁மாறிவிட 131
▁ரில 131
▁ளுவது 131
▁வசந 131
▁விடையிறுக 131
il 130
ஒ 130
முடியாத 130
ாமற 130
ாரின 130
ியாவ 130
ுரம 130
ூற 130
ெப 130
ோடி 130
▁அலுவலக 130
▁காகவே 130
▁கியிருப 130
▁குன 130
▁கொக 130
▁சீயோன 130
▁டுகளையும 130
▁டைகள 130
▁டைத 130
▁தடையை 130
▁தருவ 130
▁தியவர 130
▁துபவர 130
▁தேவைகளுக 130
▁படாது 130
▁பீடுகள 130
▁புன 130
▁மிருகங 130
▁மோச 130
▁றீடு 130
▁ளுகின 130
▁ளுதல 130
▁வருமான 130
▁வலத 130
▁வேலைசெய 130
னாகிய 129
லாக 129
ாதே 129
ியாவிற 129
ைகளைத 129
▁அவுஸ 129
▁ஈடுபடுத 129
▁கொரியா 129
▁கோன 129
▁ஜம 129
▁டெர 129
▁தாது 129
▁தொன 129
▁நீதிய 129
▁னணிக 129
▁பயண 129
▁பேரம 129
▁மி 129
▁யூர 129
▁யோனத 129
▁ரக 129
▁வாகிகள 129
▁விசாரணையின 129
▁விடையிறுப 129
▁விமானம 129
▁விஷால 129
ot 128
ro 128
அமெரிக 128
கால 128
டிப 128
முடியாது 128
வைத 128
ுவதன 128
ெடுக 128
ெஸ 128
▁DE 128
▁s 128
▁அடையப 128
▁அனுபவத 128
▁ஆதரவையும 128
▁இரங 128
▁ஒள 128
▁கரவாதம 128
▁களையெல 128
▁கூச 128
▁சியல 128
▁ஜீவா 128
▁தகங 128
▁திருமணத 128
▁தெரிய 128
▁பவுல 128
▁பியா 128
▁பெருகிவரும 128
▁போற 128
▁மரத 128
▁மீதியான 128
▁மூச 128
▁மையமாக 128
▁யு 128
▁ராலினிசத 128
▁ரியா 128
▁வீடுகளை 128
▁ஹர 128
▁ஹாங 128
V 127
id 127
ol 127
st 127
v 127
தர 127
யும 127
ுமாறு 127
▁48 127
▁அவருடன 127
▁இராணுவமும 127
▁உணவுப 127
▁உதவிக 127
▁ஐயத 127
▁கிகளுக 127
▁குழுவ 127
▁சமயத 127
▁சுகாதாரப 127
▁சைப 127
▁சையாக 127
▁டாரநாயக 127
▁ணுவார 127
▁தானை 127
▁தெடுப 127
▁படைவாத 127
▁பதவ 127
▁பாதையில 127
.5 126
சிய 126
யமாக 126
ாவிடம 126
ுகிறதற 126
▁36 126
▁International 126
▁உரிமைக 126
▁எரிக 126
▁எரிசக 126
▁ஏறி 126
▁ஐயோ 126
▁ஒருமைப 126
▁காணவில 126
▁காலாண 126
▁கிழ 126
▁கீலேயாத 126
▁குமா 126
▁சமுகத 126
▁சூரியன 126
▁ஜனாதிபதிக 126
▁தயங 126
▁துமாறு 126
▁நாயக 126
▁நிலையான 126
▁படுகொலைகள 126
▁பாம 126
▁போலி 126
▁முறைகளை 126
▁ரிட 126
▁வறுமையில 126
▁வழித 126
▁வூதியங 126
▁ஷன 126
▁ஹன 126
.2 125
கங 125
னான 125
படி 125
ீல 125
▁1996 125
▁அணிவகுப 125
▁இராத 125
▁எசேக 125
▁கலைத 125
▁காசனத 125
▁கிரிமினல 125
▁கேளுங 125
▁கொலம 125
▁சனைகளை 125
▁டுவதில 125
▁துறைகளில 125
▁தொகுத 125
▁நாடக 125
▁நாடுகளை 125
▁னவெனில 125
▁னேன 125
▁பாளயமிறங 125
▁பேண 125
▁பொருளாதாரக 125
▁முடுக 125
▁லார 125
▁லியோன 125
▁வரிசையில 125
▁வருந 125
▁வாறான 125
▁வீடுகளில 125
சல 124
▁CPM 124
▁de 124
▁அதனுடைய 124
▁அறியும 124
▁அறுப 124
▁ஆனது 124
▁எரிச 124
▁காமலும 124
▁சகத 124
▁டெம 124
▁தகுதிய 124
▁துபோக 124
▁துமா 124
▁தோழர 124
▁நடுத 124
▁நிமித 124
▁படியிருக 124
▁பயமுறுத 124
▁றழைக 124
▁றிகரமாக 124
▁றுமை 124
▁வேலையை 124
▁வோன 124
சத 123
லம 123
ாமி 123
ுவத 123
▁1000 123
▁அதிகமாய 123
▁கரு 123
▁கருவியாக 123
▁குகளைப 123
▁கூடி 123
▁கெதிராக 123
▁கேயிருந 123
▁சனையை 123
▁சமசமாஜக 123
▁துகிற 123
▁தெளிவ 123
▁தொலைவில 123
▁நிரம 123
▁நீதிபதிகள 123
▁பகுதியிலும 123
▁படவும 123
▁பலாத 123
▁பவை 123
▁பாரபட 123
▁பினராக 123
▁பெறவில 123
▁பேரணியில 123
▁பொங 123
▁மறக 123
▁மீக 123
▁மெட 123
▁யோவான 123
▁வராகவன 123
▁விந 123
and 122
இல 122
ரங 122
வனும 122
ுகிறீர 122
▁அணுவாயுத 122
▁அநேகர 122
▁ஆலோசன 122
▁ஈசாக 122
▁எஜமான 122
▁கானோர 122
▁கீத 122
▁கோருகின 122
▁சேரன 122
▁சோம 122
▁டாலருக 122
▁டுமின 122
▁தலைமைத 122
▁துணைத 122
▁தொடரப 122
▁நாடான 122
▁நெருப 122
▁பகல 122
▁பிரெளன 122
▁பேசப 122
▁மணிரத 122
▁மீரா 122
▁லாமாபாத 122
▁வடிவங 122
▁வாகன 122
▁வுத 122
ாளிகள 121
▁71 121
▁Sch 121
▁அயர 121
▁அவனவன 121
▁இசையமைக 121
▁உலகளாவிய 121
▁சீரமைப 121
▁டாகி 121
▁டிலுள 121
▁டுமா 121
▁திரிகைகள 121
▁நப 121
▁நோட 121
▁பதிவாளர 121
▁பாளயத 121
▁போலிக 121
▁மச 121
▁றியிருக 121
▁லிஸ 121
▁வசதிகளை 121
▁வீக 121
▁வெளிவர 121
னுடைய 120
படியால 120
வாதத 120
▁39 120
▁EU 120
▁அடிபணிந 120
▁அபு 120
▁அவரால 120
▁ஆசாரியனாகிய 120
▁எறிந 120
▁எளிதாக 120
▁ஓடி 120
▁கினை 120
▁குடியரசின 120
▁சமும 120
▁சமூகம 120
▁சாதகமான 120
▁சாதிக 120
▁ஜெர 120
▁டபத 120
▁தநாள 120
▁தலைமையின 120
▁தாலி 120
▁திலான 120
▁தொடுத 120
▁நாடெர 120
▁னுரிமை 120
▁பலமான 120
▁பலமுறை 120
▁பாரிசில 120
▁பாலா 120
▁பிணைக 120
▁பெருகி 120
▁போதிய 120
▁மதித 120
▁மாச 120
▁லற 120
▁வழிப 120
▁வாதிகாரத 120
▁விலைக 120
▁விவகாரம 120
▁வெறுக 120
▁ஹீரோவாக 120
தம 119
ாதத 119
ியைத 119
ுகிறோம 119
▁2015 119
▁IAEA 119
▁அடிம 119
▁அதிலும 119
▁அவரே 119
▁ஒல 119
▁கதைக 119
▁காகும 119
▁காலி 119
▁கிறாராம 119
▁கொர 119
▁சனம 119
▁சமமான 119
▁சமரசம 119
▁சிதான 119
▁தலைய 119
▁துழைத 119
▁நி 119
▁பறிக 119
▁பாதையை 119
▁பிரசங 119
▁புயல 119
▁புறநிலை 119
▁பேரணி 119
▁மரங 119
▁முடிய 119
▁முறைம 119
▁மோதலுக 119
▁யாப 119
▁யோசுவா 119
▁ரு 119
▁றிதழ 119
▁லாமலும 119
▁வலிமை 119
▁வாகனத 119
▁வாதங 119
▁விடுப 119
▁வொருவரும 119
97 118
ig 118
ரச 118
வத 118
ாவிலிருந 118
▁Al 118
▁PCF 118
▁இலத 118
▁ஓரளவு 118
▁கிலுள 118
▁கிழித 118
▁குதாரர 118
▁குறைமதிப 118
▁சியத 118
▁சேம 118
▁தலைமுற 118
▁திகைப 118
▁தெளிவாகத 118
▁நகரமான 118
▁நியூஸ 118
▁நெக 118
▁பிழைப 118
▁பூம 118
▁போகப 118
▁மாளிகையில 118
▁யாண 118
▁வடிவேலு 118
▁வரையிலான 118
▁வழிமுற 118
▁வழியாய 118
▁வாகமும 118
▁வுகளுக 118
ian 117
படியினால 117
யப 117
ரம 117
ூடாக 117
ையுள 117
▁அளவிலும 117
▁ஆறுதல 117
▁காவலர 117
▁குடியரச 117
▁குழுப 117
▁சீரழிவ 117
▁சுர 117
▁ஜீ 117
▁தலைக 117
▁தெரியுமா 117
▁நடுப 117
▁படவுள 117
▁பவாத 117
▁பாரசீக 117
▁பாலிவுட 117
▁பிரதானமாக 117
▁பிரிவுகளில 117
▁போலித 117
▁மழை 117
▁ரப 117
▁ரேலியர 117
▁லியமாக 117
ராஜ 116
ழக 116
ாயும 116
ாலின 116
ாவைப 116
ியிலிருந 116
ியைச 116
▁49 116
▁அதிகமாகும 116
▁அதிலிருந 116
▁அமைதியின 116
▁அய 116
▁அஹ 116
▁இள 116
▁எதிரொலிக 116
▁எனவேதான 116
▁ஏய 116
▁கரையில 116
▁கெய 116
▁திரீ 116
▁நற 116
▁பிரிவை 116
▁பீ 116
▁பேக 116
▁மையங 116
▁யாவையும 116
▁ரெட 116
▁றர 116
▁றினர 116
▁லாருக 116
▁விவாகம 116
.3 115
எ 115
பின 115
ியிருந 115
ீப 115
ோருக 115
▁---- 115
▁Mar 115
▁அரிஸ 115
▁உறுதிமொழி 115
▁ஒழித 115
▁குறையை 115
▁சமய 115
▁ஜெ 115
▁டவிரோதமாக 115
▁டுவருவ 115
▁தகுதி 115
▁திகளும 115
▁தியிலும 115
▁திரள 115
▁தூ 115
▁தூதரக 115
▁தேகிக 115
▁படிந 115
▁பிரதாய 115
▁போலீச 115
▁மோவாப 115
▁யலாம 115
▁யூனிச 115
▁வளத 115
▁விவரிக 115
g 114
ine 114
ாமை 114
ியாகக 114
ியிடம 114
ுவதும 114
▁In 114
▁UAW 114
▁ஆசை 114
▁இழிவுபடுத 114
▁உடைக 114
▁கலத 114
▁கூடங 114
▁கைகளால 114
▁சியங 114
▁சியோனிச 114
▁செர 114
▁சேரும 114
▁டற 114
▁டினான 114
▁டியிடும 114
▁டுவருவதற 114
▁தாவது 114
▁துருவ 114
▁தூதன 114
▁நடமாட 114
▁நாயகனாக 114
▁பதினைந 114
▁பரிசு 114
▁பாணியில 114
▁பினரான 114
▁பெனி 114
▁போராடும 114
▁மகிம 114
▁மூலப 114
▁வயதில 114
▁வருஷ 114
▁ஹம 114
ers 113
ist 113
இந 113
ஓ 113
ானம 113
ிவு 113
ேசத 113
ையத 113
ைவு 113
▁அணுகுமுறை 113
▁அரபாத 113
▁அவைகளுக 113
▁உறுதிமொழ 113
▁ஒருமித 113
▁ஓல 113
▁கடின 113
▁களினதும 113
▁கிகளின 113
▁கெனவே 113
▁சரவை 113
▁சாதன 113
▁சாஸ 113
▁சிறை 113
▁செலவின 113
▁சேகரிக 113
▁டலில 113
▁ததினால 113
▁தனைகள 113
▁தபடியால 113
▁தபால 113
▁தாராள 113
▁திவைக 113
▁துரை 113
▁நடுவிலே 113
▁நிலவரம 113
▁நேரிடும 113
▁பணிநீக 113
▁பலவித 113
▁பிரமுகர 113
▁புங 113
▁முழுப 113
▁மூடிய 113
▁றோ 113
▁விதமாய 113
ne 112
p 112
நில 112
னையும 112
பத 112
ாருக 112
▁அரசியலை 112
▁அரசுகளின 112
▁எ 112
▁ஒருபுறம 112
▁கிறதுபோல 112
▁கூக 112
▁கூறிவிட 112
▁கெ 112
▁கொங 112
▁சியுற 112
▁சுங 112
▁ஜான 112
▁டீன 112
▁தமிழக 112
▁தைகளையும 112
▁நமிதா 112
▁பசும 112
▁பசுமை 112
▁பரலோகத 112
▁பாணத 112
▁பிஸ 112
▁மங 112
▁மப 112
▁மாநகர 112
▁மொ 112
▁றதும 112
▁லாதது 112
▁வஞ 112
▁விடயம 112
▁விளிம 112
ut 111
é 111
ாயத 111
ோவிற 111
▁அசட 111
▁அணுகுமுற 111
▁அதினால 111
▁அவைகளில 111
▁ஆசனங 111
▁உறுமய 111
▁கடவாய 111
▁கதாநாயகனாக 111
▁கலுக 111
▁களானால 111
▁குவைத 111
▁கூறின 111
▁கூறினால 111
▁கூல 111
▁கொளுத 111
▁சிகளுடன 111
▁டணியை 111
▁டாவதாக 111
▁திரித 111
▁திரியான 111
▁தீவிரவாதிகள 111
▁நிமிடங 111
▁நிராகரிப 111
▁நிழல 111
▁படுகொல 111
▁புருஷ 111
▁பூஜ 111
▁போகலாம 111
▁போதுள 111
▁மதம 111
▁மாநிலம 111
▁ரணவிரு 111
▁ரோக 111
▁லாச 111
▁லைகள 111
▁லையே 111
▁வலைப 111
▁வெளிநிலங 111
▁வேறே 111
னங 110
முடியும 110
ரீதியான 110
வாதம 110
ிகளிலும 110
ுறையில 110
ூச 110
ேஷன 110
▁IMF 110
▁UN 110
▁_ 110
▁அடைமான 110
▁இடித 110
▁இருபதாம 110
▁இருள 110
▁ஏல 110
▁ஏழைகள 110
▁கமிட 110
▁கரின 110
▁கியும 110
▁குறைவூதிய 110
▁சிகளான 110
▁சீமான 110
▁டனத 110
▁ணில 110
▁தரவேண 110
▁திமோர 110
▁தியால 110
▁திரீய 110
▁துறைமுகத 110
▁துஷ 110
▁தொடுப 110
▁பாடுபட 110
▁பிரிவுகளை 110
▁பெறுகிறது 110
▁பேதுரு 110
▁மஹ 110
▁ரஜினியின 110
▁றுகொண 110
▁வெவ 110
50 109
om 109
ணிக 109
யா 109
ாகவே 109
ாகிலும 109
ிலை 109
ோனுக 109
▁600 109
▁ஆகக 109
▁எளிதில 109
▁கியமானது 109
▁கூத 109
▁கெளரவ 109
▁கொரில 109
▁சாமி 109
▁சியிலிருந 109
▁ஞாயிற 109
▁டபடி 109
▁ததைவிட 109
▁தாபித 109
▁திரிகள 109
▁துதேசத 109
▁துவமனையில 109
▁நச 109
▁பகுதிகளுக 109
▁பரிமாற 109
▁புனித 109
▁மாறி 109
▁முறிந 109
▁மூலதன 109
▁மோசம 109
▁யோவாப 109
▁ரட 109
▁லைய 109
▁ளபடி 109
▁வசூல 109
▁வதிக 109
▁வருகிறேன 109
▁வழிகளில 109
▁ஷா 109
வியல 108
ிண 108
▁அதேபோன 108
▁ஆவணத 108
▁இனங 108
▁உயரும 108
▁கமர 108
▁கரம 108
▁கானிய 108
▁கிரி 108
▁கிவிடும 108
▁சேகா 108
▁சொப 108
▁ஜாதிக 108
▁ஜியாங 108
▁டிராத 108
▁ததைப 108
▁தினங 108
▁தீவுகள 108
▁துவின 108
▁தோப 108
▁தோறும 108
▁நாமம 108
▁நிலையின 108
▁நீயும 108
▁பாகப 108
▁பிளேயரின 108
▁மோதலில 108
▁ரவேலுக 108
▁வலிமையை 108
▁விதி 108
▁ஷிற 108
ac 107
man 107
un 107
ருப 107
வருக 107
▁News 107
▁அதிகாரிகளை 107
▁அதிகாரியான 107
▁அனுபவித 107
▁அபத 107
▁அரேபிய 107
▁அவரைத 107
▁ஆயிற 107
▁ஆவி 107
▁இண 107
▁உறுதியளிக 107
▁ஏழாம 107
▁கருதி 107
▁காவிட 107
▁கிளிண 107
▁குமே 107
▁கோலா 107
▁சடலங 107
▁சுவா 107
▁டிடம 107
▁டையிலே 107
▁தலைமுறை 107
▁தானிலும 107
▁தேவைகள 107
▁தேவையை 107
▁நாஜிக 107
▁நெட 107
▁பணிபுரிந 107
▁புறங 107
▁பொறும 107
▁போலும 107
▁மிர 107
▁மொழிகள 107
▁மோர 107
▁றுபட 107
▁விசுவாச 107
▁விதிகளை 107
▁வேளையில 107
▁ஹங 107
உ 106
திகளை 106
தைத 106
பிர 106
வுகள 106
ைவில 106
▁1983 106
▁41 106
▁ஆலைகள 106
▁ஆலையில 106
▁இராஜிநாமா 106
▁உடைந 106
▁உரையை 106
▁கருதுகிறது 106
▁கிங 106
▁குடிய 106
▁சாயங 106
▁சினேகா 106
▁சோக 106
▁ணுகிற 106
▁ததையும 106
▁தாயின 106
▁தோஷப 106
▁நாஜி 106
▁பலமுறையும 106
▁பாஷ 106
▁பூமி 106
▁முறையிட 106
▁யாவிற 106
▁ளையிட 106
▁விடுதல 106
▁வுடன 106
ேந 105
▁..... 105
▁02 105
▁2013 105
▁ஆதரவில 105
▁ஆயுதமேந 105
▁உயிரோடிருக 105
▁எருசலேமில 105
▁கடினமாக 105
▁கையால 105
▁சமாளிப 105
▁சியைத 105
▁சுமி 105
▁செயலாக 105
▁ஜேம 105
▁ஞானிகள 105
▁டபுள 105
▁டுதான 105
▁டைரக 105
▁தலாம 105
▁திரவத 105
▁திரீகள 105
▁தைந 105
▁தோள 105
▁நீளம 105
▁னிட 105
▁பிளவு 105
▁பொழுதுள 105
▁போவதாகவும 105
▁மனச 105
▁மனு 105
▁மறியல 105
▁முறையே 105
▁லியம 105
▁வறும 105
▁விளைவிக 105
▁ஹில 105
---- 104
30 104
ah 104
பக 104
வருமான 104
ாரர 104
ாலத 104
ியரும 104
ுகிறான 104
ோரின 104
▁அபிஷேகம 104
▁இடைப 104
▁இளைப 104
▁உருவாகியுள 104
▁எழ 104
▁கனவு 104
▁குதிர 104
▁கூடாரங 104
▁கூடியது 104
▁கேரள 104
▁கொலைகள 104
▁சலோம 104
▁சையான 104
▁சோன 104
▁டனுடன 104
▁டுமன 104
▁டெய 104
▁தபடியினால 104
▁திகளையும 104
▁தினான 104
▁தியோக 104
▁நீதிப 104
▁னாலே 104
▁பாழாக 104
▁பிரிவுகளின 104
▁பெசன 104
▁பெரியார 104
▁மகிமைப 104
▁முடியாதது 104
▁மையைத 104
▁மொன 104
▁வாயில 104
▁விளைந 104
▁விவசாயத 104
▁வெடிகுண 104
▁வெறுத 104
J 103
யன 103
ாயா 103
ிடமும 103
ிவர 103
ையா 103
▁--- 103
▁000 103
▁20,000 103
▁இடையேயான 103
▁இயேசுகிறிஸ 103
▁ஒ 103
▁கலாசார 103
▁களிலேயே 103
▁காரரும 103
▁கினான 103
▁குமாரரும 103
▁கோடிக 103
▁கோபின 103
▁ஞாயிறு 103
▁டரை 103
▁தலைமைக 103
▁தவாத 103
▁தேவைக 103
▁பயணிகள 103
▁பாவத 103
▁பிடுகிறது 103
▁பேசுகையில 103
▁பொழுதுதான 103
▁முழுத 103
▁யாதொரு 103
▁லாபொன 103
▁ளாராம 103
▁விடக 103
▁வீடியோ 103
▁வெளிநாடுகளில 103
ul 102
மாயிற 102
லத 102
வுடன 102
ாதான 102
ாரும 102
ிசம 102
▁1994 102
▁44 102
▁அரமன 102
▁ஆகியோரும 102
▁ஆயுதக 102
▁ஆரோன 102
▁ஆவணம 102
▁இசையமைத 102
▁இரவில 102
▁ஈரானில 102
▁உதவியுடன 102
▁ஒருமுறை 102
▁கமிஷன 102
▁கவச 102
▁கோரப 102
▁சமூகநல 102
▁ஜின 102
▁ஜொஸ 102
▁டாயமாக 102
▁டோபரில 102
▁தலைநகரான 102
▁திரரில 102
▁தீவிரம 102
▁நலம 102
▁நிறைவு 102
▁நிலைகள 102
▁னிந 102
▁பழைமைவாத 102
▁பாடலுக 102
▁பாலத 102
▁பிரசன 102
▁பிலான 102
▁பெறவேண 102
▁மைகளை 102
▁ரமேஷ 102
▁ரோந 102
▁லாரையும 102
▁வளாகத 102
▁வழியே 102
▁விசாரணைகள 102
▁வியாழக 102
▁வெளியேறும 102
0,000 101
ak 101
ra 101
சில 101
தென 101
ிதத 101
▁250 101
▁BBC 101
▁அறக 101
▁அளவை 101
▁அழிவுகரமான 101
▁ஆகியோருக 101
▁கடவீர 101
▁கணிசமாக 101
▁கவிஞர 101
▁சாரங 101
▁செழிப 101
▁சேவகர 101
▁திகரிப 101
▁திசைதிருப 101
▁துறையை 101
▁தூய 101
▁தேடுதல 101
▁பவல 101
▁பிடி 101
▁பிறக 101
▁மறைமுக 101
▁மையப 101
▁ரே 101
▁றுநோய 101
▁வதும 101
▁வருடாந 101
▁விடுவித 101
▁விநியோகிக 101
▁வேறுபாட 101
▁ஹைய 101
தியை 100
பர 100
மாகத 100
ளவில 100
ழு 100
வைப 100
ாகியிருக 100
ாலம 100
ாளி 100
ோஷ 100
▁nbsp 100
▁அலை 100
▁அழுக 100
▁இரதங 100
▁இவைகள 100
▁உலகிலேயே 100
▁எமக 100
▁எள 100
▁கருதிய 100
▁கிரகத 100
▁குரோத 100
▁கோலிச 100
▁சகம 100
▁ஜோசப 100
▁டயம 100
▁டிவிடும 100
▁தபடி 100
▁தலங 100
▁தாபனங 100
▁திரவ 100
▁திரோபாய 100
▁துங 100
▁தெரியவந 100
▁நலனுக 100
▁நினைவ 100
▁நிலைமைக 100
▁நிலைமையின 100
▁நீத 100
▁னைவிட 100
▁படியொரு 100
▁பிரதிநித 100
▁புவித 100
▁பெருமளவு 100
▁பேரத 100
▁மோசேக 100
▁யாமல 100
▁ரேயா 100
▁றினால 100
▁லே 100
▁ளீர 100
▁வாசித 100
▁விரைந 100
▁வேதன 100
▁ஹூசைன 100
ang 99
இன 99
பல 99
ாயக 99
ாயிரத 99
ினும 99
▁1,000 99
▁1993 99
▁dir 99
▁அதிகாரியாக 99
▁இருவருக 99
▁ஒதுங 99
▁கடாக 99
▁கடைச 99
▁கவோ 99
▁குகளும 99
▁குழுவும 99
▁சேவைகளை 99
▁ஜனதா 99
▁தரவில 99
▁தாபிப 99
▁திரமற 99
▁தெ 99
▁தோண 99
▁நிறுவகம 99
▁னுடன 99
▁பதையே 99
▁பாவி 99
▁பிளவுபடுத 99
▁பெயரிடப 99
▁பேசின 99
▁போதுதான 99
▁முடிவெடுக 99
▁ரஸ 99
▁ளுமாறு 99
▁வறுமைக 99
▁வாறிருப 99
▁வெறுமனே 99
▁ஸல 99
w 98
இது 98
மாயிருப 98
ரத 98
ாயிர 98
ினி 98
ினை 98
ீஷ 98
ையாகக 98
ைவர 98
▁700 98
▁Co 98
▁See 98
▁அரசகரும 98
▁இதுபற 98
▁எழுதுகிறார 98
▁எவருக 98
▁காயப 98
▁கியதில 98
▁குவதன 98
▁கோருவ 98
▁சிலவற 98
▁ஜனவரியில 98
▁டனுடைய 98
▁டியதில 98
▁தீக 98
▁துடனான 98
▁துரோக 98
▁துரோகம 98
▁நெர 98
▁னியா 98
▁பனைக 98
▁புவதாக 98
▁பேரினவாதத 98
▁மையுள 98
▁மோதலை 98
▁லைன 98
▁ளமை 98
▁வணிகம 98
▁வானொலி 98
▁வினாக 98
shtml 97
கட 97
கி 97
துக 97
ேனும 97
▁1950 97
▁46 97
▁54 97
▁IG 97
▁National 97
▁அறியாத 97
▁இணையத 97
▁ஏட 97
▁ஒருநாள 97
▁ஓக 97
▁கனடா 97
▁கமைக 97
▁கொ 97
▁கோம 97
▁கோஷ 97
▁சினிம 97
▁சிறும 97
▁செலவிடப 97
▁தயவு 97
▁துவிடக 97
▁நாடகம 97
▁படமாட 97
▁பாடலை 97
▁மைதான 97
▁வாசம 97
▁வூதியம 97
▁வெளிவரும 97
te 96
செய 96
வக 96
ாசன 96
ிவந 96
ொடுத 96
▁3,000 96
▁55 96
▁அபாயத 96
▁இயலும 96
▁உகந 96
▁எற 96
▁களதும 96
▁காலவரையற 96
▁கிம 96
▁கீ 96
▁குடிகள 96
▁கோயில 96
▁சோதன 96
▁டளவில 96
▁டஸ 96
▁டாந 96
▁டுமானத 96
▁டையாட 96
▁தகு 96
▁தரிடத 96
▁தரிப 96
▁தாவின 96
▁துமே 96
▁தெரிவு 96
▁தைகளும 96
▁நத 96
▁நர 96
▁பதுபோல 96
▁பாகம 96
▁பாலங 96
▁பிரேம 96
▁புருஷன 96
▁பெறுவது 96
▁மரபார 96
▁மலையாளத 96
▁மொழிக 96
▁ரியின 96
▁றொடர 96
▁லாட 96
▁லாதவன 96
▁ளல 96
▁வடிவமைக 96
▁வதந 96
▁வரத 96
▁வருவதால 96
les 95
pe 95
மடைந 95
லட 95
ைகளால 95
ைட 95
▁Q 95
▁அசுத 95
▁அறிவு 95
▁அவனைச 95
▁ஆதார 95
▁உதவிப 95
▁உரத 95
▁உலகந 95
▁எழுதியிருந 95
▁கருப 95
▁கலகம 95
▁களோடும 95
▁கிரசின 95
▁குகளையும 95
▁கையைக 95
▁கோடம 95
▁கோபி 95
▁சாதனை 95
▁சாதாரணமாக 95
▁சுமந 95
▁டட 95
▁டாப 95
▁டினை 95
▁டுமான 95
▁டுவெடிப 95
▁ததாகும 95
▁ததியார 95
▁தமாய 95
▁தயாராகி 95
▁தலைமையை 95
▁தியதாக 95
▁தியாவசிய 95
▁நியன 95
▁நியமனம 95
▁படைகளும 95
▁பாளருக 95
▁பிணைப 95
▁பையன 95
▁மகளிர 95
▁ரீத 95
▁றவாளிகள 95
▁லியின 95
▁வதித 95
▁வரிகள 95
▁வழிக 95
▁விநியோகஸ 95
▁வெயில 95
.6 94
80 94
au 94
சந 94
ாபின 94
ிகளான 94
ியாமல 94
▁அவங 94
▁ஆகியோரின 94
▁ஆதரவளித 94
▁இறையாண 94
▁உறுதிபடுத 94
▁உளவு 94
▁எவன 94
▁ஏகபோக 94
▁ஏவுகணை 94
▁கானது 94
▁கிறத 94
▁குறியீட 94
▁சதி 94
▁சிரஞ 94
▁ஜனாதிபதிய 94
▁டபடியே 94
▁டாச 94
▁டியலை 94
▁டியாக 94
▁டுரையை 94
▁தனைகளை 94
▁தலையில 94
▁தாமதம 94
▁திவிடும 94
▁தெளிவு 94
▁தொழிலில 94
▁நியாயங 94
▁பணிமுட 94
▁பதாவது 94
▁பதி 94
▁பதிலடி 94
▁பிரபுத 94
▁பிறகே 94
▁பொருளாதாரங 94
▁பொறியியல 94
▁மிஞ 94
▁முறிய 94
▁யோசபாத 94
▁லாதிருந 94
▁வடகொரியா 94
தைப 93
நிலை 93
னா 93
ாகியுள 93
ுவை 93
ைகளாக 93
▁05 93
▁100,000 93
▁1992 93
▁43 93
▁Union 93
▁இராதபடிக 93
▁உடம 93
▁உறவை 93
▁கருதும 93
▁காணக 93
▁குந 93
▁சகோதரனாகிய 93
▁சனைக 93
▁சராக 93
▁சீரழிந 93
▁டொனால 93
▁தனைக 93
▁தருளும 93
▁தாவீதுக 93
▁திரசேகர 93
▁திரிகா 93
▁தூதரகத 93
▁தெய 93
▁நடைபெறவிருக 93
▁நியாயந 93
▁னோடியில 93
▁படுவதுடன 93
▁பயத 93
▁புலப 93
▁புவிட 93
▁போலன 93
▁மஞ 93
▁முள 93
▁ராட 93
▁றிலிருந 93
▁ளைக 93
▁வணிகர 93
▁விகளை 93
▁விதமாக 93
▁விழுங 93
சிங 92
சோ 92
தினால 92
ாணி 92
ாதம 92
ீய 92
ொடுக 92
▁Ar 92
▁இனம 92
▁இராணுவவாதத 92
▁இருதரப 92
▁கடிந 92
▁கதவுகள 92
▁கினி 92
▁கொடி 92
▁சபையார 92
▁சினிமாவுக 92
▁சுனாம 92
▁ஜெபம 92
▁டரசாங 92
▁ததே 92
▁தமற 92
▁திகளில 92
▁தியடைந 92
▁தியையும 92
▁துறைமுக 92
▁தொகையின 92
▁பாராத 92
▁பிராய 92
▁பிரெட 92
▁புகிற 92
▁புவிடுத 92
▁பேரழிவிற 92
▁போவது 92
▁மதுரை 92
▁முதலாவதாக 92
▁யூனிட 92
▁லான 92
▁வப 92
▁ஷியல 92
▁ஹீரோக 92
ry 91
um 91
ஜன 91
வராக 91
ையல 91
ையுடைய 91
▁1968 91
▁ஆயிரத 91
▁இடமின 91
▁உதவிகள 91
▁ஒக 91
▁ஒஸ 91
▁காலனி 91
▁சுகாதாரத 91
▁செளதி 91
▁சோப 91
▁டையை 91
▁தலைவருமான 91
▁துயர 91
▁துவமனை 91
▁துவிடப 91
▁தேடிக 91
▁நிவாரண 91
▁படுவ 91
▁படுவத 91
▁படையாகவே 91
▁பரஸ 91
▁பழம 91
▁பாகவே 91
▁பாடுகளில 91
▁பிடுங 91
▁பிரதி 91
▁பீமா 91
▁பூமியில 91
▁பெருமளவிற 91
▁பொஸ 91
▁மதில 91
▁முதலமைச 91
▁முனைப 91
▁முழங 91
▁றாய 91
▁லவர 91
▁லியிருக 91
▁ளதாம 91
▁வயத 91
▁வலதுசார 91
▁விரைவான 91
▁ஹென 91
.7 90
.8 90
ach 90
ed 90
ll 90
கல 90
ஜா 90
தியில 90
வுப 90
ியாவுடன 90
ுதிய 90
▁2,000 90
▁57 90
▁Com 90
▁அதிப 90
▁ஆரோக 90
▁இணை 90
▁இழ 90
▁இழிவான 90
▁உடுத 90
▁ஓச 90
▁கமாய 90
▁காரணமாகும 90
▁கீழறுக 90
▁குணம 90
▁குநர 90
▁கூறுவதற 90
▁சராசரியாக 90
▁சிதம 90
▁சியினால 90
▁செனி 90
▁ஜீவ 90
▁தரையில 90
▁தரையிலே 90
▁தியன 90
▁துகிறேன 90
▁தேசியவாதத 90
▁நாடுகளுடன 90
▁நேபுகாத 90
▁நொறுக 90
▁னன 90
▁படைகளால 90
▁பனிப 90
▁பனுடைய 90
▁பரவல 90
▁புவார 90
▁பெருகும 90
▁போதுமே 90
▁மிய 90
▁மூண 90
▁யுங 90
▁வாறாயினும 90
▁விரிவ 90
j 89
wsws 89
x 89
விருக 89
ாயினும 89
ிதா 89
ொழ 89
▁47 89
▁JUSTIFY 89
▁UTI 89
▁Zeitung 89
▁அனுபவிக 89
▁அனைவர 89
▁இதைக 89
▁இலவச 89
▁ஊடுருவ 89
▁கதாநாயக 89
▁கமே 89
▁கமைப 89
▁குடைய 89
▁குலைக 89
▁சதுக 89
▁சூழலில 89
▁செலவை 89
▁சேகரிப 89
▁ஜூலையில 89
▁டமொன 89
▁டிகளை 89
▁டுகளும 89
▁டுகால 89
▁தாரும 89
▁தினரின 89
▁திரனே 89
▁தெளிவற 89
▁தோஷத 89
▁நாளுக 89
▁நிதிப 89
▁பாராக 89
▁புலிகளுடனான 89
▁பெருமளவிலான 89
▁பெருவணிக 89
▁பேல 89
▁பைச 89
▁மாணவ 89
▁மிஷ 89
▁வகிப 89
▁விதம 89
▁விழாவை 89
▁வேலையற 89
▁ஷரோனின 89
com 88
em 88
டைவ 88
மின 88
ளத 88
ானின 88
ாமா 88
▁AFL 88
▁அநேகமாக 88
▁அமைதியாக 88
▁அறிமுகமாகிறார 88
▁அலுவல 88
▁கரி 88
▁களுமே 88
▁கொலின 88
▁சமூகச 88
▁சவ 88
▁செலவழிக 88
▁செலவினம 88
▁சேத 88
▁ஜனநாயகவாதிகள 88
▁ஜாதிகள 88
▁டவேண 88
▁தெளிவாகக 88
▁நிதியச 88
▁நூறாயிரக 88
▁பகுதியாகும 88
▁பாதங 88
▁பிரிவுகளுக 88
▁புகை 88
▁பெறுதல 88
▁பேசுகிறார 88
▁போரைத 88
▁மலையின 88
▁மூலதனம 88
▁லியில 88
▁லுஸ 88
▁லோக 88
▁வராத 88
▁வலதுக 88
▁வளரும 88
▁விஜே 88
▁ஹோவார 88
.9 87
ge 87
துமில 87
ாவே 87
ியவர 87
ூஸ 87
ையொன 87
▁1.5 87
▁5,000 87
▁52 87
▁64 87
▁Lutte 87
▁X 87
▁அடையாளத 87
▁அரசியலின 87
▁ஆதாரத 87
▁இசைக 87
▁இதயத 87
▁இராணுவவாதம 87
▁ஈடுபடும 87
▁ஒருக 87
▁கமுடியாது 87
▁கிகளை 87
▁கிரிக 87
▁கிரிஸ 87
▁கூறியிருப 87
▁கொரிய 87
▁கொலைப 87
▁ங 87
▁சியைப 87
▁சுவிட 87
▁டதையும 87
▁ணங 87
▁தனியே 87
▁தலைமைய 87
▁துபோய 87
▁நாண 87
▁நிலவுகிறது 87
▁நீடிப 87
▁நுழைவ 87
▁னோடி 87
▁படுகிறேன 87
▁பதைவிட 87
▁பலவீனமான 87
▁பாடசால 87
▁பாயிருக 87
▁பினைகளை 87
▁பிரேசில 87
▁புதுதில 87
▁புனர 87
▁பேரழிவை 87
▁மாநிலமான 87
▁மிருகஜீவன 87
▁மீறல 87
▁மூ 87
▁மூடிவிட 87
▁மையுடன 87
▁யோன 87
▁ரொக 87
▁றைச 87
▁லுக 87
▁லையை 87
▁ளாகியுள 87
▁வகுத 87
▁வறியவர 87
▁விலகிக 87
▁வீதி 87
▁வுகளின 87
▁ஷக 87
ஈ 86
ணத 86
யை 86
வந 86
வழ 86
வுத 86
ுவீர 86
ெம 86
ேயன 86
ையாகிலும 86
▁CSU 86
▁Monde 86
▁tamil 86
▁அதைவிட 86
▁அநேகம 86
▁அறிவேன 86
▁இதனைத 86
▁ஏழுநாள 86
▁காகச 86
▁காணாத 86
▁கிணைக 86
▁கியில 86
▁கிஷ 86
▁குங 86
▁கொடூர 86
▁கோரிய 86
▁டைன 86
▁ணுங 86
▁தடவை 86
▁தலைமைப 86
▁தலையை 86
▁தியாவ 86
▁திரியும 86
▁தேசங 86
▁தைகளைக 86
▁படமான 86
▁பனுக 86
▁பறித 86
▁பழி 86
▁பாடகர 86
▁பாவன 86
▁பிரகாரம 86
▁பிழ 86
▁பிஸியாக 86
▁புவிக 86
▁பொதுநல 86
▁மதச 86
▁மலர 86
▁மாதிரியான 86
▁மிட 86
▁முதுக 86
▁யாங 86
▁யாவுடன 86
▁யாவை 86
▁ரஃப 86
▁லையோ 86
▁ளதற 86
▁ளூராட 86
▁வளைந 86
▁வாரக 86
▁விடியற 86
▁விடை 86
▁விதைக 86
▁வீசி 86
▁வேசித 86
▁வொல 86
ஒரு 85
னி 85
ிகா 85
▁2003- 85
▁85 85
▁அதிகாரசபை 85
▁அறிமுக 85
▁ஆகாயத 85
▁உலகை 85
▁ஏவ 85
▁கஜினி 85
▁கமின 85
▁களாய 85
▁கிண 85
▁கிரிப 85
▁குறி 85
▁குழுவுக 85
▁கேருபீன 85
▁கொப 85
▁டாமல 85
▁டெண 85
▁ததாகக 85
▁தமாயிருக 85
▁தரைமட 85
▁தளபதிகள 85
▁தாவர 85
▁திறப 85
▁தோலிக 85
▁நிறைவ 85
▁நொ 85
▁பதாலும 85
▁பலின 85
▁பாரதிராஜா 85
▁பாரதீய 85
▁பிடுகின 85
▁பிரவரி 85
▁மனிக 85
▁யாவில 85
▁யூன 85
▁யோசன 85
▁ரவ 85
▁ராஜாவினிடத 85
▁ராப 85
▁றதை 85
▁றரை 85
▁லிருந 85
▁லெபனிய 85
▁வசதிய 85
▁வயதிற 85
▁வருகிறோம 85
▁வரைவு 85
▁வழிமுறைகள 85
▁விநியோக 85
▁விழும 85
▁வேடிவ 85
▁ஹக 85
-1 84
oc 84
தித 84
மாகப 84
ிசை 84
ுகிறத 84
ையப 84
▁அசாதாரண 84
▁அலி 84
▁ஆதரவான 84
▁இராம 84
▁ஈரானுடன 84
▁உடனான 84
▁உதவியது 84
▁உரையாட 84
▁ஊனமுற 84
▁எருசலேமிலே 84
▁எழுது 84
▁ஒழிய 84
▁கதரிசனம 84
▁கீகாரத 84
▁கூடம 84
▁கூடியிருந 84
▁கோரியது 84
▁சிபிஐ 84
▁சோதனைச 84
▁டதாவது 84
▁டரீதியான 84
▁டினரின 84
▁தனையின 84
▁னணியை 84
▁பணிகளில 84
▁பதவியேற 84
▁பனவுகள 84
▁பயணித 84
▁பிரயோகம 84
▁புதான 84
▁பெருமை 84
▁மீறிய 84
▁முதிர 84
▁முறையிலும 84
▁யுமாறு 84
▁யுவன 84
▁ராஜாவும 84
▁றவும 84
▁லமை 84
▁லாமற 84
▁விகளுக 84
▁விடுதலைக 84
▁விடுவ 84
▁வியாத 84
▁வுகளில 84
art 83
டு 83
லிருந 83
ைவிற 83
▁2, 83
▁2002- 83
▁FDP 83
▁ltr 83
▁ஆகியவையும 83
▁இடைவெளி 83
▁இவரை 83
▁உருவாகி 83
▁உறவுகளில 83
▁ஓரளவிற 83
▁கதையில 83
▁கரிக 83
▁கருண 83
▁கலம 83
▁கவலைகள 83
▁கிடமின 83
▁கிரமாய 83
▁கீகரித 83
▁கூறு 83
▁சரிவை 83
▁சோதனைகள 83
▁டசின 83
▁டாளிகள 83
▁டியத 83
▁தடையாக 83
▁ததுதான 83
▁திணித 83
▁திராத 83
▁திரிப 83
▁திரையுலக 83
▁துறைமுகங 83
▁தெரியாமல 83
▁தொகுதி 83
▁நிரூபணம 83
▁படுவதன 83
▁புதும 83
▁பெரிதாக 83
▁பேரழிவுகரமான 83
▁பையில 83
▁முதலீடுகள 83
▁லாததால 83
▁ளைகளுக 83
▁வதுடன 83
▁விரல 83
▁விரோதமான 83
▁வேறொன 83
ill 82
சங 82
ாவிலே 82
▁1948 82
▁1979 82
▁அமைதிப 82
▁அரசாண 82
▁அரசுகளுக 82
▁அருண 82
▁அறிமுகம 82
▁அவகாசம 82
▁அவசியத 82
▁எதிரே 82
▁ஏகமாய 82
▁கிறதென 82
▁கிளறிவிட 82
▁கூறியத 82
▁சரியம 82
▁சேகரித 82
▁ஜாம 82
▁டனைக 82
▁டுபேர 82
▁டைகளை 82
▁டைவிட 82
▁தாசனாகிய 82
▁தியாலங 82
▁நிகர 82
▁நிதியுதவி 82
▁நிதியை 82
▁நிலக 82
▁நேரமும 82
▁நோயாளர 82
▁படியானால 82
▁பதிவில 82
▁பாகால 82
▁பாலசிங 82
▁பிரசித 82
▁பேருந 82
▁மீரில 82
▁முரட 82
▁மேலை 82
▁யங 82
▁ரிப 82
▁றவாள 82
▁றியமையாத 82
▁லலாம 82
▁லவ 82
▁லேடன 82
▁வருவதாகவும 82
▁வலம 82
▁விவசாயிகளின 82
▁வேடங 82
▁ஸை 82
▁ஹூ 82
ag 81
ism 81
ue 81
செலவுத 81
ாடுகள 81
ையாகவும 81
ோவுக 81
▁03 81
▁1967 81
▁30,000 81
▁CPI 81
▁Gu 81
▁in 81
▁அனுமதிய 81
▁இதேபோல 81
▁ஏறெடுத 81
▁கடுத 81
▁கவிருக 81
▁கிகளும 81
▁குபவர 81
▁குமாரரையும 81
▁குரு 81
▁கையைத 81
▁கோரினார 81
▁சிறையிருப 81
▁சுமக 81
▁சோனியா 81
▁டலங 81
▁டுரைகள 81
▁டேட 81
▁டோன 81
▁தசாவதாரம 81
▁தலையின 81
▁தழுவ 81
▁தாயிரக 81
▁தினசரி 81
▁தியமாக 81
▁திரேலியாவின 81
▁பாயி 81
▁பாலம 81
▁பாலோர 81
▁பியல 81
▁பிரசாத 81
▁பிரதிய 81
▁பிரிவினை 81
▁புரொடக 81
▁மயக 81
▁மரியாதை 81
▁யாரோ 81
▁ராலின 81
▁லூர 81
▁லெப 81
▁லோரும 81
▁வசிப 81
▁வணங 81
▁விடுவிப 81
▁வேக 81
▁வேரூன 81
▁ஷை 81
▁♪ 81
டைக 80
நாயக 80
முதல 80
ரி 80
ரிக 80
விர 80
ாகம 80
ாவாக 80
ுது 80
ெனில 80
▁Metall 80
▁அதுவே 80
▁அலன 80
▁இதுகாறும 80
▁இயேசுவ 80
▁இழிவ 80
▁உபத 80
▁ஒளி 80
▁கடேஷ 80
▁களாவர 80
▁கியாளர 80
▁கிரமாக 80
▁கிறதா 80
▁கூலி 80
▁கௌதம 80
▁சமூகக 80
▁சரகத 80
▁சரான 80
▁சாண 80
▁சிதைக 80
▁சினைகளுக 80
▁சியிலும 80
▁சீனாவை 80
▁சேலா 80
▁ஜீன 80
▁டிகளில 80
▁டிரைவர 80
▁தனிச 80
▁துவருகிறது 80
▁நடைமுறைகள 80
▁நாயகியாக 80
▁நிலைகளில 80
▁நேராக 80
▁படியோ 80
▁படுவதால 80
▁பயம 80
▁பளிக 80
▁பாதைகள 80
▁பாலசந 80
▁பிழைக 80
▁பீதிய 80
▁பூஜை 80
▁பெங 80
▁பொறுக 80
▁மதிய 80
▁மேலாளர 80
▁மொழிகளில 80
▁யோ 80
▁ரசிக 80
▁ரேக 80
▁றணவிரு 80
▁றபின 80
▁றியோ 80
▁லீக 80
▁லெனின 80
▁லைகளை 80
▁வடகிழக 80
▁வதென 80
▁விஜயத 80
▁விதிப 80
▁விழாக 80
▁வேடிக 80
CIO 79
ab 79
op 79
ri 79
ஆண 79
கப 79
டா 79
நாட 79
மாகவே 79
ாடு 79
ாதபடி 79
ுஸ 79
▁Sh 79
▁அறை 79
▁ஆதரவைத 79
▁இதைவிட 79
▁உலகச 79
▁எதை 79
▁ஏதோம 79
▁ஒருத 79
▁ஒருப 79
▁கடப 79
▁காவுக 79
▁கிலே 79
▁குறும 79
▁சபிக 79
▁சியுள 79
▁சுகாதாரம 79
▁சேவையில 79
▁டறிந 79
▁டலுக 79
▁டிகளையும 79
▁டுவதை 79
▁ணினேன 79
▁தகட 79
▁தகாத 79
▁தானியேல 79
▁தினுடைய 79
▁திருவ 79
▁தேடும 79
▁பரைக 79
▁பேரரசு 79
▁போதாது 79
▁மரக 79
▁முகாங 79
▁மெதுவாக 79
▁மையைப 79
▁மொழியில 79
▁ரவேலை 79
▁ரோசொப 79
▁றிகரமான 79
▁றியவர 79
▁றிலேயே 79
▁றுவதில 79
▁றேகன 79
▁ளுகிறது 79
▁வசனங 79
▁வழியிலே 79
▁வெளியிடும 79
, 78
ik 78
ke 78
ong 78
சால 78
னித 78
பாக 78
ிமை 78
ேஜ 78
ைவாத 78
ோடுங 78
▁1.2 78
▁800 78
▁அதிகாரிகளால 78
▁அதிபதிகள 78
▁அனுபவ 78
▁அமைதியான 78
▁அலெக 78
▁அவசரமாக 78
▁அவசியமாகும 78
▁அவமதிப 78
▁ஆஃப 78
▁ஆதரவிற 78
▁ஆதரவோடு 78
▁ஆளாக 78
▁இடர 78
▁இடைவிடாமல 78
▁இஷ 78
▁கரிப 78
▁காணாமற 78
▁குமிடையே 78
▁கோவ 78
▁சபையை 78
▁சமுதாயம 78
▁ஜலத 78
▁டலை 78
▁டியான 78
▁டுடியோவில 78
▁டுபோக 78
▁டேர 78
▁திபன 78
▁தியல 78
▁திறமை 78
▁துட 78
▁தூரம 78
▁நிஜ 78
▁நேபாளத 78
▁படகு 78
▁படுவான 78
▁படைவீரர 78
▁பலிய 78
▁பாகச 78
▁பாடாக 78
▁பிவந 78
▁புபடுத 78
▁பெறுவோர 78
▁போகக 78
▁மானியங 78
▁மாவின 78
▁முர 78
▁ராஜாவாக 78
▁ரூஸ 78
▁றுகிறார 78
▁லாபம 78
▁ளங 78
▁வாற 78
▁விலையை 78
▁விளைபயன 78
▁வுபெற 78
▁வேகம 78
ep 77
se 77
கார 77
சிக 77
தா 77
தைக 77
பூர 77
முற 77
ிதல 77
ிவருவ 77
ீதியான 77
ீது 77
ுவாய 77
▁Ouvrière 77
▁அகில 77
▁அஜ 77
▁அதேநேரத 77
▁அருக 77
▁அவனும 77
▁ஆடம 77
▁ஆலோசனைக 77
▁இராஜ 77
▁உதவிகளை 77
▁உதாரணம 77
▁கடனை 77
▁கனம 77
▁குடாநாட 77
▁குலைந 77
▁கெம 77
▁சகோதரரே 77
▁சவுலின 77
▁சிருஷ 77
▁சிறைத 77
▁சுயாதீனமாக 77
▁சூழலை 77
▁ஜீவனைக 77
▁ஜுன 77
▁ஞாப 77
▁டுரையாளர 77
▁டோட 77
▁ததின 77
▁தனையற 77
▁தரவுகள 77
▁திடமிருந 77
▁திணிப 77
▁தோனேசிய 77
▁பதாம 77
▁பிசாச 77
▁பிரசுரங 77
▁புகலிடம 77
▁பூரண 77
▁பெருவ 77
▁போயிருக 77
▁முடிப 77
▁முறைய 77
▁யோச 77
▁ரிய 77
▁ரெக 77
▁விதிவிலக 77
▁விமலேஸ 77
▁வியத 77
▁விஷேட 77
▁வெளியாக 77
▁வெளியாகும 77
▁ஷில 77
19 76
டுப 76
திகளுக 76
முமான 76
ரீதியாக 76
வார 76
ாசி 76
ாதி 76
ியாகிய 76
ுகளைப 76
ுமன 76
ோகம 76
▁15- 76
▁IV 76
▁அழிவு 76
▁அவனோடே 76
▁இனக 76
▁ஒலிபரப 76
▁கஜ 76
▁களோடேகூட 76
▁குரலில 76
▁குறிவைத 76
▁கூறவேண 76
▁சகோதரரும 76
▁சிகன 76
▁செறிவூட 76
▁டமாகும 76
▁டாவ 76
▁தபடியே 76
▁தவான 76
▁தானிற 76
▁தாமதப 76
▁தாமே 76
▁தாயார 76
▁துவதும 76
▁தேய 76
▁நகல 76
▁நலத 76
▁னோடேகூட 76
▁பறிப 76
▁பலிக 76
▁பிரகடனத 76
▁புவின 76
▁பெருவணிகத 76
▁பொழுத 76
▁போவார 76
▁மலைக 76
▁மிகுதிய 76
▁ரோட 76
▁றையதினம 76
▁றொன 76
▁லச 76
▁வதால 76
▁வாகமானது 76
▁விடுமுறை 76
▁வுநாள 76
▁வேத 76
all 75
az 75
தோ 75
யிர 75
றுப 75
ாசின 75
ிதம 75
ிரி 75
ையிலான 75
ையொட 75
ைவின 75
▁120 75
▁62 75
▁அசீர 75
▁அமைதிக 75
▁இருண 75
▁இருவரையும 75
▁இவைகளை 75
▁உயிரோடே 75
▁எஃகு 75
▁எதிரி 75
▁கடிகள 75
▁கலில 75
▁கிரப 75
▁கிறைஸ 75
▁கைகளைக 75
▁கைகளைத 75
▁சனையில 75
▁சரசத 75
▁சாலைகளில 75
▁சினைக 75
▁சிரேஷ 75
▁சுகந 75
▁சொஸ 75
▁சோதிக 75
▁ஜோ 75
▁டவணை 75
▁டைய 75
▁ணக 75
▁ணு 75
▁தடுமாற 75
▁தரைத 75
▁திகதிய 75
▁துவிளக 75
▁தெரியப 75
▁தேவனால 75
▁தொலைநகல 75
▁தொலைபேசியில 75
▁தொழ 75
▁நிலவிய 75
▁நெ 75
▁நேரடியான 75
▁னதென 75
▁பதிவுசெய 75
▁பயனுள 75
▁பாலுமகேந 75
▁பிராக 75
▁போஜனம 75
▁போலீஸார 75
▁மனந 75
▁மாளிக 75
▁மூடல 75
▁மூள 75
▁மேடையில 75
▁மையுடைய 75
▁யாவ 75
▁ராஜாவை 75
▁றவில 75
▁லூஜா 75
▁லைத 75
▁லொஸ 75
▁ளியில 75
▁வடிவம 75
▁வதேசிய 75
▁வரன 75
▁வழிவகைகள 75
▁வானங 75
▁விரித 75
▁விருட 75
▁விவசாயிகளுக 75
▁வெக 75
▁வேலைகளில 75
11 74
ice 74
ok 74
ter 74
டங 74
துதான 74
ரண 74
ரன 74
ழி 74
வையாக 74
வையாகும 74
ாயம 74
ாவதற 74
ியாவிலும 74
ிழா 74
ீற 74
ுவதால 74
ையாட 74
▁2000- 74
▁அழகிய 74
▁ஆதரவும 74
▁இயைந 74
▁இரவும 74
▁உடைம 74
▁உதய 74
▁உரிமைகளையும 74
▁உறுதிசெய 74
▁எனினும 74
▁எழுபது 74
▁ஒருவரின 74
▁களாகவே 74
▁களாயிருக 74
▁களினிமித 74
▁கியவான 74
▁கிறதை 74
▁குசாமி 74
▁குறையும 74
▁கொழுப 74
▁கோருகிறது 74
▁சகலவித 74
▁சரீரத 74
▁சேதம 74
▁டறிக 74
▁டாளி 74
▁டுகொள 74
▁ணுக 74
▁திசெய 74
▁தியாகிய 74
▁திருகோணமலை 74
▁தீயணைப 74
▁துறைகள 74
▁தூத 74
▁தூபங 74
▁நினைவில 74
▁நிம 74
▁நிலைகளை 74
▁படாமலும 74
▁பனி 74
▁புமையில 74
▁மனுஷ 74
▁மாறான 74
▁மேஜர 74
▁யாவுக 74
▁ரேய 74
▁றதொரு 74
▁லஸ 74
▁லாரி 74
▁வடிவ 74
▁விடுகின 74
▁விபரம 74
▁விரக 74
▁வீடுகளுக 74
டுகின 73
ாரண 73
ாலி 73
ாவைக 73
ைபெற 73
ையன 73
▁04 73
▁08 73
▁200,000 73
▁51 73
▁II 73
▁அபிப 73
▁அவைகளைப 73
▁இடப 73
▁இலையுதிர 73
▁உடையது 73
▁எவனோ 73
▁கமுடியும 73
▁கரும 73
▁கலப 73
▁களினாலும 73
▁கழுவ 73
▁காலன 73
▁கிரமசால 73
▁கிரியைகள 73
▁கிவரும 73
▁குவாண 73
▁கூடார 73
▁கெயின 73
▁கொச 73
▁சலாக 73
▁சலை 73
▁சியைச 73
▁சீல 73
▁சுழற 73
▁டதல 73
▁டுமானால 73
▁டைச 73
▁ணய 73
▁ணுகிறார 73
▁தரால 73
▁தருவதாக 73
▁தினருக 73
▁தினரும 73
▁திறமையான 73
▁தையைக 73
▁நகைச 73
▁நீள 73
▁நுழைய 73
▁நோயாள 73
▁பனின 73
▁பரங 73
▁பாகங 73
▁பெறாத 73
▁பேரின 73
▁மாதாந 73
▁முடிவுற 73
▁முயலும 73
▁மையினருக 73
▁யாச 73
▁யூட 73
▁ரீதியாகவும 73
▁லனாக 73
▁வராமல 73
▁வீற 73
▁ஹுசைன 73
.00 72
10 72
15 72
5- 72
aw 72
ite 72
ly 72
ow 72
குமார 72
சதவீதம 72
டியும 72
ரப 72
றி 72
று 72
ாதிருக 72
ூறு 72
▁15,000 72
▁1964 72
▁1981 72
▁2001- 72
▁40,000 72
▁56 72
▁ETA 72
▁Ind 72
▁அசாதாரணமான 72
▁அபிஷேக 72
▁அறிகுறிகள 72
▁அழகான 72
▁அவைகளைக 72
▁ஆடியோ 72
▁இருட 72
▁உயிரிழப 72
▁உரிமைகளின 72
▁உரையாடல 72
▁எரேமியா 72
▁ஏஜென 72
▁ஒருவராக 72
▁ஓரங 72
▁கடிப 72
▁கதரிசிகள 72
▁கவுண 72
▁காரில 72
▁கிருபை 72
▁கிரெம 72
▁கிலடங 72
▁கேம 72
▁கையைப 72
▁கோலோ 72
▁சநீதிமன 72
▁சினைகளில 72
▁சிலுவைச 72
▁சேவைகளுக 72
▁சொர 72
▁ஜாதிகளுக 72
▁ஜார 72
▁டுகிற 72
▁டுவதன 72
▁திரரும 72
▁திருச 72
▁தோமஸ 72
▁நினைவுபடுத 72
▁நெறிப 72
▁படாவிட 72
▁படுகையில 72
▁பலருக 72
▁பலில 72
▁பாணம 72
▁பாவம 72
▁பினாலும 72
▁பிரிவிற 72
▁பேரண 72
▁பொருளாதாரச 72
▁போரும 72
▁மரியாத 72
▁மறைமுகமாக 72
▁முடிகிறது 72
▁மோசமடைந 72
▁ரிஷ 72
▁ரோய 72
▁றவன 72
▁ளிகளில 72
▁வரிகளை 72
▁வரிவிதிப 72
▁வலதுசாரிக 72
▁வாதிகளும 72
▁விரைவுபடுத 72
▁விழித 72
வம 71
வுண 71
ாதிருப 71
ீங 71
▁10- 71
▁72 71
▁அடர 71
▁ஆதரவுக 71
▁ஆயுதந 71
▁உடற 71
▁உதவுவதற 71
▁எதுவாக 71
▁ஏழைகளுக 71
▁ஒருவ 71
▁ஓடிய 71
▁கடலுக 71
▁கடுங 71
▁கதவை 71
▁கயிற 71
▁கலிலேய 71
▁கவிழா 71
▁காலையில 71
▁காவால 71
▁கிரீன 71
▁குய 71
▁குரங 71
▁குலைத 71
▁கோவின 71
▁சடங 71
▁சமுக 71
▁சரின 71
▁சரிப 71
▁சூறையாட 71
▁சேவையை 71
▁ஜோட 71
▁ஞானஸ 71
▁டவாறு 71
▁டவிரோதமான 71
▁டாரத 71
▁டியவர 71
▁டீஸ 71
▁டூ 71
▁தலைமையகத 71
▁திசையில 71
▁தியாகம 71
▁துவருகின 71
▁துவிடவில 71
▁தூங 71
▁நகருக 71
▁நடைபெறவுள 71
▁நாசம 71
▁நீல 71
▁பலமாக 71
▁பானவர 71
▁பிரிய 71
▁பிறகும 71
▁பிளாக 71
▁புதுமுகம 71
▁புவதை 71
▁பூத 71
▁பெலன 71
▁போகவேண 71
▁போகிறோம 71
▁மறுகட 71
▁மாறும 71
▁மையார 71
▁யாராவது 71
▁ரவரியில 71
▁ரூபன 71
▁றிணைந 71
▁வதங 71
▁வதோடு 71
▁வலயத 71
▁வாகி 71
▁விடம 71
▁வீசிய 71
▁வூதியத 71
▁வெர 71
▁வேள 71
▁ஷெர 71
▁ஹெர 71
காலத 70
பில 70
மாகி 70
லால 70
ுடனே 70
ுவதாகவும 70
ுவதுடன 70
▁1971 70
▁2004- 70
▁50,000 70
▁53 70
▁58 70
▁As 70
▁CP 70
▁Post 70
▁Spiegel 70
▁ஆனா 70
▁ஆழமடைந 70
▁இடைத 70
▁ஈரானை 70
▁எதேச 70
▁எரிந 70
▁ஒலிம 70
▁கமலின 70
▁களாம 70
▁காளை 70
▁கிவைத 70
▁குகிறவர 70
▁குமென 70
▁குழுவான 70
▁சதவிகிதமாக 70
▁சீமோன 70
▁சுருங 70
▁சேவைக 70
▁ஜனமாகிய 70
▁தமில 70
▁தாருக 70
▁தாலே 70
▁திரருடைய 70
▁துவமன 70
▁துவருவ 70
▁தேவனும 70
▁தேவா 70
▁நாசர 70
▁நாடுகளான 70
▁நார 70
▁நிலைமைகளின 70
▁பணிகளுக 70
▁பதிலிருந 70
▁பராமரிக 70
▁மசோத 70
▁மரியதாஸ 70
▁மாவோ 70
▁முடிவின 70
▁மெ 70
▁மேத 70
▁யென 70
▁ரங 70
▁றய 70
▁றிலுமாக 70
▁லாண 70
▁லிட 70
▁லியிருந 70
▁ளைகளும 70
▁வடகொர 70
▁வராது 70
▁விசுவாசிக 70
▁வியில 70
▁விளையாடு 70
▁வூட 70
TA 69
அரசியல 69
ாரா 69
ிராம 69
ேகூட 69
▁1947 69
▁Ne 69
▁Se 69
▁அகல 69
▁அதிச 69
▁அரஃபாத 69
▁அவனோடேகூட 69
▁ஆகிவிடும 69
▁ஆஜர 69
▁இசையில 69
▁இடதுகள 69
▁இனிமேல 69
▁இழுக 69
▁உய 69
▁எரியூட 69
▁ஒலி 69
▁கடமை 69
▁கடினம 69
▁கரண 69
▁கலிஃபோர 69
▁கலெக 69
▁காலில 69
▁காலும 69
▁கிரமான 69
▁கிரோஷ 69
▁கேசட 69
▁கைகளுடன 69
▁கையே 69
▁சதித 69
▁சமன 69
▁சயமாய 69
▁செவிகொட 69
▁சேதத 69
▁சேதப 69
▁சேவித 69
▁ஜோதிகா 69
▁டமிடல 69
▁தனைப 69
▁தளவாடங 69
▁தாராண 69
▁தியதற 69
▁தியதுடன 69
▁தியாவுக 69
▁திரிகையான 69
▁தெரு 69
▁தேசபக 69
▁தொகைகள 69
▁நடுவ 69
▁நடைபெறுகிறது 69
▁னதாகவே 69
▁படுகொலைக 69
▁படைந 69
▁பதாகத 69
▁பதிவேட 69
▁பதையிட 69
▁பரிசீலனை 69
▁பரிசீலிக 69
▁பிடம 69
▁பிரசுரித 69
▁பிரதமராக 69
▁புபட 69
▁புருஷர 69
▁பேரரச 69
▁போராடி 69
▁மணியளவில 69
▁மலை 69
▁மையற 69
▁மொழிந 69
▁ராஜபக 69
▁றதற 69
▁றுவரும 69
▁வகுக 69
▁வளைகுடாப 69
▁வாகங 69
▁வாரணம 69
▁வியாபாரத 69
▁வெளிவிவகார 69
▁ஷெல 69
TM 68
ent 68
சதவீத 68
மட 68
ாயாக 68
ிது 68
ிறி 68
ெத 68
▁82 68
▁Man 68
▁அடியேன 68
▁அமிதாப 68
▁அறிவுறுத 68
▁இதழில 68
▁உபகரணங 68
▁எதிரிகள 68
▁எதிரொலித 68
▁ஏவுகணைகள 68
▁ஒரேயொரு 68
▁ஒளித 68
▁கஞ 68
▁கதரிசி 68
▁கதாநாயகன 68
▁கருதுகிறார 68
▁கழ 68
▁கியூப 68
▁குடியேறுபவர 68
▁குமுறைக 68
▁குருவ 68
▁கேலிக 68
▁கையினால 68
▁கொழிப 68
▁சிஐஏ 68
▁சியா 68
▁சீத 68
▁சீனப 68
▁சுவிசேஷத 68
▁செயலாளரான 68
▁செலவழித 68
▁செலவினத 68
▁செலவுகளை 68
▁டாண 68
▁டுவார 68
▁டூழியங 68
▁டெட 68
▁ததியான 68
▁தவறிய 68
▁தியாவும 68
▁துவமனைக 68
▁தேதியன 68
▁நடைபெறுகின 68
▁நதிய 68
▁நாமில 68
▁நிதித 68
▁நுண 68
▁நெப 68
▁பளித 68
▁பாரதிய 68
▁பாழ 68
▁பிளவுகளை 68
▁புளிப 68
▁பெனிகள 68
▁போலியான 68
▁போவோம 68
▁மகிமை 68
▁மரபு 68
▁மிகையதார 68
▁முறைகேட 68
▁மெகா 68
▁மோசேயின 68
▁ரலில 68
▁றதில 68
▁லரசுகளின 68
▁வணிகப 68
▁விசை 68
▁விதிமுற 68
▁ஸிங 68
▁ஹெக 68
60 67
Y 67
தானது 67
லான 67
ாசம 67
ாதார 67
ாதிருந 67
ினான 67
ியற 67
ிருங 67
ுரத 67
ோகத 67
▁67 67
▁Bank 67
▁FBI 67
▁அசீரியா 67
▁அடைவ 67
▁அவதானிப 67
▁ஆலைகளில 67
▁இருவருமே 67
▁உயரத 67
▁கசிந 67
▁கதாநாயகி 67
▁கருவி 67
▁கருவிகளை 67
▁களாயிருந 67
▁கவலையை 67
▁காணித 67
▁காரருக 67
▁கிடம 67
▁கிளிநொச 67
▁குருதி 67
▁கேலா 67
▁சிகளால 67
▁சிதைத 67
▁சுகின 67
▁சுரேஷ 67
▁சூழப 67
▁செயலூக 67
▁ஞானம 67
▁டிவிடப 67
▁டையிட 67
▁ணனையாளர 67
▁தேகங 67
▁தேவனிடத 67
▁தோழ 67
▁நகரின 67
▁நூ 67
▁நெஞ 67
▁நெல 67
▁னடி 67
▁படுவீர 67
▁பதுங 67
▁பரித 67
▁பலியாக 67
▁பாபு 67
▁பாழாய 67
▁பாவநிவிர 67
▁பிராகாரத 67
▁பூண 67
▁போதைக 67
▁மனுஷரும 67
▁மரணதண 67
▁மோவாபின 67
▁ரணில 67
▁றுலா 67
▁லவும 67
▁லில 67
▁ளியுள 67
▁வசித 67
▁வடமேற 67
▁வனவு 67
▁வருமானங 67
▁வாலிபர 67
▁விடவும 67
▁வேறுவிதமாகக 67
▁வேலைப 67
▁வையை 67
▁ஹரி 67
ain 66
ric 66
ஜாத 66
மத 66
ாதிப 66
ிஞ 66
ிவில 66
ீண 66
ைவுகள 66
▁1978 66
▁1988 66
▁An 66
▁Ste 66
▁அணுகுமுறையை 66
▁அறநெறிப 66
▁அறையில 66
▁ஆரோனும 66
▁இனவாதத 66
▁இரைச 66
▁எடிட 66
▁எலிய 66
▁ஏச 66
▁கருணாநிதி 66
▁கலவரத 66
▁காடு 66
▁காரிய 66
▁கியதாக 66
▁கிறதே 66
▁கிளார 66
▁குபடுத 66
▁கையிலிருந 66
▁சள 66
▁சுல 66
▁சொ 66
▁சோதனையிட 66
▁டனையை 66
▁டூயட 66
▁டைபண 66
▁டையாடு 66
▁தடைவிதிக 66
▁தனியான 66
▁தமன 66
▁தலம 66
▁தானம 66
▁தாவீத 66
▁திரமும 66
▁திரமே 66
▁தீமை 66
▁தேசியவாதம 66
▁தோஷம 66
▁நகரான 66
▁நாராயணன 66
▁நாளாந 66
▁நாவ 66
▁நியப 66
▁னடைவு 66
▁னாக 66
▁னித 66
▁படர 66
▁பதானது 66
▁பதினால 66
▁பழுதுபார 66
▁பாவிலும 66
▁பிரப 66
▁பிரிவுகளும 66
▁பீதி 66
▁பீப 66
▁புவதில 66
▁பூஜா 66
▁போங 66
▁போயின 66
▁மரணமடைந 66
▁மாவோயிச 66
▁முறையிலான 66
▁யர 66
▁யாவரையும 66
▁யோசித 66
▁ரவேலில 66
▁ராத 66
▁ளித 66
▁ளைமாக 66
▁வருக 66
▁வருஷங 66
▁வலதுசாரிகள 66
▁வாதிகாரி 66
▁ஷியாவோ 66
he 65
ment 65
ov 65
கமாக 65
வாகும 65
ானார 65
ாரிகள 65
ாவல 65
ிடங 65
ியருடைய 65
ேயானால 65
ொக 65
ோயின 65
▁77 65
▁CPE 65
▁PASOK 65
▁width 65
▁அடிமைப 65
▁அணிதிரள 65
▁அதையும 65
▁இனவெறி 65
▁இவரும 65
▁இவள 65
▁உரைத 65
▁உறுதியுடன 65
▁உழைத 65
▁எவனும 65
▁ஓடிக 65
▁ஓடும 65
▁கடைசிப 65
▁கடைபிடிக 65
▁கதாய 65
▁கரைப 65
▁களங 65
▁காசாவில 65
▁கிரக 65
▁கீழும 65
▁கூடியத 65
▁கூறுவதாவது 65
▁கெரில 65
▁கையற 65
▁கோடை 65
▁கோழைத 65
▁சனின 65
▁சிகரமான 65
▁சினேக 65
▁சிமாநாடு 65
▁சீஷ 65
▁சேவிக 65
▁சோதித 65
▁ஜர 65
▁ஞ 65
▁டாராம 65
▁டிலேயே 65
▁தகுத 65
▁தடைய 65
▁தபொழுது 65
▁தலைத 65
▁தானியங 65
▁தாவரவியற 65
▁திகில 65
▁தியிருப 65
▁துகளை 65
▁துபோகும 65
▁நடன 65
▁நானம 65
▁நாளிதழ 65
▁நிதிச 65
▁நிதியப 65
▁நிலைமைகளில 65
▁நேசிக 65
▁பஷ 65
▁பாளரை 65
▁பாளிகள 65
▁பிபிசி 65
▁பிரபாகரன 65
▁பேசவில 65
▁போரினால 65
▁மனியும 65
▁மலைய 65
▁மீளக 65
▁முதலாக 65
▁முருகதாஸ 65
▁முழும 65
▁மூடுதிர 65
▁மொழிப 65
▁யூனியனின 65
▁ரீம 65
▁றுகை 65
▁லாரன 65
▁லுகின 65
▁வயதுள 65
▁வரவழைத 65
▁வறட 65
▁வளைத 65
▁வாதாட 65
▁வைரமுத 65
AC 64
io 64
od 64
டியில 64
வாச 64
ானுக 64
ிசத 64
ியவில 64
ுவோர 64
▁1, 64
▁20- 64
▁Die 64
▁Figaro 64
▁France 64
▁John 64
▁Socialist 64
▁img 64
▁src 64
▁ஃபத 64
▁அரசியற 64
▁ஆளுனர 64
▁இடதுசார 64
▁இனை 64
▁உதிர 64
▁ஊதியக 64
▁எவரையும 64
▁ஐயா 64
▁கபட 64
▁கமிஷனர 64
▁களையோ 64
▁கிரச 64
▁கிறதையும 64
▁கீம 64
▁குமிழ 64
▁குமுறையை 64
▁குருட 64
▁குறுதியளித 64
▁கூறியதை 64
▁கெடுக 64
▁கோச 64
▁சிருக 64
▁செயலகம 64
▁ஜனநாயகவாத 64
▁டதே 64
▁டியையும 64
▁டுமானம 64
▁தகராற 64
▁தகால 64
▁தலா 64
▁தலையும 64
▁தியதோடு 64
▁திரமின 64
▁திரியில 64
▁நடனம 64
▁நாடகத 64
▁னவ 64
▁பகுதியிலிருந 64
▁படமொன 64
▁படுபவை 64
▁படையினரின 64
▁பரிக 64
▁பருக 64
▁பாணக 64
▁பாதுகாவலர 64
▁பாரிச 64
▁பாளரும 64
▁பிடவில 64
▁பினேன 64
▁பிரபுதேவா 64
▁பிரஷாந 64
▁புவேன 64
▁பெருகியுள 64
▁போயிருந 64
▁போராடுவதற 64
▁போலிருக 64
▁மனாசேயின 64
▁மனுஷனுக 64
▁மாளவிகா 64
▁முதலிய 64
▁முறிக 64
▁மூடிமறைக 64
▁மொழிபெயர 64
▁யுரேனிய 64
▁யூரோப 64
▁ரீதியிலான 64
▁றலை 64
▁ளவ 64
▁ளேயும 64
▁விசார 64
▁ஸி 64
▁ஹோல 64
ast 63
ren 63
பீ 63
ருங 63
ளவிற 63
ுகூட 63
ைன 63
ைமை 63
▁11- 63
▁30- 63
▁60,000 63
▁95 63
▁PSOE 63
▁US 63
▁அதிதீவிர 63
▁அரேபியா 63
▁அலைக 63
▁ஆகிறது 63
▁ஆசியாவிலும 63
▁ஆடுமாடுகள 63
▁ஆலையை 63
▁எரிவாய 63
▁ஏனையவர 63
▁கவலைகளை 63
▁கிணற 63
▁கிரண 63
▁கிரீடம 63
▁கிறபடி 63
▁கிலம 63
▁கூறுகள 63
▁கையாளப 63
▁சலி 63
▁சாகேஷ 63
▁சாலைக 63
▁சிசத 63
▁சேகர 63
▁சோசலிசப 63
▁ஜனாதிபதியை 63
▁ஜெனிவா 63
▁டதாகக 63
▁டாலரை 63
▁டாவில 63
▁டிகளும 63
▁தருகிறது 63
▁திரேல 63
▁திரேலியாவில 63
▁திவரும 63
▁துயிர 63
▁தெரிவ 63
▁தெருவில 63
▁தேதிக 63
▁னரான 63
▁படுமானால 63
▁பரிதாப 63
▁பரும 63
▁பலை 63
▁பானபல 63
▁புவிசார 63
▁பெறக 63
▁பேசுவதற 63
▁பொத 63
▁மனுவில 63
▁மஸ 63
▁மூடித 63
▁மொட 63
▁ராணுவ 63
▁ரேலை 63
▁றாடம 63
▁லுப 63
▁லோரன 63
▁ளாது 63
▁வியாபாரம 63
▁விள 63
▁ஷாருக 63
▁ஹான 63
-3 62
12 62
co 62
ire 62
og 62
திகளில 62
போதும 62
யிருந 62
ரா 62
லங 62
வேன 62
ையுங 62
▁2.5 62
▁3, 62
▁900 62
▁@ 62
▁ASEAN 62
▁United 62
▁அடியான 62
▁அதிகளவில 62
▁அனைவருமே 62
▁அழிவை 62
▁ஆசாரியரும 62
▁ஆதரவளிப 62
▁இடைவெளிக 62
▁இராணுவவாத 62
▁எழுதும 62
▁ஒய 62
▁ஒரும 62
▁கதாநாயகியாக 62
▁கவை 62
▁கவைக 62
▁காஜ 62
▁கிடங 62
▁கிறாள 62
▁கூடாத 62
▁கேரளாவில 62
▁சகித 62
▁சனைகளுக 62
▁சுடப 62
▁சூடு 62
▁செவிகொடுத 62
▁டபொழுது 62
▁தளபத 62
▁தளிக 62
▁தளித 62
▁தாமத 62
▁தியோப 62
▁நீதிக 62
▁னுடனே 62
▁னேர 62
▁படு 62
▁படையிலேயே 62
▁பதிலீட 62
▁பாடற 62
▁பாடான 62
▁பானதைச 62
▁பானில 62
▁பிரதிநிதிகளை 62
▁பிரதேசம 62
▁பூக 62
▁பெறுவதில 62
▁பொழுதைய 62
▁போகின 62
▁மாளிகையின 62
▁மிகைப 62
▁மிடம 62
▁மோதிக 62
▁யூப 62
▁லியனர 62
▁ளுகிறார 62
▁வசம 62
▁வஜீரிஸ 62
▁வருபவர 62
▁விகித 62
▁விழாவுக 62
▁வேறுபாடுகளை 62
▁ஷாம 62
▁ஸிற 62
கிருஷ 61
சப 61
துங 61
மைத 61
ினிமித 61
ியருக 61
ைகளிலிருந 61
ைவை 61
▁300,000 61
▁PPP 61
▁Pro 61
▁அணுவாயுதங 61
▁அதனுடன 61
▁அரிசி 61
▁இசைவு 61
▁இடைவிடாது 61
▁உடனடியான 61
▁ஓங 61
▁கடைபிடித 61
▁கணும 61
▁கலவரங 61
▁காளத 61
▁குடிவரவு 61
▁குமோ 61
▁குழுத 61
▁குவான 61
▁கூறுபாட 61
▁கையொன 61
▁கையோடு 61
▁கோடு 61
▁சமூகங 61
▁சரணடைந 61
▁சரிவிற 61
▁சவுதி 61
▁சிதேக 61
▁சிறுவன 61
▁சிலும 61
▁சீனாவும 61
▁சோதனைக 61
▁ஜனம 61
▁ஜியாவின 61
▁ஜீவனுள 61
▁டகங 61
▁டளைகளை 61
▁டியிருப 61
▁தனையாளர 61
▁திறமையுடன 61
▁தீவிரத 61
▁துணிச 61
▁துறைப 61
▁துவமும 61
▁தேவையற 61
▁நடுவர 61
▁நாடி 61
▁நிதிகள 61
▁நிலைமைகளுக 61
▁னாப 61
▁பரதேச 61
▁பாமல 61
▁பிடுவது 61
▁பிதழ 61
▁பிரதிநிதியாக 61
▁புதங 61
▁புந 61
▁பேசினர 61
▁பேத 61
▁பேரணிகள 61
▁பேரைக 61
▁மலிவு 61
▁மிதித 61
▁மீதாக 61
▁மீதி 61
▁முடியாட 61
▁முடிவானது 61
▁முஷ 61
▁யபாரம 61
▁யெஸ 61
▁ரஞ 61
▁ராலினிசம 61
▁ராஸ 61
▁ரேலில 61
▁ரோப 61
▁றதுடன 61
▁றினை 61
▁றுகூட 61
▁லாஸ 61
▁லியனை 61
▁ளைகளின 61
▁வரலாம 61
▁வரிக 61
▁வரையற 61
▁விசாரணைகளை 61
▁விடுவார 61
▁விநியோகித 61
▁விபசார 61
▁விம 61
▁விளைவித 61
▁விழாவிற 61
▁வெறி 61
▁ஹீர 61
DP 60
ier 60
ug 60
ust 60
ணை 60
தியான 60
மார 60
ிறக 60
ுமார 60
ேசன 60
ையம 60
ொத 60
▁La 60
▁MMA 60
▁அதினாலே 60
▁அபாயம 60
▁அரைக 60
▁அறிமுகமான 60
▁அறைகூவல 60
▁ஆகாப 60
▁ஆரோனின 60
▁இடுக 60
▁இணையாக 60
▁உடை 60
▁உஸ 60
▁ஊடகமும 60
▁எதிரிகளை 60
▁எலிச 60
▁கணவன 60
▁கரைக 60
▁கியபோது 60
▁கிரோஷமான 60
▁குடிநீர 60
▁குதித 60
▁குழுவிடம 60
▁கூடப 60
▁கொணர 60
▁சிரிய 60
▁சீகேம 60
▁சுமை 60
▁செயலற 60
▁செயலுக 60
▁டலீசா 60
▁டிரக 60
▁டுஸ 60
▁டோவ 60
▁ணாமல 60
▁ணுவர 60
▁தகாலத 60
▁தடங 60
▁தமுள 60
▁தரமும 60
▁தருண 60
▁தாலந 60
▁தியே 60
▁துணர 60
▁துபட 60
▁துபோகிற 60
▁துபோம 60
▁தூதுவர 60
▁தையான 60
▁தொழிலை 60
▁நலமாயிருக 60
▁நினைவுகூர 60
▁னாபிரிக 60
▁பகட 60
▁படுமா 60
▁பதிக 60
▁பமானது 60
▁பலவீன 60
▁பிதா 60
▁பிரமாணங 60
▁பிரியமான 60
▁புவியியல 60
▁பெயினில 60
▁பெறுபவர 60
▁பொருளை 60
▁போரைப 60
▁போலீசாரால 60
▁மதக 60
▁மலையில 60
▁மீறப 60
▁முதியோர 60
▁ரிசேர 60
▁றவாளி 60
▁லோர 60
▁வறுமையை 60
▁வளைக 60
▁வழிமுறைகளை 60
▁வினா 60
▁விருதுகள 60
▁வீ 60
▁வேலைகளுக 60
▁ஸிடம 60
92 59
ans 59
ber 59
அது 59
சாக 59
தியாக 59
ருட 59
ாசத 59
ிமான 59
ியுமான 59
ியேல 59
ுதி 59
ெச 59
ெறி 59
▁07 59
▁1987 59
▁63 59
▁Br 59
▁General 59
▁PTCL 59
▁அகர 59
▁அதிகபட 59
▁அபிமெலேக 59
▁அரசர 59
▁அரேப 59
▁அறிவீர 59
▁அறுபது 59
▁அழகு 59
▁அவதூற 59
▁இளையராஜா 59
▁ஈடு 59
▁எவரேனும 59
▁ஒழிந 59
▁கனேடிய 59
▁களிகூர 59
▁களுடனான 59
▁களுடனே 59
▁கியதற 59
▁கிராமம 59
▁குவியல 59
▁கூடியவர 59
▁கெஞ 59
▁கேச 59
▁கொடு 59
▁கொடை 59
▁கொழிக 59
▁கோடீஸ 59
▁சிதைவ 59
▁சியினரின 59
▁சைய 59
▁டதைப 59
▁டவுடன 59
▁டியதாக 59
▁ததா 59
▁தாஜ 59
▁திறைசேரி 59
▁துயரத 59
▁துவைப 59
▁தொழிலதிபர 59
▁நடுநில 59
▁நடுவிலிருந 59
▁நாடுகடத 59
▁நாடுகடந 59
▁நாளெல 59
▁நிதியமைச 59
▁நியர 59
▁நிழற 59
▁படாதே 59
▁பாபிலோனுக 59
▁பாரக 59
▁பாரியளவில 59
▁பினைகள 59
▁பிரதிஷ 59
▁பிரமாணம 59
▁பெடரல 59
▁பேரவை 59
▁பொறிவ 59
▁போதினும 59
▁மய 59
▁மயிர 59
▁மறைவ 59
▁மாணிக 59
▁மேலானவர 59
▁மையினரின 59
▁யோவ 59
▁ரவிக 59
▁லரின 59
▁லியோனல 59
▁லூரியில 59
▁லேட 59
▁லையாம 59
▁வரு 59
▁வலுவாக 59
▁வழிகள 59
▁வாதிகளின 59
▁வாபஸ 59
▁வீசப 59
▁வெளிவ 59
▁வோ 59
▁ஸுக 59
.30 58
ant 58
ud 58
ஆக 58
ாஜி 58
ாதங 58
ாதிருங 58
ீடு 58
ுதலை 58
ையோடு 58
▁1953 58
▁59 58
▁Lanka 58
▁PT 58
▁Sri 58
▁அடிய 58
▁அடையாளமாக 58
▁அரப 58
▁இனால 58
▁இனியும 58
▁இருகட 58
▁இலாயக 58
▁உதாரணத 58
▁உயிரை 58
▁உறுதிமொழிகள 58
▁உலகிற 58
▁உவம 58
▁எலியா 58
▁ஐவரி 58
▁கடமைப 58
▁களிலுள 58
▁காரணியாக 58
▁கீன 58
▁குமாரரில 58
▁குலைச 58
▁குவதும 58
▁கூறுபாடு 58
▁கெடு 58
▁கொலையுண 58
▁கோசிக 58
▁கோரினர 58
▁சரவணன 58
▁சரிதான 58
▁சியினரும 58
▁சீனாவ 58
▁சுவை 58
▁செலவீனங 58
▁செலவுக 58
▁ஜக 58
▁ஜாஸ 58
▁டயர 58
▁டளைக 58
▁டளைகள 58
▁டொமினிக 58
▁தலைநகரில 58
▁தளமும 58
▁தாரே 58
▁தீபாவளி 58
▁தூள 58
▁தேதிய 58
▁நரம 58
▁நியமனத 58
▁நிருப 58
▁நிறைவேறும 58
▁நிலவரத 58
▁நிலையையும 58
▁நோயாளி 58
▁னேறிய 58
▁பகலும 58
▁பகுதிதான 58
▁பியிருப 58
▁பிரகாச 58
▁புதைக 58
▁பூகம 58
▁பூமியிலே 58
▁பெறுவார 58
▁பொர 58
▁மலிவான 58
▁மாவோயிஸ 58
▁மீச 58
▁மீதிய 58
▁முஷராப 58
▁மூடிக 58
▁மேனன 58
▁மொழித 58
▁ராஜசேகர 58
▁ரால 58
▁றுவார 58
▁லறை 58
▁ளைப 58
▁வடிவில 58
▁வயதுக 58
▁வரதட 58
▁வழிய 58
▁விடவில 58
▁விரோதத 58
▁விவாதிப 58
▁வெளியின 58
▁ஷிவிக 58
▁ஹாசன 58
000 57
200 57
PD 57
ate 57
land 57
ob 57
ஊ 57
யமான 57
ாவத 57
ாவோ 57
ூத 57
▁1982 57
▁2- 57
▁Bar 57
▁d 57
▁அதனைத 57
▁அளவுகோல 57
▁ஆகியுள 57
▁ஆடிய 57
▁ஆணை 57
▁ஆவேச 57
▁இய 57
▁இராஜினாமா 57
▁உதவியாக 57
▁எரித 57
▁எளிம 57
▁கடை 57
▁கரவாதிகளுக 57
▁காளி 57
▁கினேன 57
▁கியாவின 57
▁குதலும 57
▁குமிடையில 57
▁குமுள 57
▁குழும 57
▁கைதான 57
▁கொசோவோ 57
▁கொடூரமாக 57
▁கோதுமை 57
▁சகோதரருக 57
▁சரியா 57
▁சிகளிலும 57
▁சிலம 57
▁சீவி 57
▁செலவினக 57
▁ஜனாதிபதியான 57
▁ஜெனீவா 57
▁ஜெப 57
▁டதைத 57
▁டாலரின 57
▁டுட 57
▁டுவருகிறது 57
▁ணயித 57
▁தமஸ 57
▁தளவு 57
▁தாமதமாக 57
▁தியமற 57
▁தியாசம 57
▁தியைக 57
▁திராவிட 57
▁திரிந 57
▁துதியுங 57
▁துபோவ 57
▁தொகுதியில 57
▁நிதியங 57
▁நிலையும 57
▁னபடியே 57
▁பகலில 57
▁பகைம 57
▁பணப 57
▁பனவு 57
▁பியவர 57
▁பிரசாந 57
▁பிரயாணம 57
▁பிரவேசிப 57
▁பிரிவும 57
▁பிளவுபட 57
▁பூரில 57
▁பெயரால 57
▁பெருவர 57
▁போதெல 57
▁மனுஷகுமாரன 57
▁மொர 57
▁மொழிகளிலும 57
▁ரீதியிலும 57
▁றதாகும 57
▁றியிருந 57
▁றுவதை 57
▁லவன 57
▁லியமான 57
▁வதையும 57
▁வருடகால 57
▁வலதுசாரிப 57
▁வளைகுடாவில 57
▁விசேஷ 57
▁வியாழன 57
▁வெகும 57
ass 56
ff 56
ity 56
oy 56
டம 56
டிவ 56
ருவதற 56
ழிக 56
விரோத 56
வைகளை 56
ாசிரியர 56
ாளிக 56
ுறத 56
ுவுக 56
ுஷ 56
ெரிக 56
ேயர 56
ேயில 56
ையினாலும 56
ோடேகூட 56
▁66 56
▁Der 56
▁Dow 56
▁Financial 56
▁PDS 56
▁SL 56
▁Un 56
▁` 56
▁அடிமைத 56
▁அரும 56
▁அழிவுக 56
▁அவசரத 56
▁அவசியமாக 56
▁இடிப 56
▁ஈடாக 56
▁உடைப 56
▁உதட 56
▁உறைந 56
▁உலர 56
▁ஊன 56
▁எதிராகத 56
▁ஏதாவதொரு 56
▁ஏதென 56
▁கடங 56
▁கருணாநித 56
▁கருவூல 56
▁கவிட 56
▁காரனாகிய 56
▁காரரின 56
▁கினாலும 56
▁கிறதைக 56
▁குசேலன 56
▁கைகளைப 56
▁கோருவோர 56
▁சகாக 56
▁சியப 56
▁சிரியாவிற 56
▁சேய 56
▁ஜனதாக 56
▁ஜாதி 56
▁ஜியத 56
▁டாரம 56
▁டுரையின 56
▁டேல 56
▁ணவேண 56
▁ணீரை 56
▁தனா 56
▁தனிமனிதர 56
▁தலைவன 56
▁தலைவரை 56
▁திரமுகி 56
▁திரிகைகளில 56
▁துடைத 56
▁தெர 56
▁தேயிலை 56
▁நாணயத 56
▁நாணயம 56
▁நிகழும 56
▁நீதியின 56
▁னணியும 56
▁னிணைப 56
▁பகைக 56
▁படுகிறத 56
▁படுகொலைகளை 56
▁படுமோசமான 56
▁படுவதும 56
▁படையும 56
▁பதுமில 56
▁பதேயாகும 56
▁பனையும 56
▁பரட 56
▁பறவைகள 56
▁பலவீனப 56
▁பவேண 56
▁பாரா 56
▁பிரார 56
▁புறுதி 56
▁புவிடுக 56
▁பூசி 56
▁மணிநேரம 56
▁மாதிரியாக 56
▁மீராஜாஸ 56
▁மூலங 56
▁யூம 56
▁யோசிக 56
▁ரகசிய 56
▁ரேலுடன 56
▁றாடல 56
▁லித 56
▁லோவாத 56
▁ளச 56
▁ளதா 56
▁ளியையும 56
▁வாரிச 56
▁விரு 56
▁விலைவாசி 56
▁வீதிகளில 56
▁வெ 56
▁ஷியா 56
Z 55
ham 55
ä 55
சா 55
ணைப 55
யக 55
ரக 55
ிழந 55
ொர 55
▁12,000 55
▁68 55
▁Be 55
▁Democratic 55
▁PA 55
▁Wh 55
▁York 55
▁அகதிகளை 55
▁அசைக 55
▁அதிகாரிகளுடன 55
▁அதிலுள 55
▁ஆதாரமாக 55
▁இணையும 55
▁இருங 55
▁உடனேயே 55
▁உரிமைகளைப 55
▁ஒலிக 55
▁கதைகள 55
▁கருதுவ 55
▁கலின 55
▁கலைந 55
▁காணலாம 55
▁காணி 55
▁காதலி 55
▁காரரை 55
▁காளிகள 55
▁கியால 55
▁கிறதும 55
▁குஞ 55
▁குணமாக 55
▁குனரான 55
▁கோதும 55
▁கோழி 55
▁சமரசப 55
▁சமார 55
▁சிடுமூஞ 55
▁சினையில 55
▁சிறுமைப 55
▁சுமைகளை 55
▁செள 55
▁சையும 55
▁ஜூ 55
▁ஜூனில 55
▁ஜோத 55
▁டனால 55
▁டனிலிருந 55
▁டலின 55
▁டளையை 55
▁டவனே 55
▁தலைகீழாக 55
▁தாச 55
▁தாலியில 55
▁திலோ 55
▁துடைய 55
▁துமாக 55
▁துவதாகவும 55
▁தேதியிலே 55
▁நானோ 55
▁நுவரெலியா 55
▁னியாவில 55
▁படவிருக 55
▁படுவதையும 55
▁பதவிகளை 55
▁பாடுகளும 55
▁பாதாளத 55
▁பிதாவின 55
▁பிரசாரத 55
▁பிரேரண 55
▁பிளவை 55
▁பிவைக 55
▁புகிறவர 55
▁புகூர 55
▁பொட 55
▁மகேஷ 55
▁மனக 55
▁மாதக 55
▁மாப 55
▁மாளிகைக 55
▁முகவாண 55
▁முதலான 55
▁முபாரக 55
▁மூலமான 55
▁மெச 55
▁யன 55
▁யோக 55
▁ரவிச 55
▁ருவண 55
▁றதன 55
▁றதாகவும 55
▁றமடைந 55
▁றுவதாக 55
▁லிபரல 55
▁லியனாக 55
▁வதேசப 55
▁வழிவகைகளை 55
▁வாதிகாரம 55
▁விடுகிறது 55
▁விபர 55
▁விரோதமாகப 55
▁விவகார 55
▁வேஸ 55
▁ஷும 55
--- 54
IS 54
சேகர 54
டைத 54
திகளின 54
முட 54
ழைக 54
வகையில 54
வங 54
வதற 54
வருகிறது 54
வாட 54
ிடிக 54
ியாயிருந 54
ுதற 54
ையடுத 54
ைவதற 54
ொப 54
▁14- 54
▁1940 54
▁73 54
▁74 54
▁Institute 54
▁Porsche 54
▁Tom 54
▁அதிரடி 54
▁அனுதாப 54
▁அளவ 54
▁அழுது 54
▁அவசிய 54
▁அவரைச 54
▁ஆராதனை 54
▁இடைய 54
▁இடையூற 54
▁உணரப 54
▁உதவியும 54
▁ஊகங 54
▁எதுவுமே 54
▁ஓம 54
▁ஓரத 54
▁கரித 54
▁காரணமான 54
▁காளியாக 54
▁கியதுடன 54
▁கிறபோது 54
▁கிளாஸ 54
▁குபெற 54
▁குழுவினால 54
▁கூறிவந 54
▁கொசவோ 54
▁கொழுத 54
▁கோபால 54
▁சதுர 54
▁சாகத 54
▁சியோடு 54
▁சிறித 54
▁சூத 54
▁சூரிய 54
▁சோல 54
▁டளைகளையும 54
▁டிஜிட 54
▁டுபோனார 54
▁டெள 54
▁டோவில 54
▁தசேதனம 54
▁ததென 54
▁ததைத 54
▁தளப 54
▁திகரிக 54
▁தியசால 54
▁திரரை 54
▁திராவில 54
▁துரிதப 54
▁தெரிகின 54
▁தேசியமயமாக 54
▁நடவ 54
▁பதிலீடு 54
▁பரிசேயர 54
▁பானாக 54
▁பாவனா 54
▁பிரதிநிதிகளும 54
▁பிறர 54
▁பிலாத 54
▁பீடத 54
▁பெருமைப 54
▁பொருளாக 54
▁பொழுதுபோக 54
▁போகவிட 54
▁போடுவேன 54
▁போதிக 54
▁போலிசார 54
▁போலீசாரின 54
▁மனுஷருக 54
▁முதலாள 54
▁முதலாளிகளுக 54
▁முதியவர 54
▁முறியடிக 54
▁மூவிஸ 54
▁மையினால 54
▁மோதலின 54
▁யெகூ 54
▁யெரொபெயாம 54
▁யோய 54
▁ரவர 54
▁ரோயால 54
▁றபடி 54
▁றமான 54
▁றமில 54
▁றுபடுத 54
▁றெல 54
▁லிகா 54
▁லுவார 54
▁வணக 54
▁வரட 54
▁வரையான 54
▁வழிகளை 54
▁வாதி 54
▁வாலி 54
▁விடுபட 54
▁விவர 54
▁வெளியிலே 54
▁வைய 54
▁ஷெரீப 54
▁ஹாம 54
-19 53
mer 53
of 53
ord 53
ணங 53
துபோல 53
பட 53
மீ 53
ரான 53
ருள 53
லைக 53
ளவிலான 53
வெள 53
ியதை 53
ியூ 53
ிரா 53
ிறுத 53
ிவைத 53
ீழ 53
ுடியாது 53
ுவதையும 53
ைகளைச 53
ையாகிய 53
ையாயிருக 53
ையுண 53
▁# 53
▁06 53
▁1977 53
▁3.5 53
▁84 53
▁Also 53
▁Bl 53
▁PP 53
▁border 53
▁அகதிகளுக 53
▁அசோசியேட 53
▁அதிகாரிகளிடம 53
▁அதிகாலை 53
▁அறுத 53
▁அறைக 53
▁ஆசியாவின 53
▁ஆறாம 53
▁ஆலயம 53
▁ஆளுக 53
▁உடனடியாகவும 53
▁ஊழியஞ 53
▁ஏரியல 53
▁கமாண 53
▁களரி 53
▁களோட 53
▁கழிக 53
▁காவிலிருந 53
▁கிடையிலான 53
▁கினவர 53
▁கியூபா 53
▁கிளற 53
▁குகளைத 53
▁குடியேறியவர 53
▁குமாரருக 53
▁குமேல 53
▁குரியவர 53
▁குழுவொன 53
▁கூடக 53
▁கூறலாம 53
▁கெப 53
▁கெளரவமான 53
▁கோனி 53
▁கோலின 53
▁கோவை 53
▁சமாதானபல 53
▁சரவ 53
▁சரீர 53
▁சரோ 53
▁சாதித 53
▁சேல 53
▁டதினால 53
▁டய 53
▁டளைப 53
▁டாயிருந 53
▁டியலிட 53
▁டோஸ 53
▁ணாட 53
▁தகனபலியாக 53
▁ததைக 53
▁ததோ 53
▁தனங 53
▁தயாராகும 53
▁தரிசனம 53
▁தவள 53
▁தாலிபான 53
▁திசெம 53
▁தியதில 53
▁தியாச 53
▁திறமையை 53
▁துபோனார 53
▁துரு 53
▁தூப 53
▁தொப 53
▁நாளேடு 53
▁நிலைதான 53
▁நேஷனல 53
▁நோயாளிகள 53
▁னிலைப 53
▁பதக 53
▁பதினாயிரம 53
▁பிசைந 53
▁பிடிபட 53
▁பிரலில 53
▁பிலே 53
▁புசிப 53
▁பேசாமல 53
▁போனவர 53
▁போனஸ 53
▁போராளிகளுக 53
▁மசோதா 53
▁மறுபக 53
▁முதலீடுகளை 53
▁முறைகேடாக 53
▁மெண 53
▁மையானது 53
▁ரவேலிலே 53
▁ராஜாவானான 53
▁ரெண 53
▁ரொபேர 53
▁றிகள 53
▁லரசு 53
▁லாங 53
▁லாதிருப 53
▁லைகளில 53
▁ளிவ 53
▁வாகனம 53
▁விதிகளின 53
▁வீதமான 53
▁வீதிய 53
▁வுகளும 53
▁வெளியாகி 53
▁வெளியேறி 53
▁வெளியேறிய 53
▁வொருவருக 53
▁ஹைதராபாத 53
23 52
90 52
AS 52
DF 52
ED 52
ost 52
ub 52
ருகே 52
வனை 52
ாசர 52
ாதல 52
ாதிரி 52
ாவி 52
ினா 52
ியனாகிய 52
ிறேன 52
ுகளிலும 52
ுபட 52
ுவதோடு 52
▁09 52
▁1972 52
▁23- 52
▁Ex 52
▁OECD 52
▁அபூர 52
▁அருகிலுள 52
▁அறிகுற 52
▁அளந 52
▁ஆதி 52
▁ஆராயப 52
▁உயிரோடு 52
▁எயர 52
▁கருணாஸ 52
▁கியதும 52
▁கிரேட 52
▁கீதா 52
▁குகையில 52
▁குதலைத 52
▁கூடிவந 52
▁கோபங 52
▁சரகம 52
▁சரிசெய 52
▁சரிய 52
▁சியே 52
▁சிரிப 52
▁சிவக 52
▁சீய 52
▁சுமையை 52
▁ஜனரஞ 52
▁ஜீர 52
▁டவண 52
▁டினருக 52
▁டிவரும 52
▁டெரிக 52
▁ததிக 52
▁தமிழகத 52
▁தியதை 52
▁தியாசத 52
▁தீவிரமாய 52
▁துதற 52
▁தேயர 52
▁தொகைக 52
▁தோருக 52
▁நடுக 52
▁நடைமுறைகளை 52
▁நிதான 52
▁நிமிடம 52
▁நிலைகொண 52
▁நிலையிலிருந 52
▁நிலையைத 52
▁நுழைவதற 52
▁நெதர 52
▁னுரிம 52
▁படுகிறோம 52
▁படையினரும 52
▁பரிசோதன 52
▁பவே 52
▁பாடாகும 52
▁பியாவின 52
▁பிரதர 52
▁பெஸ 52
▁பேரங 52
▁பொதி 52
▁பொலிவ 52
▁பொழ 52
▁போராளிகளை 52
▁மதவாத 52
▁மனாசே 52
▁முகாமை 52
▁மெத 52
▁மெள 52
▁மேச 52
▁மோசேயும 52
▁ரென 52
▁றியதில 52
▁றுமையை 52
▁றுவிப 52
▁லமையுள 52
▁லேவ 52
▁வசன 52
▁வாடகை 52
▁விருதுகளை 52
▁விளைவுதான 52
▁வீரன 52
▁வுகாண 52
▁ஷிம 52
▁ஷீ 52
-2 51
est 51
iz 51
li 51
அதாவது 51
கும 51
டியை 51
டையச 51
டைவதற 51
பாதுகாப 51
வீன 51
ானில 51
ியாம 51
ியாயிருக 51
ிரத 51
ுகத 51
ுபடுத 51
ோதும 51
▁1956 51
▁DNP 51
▁Hartz 51
▁அறுக 51
▁ஆடுகள 51
▁இடுப 51
▁இறுதிப 51
▁இலஞ 51
▁உதறித 51
▁எளித 51
▁எளிய 51
▁ஏவி 51
▁ஒருவனுக 51
▁கனிஸ 51
▁களாவன 51
▁கவியல 51
▁காசிய 51
▁காரியாளர 51
▁கிணங 51
▁கியதோடு 51
▁கிரகம 51
▁குறியீடு 51
▁குறுதிகளை 51
▁கூடவே 51
▁கேமர 51
▁கையிட 51
▁கையிலான 51
▁சிநேகித 51
▁சிலருக 51
▁சீனாவுடன 51
▁செஸ 51
▁ஜோதிக 51
▁டணிப 51
▁டபிள 51
▁டியதாயிற 51
▁டுங 51
▁தஆ 51
▁தநில 51
▁தறை 51
▁தாதா 51
▁தாந 51
▁தாரில 51
▁தியாகும 51
▁துவதுடன 51
▁துவோம 51
▁தெழுந 51
▁தேகப 51
▁தொகைகளை 51
▁நள 51
▁நவசமசமாஜக 51
▁நினைவுக 51
▁நியமிப 51
▁நிறுவுவதற 51
▁நிலா 51
▁நிழ 51
▁நெகிழ 51
▁பகைத 51
▁படைகளுடன 51
▁பதினெட 51
▁பனும 51
▁பயணிக 51
▁பழிப 51
▁பாடுதான 51
▁பானுக 51
▁பாரியளவு 51
▁பியாவில 51
▁பிரதிகள 51
▁பிரிவான 51
▁புரை 51
▁பூமிக 51
▁பெருகிக 51
▁பெறுவதை 51
▁பேசியபோது 51
▁போஜனபல 51
▁மகனே 51
▁மனைவியாகிய 51
▁மரியாள 51
▁மாலிக 51
▁மிருகக 51
▁முதலாளி 51
▁முதலாளிமார 51
▁முழமும 51
▁முழுவ 51
▁மூக 51
▁மூடிமறைப 51
▁மேலதிகமாக 51
▁மைச 51
▁மொண 51
▁மோக 51
▁யாராய 51
▁ரஜினிகாந 51
▁ரிம 51
▁ரொ 51
▁றுவரை 51
▁லோத 51
▁ளுகிற 51
▁வசதியான 51
▁வதத 51
▁வரவ 51
▁வாகப 51
▁வாசலுக 51
▁வானது 51
▁விடுதலையாக 51
▁விநியோகம 51
▁விரிவுர 51
▁விருதுக 51
▁விளைவை 51
▁வேதத 51
▁வேறுபடுத 51
▁ஷுட 51
▁ஷேக 51
▁ஸும 51
▁ஹாரிஸ 51
87 50
ace 50
ai 50
ary 50
ation 50
ish 50
qu 50
ru 50
சூர 50
நிலையை 50
புஷ 50
ாகச 50
ாலை 50
ாழ 50
ிகளைச 50
ிசி 50
ினேன 50
ியதால 50
ிராத 50
ிவின 50
ீதியாக 50
ுதலும 50
ுவிற 50
ுவேல 50
ேயல 50
ைமட 50
ொடுப 50
ோவா 50
▁18- 50
▁ABC 50
▁CFDT 50
▁Cor 50
▁HIV 50
▁NSA 50
▁Press 50
▁Roman 50
▁fucking 50
▁height 50
▁அடைப 50
▁அதுவரை 50
▁அவதானிக 50
▁ஆசைப 50
▁ஆதாயம 50
▁இனவெற 50
▁இயலாம 50
▁இறைச 50
▁உபவாச 50
▁உறுதியாகக 50
▁ஊழியத 50
▁ஒச 50
▁கணின 50
▁கரையோர 50
▁கவாத 50
▁காததால 50
▁கிரசில 50
▁கிரமங 50
▁கிலத 50
▁கீழான 50
▁குதலால 50
▁குறியாக 50
▁குறுதி 50
▁கைதிகளின 50
▁கொசோவ 50
▁கொரியாவின 50
▁சாசனத 50
▁சாலையின 50
▁சினிமாவின 50
▁சிரியாவின 50
▁சுயாட 50
▁சூறாவளி 50
▁செயலகத 50
▁சைமன 50
▁சௌந 50
▁ஜனநாயகப 50
▁டதுதான 50
▁டதென 50
▁டமாஸ 50
▁டரின 50
▁டவனுக 50
▁டானால 50
▁டுறவு 50
▁டெயிலி 50
▁டெரித 50
▁ணிப 50
▁தகையதொரு 50
▁தனையை 50
▁தமானங 50
▁தவரும 50
▁தவாரம 50
▁திவீரன 50
▁திவைத 50
▁தீவுகளில 50
▁துபோயிற 50
▁தேவால 50
▁நாவல 50
▁நியூசிலாந 50
▁நுன 50
▁நெறிமுற 50
▁னிலும 50
▁பகுதியும 50
▁பலவான 50
▁பழுதற 50
▁பவிக 50
▁பாவும 50
▁பிரதிநிதியான 50
▁புமாறு 50
▁புவதன 50
▁பெயரளவிலான 50
▁பெரியவன 50
▁பெறவும 50
▁போனாலும 50
▁போராள 50
▁மசூ 50
▁மயில 50
▁மாகாணம 50
▁மீத 50
▁முடிவாக 50
▁முழுவதற 50
▁மூவரும 50
▁மேடை 50
▁மேளனத 50
▁மையானவர 50
▁ரமண 50
▁ராஜதந 50
▁றியமைக 50
▁றிவ 50
▁லேக 50
▁ளதும 50
▁ளாகி 50
▁ளைகளையும 50
▁வசூலித 50
▁வரையிலும 50
▁வரையும 50
▁வளையங 50
▁விரைவ 50
▁வீடுகளின 50
-4 49
1- 49
LA 49
ce 49
ens 49
her 49
old 49
ore 49
po 49
res 49
th 49
ung 49
இஸ 49
போன 49
முடியவில 49
வகை 49
விப 49
ாஜிக 49
ிவதற 49
ீவ 49
ீஸீ 49
ுடையது 49
ையாகத 49
ைல 49
ொடர 49
▁1945 49
▁1984 49
▁அடியார 49
▁அதிகாரிகளையும 49
▁அதிகாலையில 49
▁அதையே 49
▁அனுசரண 49
▁அபராதம 49
▁அரசுகளை 49
▁ஆகியோருடன 49
▁ஆசிரிய 49
▁ஆபிராம 49
▁ஆவணப 49
▁ஆவியானவர 49
▁இணையான 49
▁இயன 49
▁இராஜாங 49
▁ஏடு 49
▁ஏபோத 49
▁ஒலிப 49
▁கடினப 49
▁கடியான 49
▁கணினி 49
▁கதவு 49
▁கதைய 49
▁கனடாவின 49
▁கருணா 49
▁காயத 49
▁காளம 49
▁கிரைப 49
▁கீழறுப 49
▁குடிச 49
▁குதிரைகள 49
▁குமாரனைப 49
▁குமாரின 49
▁குறிகாட 49
▁குறைபாடுகள 49
▁கோபுக 49
▁கோவிற 49
▁சமாளித 49
▁சரசம 49
▁சரும 49
▁சாதோக 49
▁சியினதும 49
▁சிலை 49
▁சீரழிவு 49
▁சுயாதீனத 49
▁ஜியாவில 49
▁டகாலத 49
▁டனிலும 49
▁டினாலும 49
▁டியளிக 49
▁டுகோளை 49
▁தனையும 49
▁தயாராகிறது 49
▁தரகர 49
▁தரவ 49
▁தருள 49
▁தலைவரின 49
▁தளவிலான 49
▁தானியர 49
▁திமிக 49
▁திரவாதம 49
▁திரையடைந 49
▁தீபாவளிக 49
▁தீவிரவாதக 49
▁துகளுக 49
▁தெக 49
▁தெட 49
▁தேசியத 49
▁தேவத 49
▁தையோ 49
▁தொலை 49
▁நரகத 49
▁நாமங 49
▁நாளேடான 49
▁நியாயமற 49
▁நிறுவனமும 49
▁நூர 49
▁னினால 49
▁னோடியாக 49
▁பகுதிகளின 49
▁பகுதியிலுள 49
▁பதிலுக 49
▁பதுபேர 49
▁பலரை 49
▁பாலாஜி 49
▁பிரவேச 49
▁பீம 49
▁புதுமுகங 49
▁போகவில 49
▁போகிறாராம 49
▁போகையில 49
▁போதகர 49
▁போதுமானதாக 49
▁மனைவியும 49
▁மலைகளில 49
▁மாறிய 49
▁முதலீடுகளுக 49
▁முறைகளில 49
▁மூவர 49
▁ராச 49
▁ராவ 49
▁றுகளை 49
▁றுகையிட 49
▁றுங 49
▁றுமதிகள 49
▁லாவின 49
▁லிபர 49
▁லோருக 49
▁ளாமலும 49
▁வமற 49
▁வருகையில 49
▁வலுவற 49
▁வவல 49
▁விடுவதற 49
▁வியின 49
▁விஷயமாக 49
▁வேலைதிட 49
▁வேளாண 49
▁ஹுசேன 49
▁ஹூசை 49
17 48
Q 48
aj 48
ax 48
ign 48
அன 48
சாய 48
யிருக 48
ராஜன 48
வியின 48
விரும 48
வைகளும 48
ாகியிருந 48
ாஜா 48
ாடி 48
ாவிலுள 48
ிசெய 48
ிபர 48
ிருத 48
ுகளால 48
ூலம 48
ெயர 48
▁----- 48
▁5- 48
▁Ab 48
▁American 48
▁CCP 48
▁El 48
▁Her 48
▁Pe 48
▁SP 48
▁Workers 48
▁des 48
▁அகதி 48
▁அடிமட 48
▁அமைதியை 48
▁அரணான 48
▁அலக 48
▁ஆகியோரை 48
▁ஆடை 48
▁ஆதரவின 48
▁ஆறும 48
▁ஆலயங 48
▁ஆழத 48
▁இயலவில 48
▁இழைக 48
▁உறவுகளின 48
▁எதிரானது 48
▁ஏறிப 48
▁கடிகளை 48
▁கருதுகிறேன 48
▁கலவரம 48
▁கவித 48
▁கவுக 48
▁காரனும 48
▁காலமே 48
▁கிளை 48
▁கிளைகள 48
▁கிஷங 48
▁கீழறுத 48
▁கூறுவத 48
▁கைபண 48
▁கையாளும 48
▁கைவசம 48
▁கொடுமையான 48
▁சலிட 48
▁சேரி 48
▁ஜாவ 48
▁டனக 48
▁டமைத 48
▁டுவேன 48
▁ணாடி 48
▁தடைச 48
▁தனிய 48
▁தரவை 48
▁தருவது 48
▁தலானது 48
▁தவார 48
▁தவிக 48
▁தானது 48
▁தாலோ 48
▁தியஸ 48
▁தியுடன 48
▁திரராகிய 48
▁திலாவது 48
▁தீவை 48
▁துதிப 48
▁தேவையாக 48
▁தொலைபேச 48
▁நஜாப 48
▁நழுவ 48
▁நாடுகளையும 48
▁நிறுவும 48
▁நிலநடுக 48
▁நேரடித 48
▁படுகொலையை 48
▁பதவிகளில 48
▁பனிக 48
▁பராமரித 48
▁பரிணாம 48
▁பரியத 48
▁பரை 48
▁பலி 48
▁பலுக 48
▁பாடசாலைகள 48
▁பாளரின 48
▁பியழைத 48
▁பிரதிநிதிகளுக 48
▁பிருந 48
▁பீரிஸ 48
▁புரண 48
▁பெரியவர 48
▁பெறாமல 48
▁பேப 48
▁போரிடும 48
▁மனதை 48
▁மனிதகுலத 48
▁மறை 48
▁மழைக 48
▁மவேல 48
▁முடிவாகவில 48
▁முதலாளிகளின 48
▁முறியடித 48
▁மேகத 48
▁மையால 48
▁ராஜஸ 48
▁ராமன 48
▁றமாகும 48
▁றிகொள 48
▁லிபியா 48
▁லைகளுக 48
▁ளுவதில 48
▁ளைகளை 48
▁வடிவேல 48
▁வதாகவும 48
▁வதே 48
▁வலங 48
▁வழிவகையை 48
▁விதிகளுக 48
▁வினை 48
▁விரண 48
▁விரிவடைந 48
▁விருதை 48
▁விவ 48
▁வெடிமருந 48
▁ஹெகார 48
.0 47
ap 47
bert 47
jpg 47
ner 47
ph 47
அல 47
கை 47
சே 47
டத 47
தியும 47
ருந 47
ழன 47
ிமுக 47
ியரை 47
ியரையும 47
ியாள 47
ுய 47
ெஜ 47
ேசம 47
ையர 47
ொழி 47
▁1920 47
▁1949 47
▁1973 47
▁250,000 47
▁76 47
▁98 47
▁And 47
▁Bochum 47
▁Communiste 47
▁NATO 47
▁World 47
▁feedback 47
▁அபிலாச 47
▁அமலேக 47
▁அலைகள 47
▁அலைந 47
▁ஆகவும 47
▁ஆதர 47
▁ஆராயும 47
▁ஆஷ 47
▁இராது 47
▁உபர 47
▁உயிரோடிருந 47
▁உரிமைகளைக 47
▁உருவாயிற 47
▁உறவின 47
▁ஊரடங 47
▁எரேம 47
▁ஏகப 47
▁ஒபாமாவிற 47
▁ஒலிவியே 47
▁கடனில 47
▁கமுட 47
▁கலகங 47
▁கழற 47
▁காதலித 47
▁காமர 47
▁கிசத 47
▁கியங 47
▁கிரமம 47
▁கிறதோ 47
▁குதலையும 47
▁குழுவால 47
▁கேத 47
▁கொருவர 47
▁கொலைய 47
▁சமமாக 47
▁சிரிக 47
▁சிறுத 47
▁சீப 47
▁சீரமைக 47
▁சீரிய 47
▁சுவிஸ 47
▁டகனின 47
▁டதின 47
▁டதுபோல 47
▁டளையின 47
▁டினி 47
▁டியதோடு 47
▁டேக 47
▁தடைகளுக 47
▁தளமான 47
▁தவிதத 47
▁தானியத 47
▁திரவாத 47
▁திரியிலே 47
▁துடைக 47
▁தேவையாகும 47
▁தைவான 47
▁தொகையும 47
▁தோரை 47
▁நாடெங 47
▁படுகொலைகளுக 47
▁பதவிய 47
▁பனத 47
▁பறிமுதல 47
▁பலவந 47
▁பவேர 47
▁பாவித 47
▁பிரதிகளை 47
▁பெறுகிறார 47
▁பெறுவர 47
▁போகிறீர 47
▁போடுகிறார 47
▁போதைப 47
▁மணம 47
▁மனுச 47
▁மனுஷனை 47
▁மனைவியை 47
▁மாணவன 47
▁முகமாக 47
▁முகாமுக 47
▁முடியாதவை 47
▁முரளி 47
▁முறிவ 47
▁முறைத 47
▁மூலக 47
▁மெளனம 47
▁மொழிவ 47
▁யால 47
▁யுடன 47
▁யோசுவ 47
▁ரியதர 47
▁ரியல 47
▁லரசுகளுக 47
▁ளியும 47
▁வகைசெய 47
▁வதாகும 47
▁வயதாயிருந 47
▁வருவேன 47
▁வலதிற 47
▁வழிந 47
▁வாசற 47
▁வாசு 47
▁வாதிகளுக 47
▁வாறிருந 47
▁விசுவாசம 47
▁விவரம 47
▁வைரச 47
▁ஹோம 47
-8 46
.000 46
16 46
95 46
SA 46
ide 46
ock 46
uk 46
கையில 46
டியா 46
நிலையில 46
மானார 46
மி 46
யல 46
ருவின 46
வருகின 46
வென 46
ாகின 46
ாதன 46
ாதிக 46
ிமுற 46
ிவருகின 46
ுடையவர 46
ுவில 46
ைகொண 46
ைவாக 46
ோனியா 46
ோரி 46
▁1990- 46
▁CNN 46
▁GDL 46
▁GDP 46
▁Ge 46
▁Jose 46
▁Sp 46
▁style 46
▁அணியில 46
▁அணைக 46
▁அபிலாஷ 46
▁அரக 46
▁அறிவை 46
▁அறுவை 46
▁அவிழ 46
▁ஆணைய 46
▁ஆலைகளை 46
▁ஆலோசனையை 46
▁ஆவியை 46
▁இதனையடுத 46
▁இயேசுவின 46
▁ஈடுபாட 46
▁ஈழ 46
▁கதையும 46
▁கவனிப 46
▁கவுதம 46
▁கானா 46
▁கினியால 46
▁கிவைக 46
▁குமாரராகிய 46
▁குறைகள 46
▁குறைகூறல 46
▁குழுவுடன 46
▁குவிமையப 46
▁கேயும 46
▁கைதட 46
▁சமனான 46
▁சாரா 46
▁சினிமாவை 46
▁சினையாக 46
▁சிறுவ 46
▁சிலுவையில 46
▁சிவா 46
▁சீராக 46
▁சேற 46
▁சோதோம 46
▁டதைக 46
▁டுகொண 46
▁டெப 46
▁ணீரில 46
▁தவண 46
▁தினேன 46
▁திரையில 46
▁துகிறோம 46
▁துந 46
▁துருவப 46
▁தூபவர 46
▁தெளிவாகிறது 46
▁தையையும 46
▁நதிக 46
▁நரகலான 46
▁நாலாம 46
▁நிதானத 46
▁நீதியுள 46
▁நுக 46
▁நேய 46
▁நேரடிப 46
▁நொறுங 46
▁னவாக 46
▁னியில 46
▁படுவதோடு 46
▁படையினரை 46
▁பணிவிடைக 46
▁பனையை 46
▁பருவ 46
▁பறைசாற 46
▁பாடி 46
▁பாடுகளையும 46
▁பாவநிவாரணபல 46
▁பிடுகிறார 46
▁பிணைத 46
▁பினருமான 46
▁பிரயோக 46
▁புரிம 46
▁புலமைப 46
▁புவி 46
▁பெயருக 46
▁பேரணிகளில 46
▁பேரணிகளை 46
▁போகாமல 46
▁போதித 46
▁மனிதநேய 46
▁மிதிக 46
▁முடிச 46
▁மெளனமாக 46
▁மையே 46
▁யோயாக 46
▁ரஜினிக 46
▁ரிஸ 46
▁ரும 46
▁றிணைக 46
▁றீர 46
▁றுபவர 46
▁லமையும 46
▁லாவிடில 46
▁லெட 46
▁ளதாகக 46
▁ளுகிறேன 46
▁வடப 46
▁வருவதில 46
▁வலுவ 46
▁வளவுதான 46
▁வழமையான 46
▁வாயாக 46
▁வாயை 46
▁விசேஷித 46
▁விடயமாக 46
▁விதிமுறைகள 46
▁விலகிய 46
▁விலையில 46
▁விழாவின 46
▁விழுவார 46
▁வீதமாக 46
▁வுகூட 46
40 45
5,000 45
70 45
ann 45
han 45
ies 45
அத 45
அவர 45
சக 45
ஜின 45
தாய 45
திச 45
லர 45
வருடைய 45
ாடுகளுக 45
ாதிபத 45
ாதிர 45
ாரமாக 45
ியாவிலிருந 45
ியாவையும 45
ிவாய 45
ுடியும 45
ுறுத 45
ுவா 45
ூரில 45
ோங 45
▁1917 45
▁1976 45
▁61 45
▁78 45
▁AI 45
▁Ag 45
▁Ber 45
▁Con 45
▁FO 45
▁For 45
▁Movement 45
▁al 45
▁to 45
▁அகலமும 45
▁அநியாய 45
▁அனிமேஷன 45
▁அறிமுகமாக 45
▁அலற 45
▁ஆமென 45
▁இடிக 45
▁இடை 45
▁இராச 45
▁உறுத 45
▁உறுதிமொழிகளை 45
▁ஏவுகண 45
▁ஒலிவ 45
▁கடியால 45
▁கடியும 45
▁கனும 45
▁கமாகவும 45
▁கமோ 45
▁கலாகாது 45
▁களமாக 45
▁காணியாட 45
▁காவுடனான 45
▁கிடைய 45
▁கியோ 45
▁கிறபடியால 45
▁குடல 45
▁குறைவாகவே 45
▁குவதாகவும 45
▁குஸ 45
▁கூலிக 45
▁கூலிப 45
▁கேது 45
▁சகோதரி 45
▁சனைகளில 45
▁சமயங 45
▁சவாலுக 45
▁சாலொமோனுக 45
▁சிகண 45
▁சீனத 45
▁டனி 45
▁டலம 45
▁டவசமாக 45
▁டுனர 45
▁டெஹ 45
▁டையாக 45
▁ணவும 45
▁ணினீர 45
▁தமட 45
▁தாற 45
▁தாலியின 45
▁திடும 45
▁தியோகப 45
▁திவாரங 45
▁துறையினர 45
▁தூம 45
▁தையல 45
▁நடுங 45
▁நியாயாதிபத 45
▁நுகத 45
▁நெம 45
▁னிற 45
▁படியெல 45
▁பளங 45
▁பாரும 45
▁பிரமிட 45
▁பிரிப 45
▁பிலேயாம 45
▁புநோக 45
▁புவிப 45
▁பூரிப 45
▁பெறலாம 45
▁போடுங 45
▁மசோதாவை 45
▁மணிநேர 45
▁மலேசியா 45
▁மீதம 45
▁முச 45
▁முடியுமென 45
▁மூடும 45
▁மையாகும 45
▁மோசட 45
▁யோசனை 45
▁ராஜீவ 45
▁ருட 45
▁ரோலிய 45
▁றிரவு 45
▁லாவை 45
▁லிகன 45
▁ளஸ 45
▁ளியது 45
▁ளுகிறவன 45
▁வதைத 45
▁வரைந 45
▁வரையறை 45
▁வறிக 45
▁வழிமுறையாக 45
▁வாறே 45
▁விசித 45
▁விசேடமாக 45
▁விடுமுற 45
▁விவசாயம 45
▁வீரவன 45
▁வேறுவ 45
▁ஷவை 45
▁ஹூசேனின 45
▁ஹேர 45
-9 44
de 44
ert 44
ess 44
hen 44
iss 44
சாத 44
டியான 44
தாகக 44
தாலும 44
திகளும 44
திர 44
படிக 44
ளம 44
வுகளை 44
ாசிக 44
ிலேயே 44
ீதியில 44
ீந 44
ெடுப 44
ைகளையெல 44
ையாயிருந 44
ையினை 44
ோள 44
▁.`` 44
▁1933 44
▁26- 44
▁4,000 44
▁7,000 44
▁81 44
▁CI 44
▁Col 44
▁Daily 44
▁Hu 44
▁NDA 44
▁We 44
▁Zapatero 44
▁அதுபற 44
▁அமல 44
▁அராஜக 44
▁ஆசாரிய 44
▁இடறல 44
▁இனவழி 44
▁இராண 44
▁இளவர 44
▁ஈவிரக 44
▁உதவியுள 44
▁எதனையும 44
▁கடனுக 44
▁கடலோரப 44
▁கடா 44
▁கனத 44
▁கமிஷ 44
▁கரைந 44
▁கலவ 44
▁களஞ 44
▁களண 44
▁காணவேண 44
▁காபூல 44
▁கிறதில 44
▁குனரும 44
▁குமாரரின 44
▁குரலை 44
▁குழுமத 44
▁சது 44
▁சபாநாயகர 44
▁சவர 44
▁சாரக 44
▁சினால 44
▁சிலி 44
▁சுயநல 44
▁சுயேட 44
▁செயலாளராக 44
▁செவிகொடுக 44
▁சேதங 44
▁சேதமடைந 44
▁சேனாப 44
▁சொலமன 44
▁ஜூர 44
▁ஜெக 44
▁டராக 44
▁டாலின 44
▁டியதன 44
▁டியா 44
▁ணெயிலே 44
▁தடிய 44
▁தனிக 44
▁தமிழுக 44
▁தயாராகிவிட 44
▁தரண 44
▁தவறாகப 44
▁தவறும 44
▁தானுடன 44
▁திகளால 44
▁தினரை 44
▁திமிர 44
▁துமாவை 44
▁துரிதமாக 44
▁துருவமுனைப 44
▁துரோகத 44
▁தேதியில 44
▁தொலைதூர 44
▁நாகரீக 44
▁நாமும 44
▁நேசர 44
▁னிங 44
▁னோன 44
▁பசுமைவாதிகள 44
▁படியென 44
▁பதோ 44
▁பலிபீடங 44
▁பவித 44
▁பிணையெடுப 44
▁பியழைக 44
▁பிரயாண 44
▁புகுத 44
▁புகையில 44
▁பெறச 44
▁பெள 44
▁பேசத 44
▁பேசியுள 44
▁பேசுகின 44
▁பேணிக 44
▁மனிதனின 44
▁மறுபுறம 44
▁மலைப 44
▁மிரர 44
▁முடன 44
▁முடிவான 44
▁யுவான 44
▁ராஜாவே 44
▁ரானுக 44
▁றுமாறு 44
▁றுவிடும 44
▁ளியாக 44
▁வமைப 44
▁வருகிறவர 44
▁வாசகங 44
▁விடையிறுத 44
▁வினவ 44
▁விமானக 44
▁வியக 44
▁வெடி 44
▁வேலி 44
▁வோனுடைய 44
▁ஷெரோன 44
▁ஹால 44
▁ஹீத 44
94 43
BA 43
af 43
if 43
ld 43
nd 43
our 43
ton 43
ure 43
ver 43
நகர 43
நல 43
நோக 43
மாகச 43
யாகும 43
ரித 43
லா 43
ழுத 43
ழைப 43
வரையும 43
வேளை 43
வைகளுக 43
ானவன 43
ாயில 43
ாரமும 43
ினோ 43
ிமன 43
ியனான 43
ிவிலக 43
ுணர 43
ைபண 43
▁1936 43
▁1938 43
▁7- 43
▁Ad 43
▁CPN 43
▁Colombo 43
▁Commun 43
▁Dr 43
▁Group 43
▁Street 43
▁on 43
▁அகன 43
▁அணிதிரண 43
▁அணுகுண 43
▁அணுவாயுதத 43
▁அதிபதி 43
▁அநுப 43
▁அனும 43
▁அழகப 43
▁அவதூறு 43
▁ஆசரிக 43
▁ஆதாரமும 43
▁ஆரோனையும 43
▁இதினிமித 43
▁இருதயங 43
▁இறைமை 43
▁இவனுக 43
▁இவனுடைய 43
▁இவைகளே 43
▁ஈடுகட 43
▁ஈழத 43
▁உணவ 43
▁உரித 43
▁உரிமைகளும 43
▁உறுதிமொழியை 43
▁உலகளவில 43
▁ஊரானாகிய 43
▁எரிவாயுவை 43
▁ஒருவரையொருவர 43
▁கமுடியாமல 43
▁கரவாதிகளின 43
▁கலைய 43
▁களாவது 43
▁களிடமும 43
▁காதே 43
▁கிணைத 43
▁கினீர 43
▁கிருக 43
▁கீக 43
▁குடியுரிமை 43
▁குழுவானது 43
▁கேக 43
▁கையளிக 43
▁சபைய 43
▁சமையல 43
▁சரிவைக 43
▁சருக 43
▁சாரதிகள 43
▁சாளரான 43
▁சிமியோன 43
▁சியகம 43
▁சிவர 43
▁சுகள 43
▁சுதேச 43
▁சுனாமியால 43
▁சுவாரஸ 43
▁செயலாகும 43
▁செயலில 43
▁ஜனாதிபதியும 43
▁ஞாபகார 43
▁தநிலை 43
▁தயவுசெய 43
▁தாரின 43
▁தினது 43
▁திருங 43
▁திருடன 43
▁திரையுலகில 43
▁திரோபாயங 43
▁துறைச 43
▁துவமான 43
▁தெளித 43
▁தொகுதிகளில 43
▁னதமான 43
▁னஸ 43
▁னீர 43
▁னெப 43
▁படையினருக 43
▁பணிபுர 43
▁பதுளை 43
▁பரிசில 43
▁பழிக 43
▁பாலானவை 43
▁பாவநிவாரண 43
▁புளோரிடாவில 43
▁பூமியையும 43
▁பெயரிட 43
▁பெளல 43
▁பொழுதுமே 43
▁பொழுதே 43
▁போடுவார 43
▁போலீசாருக 43
▁மதிநெஜாட 43
▁மனது 43
▁மறுசீரமைக 43
▁மலைத 43
▁மாடல 43
▁மானியத 43
▁மாறியது 43
▁மாறியுள 43
▁மாவில 43
▁மிலோசேவிக 43
▁மீந 43
▁மீறுதல 43
▁முருகன 43
▁முறைகளுக 43
▁முறையைக 43
▁மேஜ 43
▁மேரி 43
▁யாவருக 43
▁ராதிகா 43
▁றாகவே 43
▁றிடம 43
▁றிணைப 43
▁றோடு 43
▁லாதொழிக 43
▁லிமிடட 43
▁ளிகளை 43
▁ளிய 43
▁ளுவார 43
▁ளுவேன 43
▁வருவதுடன 43
▁வானி 43
▁வாயின 43
▁வாயிலிருந 43
▁விஜயகுமார 43
▁விடைய 43
▁விதியை 43
▁விரிந 43
▁விவாத 43
▁வீடமைப 43
▁வீதியில 43
▁வெறியர 43
▁வேலையும 43
▁வோனுக 43
▁ஹே 43
.2014 42
00,000 42
65 42
ING 42
be 42
ev 42
orn 42
ors 42
முன 42
ரவ 42
லிலே 42
வருகிறார 42
வால 42
விதமான 42
விருப 42
ாதவர 42
ாயிராமல 42
ாளுக 42
ாளும 42
ியாட 42
ிரக 42
ிரம 42
ிரு 42
ிவார 42
ுநாள 42
ுவதிலும 42
ூறுபேர 42
ூலாலும 42
ெருக 42
ேசின 42
ேனா 42
ோனால 42
ோவென 42
▁12- 42
▁16- 42
▁1975 42
▁1999- 42
▁25- 42
▁3000 42
▁450 42
▁Cl 42
▁Mon 42
▁OCI 42
▁SE 42
▁SI 42
▁Sc 42
▁TARS 42
▁VW 42
▁அணியின 42
▁அதினுடைய 42
▁அதிரடிப 42
▁அரவிந 42
▁அராபிய 42
▁அறுவடை 42
▁அலைவரிச 42
▁அவைகளைத 42
▁ஆயுள 42
▁இடைவிடாத 42
▁இரதத 42
▁இறுமாப 42
▁உயரமான 42
▁உரிமம 42
▁ஐலண 42
▁ஒருபக 42
▁கடலின 42
▁கடலோர 42
▁கதைதான 42
▁காமெஜோ 42
▁காரணமும 42
▁காலமும 42
▁குணமிக 42
▁குமட 42
▁கெத 42
▁கேயே 42
▁கைகளிலும 42
▁கைதி 42
▁கோகாத 42
▁சஸ 42
▁சிபிஎம 42
▁சிறைபிடித 42
▁சீரியாவின 42
▁சுருட 42
▁சுருள 42
▁சூறையாடும 42
▁செச 42
▁செபுலோன 42
▁சேவைகளின 42
▁சோகம 42
▁ஜாதிகளின 42
▁டகாலம 42
▁டபம 42
▁டவரைவு 42
▁டிகளுக 42
▁டிந 42
▁டியைப 42
▁டீம 42
▁டுமில 42
▁டோடு 42
▁ததிலிருந 42
▁தனமும 42
▁தரமாகக 42
▁தரிசனத 42
▁தருமாறு 42
▁தானா 42
▁தியசாலை 42
▁திரசேகரன 42
▁திரிகைகளுக 42
▁திரிசப 42
▁துமஸ 42
▁துமாறும 42
▁துவதையும 42
▁தூதராக 42
▁தெம 42
▁தேவனைத 42
▁தொலைநோக 42
▁தொழிலுக 42
▁நகரசபை 42
▁நடிச 42
▁நடைப 42
▁நதி 42
▁நாகார 42
▁நாணயக 42
▁நிமிடத 42
▁நுழைவாயில 42
▁நெறி 42
▁னாம 42
▁னையே 42
▁படையிலும 42
▁பணச 42
▁பதைச 42
▁பரிசோதனை 42
▁பரிவுணர 42
▁பாறை 42
▁பிடியில 42
▁பியும 42
▁பிரதிநிதிகளின 42
▁பிரவரியில 42
▁பிரிவினருக 42
▁பிவிடும 42
▁பிவைத 42
▁பேசுவது 42
▁போஜனபலியையும 42
▁போவான 42
▁மதுர 42
▁மனிதக 42
▁மனுஷரை 42
▁மறுஉத 42
▁மறுவ 42
▁மலேசியாவில 42
▁மானிய 42
▁மாறிக 42
▁மிருகம 42
▁மூலமே 42
▁மைசெய 42
▁மைபாராட 42
▁மையக 42
▁மொழியப 42
▁மோசடிகள 42
▁மோடி 42
▁யுர 42
▁யூக 42
▁யெச 42
▁ராகேல 42
▁ராஜேஷ 42
▁ரோயிட 42
▁றதால 42
▁றறிக 42
▁றுவேன 42
▁றெடுக 42
▁லாபான 42
▁லாமே 42
▁லாவி 42
▁ளவை 42
▁ளைநோய 42
▁ளையடிக 42
▁விரோதம 42
▁விலகிப 42
▁விளையும 42
▁வெறிக 42
▁வெறித 42
▁வெளிநாடு 42
▁வெளியாகிறது 42
▁வெளியிடவில 42
▁வேலைய 42
▁வையின 42
▁ஸன 42
▁ஹாக 42
PA 41
X 41
ey 41
ick 41
ion 41
களிலும 41
செலவு 41
படியினாலே 41
மயமாக 41
மிட 41
ளப 41
ாகர 41
ாஜக 41
ாடா 41
ாதா 41
ாலா 41
ாவன 41
ிவிக 41
ீனர 41
ுகம 41
ுவாயாக 41
▁190 41
▁1974 41
▁Ant 41
▁ESF 41
▁He 41
▁LO 41
▁Ligue 41
▁RP 41
▁SSP 41
▁Social 41
▁அடியோடு 41
▁அதுபோல 41
▁அனேகமாக 41
▁அமுற 41
▁அமுலாக 41
▁அரசும 41
▁அரித 41
▁அரைகுறை 41
▁அறியாம 41
▁அறியாமல 41
▁அவனோடிருந 41
▁அவரோ 41
▁அவுட 41
▁ஆகியிருக 41
▁ஆசிர 41
▁ஆடுகளை 41
▁ஆணையத 41
▁ஆபிரகாமுக 41
▁ஆலோசகராக 41
▁இடதுசாரிகள 41
▁இதனுடைய 41
▁இதிலிருந 41
▁இதுவொரு 41
▁இதையும 41
▁இருமடங 41
▁இறைம 41
▁இளைஞன 41
▁இழிபுகழ 41
▁உதற 41
▁உறுதியை 41
▁எபிர 41
▁எரியும 41
▁ஏது 41
▁ஏனையோர 41
▁ஐப 41
▁ஐய 41
▁கசிய 41
▁கறையுடன 41
▁களவர 41
▁கவலைய 41
▁கவலையில 41
▁காகசஸ 41
▁காதுகள 41
▁காமெ 41
▁காரணி 41
▁காரராகிய 41
▁கியமாகும 41
▁குகிறவன 41
▁குனிந 41
▁குமாரனும 41
▁குரியதாக 41
▁குவாத 41
▁கூறினாலும 41
▁கையாயிருங 41
▁கைள 41
▁கோண 41
▁கோழ 41
▁சதவீதமும 41
▁சனையாக 41
▁சாகப 41
▁சாதாரணமான 41
▁சாலையை 41
▁சியிடம 41
▁சிரம 41
▁சீனக 41
▁சுடன 41
▁சோமால 41
▁ஜெயராஜ 41
▁ஜெயலலிதா 41
▁ஞானி 41
▁டபடியினால 41
▁டினா 41
▁டியைக 41
▁டுபோகப 41
▁டுவிடக 41
▁டொக 41
▁ணினால 41
▁தமாகவும 41
▁தரவாத 41
▁தவறானது 41
▁தவறுகள 41
▁தவிசாளர 41
▁தவுள 41
▁தானைக 41
▁திகழ 41
▁திடன 41
▁தியாகராஜன 41
▁தியாசமாக 41
▁தியாவுடன 41
▁தியேக 41
▁திரீயின 41
▁திறைசேர 41
▁துணிக 41
▁தூற 41
▁தேகமில 41
▁தைகளுடன 41
▁நினைவிற 41
▁நிலையைப 41
▁நீரே 41
▁நெய 41
▁நோ 41
▁னிலையில 41
▁பகுதியைச 41
▁படாதபடிக 41
▁படுகிறவர 41
▁படைகளையும 41
▁பணமாக 41
▁பதனால 41
▁பனிகள 41
▁பனையில 41
▁பரிமாண 41
▁பளிப 41
▁பாடின 41
▁பாதியில 41
▁பாவுக 41
▁பிரன 41
▁பிரிவினால 41
▁பீடுகளின 41
▁புமிக 41
▁புறஜாதிகள 41
▁புறநில 41
▁பொழுதில 41
▁மஜ 41
▁மனுஷருடைய 41
▁மனைவிக 41
▁மலிந 41
▁மலையாளம 41
▁முகர 41
▁முகாமிற 41
▁முடிவுகளுக 41
▁முறைகேடுகள 41
▁முறையையும 41
▁மெனிக 41
▁மைன 41
▁மையமாகக 41
▁யாசாகர 41
▁யாணம 41
▁யாரையும 41
▁யோப 41
▁யோராம 41
▁ரமணியம 41
▁ராஜன 41
▁ரிலீஸாகிறது 41
▁ரைச 41
▁ரோடரின 41
▁ரோஸ 41
▁றினாலும 41
▁றுமுள 41
▁லஞ 41
▁லாதிருக 41
▁லிநோய 41
▁லீபனோன 41
▁லோவாதிகள 41
▁ளதாவது 41
▁ளானது 41
▁ளுர 41
▁வடிவமைத 41
▁வதிலும 41
▁வயதை 41
▁வரர 41
▁வழிவகையில 41
▁வாடகைக 41
▁வானம 41
▁வாயு 41
▁விகிதாச 41
▁விசுவாசித 41
▁விடுவது 41
▁ஷல 41
▁ஷெட 41
▁ஹோங 41
che 40
fe 40
hal 40
hi 40
ond 40
ve 40
கரமான 40
ஜம 40
ணர 40
பசுமைக 40
பாத 40
மானால 40
மாயிர 40
ருடனும 40
ருண 40
ருஷ 40
ளர 40
ளவுக 40
ளி 40
வச 40
வழி 40
வினை 40
ாளித 40
ிகிறது 40
ிடும 40
ியதோடு 40
ுவாக 40
ேயாகில 40
ேரின 40
ைகளுடன 40
ையினாலே 40
▁25,000 40
▁4- 40
▁8,000 40
▁86 40
▁Che 40
▁FDIC 40
▁Me 40
▁Morgan 40
▁Pl 40
▁Süddeutsche 40
▁margin 40
▁அகித 40
▁அடிமை 40
▁அணுத 40
▁அபிலாஷைகளை 40
▁அரைவ 40
▁ஆடும 40
▁ஆவண 40
▁இடைநிறுத 40
▁இடைவெளியில 40
▁இடைவெளியை 40
▁இதையடுத 40
▁இனிப 40
▁இறுத 40
▁உணவுத 40
▁உயிருடன 40
▁உறுதித 40
▁ஊடகவியலாளர 40
▁ஐயுற 40
▁ஒபாம 40
▁ஒருவனை 40
▁ஓகியோ 40
▁கடியைத 40
▁கலும 40
▁களாதேஷ 40
▁களிலெல 40
▁கழிவ 40
▁காதது 40
▁காதலிக 40
▁காதில 40
▁கானின 40
▁காரனை 40
▁காரரையும 40
▁கினைக 40
▁கியல 40
▁கிராபிக 40
▁கிறதாம 40
▁கீழிருந 40
▁கீஸ 40
▁குடியரசுகள 40
▁குமாரனுக 40
▁குறைவில 40
▁குலைப 40
▁கேந 40
▁கேரளா 40
▁கேரிய 40
▁கைதுகள 40
▁கைம 40
▁கொடுமை 40
▁கொலைகளை 40
▁கொழுந 40
▁சதிக 40
▁சமாதானமும 40
▁சரியத 40
▁சலுகைக 40
▁சவுக 40
▁சாகும 40
▁சாதி 40
▁சாராம 40
▁சிகளைக 40
▁சிநேக 40
▁சியடைய 40
▁சிரித 40
▁சிலரை 40
▁சிவகாசி 40
▁சுகாதாரக 40
▁சுரமண 40
▁சூதாட 40
▁சூன 40
▁ஜீவனை 40
▁ஜீவாவின 40
▁ஜோடிகள 40
▁ஞாபகம 40
▁டதிலிருந 40
▁டிமெண 40
▁டியிடுவதற 40
▁டிலான 40
▁டுவருகின 40
▁டுவருவது 40
▁டூர 40
▁டெங 40
▁டையின 40
▁ணுகிறவர 40
▁ணைய 40
▁தடையின 40
▁ததியில 40
▁தயாரி 40
▁தரைக 40
▁தறிவ 40
▁தாகத 40
▁தாகும 40
▁தாபிதம 40
▁தாரை 40
▁தாவீதும 40
▁தாவீதை 40
▁தியமும 40
▁தியாவிலும 40
▁திரோன 40
▁துகிறவர 40
▁துனர 40
▁துவமனைகள 40
▁தெல 40
▁தெளிவாகவே 40
▁தொகுதிய 40
▁நகைப 40
▁நடைமுறையின 40
▁நாயர 40
▁நிதியக 40
▁நுழையும 40
▁நெத 40
▁நோவ 40
▁னபடி 40
▁னாலும 40
▁னோடியான 40
▁பகுதிகளும 40
▁படகுகள 40
▁படியெனில 40
▁படுவோம 40
▁படைகளில 40
▁பரவி 40
▁பியத 40
▁பிரஜ 40
▁பிரயோகிக 40
▁பிளேயருக 40
▁புகொண 40
▁புதுக 40
▁புய 40
▁புவர 40
▁பூமியிலுள 40
▁பேரழிவின 40
▁போரையும 40
▁மணல 40
▁மனுவை 40
▁மயப 40
▁மிருக 40
▁முடிவும 40
▁மையாய 40
▁மோடே 40
▁ரவேலுடைய 40
▁ராஜிநாமா 40
▁ரானில 40
▁ரோச 40
▁றா 40
▁றியே 40
▁றெடுத 40
▁லரசாக 40
▁லரசுகளும 40
▁லியும 40
▁லுநர 40
▁ளவைகள 40
▁ளிவிவர 40
▁ளைய 40
▁ளையின 40
▁வடிவிலான 40
▁வறண 40
▁வாசமாயிருக 40
▁வாசலில 40
▁வாடும 40
▁விதிமுறைகளை 40
▁வினைத 40
▁வீடன 40
▁வேலைந 40
▁ஸார 40
14 39
CO 39
ana 39
ib 39
oh 39
ood 39
rand 39
உள 39
காலம 39
டை 39
நிலைக 39
னு 39
னோ 39
பார 39
லி 39
விச 39
வேட 39
வைகளையும 39
ானாலும 39
ாமத 39
ிமாற 39
ியபோது 39
ீனா 39
ுதலுக 39
ுவதைத 39
ேயுள 39
ையங 39
ையாற 39
ையையே 39
ொருட 39
▁19- 39
▁350 39
▁750 39
▁83 39
▁Human 39
▁LSSP 39
▁MAN 39
▁Nation 39
▁Pat 39
▁Qu 39
▁Richard 39
▁Robert 39
▁அகிலம 39
▁அசிஸ 39
▁அடையாளப 39
▁அணைத 39
▁அமத 39
▁அரிச 39
▁அறிவர 39
▁அறிவோம 39
▁அழகாக 39
▁அவமானப 39
▁அவளிடத 39
▁அவளைக 39
▁அவைகளைச 39
▁ஆகாய 39
▁ஆவல 39
▁இடும 39
▁இடைவெள 39
▁இணைவ 39
▁இனிக 39
▁இவனை 39
▁உறுதியாய 39
▁ஊருக 39
▁எறியப 39
▁எலெயாச 39
▁எழுகின 39
▁ஐசுவரியவான 39
▁ஒழிப 39
▁கடையாந 39
▁கதாகும 39
▁கயிருக 39
▁கரன 39
▁கருங 39
▁கருணை 39
▁களர 39
▁கழுக 39
▁கழுதை 39
▁கவரும 39
▁கவு 39
▁காசு 39
▁குடியரசில 39
▁குடியுரிம 39
▁குதிரை 39
▁குருவி 39
▁குறைபாட 39
▁குலத 39
▁குளம 39
▁குழி 39
▁கூறக 39
▁கோஷங 39
▁சாங 39
▁சாச 39
▁சாபத 39
▁சிகை 39
▁சியடையும 39
▁சிலுவ 39
▁சிவிலிய 39
▁சீருட 39
▁சுவரொட 39
▁செமிட 39
▁செயலமர 39
▁செயலை 39
▁சேகாவை 39
▁ஜனந 39
▁டடிப 39
▁டனையும 39
▁டிவந 39
▁டுமானாலும 39
▁டுமுள 39
▁டேய 39
▁டோப 39
▁ணாவிரத 39
▁தகராறு 39
▁தசாமி 39
▁ததாலும 39
▁தனிம 39
▁தமுறை 39
▁தயாராகிக 39
▁தரிசன 39
▁தானியம 39
▁தாபப 39
▁தாவிற 39
▁தினமும 39
▁திரவதைக 39
▁திவந 39
▁தீவிரமடைந 39
▁துதலுக 39
▁துதலை 39
▁துலட 39
▁துவருகிறார 39
▁துவான 39
▁துவோர 39
▁தேதிகளில 39
▁தையவர 39
▁தைரியம 39
▁தோரின 39
▁நரேன 39
▁நாப 39
▁நினைவுகள 39
▁நினைவூட 39
▁நிமிட 39
▁நிறுவுதல 39
▁நிலவர 39
▁நீளமும 39
▁நூலில 39
▁நேப 39
▁னங 39
▁னடைவ 39
▁னிறுத 39
▁பனையாளர 39
▁பயணங 39
▁பரிசீலன 39
▁பவான 39
▁பாரீஸ 39
▁பியோங 39
▁பிரபாகர 39
▁பிரெள 39
▁பிலேயே 39
▁பீடித 39
▁புடையதாக 39
▁புரிய 39
▁புறஜாதியார 39
▁பெரஸ 39
▁பெருகப 39
▁பெருத 39
▁பெருமந 39
▁பொதியை 39
▁பொறி 39
▁பொள 39
▁பொழிந 39
▁போகிறவர 39
▁மதி 39
▁மனிதப 39
▁மனியை 39
▁மலையக 39
▁மவுன 39
▁மாயக 39
▁மிதமிஞ 39
▁முடங 39
▁மொழிவு 39
▁யாய 39
▁யுக 39
▁ரெ 39
▁றவாரம 39
▁றுநாள 39
▁லுகிறவர 39
▁லெ 39
▁ளமாட 39
▁ளிர 39
▁வரவுள 39
▁வாள 39
▁வினியோக 39
▁விரோதமாகக 39
▁விரோதமாகவும 39
▁விலும 39
▁விளைவாகும 39
▁வெனிசூலா 39
▁வெளியிடுவதற 39
▁ஷவும 39
▁ஹவுஸ 39
▁ஹேக 39
ance 38
ek 38
int 38
ip 38
ous 38
சிப 38
டுதான 38
டைகின 38
ணும 38
தானே 38
திலிருந 38
நாராயணன 38
னிய 38
ரிப 38
ருஷம 38
றிக 38
வரி 38
வாசலில 38
விடம 38
ஹன 38
ிகழ 38
ிடித 38
ியதில 38
ியரில 38
ிறதற 38
ீமீ 38
ுவித 38
ெழுப 38
ைபட 38
ையென 38
▁1.4 38
▁1969 38
▁1991- 38
▁2,500 38
▁2.2 38
▁AIG 38
▁CO 38
▁Christian 38
▁En 38
▁FAC 38
▁Force 38
▁François 38
▁Liberation 38
▁Republic 38
▁Th 38
▁Vol 38
▁அசத 38
▁அதிகாரமும 38
▁அதுபோன 38
▁அபிராமி 38
▁அவசியமில 38
▁ஆதரவுத 38
▁ஆதரவுப 38
▁ஆனார 38
▁ஆளப 38
▁இடதுசாரிக 38
▁இடமாக 38
▁இதுதவிர 38
▁இமேஜ 38
▁இருநூற 38
▁இறுதித 38
▁இவரே 38
▁ஈடுபாடு 38
▁உதவிசெய 38
▁உதவுகின 38
▁உபதேசம 38
▁உபயோக 38
▁உளவ 38
▁உளைச 38
▁எருசலேமிலிருந 38
▁எலிசா 38
▁எழுபத 38
▁எவனாகிலும 38
▁ஒழிக 38
▁ககூடிய 38
▁கடைக 38
▁கடைசிக 38
▁கதையாக 38
▁கனரக 38
▁கமளித 38
▁கலகத 38
▁கவலையடைந 38
▁காணல 38
▁காளியான 38
▁கினிக 38
▁கியமானவர 38
▁கியெற 38
▁கிரியேஷன 38
▁கிளாமர 38
▁குகிறேன 38
▁குடியேறிய 38
▁குநிலை 38
▁குழம 38
▁கூடாரம 38
▁கூடினர 38
▁கையகப 38
▁கொலையை 38
▁சதர 38
▁சலுகைகளையும 38
▁சவுலுக 38
▁சாயல 38
▁சாரி 38
▁சாலைகளை 38
▁சியினருக 38
▁சூறாவள 38
▁செழ 38
▁சேயீர 38
▁சோட 38
▁ஜித 38
▁ஜியாவிற 38
▁டதாம 38
▁டயக 38
▁டறியப 38
▁டளையிடப 38
▁டவுடனே 38
▁டானியல 38
▁டினன 38
▁டுகளால 38
▁டுடியோ 38
▁டுபவர 38
▁டுபோனான 38
▁ணுற 38
▁ணெயையும 38
▁தகனபலியையும 38
▁தமிழகம 38
▁தமைக 38
▁தரவின 38
▁தளவுக 38
▁தவகையில 38
▁தாவரங 38
▁திரரோடே 38
▁திரிய 38
▁துகையில 38
▁துணிவ 38
▁துறையிலும 38
▁துவமனைகளில 38
▁துவிடுவார 38
▁தேசப 38
▁தையாளர 38
▁நகரப 38
▁நடனமாட 38
▁நடைமுறையை 38
▁நவீனத 38
▁நீதியைச 38
▁னடத 38
▁பசிய 38
▁பஜ 38
▁படாதிருந 38
▁படுப 38
▁பதான 38
▁பலவ 38
▁பலாம 38
▁பாசிசத 38
▁பாடலாசிரியர 38
▁பாதைக 38
▁பாரத 38
▁பாளருமான 38
▁பிணையுள 38
▁பிராணனை 38
▁பீடுகளை 38
▁புகளைப 38
▁புடையவர 38
▁புரிமை 38
▁புரியும 38
▁புலிகளும 38
▁பெயரும 38
▁பெறத 38
▁பைட 38
▁பொறிந 38
▁பொலிச 38
▁போதுமானது 38
▁போயினர 38
▁போராடிக 38
▁போலத 38
▁போலீசாரும 38
▁மனுஷனுடைய 38
▁மயம 38
▁மரபணு 38
▁மறியற 38
▁மலையிலே 38
▁மாறுபாட 38
▁மாளவிக 38
▁மிதவாத 38
▁மீறும 38
▁முடியாததாக 38
▁முடிவற 38
▁முடிவுசெய 38
▁முனை 38
▁முனையில 38
▁முறுக 38
▁முறைச 38
▁முழுவதுமாக 38
▁மேகம 38
▁யெரொபெயாமின 38
▁ரமணா 38
▁ரெகொபெயாம 38
▁ரெயில 38
▁றோடொன 38
▁லிவிட 38
▁லுவேன 38
▁லூக 38
▁லெண 38
▁லெற 38
▁ளையை 38
▁ளோர 38
▁வசத 38
▁வடிவேலுவின 38
▁வணிகக 38
▁வணிகங 38
▁வதிவிட 38
▁வனப 38
▁வரியை 38
▁வலிமையான 38
▁வாகிட 38
▁வாசன 38
▁வாணமாக 38
▁விஜ 38
▁விடு 38
▁வீசும 38
▁வேறுவித 38
▁வோனின 38
▁ஷவுக 38
,500 37
-0 37
13 37
2- 37
25 37
AN 37
DS 37
ack 37
av 37
ck 37
erv 37
ha 37
ho 37
ile 37
ins 37
ith 37
mann 37
na 37
ois 37
oul 37
und 37
we 37
ze 37
ஆல 37
ஈராக 37
சின 37
ஜீ 37
டியின 37
டும 37
பற 37
ராம 37
வேலை 37
ஷன 37
ாதிபதி 37
ாவால 37
ிரான 37
ிறுவ 37
ுடு 37
ெரும 37
ொஸ 37
ோனா 37
▁00 37
▁1.3 37
▁1.6 37
▁13- 37
▁1986 37
▁2005- 37
▁3- 37
▁500,000 37
▁Car 37
▁Free 37
▁JVP 37
▁Paul 37
▁அகலம 37
▁அசைவாட 37
▁அணுஆயுத 37
▁அதிகாரியும 37
▁அபிச 37
▁அருகாமையில 37
▁ஆகாஷ 37
▁இதயம 37
▁இராணுவங 37
▁உதவின 37
▁உபயோகப 37
▁உயிருக 37
▁ஊகத 37
▁ஊத 37
▁எபூச 37
▁ஏசாயா 37
▁ஏஜ 37
▁ஏடான 37
▁ஒருவரையும 37
▁கணேசன 37
▁கதரிசிகளின 37
▁கதவுகளை 37
▁களாலே 37
▁காகித 37
▁காணமுடியும 37
▁காலமான 37
▁கிசுகிச 37
▁கிடமான 37
▁கிரஸில 37
▁கிறவனும 37
▁கிறவரும 37
▁கிறிவின 37
▁கிழம 37
▁கீடுகள 37
▁குடியினர 37
▁குறையாக 37
▁குளத 37
▁குவாங 37
▁கூடிவரச 37
▁கைதிகளுக 37
▁கொடிகள 37
▁கொடூரங 37
▁கோருகிறோம 37
▁கோளை 37
▁சசி 37
▁சமாரியாவில 37
▁சரியும 37
▁சாயத 37
▁சியிருந 37
▁சிறீலங 37
▁சீதோன 37
▁சீம 37
▁செமாய 37
▁செலாவ 37
▁சேவிப 37
▁சைட 37
▁ஜாப 37
▁ஜினியர 37
▁ஜெமினி 37
▁ஞை 37
▁டதா 37
▁டதார 37
▁டியதுடன 37
▁டிருத 37
▁டுரைகளை 37
▁டுற 37
▁டெலிகிராப 37
▁டேவிஸ 37
▁டோரி 37
▁ணிற 37
▁ணுவாயாக 37
▁தகுதியை 37
▁தடையும 37
▁தனமானது 37
▁தரவாதத 37
▁தருவேன 37
▁தலாய 37
▁தவாறு 37
▁திஜீவ 37
▁திஜீவித 37
▁திமோரில 37
▁தியமில 37
▁தியாகங 37
▁தியைத 37
▁திரந 37
▁திராவின 37
▁திறனைக 37
▁திவேல 37
▁துணைந 37
▁துவதாகும 37
▁தூதரகம 37
▁தைகளையெல 37
▁தொழுதுகொள 37
▁தோரிலிருந 37
▁நமித 37
▁நாஜ 37
▁நிறுவனமாக 37
▁நிலுவையில 37
▁நிலைநிற 37
▁நீதியை 37
▁னக 37
▁னிமித 37
▁படுவேன 37
▁பமில 37
▁பருவத 37
▁பவாதத 37
▁பவிட 37
▁பாடானது 37
▁பாதத 37
▁பாதாள 37
▁பிரக 37
▁பிரகாசிக 37
▁பிரபலங 37
▁பிரியம 37
▁பீற 37
▁புகிறீர 37
▁புமுற 37
▁புவதாகவும 37
▁பெயரளவு 37
▁பெறுபேற 37
▁பேரவ 37
▁பேரவையின 37
▁பேருள 37
▁போடாமல 37
▁போபால 37
▁போராடுகின 37
▁போவேன 37
▁மகிமையும 37
▁மதிவதன 37
▁மலையாளப 37
▁மாடிக 37
▁மீதியானவர 37
▁முகாந 37
▁முதலிடத 37
▁முனைந 37
▁முரணான 37
▁மூலத 37
▁மேலிருந 37
▁மேலுள 37
▁யமாட 37
▁யூதருடைய 37
▁ரசித 37
▁ரெய 37
▁ரோபர 37
▁றமாக 37
▁றியின 37
▁றியில 37
▁றிவந 37
▁றுமைக 37
▁றுமொரு 37
▁லரச 37
▁லஷ 37
▁லுகிறீர 37
▁லேவியருக 37
▁ளாவிட 37
▁ளியை 37
▁வகைகள 37
▁வதுதான 37
▁வருகிறத 37
▁வருகைக 37
▁வழியின 37
▁வாஸ 37
▁விதைத 37
▁விரோதமாகத 37
▁வீடுகளும 37
▁வெளித 37
▁ஹியூ 37
▁ஹெப 37
75 36
LP 36
PS 36
ault 36
me 36
q 36
ran 36
ron 36
stein 36
to 36
vel 36
ஈழம 36
குறிப 36
சித 36
சுப 36
செல 36
மக 36
ரவிக 36
லாகாது 36
வாதிகளின 36
ாகில 36
ாடுகளில 36
ாவான 36
ாவினால 36
ாவைச 36
ினதும 36
ியென 36
ுனர 36
ுவால 36
ொம 36
▁140 36
▁24- 36
▁50- 36
▁99 36
▁AP 36
▁AT 36
▁Bo 36
▁Cooper 36
▁DGB 36
▁IC 36
▁PLO 36
▁Res 36
▁Sy 36
▁Val 36
▁Ver 36
▁Wolfgang 36
▁ஃ 36
▁அகதிகளாக 36
▁அகந 36
▁அபகரித 36
▁அரசாக 36
▁அரசுகளில 36
▁அராப 36
▁அரிய 36
▁அருவருக 36
▁அறிகுறியாகும 36
▁அறைகளில 36
▁அறைவீட 36
▁அவதானித 36
▁அவனையும 36
▁ஆகாது 36
▁ஆசியப 36
▁ஆசேர 36
▁ஆடிப 36
▁ஆவது 36
▁இசக 36
▁இயேசுவுக 36
▁இலச 36
▁இளமை 36
▁உடுப 36
▁உரிமையைக 36
▁உருவாகிய 36
▁உறவுகளுக 36
▁உறைய 36
▁உஷ 36
▁எதிராகக 36
▁எதுவரைக 36
▁எருசலேமிலும 36
▁ஏங 36
▁கடியினால 36
▁கணம 36
▁கதரிசனஞ 36
▁கலகப 36
▁கலமும 36
▁கலைஞ 36
▁காதபடிக 36
▁காரணிகள 36
▁காரை 36
▁காலேப 36
▁கிரமக 36
▁குகளால 36
▁குடியரசுத 36
▁குமாரனை 36
▁கூறமுடியும 36
▁கேவல 36
▁கைகளினால 36
▁கையொப 36
▁கோடையில 36
▁கோரியும 36
▁சகட 36
▁சதா 36
▁சயமற 36
▁சாகம 36
▁சியாகவும 36
▁சியாலும 36
▁சியிருக 36
▁சிறுநீர 36
▁சூரியனுக 36
▁சேமிக 36
▁சேருவ 36
▁சோதனைகளை 36
▁ஜிக 36
▁ஜீவனுக 36
▁ஜெனர 36
▁டசப 36
▁டபெயரிங 36
▁டமாய 36
▁டலாம 36
▁டியமைப 36
▁டியலுக 36
▁டுமோ 36
▁டுவரவேண 36
▁டெ 36
▁ணற 36
▁ணிய 36
▁தடவைகள 36
▁தடி 36
▁ததல 36
▁ததி 36
▁தமாகும 36
▁தமே 36
▁தலாகும 36
▁தலி 36
▁தலிலும 36
▁தழ 36
▁திகா 36
▁தினபுரி 36
▁தியதால 36
▁திரிசபை 36
▁திருமாவளவன 36
▁திறங 36
▁தீவிரவாதிகளின 36
▁துகளில 36
▁துணிந 36
▁துஸ 36
▁தெறிந 36
▁தேசமெங 36
▁தையெல 36
▁தையைப 36
▁தோனேஷ 36
▁நகையாட 36
▁நனவான 36
▁நாசமாக 36
▁நாடுகளிலிருந 36
▁நாளொன 36
▁நிரபராத 36
▁நிரூபிப 36
▁நிறையுள 36
▁நிலச 36
▁நெடுங 36
▁னதை 36
▁னென 36
▁னொருபோதும 36
▁படிவத 36
▁படுதோல 36
▁படுமென 36
▁பணியாட 36
▁பதவிகள 36
▁பதினொரு 36
▁பனார 36
▁பரிசீலனைக 36
▁பரியமாக 36
▁பலனை 36
▁பிடியை 36
▁பிதாவாகிய 36
▁பிரசாரம 36
▁பிஸி 36
▁புகோல 36
▁புதமான 36
▁புதலை 36
▁புயத 36
▁புவாதத 36
▁பெனாசீர 36
▁பெரியது 36
▁பேசியது 36
▁பேரையும 36
▁போஜன 36
▁போராக 36
▁போராடிய 36
▁மகிந 36
▁மனஸ 36
▁மனோ 36
▁மனோஜ 36
▁மறுநாளிலே 36
▁முகாமின 36
▁முயலுகின 36
▁முழுச 36
▁முழுதும 36
▁மேலோங 36
▁மோசடியான 36
▁மோது 36
▁மோரல 36
▁யுஷ 36
▁ரஜின 36
▁ரவேலே 36
▁ராஜின 36
▁ராமநாதன 36
▁ரேலும 36
▁ரேஸ 36
▁ரோபோ 36
▁றவேண 36
▁றியதாக 36
▁றோருக 36
▁லியனுப 36
▁லிவ 36
▁லேப 36
▁ளு 36
▁ளுகிறவர 36
▁ளையடித 36
▁வசதிக 36
▁வதேசத 36
▁வதைப 36
▁வரனும 36
▁வருவான 36
▁வலை 36
▁வவுனியா 36
▁வாராந 36
▁விடுகிறார 36
▁வீதித 36
▁வேலைநீக 36
▁வேவுபார 36
▁வையுங 36
▁ஷோப 36
▁ஸிஸ 36
01 35
24 35
29 35
CL 35
EC 35
IC 35
are 35
ical 35
ley 35
oe 35
ram 35
ss 35
uc 35
une 35
எச 35
கரும 35
களுக 35
லிலும 35
லே 35
விடப 35
விருந 35
விலிருந 35
வீட 35
ாகல 35
ாமே 35
ாயிரங 35
ாரக 35
ாறான 35
ாவதி 35
ியினாலும 35
ிலி 35
ிவது 35
ீசுக 35
ீரர 35
ுகளைத 35
ுகிறதுபோல 35
ுதியில 35
ுபேர 35
ுவதைப 35
ேசர 35
ேயான 35
ையாத 35
▁2006- 35
▁5000 35
▁80,000 35
▁All 35
▁Am 35
▁Bear 35
▁Har 35
▁Opel 35
▁Pol 35
▁Transnet 35
▁Washington 35
▁Zeit 35
▁t 35
▁ஃபோர 35
▁அடிவ 35
▁அதேநேரம 35
▁அரிதாக 35
▁அறுபத 35
▁அவசரகாலச 35
▁அவைகளுடைய 35
▁ஆகாரத 35
▁ஆபிரகாமின 35
▁ஆமாத 35
▁ஆலோசனைகள 35
▁இடதுகளின 35
▁இடைந 35
▁இடையூறு 35
▁இரகசியத 35
▁இலிருந 35
▁ஈக 35
▁உடையவை 35
▁உடையில 35
▁உதவுகிறது 35
▁உயிரைக 35
▁உரிமையும 35
▁உரியது 35
▁ஊசலாட 35
▁எழுதின 35
▁ஏவுகணைத 35
▁ஐயமில 35
▁ஒருகாலத 35
▁ஒரேய 35
▁ஓடிவிட 35
▁ஓடுகிற 35
▁கதவுகளுக 35
▁கதையின 35
▁கமடைந 35
▁கரவாதி 35
▁கரவாதிகளை 35
▁கருவூலத 35
▁கரோல 35
▁களாகக 35
▁களுமாகிய 35
▁காரணமாகவும 35
▁காலாட 35
▁காளித 35
▁கிதியோன 35
▁கியக 35
▁கியதை 35
▁கிராமிய 35
▁கிரும 35
▁கிவந 35
▁குடியரசை 35
▁குறுங 35
▁குறுத 35
▁கெஸ 35
▁கேயிருக 35
▁சணல 35
▁சனியன 35
▁சமாய 35
▁சரவண 35
▁சலான 35
▁சிவந 35
▁சீனாய 35
▁சுகிறது 35
▁சூடானில 35
▁செயலாளரும 35
▁சேனல 35
▁சேனைக 35
▁சேருவதற 35
▁ஜெபஆலயத 35
▁டபடிய 35
▁டமியற 35
▁டவனுடைய 35
▁டினரை 35
▁டிராக 35
▁டுகிறவர 35
▁டுபோன 35
▁டுவரக 35
▁டுவா 35
▁ணெயை 35
▁தடம 35
▁தடைப 35
▁தனையாக 35
▁தரவுகளை 35
▁தருணத 35
▁தளபதியான 35
▁தளை 35
▁தழுவிக 35
▁தவராக 35
▁தாலிபன 35
▁தாலோச 35
▁திடுக 35
▁தியைப 35
▁திரோப 35
▁துரதிருஷ 35
▁துரைகள 35
▁தெரிவுசெய 35
▁தேடிய 35
▁நவாஸ 35
▁நானா 35
▁நிதியாண 35
▁நியூயார 35
▁நிறம 35
▁நிலையற 35
▁நீரோட 35
▁நெதன 35
▁னறிவிப 35
▁னெ 35
▁படவு 35
▁படியேயும 35
▁படுவதின 35
▁படையினரால 35
▁பதித 35
▁பலியான 35
▁பளப 35
▁பாசு 35
▁பாபா 35
▁பாயும 35
▁பாறுதல 35
▁பாழும 35
▁பினுள 35
▁பியோட 35
▁பிரபலமான 35
▁பிராட 35
▁பிரிவினரின 35
▁பிரேத 35
▁புசிய 35
▁புமுறை 35
▁புரியவில 35
▁புறஜாதிகளுக 35
▁பூகோளம 35
▁பெரியளவில 35
▁பேசுதடி 35
▁பேதுருவ 35
▁பொதுநலச 35
▁பொலிசாரும 35
▁பொலிவியா 35
▁போராளி 35
▁மகனாகிய 35
▁மனதிலே 35
▁மனுஷரையும 35
▁மறுபுறத 35
▁மறுமனையாட 35
▁மலைகளின 35
▁மாலையில 35
▁மீதியாக 35
▁முறும 35
▁மெழுக 35
▁மேலெழுந 35
▁யாருடைய 35
▁யுரேனியம 35
▁ரவியின 35
▁ராஜாவாகிறபோது 35
▁ராஜினாமா 35
▁ரீதியாய 35
▁ரொய 35
▁ரோஜா 35
▁றவகையில 35
▁லேன 35
▁ளவாறு 35
▁ளிவைக 35
▁வரச 35
▁வரவும 35
▁வரிப 35
▁வரைபடத 35
▁வழமையாக 35
▁வாஞ 35
▁வாதிக 35
▁வானொல 35
▁வாலிப 35
▁விதவ 35
▁விநியோகத 35
▁வினாவிற 35
▁விரோதமானது 35
▁விளைவுகளைக 35
▁விவாகரத 35
▁வீடுகளையும 35
▁வுசெய 35
▁வெகுமதி 35
▁வெனிசூல 35
▁வெயிட 35
▁வேதபாரகர 35
▁வேயின 35
▁வேலைபார 35
▁வேலையிழந 35
▁வேஷ 35
▁ஸர 35
▁ஹாலிபர 35
▁ஹுசை 35
▁ஹோ 35
CR 34
LM 34
MK 34
NA 34
SP 34
ale 34
ark 34
ations 34
aya 34
end 34
har 34
ille 34
ings 34
ler 34
lo 34
ror 34
rt 34
அதிக 34
டியாகும 34
டுபவர 34
தைச 34
நாதன 34
மல 34
ராஜா 34
றை 34
ாகியது 34
ாதப 34
ிடி 34
ியினர 34
ிரப 34
ிவா 34
ீதிய 34
ேசிய 34
ைவாய 34
▁1,500 34
▁180 34
▁1980- 34
▁6- 34
▁CD 34
▁DTE 34
▁David 34
▁Deutsche 34
▁Fax 34
▁Is 34
▁Je 34
▁Murph 34
▁PO 34
▁SA 34
▁SUD 34
▁i 34
▁அசோக 34
▁அடமான 34
▁அடிபண 34
▁அதிகாரசப 34
▁அதிவேகப 34
▁அனுமான 34
▁அமையவில 34
▁அறிமுகமானவர 34
▁அவக 34
▁ஆகி 34
▁ஆணையை 34
▁ஆதாயத 34
▁ஆயிர 34
▁ஆரோனுக 34
▁ஆலோசனைபண 34
▁ஆளுமை 34
▁இடதின 34
▁இதிலும 34
▁இதுவரைக 34
▁இறுதிவரை 34
▁இலும 34
▁இளைஞ 34
▁இவையெல 34
▁ஈடுபடுவதற 34
▁ஈஸ 34
▁உடைமை 34
▁உடைவு 34
▁உதவியாளராக 34
▁உருவாகிக 34
▁ஊச 34
▁எதிரொலிப 34
▁எரிப 34
▁ஏதுவ 34
▁கடவுளே 34
▁கடாவையும 34
▁கதைகளை 34
▁கருதியது 34
▁களைய 34
▁கழிவு 34
▁கிகளில 34
▁கியான 34
▁கிருபையும 34
▁கிளி 34
▁குசேல 34
▁குடனான 34
▁குடுதீ 34
▁குது 34
▁குருடன 34
▁குரோதத 34
▁கெள 34
▁கேலிச 34
▁கைநெற 34
▁கொலைகார 34
▁கோரின 34
▁சகோதரனுக 34
▁சமபூம 34
▁சமாகும 34
▁சராஜின 34
▁சரிபார 34
▁சலில 34
▁சாலைத 34
▁சியாய 34
▁சுகமாய 34
▁சுறுசுறுப 34
▁சூறையாடல 34
▁சையை 34
▁ஜனாதிப 34
▁ஜெபர 34
▁ஜோல 34
▁டவருக 34
▁டவிரோதமானது 34
▁டாகவும 34
▁டானது 34
▁டியதை 34
▁டியமைக 34
▁தடைகளையும 34
▁தடைவிதித 34
▁தமிழிலும 34
▁தரவுக 34
▁தராத 34
▁தருவதில 34
▁தலையிடுவதற 34
▁தலைவருக 34
▁தலைவித 34
▁தழுவி 34
▁தாமார 34
▁தாவும 34
▁தினின 34
▁தினீர 34
▁தியதரைக 34
▁தீபகற 34
▁தீவிரவாதத 34
▁துடிப 34
▁துரையாடலில 34
▁துவதிலும 34
▁துவுக 34
▁தெரியவரும 34
▁தைரிய 34
▁தொகையாக 34
▁தோனேஷிய 34
▁நடிகராக 34
▁நடை 34
▁நாகரிக 34
▁நாடுகளால 34
▁நாயகம 34
▁நாளாகமப 34
▁நிரல 34
▁நிலையைக 34
▁னமாக 34
▁னலக 34
▁னாய 34
▁னியாவின 34
▁படுங 34
▁படுவதாகவும 34
▁படையெடுக 34
▁படைவாதிகள 34
▁பணிவிடை 34
▁பதார 34
▁பதென 34
▁பனைகள 34
▁பனைகளையும 34
▁பனையாக 34
▁பமாட 34
▁பயின 34
▁பயில 34
▁பரவாயில 34
▁பரிசீலித 34
▁பரின 34
▁பலங 34
▁பழிபோட 34
▁பானம 34
▁பாரதி 34
▁பாரதூரமான 34
▁பாராமல 34
▁பிரசுரம 34
▁பிரட 34
▁பிரண 34
▁பிரதிப 34
▁பிரயோஜன 34
▁புகளால 34
▁புகையிரத 34
▁புமுன 34
▁புரள 34
▁புலர 34
▁புவுக 34
▁பூமியை 34
▁பூரணப 34
▁பெஷல 34
▁பையை 34
▁பொரேட 34
▁போனாள 34
▁போறேன 34
▁மனிதத 34
▁மரைன 34
▁மாதிரியை 34
▁முளைக 34
▁மெளன 34
▁மோசேய 34
▁யாதிருப 34
▁யாமலும 34
▁யாரென 34
▁யூதாவுடைய 34
▁யோவாஸ 34
▁ரஃபரன 34
▁ரயேல 34
▁ராஜாவைப 34
▁ரியும 34
▁ரிலீஸாக 34
▁ருமேன 34
▁ருமேனிய 34
▁ருமேனியா 34
▁ரூபாவை 34
▁றாகக 34
▁றாளர 34
▁றியமும 34
▁றிவளைத 34
▁றொட 34
▁லியை 34
▁லேகா 34
▁லேவியரும 34
▁லேவியின 34
▁ளாகும 34
▁ளாச 34
▁ளுவர 34
▁வளாகங 34
▁வழியைக 34
▁வாசலின 34
▁வாசுத 34
▁வாழுகின 34
▁விடாமல 34
▁விநியோகிப 34
▁விரிக 34
▁விவசாயிகளை 34
▁வெளியீடு 34
▁வேதவாக 34
▁வேலைகளையும 34
▁வேலைச 34
▁ஷாக 34
▁ஷியாக 34
▁ஷெரிப 34
▁ஹிந 34
.10 33
66 33
AD 33
AT 33
EF 33
ES 33
age 33
ell 33
ger 33
ina 33
ive 33
ony 33
per 33
rom 33
ré 33
இருக 33
எப 33
சதவிகித 33
டந 33
தங 33
தொரு 33
நித 33
லன 33
லோகத 33
ாதவன 33
ிநில 33
ியிலான 33
ிவக 33
ுஞ 33
ுடையதாக 33
ெலுத 33
ேயுங 33
ொழுது 33
ௌ 33
▁1500 33
▁1939 33
▁22- 33
▁287 33
▁4.5 33
▁93 33
▁Act 33
▁Arial 33
▁Brand 33
▁CSP 33
▁Char 33
▁Del 33
▁Fed 33
▁Journal 33
▁McC 33
▁Met 33
▁Parti 33
▁SLFP 33
▁Stearns 33
▁Today 33
▁naturalsizeflag 33
▁அடல 33
▁அடிமைகள 33
▁அதிகாரியின 33
▁அதிசயங 33
▁அநுக 33
▁அமுக 33
▁அரசன 33
▁அறிவுஜீ 33
▁அறுந 33
▁அவளைத 33
▁அவளைப 33
▁அவைகளால 33
▁ஆகார 33
▁ஆகாஸ 33
▁ஆசனத 33
▁ஆதரவாளரான 33
▁ஆலோசிக 33
▁இனிய 33
▁இரகசியம 33
▁இராக 33
▁இராட 33
▁இளங 33
▁இழைத 33
▁இவைகளைச 33
▁ஈடுப 33
▁உபக 33
▁உரு 33
▁எமோரியரின 33
▁எரிய 33
▁எலிசபெத 33
▁ஏசா 33
▁ஒலிமுக 33
▁கடமைகளை 33
▁கடிகளுக 33
▁கதரிசியின 33
▁கதாகவும 33
▁கனின 33
▁கமைத 33
▁கய 33
▁கரைத 33
▁கரையிலும 33
▁களல 33
▁களுடனேகூட 33
▁களுத 33
▁காலண 33
▁காலமட 33
▁கியமானதாகும 33
▁கிராப 33
▁கிறபடியினால 33
▁கிறாரே 33
▁கிவிடப 33
▁குடா 33
▁குமாக 33
▁குரிமை 33
▁குறைகளை 33
▁குறைவாகும 33
▁கூறுவதை 33
▁கேடான 33
▁கேமரா 33
▁கேளும 33
▁கையிருப 33
▁கொடியை 33
▁கோக 33
▁கோசிய 33
▁கௌ 33
▁சகிக 33
▁சமநிலை 33
▁சயமான 33
▁சருமான 33
▁சலாப 33
▁சிகளைப 33
▁சிதறடிக 33
▁சினிமாக 33
▁சீரழ 33
▁சுச 33
▁சுமப 33
▁செலவுகளுக 33
▁சேலம 33
▁சோகத 33
▁ஜனக 33
▁ஜயசூரிய 33
▁ஜோஷ 33
▁டதாலும 33
▁டலும 33
▁டாகக 33
▁டாவின 33
▁டியிடுகின 33
▁டைகளின 33
▁தணிப 33
▁தருகிறார 33
▁தலைநகரத 33
▁தலைமையும 33
▁தலைவிதி 33
▁தளபதியாக 33
▁தவனுக 33
▁தவறியது 33
▁தாமிரபரணி 33
▁தாராம 33
▁திகளுடன 33
▁தினேஷ 33
▁தியதன 33
▁தியனாகிய 33
▁தியமானது 33
▁திரமடைந 33
▁திராண 33
▁திரியின 33
▁தீவிபத 33
▁துதித 33
▁துறைத 33
▁துவச 33
▁துவதுதான 33
▁துவமற 33
▁தூதுக 33
▁தேனும 33
▁தேவனாயிருக 33
▁தேவைகளையும 33
▁நகரும 33
▁நாளேட 33
▁நிறுவி 33
▁நிலையிலேயே 33
▁நீச 33
▁நீதவான 33
▁நுள 33
▁நூறுபேர 33
▁நெள 33
▁னசெய 33
▁பகரமான 33
▁பகுதியையும 33
▁படாதிருங 33
▁படியல 33
▁பணங 33
▁பணிபுரியும 33
▁பதினான 33
▁பரியாசம 33
▁பாசான 33
▁பாசிஸ 33
▁பாடத 33
▁பாடம 33
▁பாதரட 33
▁பானேன 33
▁பாரதிராஜ 33
▁பாலாக 33
▁பாவிக 33
▁பிடுகிற 33
▁பிரமண 33
▁பிரய 33
▁பிழந 33
▁பிழையான 33
▁பிவர 33
▁புகளைக 33
▁புதிர 33
▁புலிகளிடம 33
▁புளோஸ 33
▁பெரேரா 33
▁பேசக 33
▁பேசுகிறேன 33
▁பேனர 33
▁போகாதபடிக 33
▁போப 33
▁போலப 33
▁மகனும 33
▁மகேந 33
▁மசூதி 33
▁மனசுக 33
▁மனுஷரின 33
▁மனையில 33
▁மனைவியாக 33
▁மறைமுகமான 33
▁மலிவ 33
▁மலேசிய 33
▁மலைகள 33
▁மாமன 33
▁மிலோசிவிக 33
▁முரள 33
▁முஹம 33
▁மூடுவதற 33
▁மேளனம 33
▁மோசடித 33
▁யபாரத 33
▁யாது 33
▁யாரை 33
▁யூதாவுக 33
▁யேம 33
▁ரிசர 33
▁ரித 33
▁ரீன 33
▁ரூத 33
▁ரை 33
▁ரோஷ 33
▁லரை 33
▁லாவிடின 33
▁லிண 33
▁லேபர 33
▁ளவனாயிருந 33
▁ளையாண 33
▁வசதியாக 33
▁வரிசை 33
▁வலதுசாரிகளின 33
▁வாகும 33
▁வாசிகள 33
▁வாசிப 33
▁விசாரணைகளில 33
▁விடலாம 33
▁வினோத 33
▁விமல 33
▁வுநாட 33
▁வுற 33
▁வேதனை 33
▁வேலைகளும 33
▁வேலையிழப 33
▁ஷாட 33
▁ஹாட 33
▁ஹெட 33
▁ஹேம 33
-16 32
AM 32
HP 32
NP 32
RP 32
ial 32
va 32
ys 32
è 32
அந 32
அரச 32
உலக 32
கக 32
டிகள 32
திலும 32
துண 32
நெற 32
பால 32
முமுள 32
ருமான 32
வட 32
வரைக 32
விஸ 32
ாரப 32
ிசார 32
ிநாட 32
ிமின 32
ியாமலும 32
ிவாத 32
ீதி 32
ுகை 32
ுமட 32
ூண 32
ேகமாக 32
ைஸ 32
ொருள 32
ொழில 32
ோவிச 32
ோவை 32
▁130 32
▁160 32
▁17- 32
▁1914 32
▁1998- 32
▁400,000 32
▁6,000 32
▁87 32
▁Christ 32
▁Council 32
▁Franc 32
▁German 32
▁Inter 32
▁Michael 32
▁No 32
▁Te 32
▁UNEF 32
▁UNP 32
▁War 32
▁அசர 32
▁அதுவோ 32
▁அநேகநாள 32
▁அமைவ 32
▁அறியாதிருந 32
▁அறிவும 32
▁அவைதான 32
▁ஆசகேல 32
▁ஆசிரியரான 32
▁ஆபரண 32
▁ஆரவாரத 32
▁ஆலையின 32
▁ஆலோசகரான 32
▁இனவழ 32
▁இனவாதம 32
▁இறுதிய 32
▁இலவசமாக 32
▁இளநீலநூல 32
▁இளவயத 32
▁உடைவ 32
▁உதாரணங 32
▁ஊடுருவல 32
▁எரிகிற 32
▁ஏராளமாக 32
▁ஐச 32
▁கதரிசியாகிய 32
▁கருதவில 32
▁கலவர 32
▁களிற 32
▁காகிலும 32
▁காரமாக 32
▁காவிலுள 32
▁கியவுடன 32
▁குடிமகன 32
▁குமிடம 32
▁குரலிட 32
▁குருத 32
▁குருந 32
▁குவோம 32
▁கைதிகளாக 32
▁கொடுமைப 32
▁கோவிலில 32
▁சகலத 32
▁சகவாழ 32
▁சதவீதமான 32
▁சமசீர 32
▁சமீபித 32
▁சாராள 32
▁சிபெற 32
▁சியோ 32
▁சிரமப 32
▁சிரியாவில 32
▁சிறுக 32
▁சிறுப 32
▁சிலுவை 32
▁சுகாட 32
▁சுலப 32
▁சேவைகளில 32
▁ஜஸ 32
▁ஜால 32
▁ஜியம 32
▁ஜெல 32
▁டரான 32
▁டாகப 32
▁டிகளின 32
▁டிகை 32
▁டுபோகும 32
▁டுவாருங 32
▁டைல 32
▁ணாக 32
▁ணுகிறவன 32
▁தனிமனித 32
▁தபோதே 32
▁தமாதம 32
▁தரிச 32
▁தரிய 32
▁தலுடன 32
▁தவனும 32
▁தவரான 32
▁தவே 32
▁தானாப 32
▁தாயையும 32
▁தாரி 32
▁திகதிகளில 32
▁திணற 32
▁தியரின 32
▁தியார 32
▁துறைமுகம 32
▁தெளிவாகியுள 32
▁தெளிவில 32
▁தெழ 32
▁தொழிலாளிகள 32
▁தோனேச 32
▁நகரை 32
▁நடைபெறவில 32
▁நலிந 32
▁நிதியுதவ 32
▁நிமிஷங 32
▁நிரூபண 32
▁நிறுவனர 32
▁நிலவி 32
▁நிலைச 32
▁னதான 32
▁னபோது 32
▁னியல 32
▁னொருவர 32
▁பகிஷ 32
▁பசுமைகள 32
▁பசுமைவாத 32
▁படச 32
▁பமுடியாத 32
▁பலவிதமான 32
▁பலவும 32
▁பஹ 32
▁பாடங 32
▁பானும 32
▁பியப 32
▁பிரகாசம 32
▁பிரமித 32
▁பிரிண 32
▁பிரியமாயிருக 32
▁பிரைட 32
▁புறாக 32
▁புலிகளால 32
▁பூமியும 32
▁பெறுமதி 32
▁பேசுகிற 32
▁பேராசை 32
▁பேரிலும 32
▁பொருளியல 32
▁போஜனப 32
▁போனில 32
▁போனீர 32
▁மகனான 32
▁மகனின 32
▁மனங 32
▁மறுபங 32
▁மலேச 32
▁மலையிலிருந 32
▁மானிப 32
▁மினி 32
▁மிருது 32
▁மீதியாயிருக 32
▁முடிவுர 32
▁முறையீடுகள 32
▁முழுநேர 32
▁மூனிச 32
▁மெஹ 32
▁மேகங 32
▁ரண 32
▁ராண 32
▁ராஹ 32
▁ருக 32
▁ருதி 32
▁றிண 32
▁றொருவர 32
▁லவென 32
▁லாதபடிக 32
▁லாதொழித 32
▁லாபத 32
▁ளதைப 32
▁ளிருந 32
▁வசூலிக 32
▁வணிகச 32
▁வதிப 32
▁வரவழைக 32
▁வாரும 32
▁விசாரணையும 32
▁விதை 32
▁விழப 32
▁வெளிநடப 32
▁வொர 32
▁ஷென 32
▁ஹிஸ 32
----- 31
.`` 31
18 31
28 31
34 31
CI 31
FP 31
MA 31
RC 31
RI 31
SU 31
ade 31
ash 31
ki 31
my 31
ory 31
ven 31
அம 31
ஆனால 31
இடது 31
டியே 31
ணியில 31
னப 31
பிக 31
புர 31
போதிலும 31
மாகிவிட 31
முடிந 31
முமாயிருக 31
மோ 31
ரில 31
ரோப 31
வரியில 31
வாசு 31
வுங 31
ஹர 31
ஹாம 31
ாவதை 31
ிதமான 31
ியாண 31
ிறான 31
ுவாத 31
ுவும 31
ூடிய 31
ெயேல 31
ேவி 31
ொருவர 31
ோதிலும 31
▁1.7 31
▁178 31
▁2.1 31
▁2017 31
▁35,000 31
▁6.5 31
▁88 31
▁92 31
▁Lag 31
▁Mc 31
▁Saru 31
▁USA 31
▁Verdi 31
▁WTO 31
▁Wall 31
▁la 31
▁wsws 31
▁அடையக 31
▁அதிபதிய 31
▁அதேசமயம 31
▁அரசாள 31
▁அரசில 31
▁அரமனை 31
▁அருங 31
▁அறவிட 31
▁ஆபாச 31
▁ஆழம 31
▁ஆவதற 31
▁இசைந 31
▁இணையம 31
▁இணைவதற 31
▁இதின 31
▁இருநூறு 31
▁இருமுறை 31
▁இலண 31
▁இளவயது 31
▁ஈடுபடுகின 31
▁உடலில 31
▁உடையதாக 31
▁உதடுகள 31
▁உருப 31
▁உருவம 31
▁உருவாகின 31
▁உழ 31
▁எதுவித 31
▁எனச 31
▁எருசலேமிலுள 31
▁எளிதான 31
▁ஏசாவின 31
▁ஐயப 31
▁கணத 31
▁கலாநிதி 31
▁களவு 31
▁களுமான 31
▁களூர 31
▁கழுதையின 31
▁கவுரவ 31
▁காலமாகவே 31
▁கியதால 31
▁கிறதினால 31
▁கிறாரா 31
▁கிலி 31
▁குநில 31
▁குமூலம 31
▁குரியது 31
▁கூடாமற 31
▁கூறியபோது 31
▁கூறுபவர 31
▁கேயார 31
▁கேயின 31
▁கேளாமலும 31
▁கையளித 31
▁கைல 31
▁கொடூரத 31
▁கொரியாவில 31
▁கொலைபாத 31
▁கோசியும 31
▁கோரியிருந 31
▁கோலர 31
▁சடித 31
▁சதவிகிதமும 31
▁சனையும 31
▁சமநில 31
▁சமீபமாய 31
▁சரவையில 31
▁சரியில 31
▁சரிவின 31
▁சரிவில 31
▁சலின 31
▁சிடப 31
▁சுயேச 31
▁சுவிசேஷ 31
▁செருக 31
▁செவிம 31
▁சேவையைப 31
▁ஜய 31
▁ஜயவர 31
▁ஜாதிகளை 31
▁ஜிஹாத 31
▁ஜெனின 31
▁ஞாபகப 31
▁டபோதும 31
▁டவரும 31
▁டினென 31
▁டுமாறு 31
▁டுவதாகும 31
▁டுவதுடன 31
▁டூப 31
▁டொர 31
▁டோரிக 31
▁ணயம 31
▁ணியிருக 31
▁தசேதனமில 31
▁தடவ 31
▁ததாகத 31
▁ததுமான 31
▁தனிந 31
▁தனையோ 31
▁தரே 31
▁தலைமுறைதோறும 31
▁தலைமுறையின 31
▁தாமஸ 31
▁தாயும 31
▁திசைக 31
▁தினக 31
▁தியசாலையில 31
▁தியரும 31
▁திரச 31
▁திரியை 31
▁திரேலியாவிற 31
▁தீனத 31
▁துலகவாத 31
▁தூதனானவர 31
▁தெளிவானது 31
▁தேவையானால 31
▁தையிட 31
▁தையுடன 31
▁தொய 31
▁தோனேசியாவில 31
▁நலனை 31
▁நாசப 31
▁நாளாக 31
▁நிபுண 31
▁நியமனங 31
▁நிறுவிய 31
▁நிஷ 31
▁நீதியரசர 31
▁நீய 31
▁னணிப 31
▁னந 31
▁னெச 31
▁பகைஞ 31
▁பகைஞர 31
▁படகில 31
▁படுகிறான 31
▁பணயம 31
▁பதிலை 31
▁பரக 31
▁பழுத 31
▁பானி 31
▁பாயிருந 31
▁பாவிகள 31
▁பிடக 31
▁பிதாவ 31
▁பினவர 31
▁பிரசுர 31
▁பிரிகேடியர 31
▁பிரிவுகளையும 31
▁பிரேதக 31
▁பிவரப 31
▁பிவிடப 31
▁புவை 31
▁பூகோளப 31
▁பெயரளவிற 31
▁பெறுமதியான 31
▁பேராளர 31
▁பொலிசாருக 31
▁போதகரே 31
▁போராளிக 31
▁போவதற 31
▁மகனை 31
▁மதிவதனனும 31
▁மனுஷகுமார 31
▁மனோரமா 31
▁மரம 31
▁மானியம 31
▁மாலிகி 31
▁முறியடிப 31
▁முறைமையின 31
▁முறையால 31
▁மேலாண 31
▁மேலோட 31
▁மையாகவே 31
▁யாதொன 31
▁ராதாரவி 31
▁ராவில 31
▁ரியை 31
▁ரீமாசென 31
▁றவாறு 31
▁றாமல 31
▁றுபேர 31
▁றுவதன 31
▁லாமலே 31
▁லாவிதமான 31
▁லியனில 31
▁லுமாறு 31
▁லென 31
▁ளிச 31
▁ளையர 31
▁வசப 31
▁வதேசச 31
▁வருவாயில 31
▁வரையப 31
▁வரையறுத 31
▁வறுமையும 31
▁வலிமைப 31
▁வழிபாட 31
▁வாகிகளுக 31
▁வாதிடுகின 31
▁வாரியத 31
▁வாலில 31
▁விடுங 31
▁விலி 31
▁விழைவ 31
▁விவசாயப 31
▁விவரத 31
▁வுநாளில 31
▁வெளியீடுகள 31
▁வெளியேறுவதற 31
▁வேவு 31
▁வொருவர 31
▁ஸநோ 31
▁ஸவில 31
▁ஸாஸ 31
-6 30
BC 30
MS 30
RG 30
TU 30
VD 30
ail 30
aint 30
ama 30
arl 30
du 30
ics 30
iv 30
ng 30
uss 30
கிழக 30
சீர 30
சென 30
டெல 30
தானால 30
தினாலே 30
தையே 30
நாடுகள 30
நிலைம 30
பரியந 30
பவர 30
மணி 30
யூ 30
றிவ 30
ளங 30
ழுவ 30
வண 30
வுஸ 30
வேள 30
வைதான 30
வையில 30
ஷீ 30
ஹித 30
ாகிவிட 30
ாசை 30
ாதீர 30
ானதல 30
ாயகர 30
ாயங 30
ிகளிலிருந 30
ிகின 30
ிசன 30
ினஸ 30
ிரண 30
ிலிருக 30
ிவருகிறது 30
ைமிக 30
ையினிமித 30
ையோடும 30
ொச 30
ொழிய 30
ோரும 30
▁1.1 30
▁1.8 30
▁2.6 30
▁21- 30
▁3.4 30
▁70,000 30
▁8- 30
▁ANC 30
▁Commission 30
▁Du 30
▁Econom 30
▁Economic 30
▁Er 30
▁Garamond 30
▁ICFI 30
▁JP 30
▁Jan 30
▁Jones 30
▁Or 30
▁PML 30
▁Part 30
▁Ren 30
▁Rifondazione 30
▁h 30
▁images 30
▁l 30
▁அஜய 30
▁அபாயகரமான 30
▁அருமையான 30
▁அரேபியர 30
▁அரைடஜன 30
▁அறிஞர 30
▁அவாந 30
▁ஆளாகி 30
▁இசைப 30
▁இசைவ 30
▁இடிந 30
▁இதழான 30
▁இயேசுவை 30
▁இறுதியான 30
▁ஈழம 30
▁உடலை 30
▁உதவிச 30
▁உரிமையையும 30
▁உளநோய 30
▁எதிராள 30
▁எதிரிட 30
▁எபிரெய 30
▁எமோர 30
▁எழுதியதாவது 30
▁ஏவிஎம 30
▁ஐங 30
▁ஒருசில 30
▁ஒருமனதாக 30
▁கடவுளின 30
▁கடைகள 30
▁கமலுக 30
▁கரையோரப 30
▁களையாவது 30
▁கவலைக 30
▁காஞ 30
▁காதலன 30
▁காதலை 30
▁காலவரையின 30
▁காவலுக 30
▁காவிடம 30
▁காவிலேயே 30
▁கிரஸின 30
▁கிராண 30
▁கிளிப 30
▁கீச 30
▁குகளுடன 30
▁குடிகளும 30
▁குடிபெயர 30
▁குதிக 30
▁குறிவைக 30
▁குறுதிகள 30
▁குறைகூறியுள 30
▁குலுக 30
▁குழியில 30
▁குவதாகும 30
▁குவதையும 30
▁குவாதம 30
▁கூடாதிருந 30
▁கூண 30
▁கெதல 30
▁கைமாற 30
▁கையாயிருக 30
▁கோசோவ 30
▁கோணத 30
▁கோருவதற 30
▁கோலிவுட 30
▁சகோதரனை 30
▁சனக 30
▁சனசமூக 30
▁சபர 30
▁சபைகள 30
▁சபைகளுக 30
▁சராசர 30
▁சலித 30
▁சவூதி 30
▁சாதனைகள 30
▁சாவுக 30
▁சிதைப 30
▁சீனர 30
▁சுழல 30
▁செயலாளருமான 30
▁செலவாகும 30
▁செவிட 30
▁சேவையாற 30
▁ஜனநாய 30
▁ஜாதிகளும 30
▁டகத 30
▁டகனுக 30
▁டநாமோ 30
▁டரும 30
▁டினதும 30
▁டியடித 30
▁டியம 30
▁டீபன 30
▁டுநர 30
▁டுமேன 30
▁ணீரைக 30
▁தசமப 30
▁தபடியாக 30
▁தயம 30
▁தயாரான 30
▁தரணி 30
▁தருவதை 30
▁தலால 30
▁தலைமுறையாக 30
▁தலைவராகவும 30
▁தவிட 30
▁தாடி 30
▁தானிலிருந 30
▁தாராளவாதிகள 30
▁திகதியில 30
▁திடையே 30
▁தியபோது 30
▁தியமாகும 30
▁தியருக 30
▁திரைய 30
▁திரையை 30
▁திறனுடைய 30
▁துணைச 30
▁துதிக 30
▁துநால 30
▁துமாவ 30
▁துருத 30
▁துரைப 30
▁துவதால 30
▁துவிடலாம 30
▁துவிடுகிறது 30
▁தூதனை 30
▁தேடுகிறவர 30
▁நடமாடும 30
▁நடிகையாக 30
▁நடுநிலை 30
▁நனவுபூர 30
▁நனவை 30
▁நாசா 30
▁நாடுகளைச 30
▁நாயகிகள 30
▁நிதானமான 30
▁நினைய 30
▁நிரலில 30
▁நிறை 30
▁நிறையவே 30
▁நிலையானது 30
▁நீதியும 30
▁நேரடியாகவே 30
▁நோயாளியின 30
▁னச 30
▁பகுதிகளையும 30
▁பசுபதி 30
▁படமுடியும 30
▁படேகர 30
▁பதா 30
▁பரிபூர 30
▁பலவீனத 30
▁பலிகொண 30
▁பலியானவர 30
▁பாகாலின 30
▁பாணி 30
▁பாணியிலான 30
▁பாதகமான 30
▁பாதுகாவல 30
▁பாவநிவாரணபலியாக 30
▁பிஜேப 30
▁பிரகாரமாக 30
▁பிரிவைச 30
▁பீச 30
▁பீடிக 30
▁பீதியில 30
▁பீதியை 30
▁புகளுடன 30
▁புகைக 30
▁புதியதொரு 30
▁பூசலில 30
▁பெரித 30
▁பெருகிவிட 30
▁பெருமூச 30
▁பெறுபேறாக 30
▁பேரழிவில 30
▁பேராவது 30
▁பொதுவில 30
▁பொருளாகும 30
▁பொறியியலாளர 30
▁பொழுதோ 30
▁போச 30
▁போடுவதற 30
▁போதன 30
▁போனேன 30
▁போராடுகிறது 30
▁போலீசாரை 30
▁பௌதீக 30
▁மடக 30
▁மதசார 30
▁மயங 30
▁மரணங 30
▁மறுஒழுங 30
▁மாறியிருக 30
▁மாள 30
▁மாளிகையும 30
▁மீறுவதாக 30
▁முதுகில 30
▁முறைகளின 30
▁மூலமாய 30
▁மெளச 30
▁மைதானத 30
▁மௌ 30
▁யினால 30
▁யேக 30
▁ராதா 30
▁ரீப 30
▁ரூக 30
▁றமை 30
▁றலாம 30
▁றியடைந 30
▁றியபோது 30
▁றிலே 30
▁றீடாக 30
▁றுகைக 30
▁லவே 30
▁லூயி 30
▁லையைக 30
▁லொகேஷன 30
▁ளுவதை 30
▁வசதிகளும 30
▁வனின 30
▁வலர 30
▁வளைகுட 30
▁வழியமைத 30
▁வாதிடும 30
▁வாயிலே 30
▁வாயைத 30
▁வாரி 30
▁விகண 30
▁வியும 30
▁வியைத 30
▁விவரிப 30
▁வுகளையும 30
▁வெளியானது 30
▁வேறொருவன 30
▁ஷரோனுக 30
▁ஸாரி 30
▁ஹலோ 30
▁ஹீரோயினாக 30
▁ஹுசைனின 30
▁ஹோமினின 30
,6 29
-200 29
SN 29
aff 29
ahn 29
ec 29
eration 29
ern 29
ford 29
form 29
ich 29
ix 29
ont 29
top 29
uel 29
இப 29
உத 29
காந 29
சபை 29
சியா 29
ஜனநாயக 29
ஞர 29
ணிந 29
ணியின 29
தார 29
துமாகும 29
நான 29
நாளில 29
நூல 29
பாரதி 29
மாகியுள 29
மாத 29
மானதாக 29
முறையில 29
ருடம 29
ருளும 29
வாதி 29
வொரு 29
ானான 29
ானேன 29
ாயிருங 29
ிகர 29
ிடிப 29
ினின 29
ிமார 29
ியமான 29
ியாவார 29
ிளக 29
ீமின 29
ீரா 29
ீரின 29
ுகர 29
ுவதாகும 29
ெழுத 29
ேஷியா 29
ைகிறது 29
ைவிடக 29
ொழுத 29
ோராம 29
▁011 29
▁1- 29
▁110 29
▁14,000 29
▁186 29
▁1963 29
▁29- 29
▁AD 29
▁Fort 29
▁Hans 29
▁LDP 29
▁LLC 29
▁Mo 29
▁Mor 29
▁Peter 29
▁Port 29
▁Rights 29
▁SWP 29
▁Sa 29
▁Scott 29
▁She 29
▁So 29
▁அகங 29
▁அடியானாகிய 29
▁அதிகாலமே 29
▁அனாத 29
▁அறைந 29
▁அளவிட 29
▁அவமானத 29
▁அஷ 29
▁ஆகாபின 29
▁ஆகியோரால 29
▁ஆதாயங 29
▁ஆமா 29
▁ஆறாவது 29
▁ஆலோசனைகளை 29
▁ஆளான 29
▁இடதுகட 29
▁இடமும 29
▁இடைவேள 29
▁இராய 29
▁இறுதிச 29
▁இழுப 29
▁இவைகளின 29
▁இவைகளெல 29
▁உடையவன 29
▁உபயோகித 29
▁உரியவர 29
▁உரைகள 29
▁ஊடகப 29
▁ஊழ 29
▁எரேமியாவுக 29
▁ஏஜன 29
▁ஏராள 29
▁ஏரோது 29
▁ஒசாமா 29
▁ஒருவரே 29
▁ஓடிவந 29
▁ஓஸ 29
▁கடியானது 29
▁கடுக 29
▁கலா 29
▁கலாப 29
▁கழிப 29
▁கவனக 29
▁காசாப 29
▁காசியாவிலும 29
▁காதலர 29
▁காபூலில 29
▁காமன 29
▁காலியாக 29
▁கிரான 29
▁கிறபடியே 29
▁குசெய 29
▁குடியமர 29
▁குணத 29
▁குதிரைவீரர 29
▁குறுதிய 29
▁குவதுடன 29
▁கூடுமோ 29
▁கெளரவத 29
▁கேரி 29
▁கோபமும 29
▁கோளாற 29
▁சகோதரராகிய 29
▁சதிகார 29
▁சபதம 29
▁சமஸ 29
▁சயனித 29
▁சரிவுற 29
▁சலுகைகளுக 29
▁சாகமாக 29
▁சாரகர 29
▁சாரப 29
▁சாவடிகள 29
▁சிகோ 29
▁சிதறடித 29
▁சினையும 29
▁சியூட 29
▁சிறைகளில 29
▁சிவன 29
▁சீரியர 29
▁சூம 29
▁சேவைகளும 29
▁சோவினிச 29
▁ஜந 29
▁ஜோச 29
▁டதுமான 29
▁டதோ 29
▁டமா 29
▁டாரா 29
▁டியிலிருந 29
▁டுவில 29
▁டொ 29
▁டோசெஷன 29
▁டோல 29
▁டோவிற 29
▁டோவை 29
▁ணுகிறேன 29
▁தகனபலி 29
▁தகனபலிகளையும 29
▁ததுண 29
▁தனின 29
▁தனைகளையும 29
▁தலர 29
▁தலைமயிர 29
▁தானாகிய 29
▁திசாலித 29
▁திமிரு 29
▁தியாயம 29
▁திரீகளும 29
▁திறனாய 29
▁திறனில 29
▁திறமையற 29
▁துகொ 29
▁துமீற 29
▁துவற 29
▁தூஷ 29
▁தெருவ 29
▁தெளிந 29
▁தெளிவாயிற 29
▁தேவானந 29
▁தேவையானது 29
▁தைகளைப 29
▁தோனேசியா 29
▁நடுந 29
▁நனவுடன 29
▁நபரை 29
▁நாகர 29
▁நாணயங 29
▁நிமிர 29
▁நியமங 29
▁நிலைகளுக 29
▁நிலைகுல 29
▁நிலையிலுள 29
▁நுழைவு 29
▁நூனின 29
▁நெறிமுறைகள 29
▁நைஜீர 29
▁னுடையது 29
▁னுதாரண 29
▁னோடு 29
▁படமே 29
▁படலாகாது 29
▁படுகொலையில 29
▁பதாகவே 29
▁பதிந 29
▁பலதரப 29
▁பலவீனம 29
▁பழித 29
▁பாடசாலையில 29
▁பாடலில 29
▁பாதையின 29
▁பாரிசின 29
▁பாலாவின 29
▁பிகள 29
▁பிசாசு 29
▁பினருக 29
▁பினையும 29
▁பியக 29
▁பிரசவ 29
▁பிரதமரின 29
▁பிரிவினைவாதத 29
▁பிரிவுக 29
▁பிளாட 29
▁புளோரிட 29
▁பெருநகர 29
▁பெலத 29
▁பேசுகிறது 29
▁பொருளைத 29
▁பொறியாளர 29
▁போகட 29
▁போஜனபலியாக 29
▁போதோ 29
▁போலக 29
▁மகனுக 29
▁மகிமையை 29
▁மதுமிதா 29
▁மனிதகு 29
▁மனிதனை 29
▁மனிதவள 29
▁மனைவியின 29
▁மாதப 29
▁மாதமும 29
▁மீதே 29
▁மீறியுள 29
▁முடிவடையும 29
▁முடிவதற 29
▁முடிவுப 29
▁முரணாக 29
▁முறையற 29
▁மூலதனச 29
▁மைகளின 29
▁மையினரை 29
▁மொரோக 29
▁மோதும 29
▁யாதபடிக 29
▁யெப 29
▁யோகனான 29
▁யோசியாவின 29
▁யோபு 29
▁ரஜினியை 29
▁ரவேலைப 29
▁ராமேஸ 29
▁ரீராம 29
▁ரெபெக 29
▁ரோசாப 29
▁றண 29
▁றதோடு 29
▁றமானது 29
▁றளவில 29
▁றிவரும 29
▁றுகிற 29
▁லல 29
▁லிமிடெட 29
▁லூயிஸ 29
▁லெபனானின 29
▁லெபனானை 29
▁லைபீர 29
▁லோங 29
▁லோவேன 29
▁ழ 29
▁வகைக 29
▁வமாய 29
▁வரையறைக 29
▁வலுக 29
▁வலுவிழக 29
▁வளமான 29
▁வழிமுறை 29
▁வாசகம 29
▁வானில 29
▁விசா 29
▁வினால 29
▁வியாபாரி 29
▁வியோ 29
▁விலைகளை 29
▁விலையேற 29
▁விளாடிமீர 29
▁விளைச 29
▁விவாதமும 29
▁விஷக 29
▁வெளிநாடுகளுக 29
▁வேலுப 29
▁ஷியாவோவின 29
▁ஷிவ 29
▁ஹெரால 29
CT 28
EP 28
FI 28
MI 28
TE 28
ari 28
ene 28
erson 28
ise 28
ks 28
ky 28
lk 28
nt 28
ouse 28
rich 28
sh 28
up 28
அவுட 28
கமுவ 28
காலனித 28
சுக 28
டையவில 28
ணன 28
நேர 28
நேரம 28
னைத 28
யஸ 28
ரஹ 28
ரீதியில 28
றுத 28
ளவே 28
ழுச 28
வாழ 28
விழ 28
ாமன 28
ாலங 28
ாலினி 28
ாளின 28
ிமட 28
ிமுத 28
ிருஷ 28
ிறந 28
ிழப 28
ுவல 28
ூழ 28
ேகர 28
ேயா 28
ையானவர 28
ையாலும 28
ோரில 28
ோரை 28
▁286 28
▁69 28
▁89 28
▁Alex 28
▁Ben 28
▁Bou 28
▁Conf 28
▁Count 28
▁Ed 28
▁Fran 28
▁Frankfurter 28
▁GD 28
▁Ger 28
▁Independent 28
▁Jo 28
▁Jos 28
▁Klaus 28
▁Mag 28
▁Obs 28
▁Organ 28
▁Popular 28
▁SCO 28
▁Stud 28
▁Wal 28
▁அகலவத 28
▁அகாட 28
▁அடையாளச 28
▁அணிய 28
▁அணிவித 28
▁அதம 28
▁அதிகமாகவும 28
▁அதிகமாகிவிட 28
▁அதிகமானது 28
▁அதிகாரியை 28
▁அதினிமித 28
▁அதோடு 28
▁அனனியா 28
▁அனல 28
▁அபராத 28
▁அமோக 28
▁அரைம 28
▁அறவிடப 28
▁அளவுகள 28
▁அவசரக 28
▁அவல 28
▁அவளோடே 28
▁ஆசாரியனுக 28
▁ஆதாம 28
▁ஆதாய 28
▁இடதுப 28
▁இதழின 28
▁இமான 28
▁இரையாக 28
▁இளையராஜ 28
▁உதாரணமாகும 28
▁உறவுகளைக 28
▁உளவுப 28
▁ஊதி 28
▁ஊழியம 28
▁எதிரானவர 28
▁எலெயாசார 28
▁எழுதிக 28
▁ஒகென 28
▁ஒண 28
▁ஒருமுகப 28
▁கடாவும 28
▁கடினமானது 28
▁கமளிக 28
▁கமாகப 28
▁கராச 28
▁கரீனா 28
▁கருதுவது 28
▁கறையின 28
▁கலையும 28
▁களாகப 28
▁காசியாவில 28
▁காரி 28
▁காவி 28
▁கிகளால 28
▁கிரமசாலிகள 28
▁கிறதைப 28
▁கிலான 28
▁கிவ 28
▁குதிரைகளின 28
▁குமிழி 28
▁குமுறைகளை 28
▁குறைவாகத 28
▁குழுவைச 28
▁கூறியதுடன 28
▁கெவின 28
▁கைகலப 28
▁கைபோட 28
▁கொதித 28
▁கொரு 28
▁கோஷம 28
▁சமச 28
▁சயதார 28
▁சவுலும 28
▁சாதக 28
▁சாவான 28
▁சிகளுமே 28
▁சியளிக 28
▁சியளித 28
▁சியாவின 28
▁சியொன 28
▁சிவாஜியின 28
▁சுயதொழில 28
▁சூழலுக 28
▁செடிய 28
▁செயலக 28
▁செலவ 28
▁செழும 28
▁சேவையின 28
▁சௌத 28
▁ஜலம 28
▁ஜவ 28
▁ஜீவனையும 28
▁டளைகளின 28
▁டவனாகிய 28
▁டாடப 28
▁டியர 28
▁டியுடன 28
▁டிரி 28
▁டீச 28
▁டுகளைப 28
▁டுகிறேன 28
▁டுந 28
▁டுவிடவில 28
▁டெஸ 28
▁டையே 28
▁டோனால 28
▁தகவலும 28
▁தசாவத 28
▁ததிற 28
▁தனைகளுக 28
▁தமாயிருப 28
▁தமுடியாத 28
▁தரவாதங 28
▁தருணம 28
▁தலைநகருக 28
▁தலைமுறைக 28
▁தலைமைகள 28
▁தவிப 28
▁தாமலும 28
▁தாயகத 28
▁தாராகிய 28
▁தாளான 28
▁தாஸ 28
▁திகைத 28
▁திடுவதற 28
▁தியகிழக 28
▁தியாய 28
▁தியாவசியமான 28
▁தியிலிருந 28
▁திறனற 28
▁திலின 28
▁திலீப 28
▁தீனர 28
▁தீவுக 28
▁துடனே 28
▁துதிய 28
▁துநிற 28
▁துபார 28
▁துபோவார 28
▁துரையாடப 28
▁துறந 28
▁துவதின 28
▁துவதோடு 28
▁தேங 28
▁தேசியம 28
▁தேவனைப 28
▁தொழிலின 28
▁நலச 28
▁நலிவ 28
▁நாயகத 28
▁நிதிம 28
▁நிலவியது 28
▁நிலைகளின 28
▁நுர 28
▁நெடுநாள 28
▁படகுகளை 28
▁படவிழ 28
▁படுவாய 28
▁பரிசோத 28
▁பாடியுள 28
▁பாடுகளைக 28
▁பாந 28
▁பாரட 28
▁பாலியா 28
▁பாலே 28
▁பாளராகவும 28
▁பிரசுரத 28
▁பிரதமரும 28
▁பிரயோகித 28
▁பிரிவோம 28
▁பிரிஸ 28
▁பிரே 28
▁பிலுள 28
▁பிளிக 28
▁புகலிட 28
▁புகளிலும 28
▁புதித 28
▁புனரமைப 28
▁புனிதப 28
▁புபவர 28
▁புருஷனுக 28
▁புறச 28
▁புலத 28
▁புளித 28
▁பெனியின 28
▁பெரியளவிலான 28
▁பெஷ 28
▁பேசவேண 28
▁பேசியதாவது 28
▁பைஜ 28
▁பொலிசுக 28
▁போடுவது 28
▁மகுடம 28
▁மணமக 28
▁மதன 28
▁மனநிற 28
▁மயத 28
▁மலரும 28
▁மாலும 28
▁மாவோவின 28
▁மிங 28
▁முகமது 28
▁முகாமையாளர 28
▁முடியுமோ 28
▁முதலும 28
▁முறையினால 28
▁மைவாத 28
▁மோகினி 28
▁மோசேயையும 28
▁யாகு 28
▁யே 28
▁ரகுவர 28
▁ரமல 28
▁ரிஷாவின 28
▁ரீதர 28
▁ரெப 28
▁ரெஸ 28
▁ரோசன 28
▁றுவருகின 28
▁லாய 28
▁லீல 28
▁லுகிறவன 28
▁லெபனானுக 28
▁லைட 28
▁லையெனில 28
▁ளகக 28
▁ளதென 28
▁ளவள 28
▁ளினார 28
▁வகைகளில 28
▁வருகிறான 28
▁வருமென 28
▁வலதுபுறம 28
▁வலிய 28
▁வலுசர 28
▁வழியிலும 28
▁வியா 28
▁வியூட 28
▁விலைகளில 28
▁விலையுயர 28
▁விளைவிப 28
▁வெளியேறிவிட 28
▁வெளிவருவ 28
▁வெளிவிட 28
▁வேதனைப 28
▁வேலையாட 28
▁ஷாங 28
▁ஸெந 28
▁ஹிர 28
▁ஹிலாரி 28
▁ஹொ 28
,9 27
.25 27
33 27
NC 27
SS 27
ae 27
air 27
ath 27
iet 27
oss 27
pl 27
ris 27
za 27
இலங 27
சேகரன 27
சை 27
ஜர 27
டபிள 27
டைவார 27
மாற 27
முத 27
யான 27
யுடன 27
ரமாக 27
ருது 27
வுன 27
வேறு 27
வைகளில 27
ாசிங 27
ாதிபதியாகிய 27
ாமியின 27
ாயிரு 27
ாரை 27
ாறாக 27
ிகி 27
ிஜ 27
ிமா 27
ியஸ 27
ியாளர 27
ியோடு 27
ிறங 27
ிறோம 27
ுகிறதைக 27
ுதியின 27
ுயற 27
ுலில 27
ூடன 27
ூமி 27
ெரிப 27
ொற 27
ோடா 27
ோவர 27
▁...... 27
▁125 27
▁150,000 27
▁1959 27
▁2.7 27
▁230 27
▁3.2 27
▁9- 27
▁Alliance 27
▁Ap 27
▁Brice 27
▁CASE 27
▁CN 27
▁Camp 27
▁Cent 27
▁DA 27
▁Des 27
▁Equality 27
▁Fucking 27
▁George 27
▁IDF 27
▁Labour 27
▁Lufthansa 27
▁Mail 27
▁Online 27
▁RMI 27
▁Review 27
▁Rom 27
▁SBE 27
▁Tele 27
▁du 27
▁அகத 27
▁அகதிகளின 27
▁அதுக 27
▁அபராதங 27
▁அபியத 27
▁அராசங 27
▁அறியேன 27
▁அறிவுரை 27
▁அறுவ 27
▁அலையை 27
▁அழிவிற 27
▁ஆசா 27
▁ஆடுகளையும 27
▁ஆணையம 27
▁ஆதரவுடைய 27
▁ஆயுதபாண 27
▁ஆராதனைசெய 27
▁ஆலோசித 27
▁இடமளிக 27
▁இதய 27
▁இதுகுறித 27
▁இதுவாகும 27
▁இலகுவாக 27
▁இவருடன 27
▁ஈடுபடுவது 27
▁ஈரானியர 27
▁உணவுக 27
▁உதவியில 27
▁உதவியையும 27
▁உதிக 27
▁உறிஞ 27
▁எதிராகவே 27
▁ஏதாகிலும 27
▁ஏயர 27
▁ஓவ 27
▁கசிவு 27
▁கடையில 27
▁கதரிசிகளும 27
▁கதிக 27
▁கதைப 27
▁கதையாம 27
▁கனடாவில 27
▁கமலை 27
▁கருதினர 27
▁கறைகள 27
▁கலகலப 27
▁கலாமா 27
▁களிமண 27
▁கழிந 27
▁கவலையும 27
▁காசோர 27
▁காதலில 27
▁காதவர 27
▁காமை 27
▁காரச 27
▁காளைகளையும 27
▁கிகளையும 27
▁கினோம 27
▁கிபியோன 27
▁கியூபாவின 27
▁கிறதுமில 27
▁கிலிடப 27
▁கிளிஃப 27
▁கிழந 27
▁கீடுகளை 27
▁கீழுள 27
▁குதலானது 27
▁குமுறையின 27
▁குரைஞர 27
▁குறிசொல 27
▁குறைகூறினார 27
▁குவதோடு 27
▁கூடச 27
▁கூடல 27
▁கூறத 27
▁கேமராமேன 27
▁கையாகக 27
▁கொடுமைகள 27
▁கொலைகளுக 27
▁கோயிலில 27
▁கோலை 27
▁சகிப 27
▁சகோதரத 27
▁சமப 27
▁சமாரியாவின 27
▁சமின 27
▁சமூகமளிக 27
▁சவடால 27
▁சவப 27
▁சிகரத 27
▁சிதறுண 27
▁சிநேகிதர 27
▁சிபிராஜ 27
▁சிறிமாவோ 27
▁சீமேய 27
▁சுயநிர 27
▁சூள 27
▁சேகாவுக 27
▁சேமித 27
▁சேஸ 27
▁சைத 27
▁சோவ 27
▁ஜாமீன 27
▁ஜூல 27
▁ஜெபத 27
▁ஜெருசலேம 27
▁டசால 27
▁டலாக 27
▁டவற 27
▁டாரின 27
▁டிவிகித 27
▁டீசல 27
▁டுகிறோம 27
▁டுமிருகங 27
▁ணளவாக 27
▁ணாமலும 27
▁ணுகிறீர 27
▁ணுவித 27
▁தகச 27
▁தகுதியுள 27
▁தனதாக 27
▁தனையில 27
▁தராது 27
▁தலிபானுக 27
▁தலைகாட 27
▁தலைவனாகிய 27
▁தவறி 27
▁தவறினால 27
▁தவைகள 27
▁தாரோ 27
▁தாவை 27
▁தினையும 27
▁தினோம 27
▁தியதாகவும 27
▁திரிகளும 27
▁திரியா 27
▁திரீகளையும 27
▁திவாலாக 27
▁திவைப 27
▁துபாய 27
▁துபோட 27
▁துமூன 27
▁துரையாடலை 27
▁துலகிலும 27
▁துவிடாது 27
▁துவிடுகின 27
▁துவினுடைய 27
▁தூஷித 27
▁தெரியவருகிறது 27
▁தெள 27
▁தொகையைக 27
▁தொழிலாளவர 27
▁நானங 27
▁நிலுவ 27
▁நேரப 27
▁னமே 27
▁னிருந 27
▁பகுதிகளிலிருந 27
▁பசுபிக 27
▁படிகள 27
▁படையாகத 27
▁படைவாதத 27
▁பணியாகும 27
▁பதினே 27
▁பரலோகராஜ 27
▁பரிசோதகர 27
▁பரிசோதனைக 27
▁பரிப 27
▁பாடக 27
▁பிடென 27
▁பிரயாசப 27
▁பிரியப 27
▁பிளந 27
▁பிளேயரை 27
▁புரிவ 27
▁புவா 27
▁பூமியெங 27
▁பெயினும 27
▁பெரிச 27
▁பெருகின 27
▁பெருநிறுவ 27
▁பேசியிருக 27
▁பையே 27
▁பொருளில 27
▁பொருளுர 27
▁பொறாம 27
▁போனதால 27
▁போலிருந 27
▁மதியம 27
▁மனைவிய 27
▁மரபண 27
▁மரபுரிம 27
▁மலாட 27
▁மலைவாழ 27
▁மாடுகளையும 27
▁மாவோவாத 27
▁மீரி 27
▁முகமூடி 27
▁முடி 27
▁முனைவ 27
▁முறையுடன 27
▁மூடிமறைத 27
▁மேசைக 27
▁மேடைக 27
▁மையமான 27
▁மையாகவும 27
▁மொழிச 27
▁யமான 27
▁யமுடியும 27
▁யாசின 27
▁யூனிசத 27
▁யெர 27
▁யோவாக 27
▁ரச 27
▁ரவேலருக 27
▁ராஜாங 27
▁ராமோத 27
▁ரீனிவ 27
▁ரீயஸ 27
▁ரெம 27
▁றமற 27
▁றிகளை 27
▁றினான 27
▁றியதாகும 27
▁லாவிய 27
▁லாவியா 27
▁லுகிறத 27
▁ளதுபோல 27
▁ளானார 27
▁ளுக 27
▁வடகொரியாவிற 27
▁வதேசக 27
▁வயலில 27
▁வருகிறாராம 27
▁வருவதோடு 27
▁வருவோம 27
▁வலதுசாரித 27
▁வலைதளத 27
▁வழியையும 27
▁வாசனையான 27
▁வாரன 27
▁வாரிக 27
▁வாலிபன 27
▁விடுதிகள 27
▁வியாளர 27
▁விளைப 27
▁விவசாயி 27
▁வீரப 27
▁வுதான 27
▁வெகுதூர 27
▁வெளியாகியுள 27
▁வெளியிடுகின 27
▁வெளியிலும 27
▁வேறுப 27
▁வேஷம 27
▁வைச 27
▁வைராக 27
▁ஷாப 27
▁ஷியாட 27
▁ஸாக 27
▁ஹீச 27
,4 26
.08 26
.12 26
100 26
98 26
aul 26
ein 26
eng 26
hu 26
ime 26
ital 26
king 26
nes 26
ns 26
port 26
tal 26
இருந 26
தாயிருக 26
தியா 26
நம 26
மாயின 26
ரமான 26
விலங 26
வீர 26
வுமில 26
வெற 26
ஹா 26
ாகாது 26
ானா 26
ாபாத 26
ாலன 26
ாவா 26
ாவாய 26
ிநித 26
ியிருப 26
ியோன 26
ிராக 26
ிவழங 26
ிவாக 26
ிவித 26
ீணீ 26
ீஷீ 26
ுகமாக 26
ுகிறதென 26
ுடி 26
ுவதுபோல 26
ுவதே 26
ூரின 26
ைகின 26
ைபோட 26
ையாயிருப 26
ோனையும 26
▁170 26
▁192 26
▁240 26
▁27- 26
▁3.1 26
▁8.2 26
▁97 26
▁AFP 26
▁Aut 26
▁BAFI 26
▁Bund 26
▁Cons 26
▁Front 26
▁Go 26
▁Ha 26
▁Hel 26
▁NPT 26
▁PKK 26
▁Par 26
▁Pierre 26
▁SS 26
▁South 26
▁Standard 26
▁Sun 26
▁TM 26
▁Ter 26
▁University 26
▁ii 26
▁அசொ 26
▁அடுப 26
▁அடைவது 26
▁அணியினர 26
▁அணியும 26
▁அதிகமாகக 26
▁அதிபதியின 26
▁அநுராதப 26
▁அனுதாபத 26
▁அபிகாச 26
▁அமீரின 26
▁அரசையும 26
▁அரணிப 26
▁அரிக 26
▁அருந 26
▁அறநெறி 26
▁அறிகுறி 26
▁அளவின 26
▁அழகி 26
▁அவசரப 26
▁அவனில 26
▁அவனோ 26
▁அவைத 26
▁ஆகாரம 26
▁ஆசாரியனுடைய 26
▁ஆணைகள 26
▁ஆதரவாளராக 26
▁ஆனத 26
▁ஆளில 26
▁ஆவியின 26
▁இதுக 26
▁இனித 26
▁இழுபட 26
▁இவைகளுக 26
▁ஈரானுடனான 26
▁ஈராம 26
▁உணரும 26
▁உணவை 26
▁உயரம 26
▁உயரமும 26
▁உயிரின 26
▁உறவுக 26
▁உலகக 26
▁ஊகம 26
▁எகுட 26
▁எதிரியான 26
▁எரிகோவின 26
▁எழுதியிருப 26
▁ஏலாம 26
▁ஏள 26
▁ஏழைகளின 26
▁ஒருவனையும 26
▁ஒருவரோடொருவர 26
▁ஒருவித 26
▁ஒலித 26
▁ஓரு 26
▁கசிவ 26
▁கடியிலிருந 26
▁கடுப 26
▁கணனி 26
▁கனி 26
▁கரையிலே 26
▁கறைக 26
▁கலானது 26
▁கலைவ 26
▁களைந 26
▁கழுதைகள 26
▁காசாவிற 26
▁காதலுக 26
▁காதிருப 26
▁கானானியர 26
▁கானுக 26
▁காரரில 26
▁காலடி 26
▁காவலாளர 26
▁காவினால 26
▁கிடமில 26
▁கிந 26
▁கினியிலே 26
▁கியமானதாக 26
▁கிரகலட 26
▁கிராமவாச 26
▁கிறாயா 26
▁கிளைன 26
▁கீகரிப 26
▁குகர 26
▁குகூட 26
▁குடியில 26
▁குதற 26
▁குதலாகும 26
▁குதலைக 26
▁குனரின 26
▁குறுந 26
▁கெடுவை 26
▁கெளதம 26
▁கைந 26
▁கைவண 26
▁கொலைகாரர 26
▁கோடிகள 26
▁கோபப 26
▁கோலிஸ 26
▁கோளாகக 26
▁சனி 26
▁சபைத 26
▁சயன 26
▁சவு 26
▁சாரமானது 26
▁சிகளிடம 26
▁சிறுவய 26
▁சிலையை 26
▁சிவாஜ 26
▁சுசி 26
▁சுனில 26
▁சுரூபங 26
▁சுழ 26
▁சுவட 26
▁செண 26
▁செயலகங 26
▁செறிந 26
▁செவி 26
▁செவிகொடுங 26
▁சேபன 26
▁சேரனின 26
▁சைகள 26
▁சைவ 26
▁ஜெயிக 26
▁ஞானமும 26
▁டகனில 26
▁டசபை 26
▁டறிய 26
▁டளையிடும 26
▁டவனும 26
▁டவித 26
▁டாடுவதற 26
▁டினுள 26
▁டீல 26
▁டுமானங 26
▁டொன 26
▁டொல 26
▁ணியமான 26
▁ணீரைப 26
▁ணுகையில 26
▁ணுவான 26
▁ணூற 26
▁தகன 26
▁தகனிக 26
▁தகவலையும 26
▁தநிறுத 26
▁தபடியினாலே 26
▁தராக 26
▁தரிசனங 26
▁தலைசிறந 26
▁தலைமையானது 26
▁தவகையிலும 26
▁தவருக 26
▁தவோ 26
▁தானாகவே 26
▁தானையும 26
▁தாமதத 26
▁தாராவுக 26
▁தாவீதினிடத 26
▁தாவீதைப 26
▁திசாநாயக 26
▁திருகோணமலையில 26
▁திரைத 26
▁திறமைக 26
▁தீபா 26
▁தீமையை 26
▁தீரும 26
▁துரித 26
▁துவருகிற 26
▁துவவாதிகள 26
▁தெப 26
▁தேசியச 26
▁தேடிப 26
▁தேவராஜா 26
▁தையாகிலும 26
▁நசரேய 26
▁நாசவேல 26
▁நாளின 26
▁நிராயுதபாணிகளாக 26
▁நிருபங 26
▁நிறுவியுள 26
▁நிலைமையும 26
▁நிவர 26
▁நிவாரணம 26
▁நுழைக 26
▁நேக 26
▁நேசித 26
▁நைஜர 26
▁னணியாக 26
▁னதும 26
▁னோம 26
▁படின 26
▁படைச 26
▁பணமும 26
▁பணிகளும 26
▁பணியாக 26
▁பதவிகளுக 26
▁பதாகையின 26
▁பனைகளைக 26
▁பயனடைந 26
▁பரவும 26
▁பரான 26
▁பரிவ 26
▁பலூச 26
▁பவராக 26
▁பவருக 26
▁பாகமாகும 26
▁பாடசாலைக 26
▁பாடுப 26
▁பாயின 26
▁பாழான 26
▁பிடல 26
▁பிராயீமின 26
▁பிறகுதான 26
▁பீக 26
▁புகழப 26
▁புதலுக 26
▁புதைத 26
▁புராதன 26
▁பூனெல 26
▁பூப 26
▁பேணப 26
▁பேபி 26
▁பேரழிவுக 26
▁பேரழிவுகள 26
▁பேலாருஸ 26
▁பைய 26
▁பொதிகள 26
▁பொலிசாரின 26
▁பொலிசும 26
▁போதாத 26
▁போலியன 26
▁மகிமையையும 26
▁மனதாயிருந 26
▁மனாச 26
▁மருமகள 26
▁மறுதலித 26
▁மறுமலர 26
▁மறைபொருள 26
▁மழையும 26
▁மாளிகையை 26
▁மிகுதியான 26
▁மியூசிக 26
▁மீனா 26
▁மீறுவதாகும 26
▁முடியாதுள 26
▁முடிவெடுப 26
▁முனைகின 26
▁முறிவு 26
▁முறைகளையும 26
▁முறையைத 26
▁மூலிக 26
▁மேடைய 26
▁மேனிஸ 26
▁மொழியை 26
▁மொழிவுகள 26
▁மோசேயைக 26
▁யானைகள 26
▁யூனியனில 26
▁யோகி 26
▁ரிவ 26
▁ரோவ 26
▁றவள 26
▁றாகத 26
▁றாத 26
▁றிடத 26
▁றியாளர 26
▁றிவளைக 26
▁றோல 26
▁லாமை 26
▁லாஹ 26
▁லீட 26
▁லுகிறதாவது 26
▁ளனராம 26
▁ளபோது 26
▁ளிவிபரங 26
▁ளுமாறும 26
▁ளையடிப 26
▁வடபக 26
▁வதின 26
▁வலி 26
▁வலியத 26
▁வழியும 26
▁வவுன 26
▁விடாப 26
▁விதியின 26
▁வினாவை 26
▁விபரிக 26
▁விமானிகள 26
▁விரைவு 26
▁விவரண 26
▁வீடுகளைக 26
▁வுபூர 26
▁வேலையிலிருந 26
▁ஷால 26
▁ஷி 26
▁ஷெள 26
▁ஹூசேனுக 26
▁ஹோர 26
▁ஹோஸ 26
,3 25
-7 25
.06 25
96 25
AR 25
RA 25
ba 25
ech 25
els 25
mb 25
oma 25
oun 25
pan 25
red 25
yn 25
ü 25
அப 25
ஆரின 25
இராணுவ 25
காம 25
துவ 25
படிய 25
பிள 25
றல 25
வதி 25
வனுடைய 25
வேக 25
ாசிப 25
ாரிப 25
ிதி 25
ினிக 25
ியதன 25
ிரிக 25
ிரிப 25
ீவீ 25
ுநர 25
ுமே 25
ெது 25
ெலும 25
ெவ 25
ெஹ 25
ைநாட 25
ைமாத 25
ையச 25
ோசல 25
ோடர 25
ோறும 25
▁1923 25
▁194 25
▁1962 25
▁2.3 25
▁40- 25
▁79 25
▁Austral 25
▁Az 25
▁Bern 25
▁CBS 25
▁COOPER 25
▁Common 25
▁DI 25
▁DNA 25
▁Daniel 25
▁Em 25
▁Hin 25
▁Isl 25
▁Ko 25
▁Mart 25
▁Med 25
▁Nor 25
▁SVP 25
▁Science 25
▁Security 25
▁Sunday 25
▁Telegraph 25
▁WH 25
▁alt 25
▁அடிபட 25
▁அடிபணியச 25
▁அடைமானக 25
▁அணியை 25
▁அதிகமாகவே 25
▁அதேவேளையில 25
▁அனுகூல 25
▁அமரசிங 25
▁அமைதியும 25
▁அறியவில 25
▁அறியாதிருக 25
▁அறியாமலும 25
▁அலிகான 25
▁அவதான 25
▁அவனே 25
▁அவமான 25
▁அவரோடேகூட 25
▁ஆசியாவிற 25
▁ஆடு 25
▁ஆணையர 25
▁ஆவேசமாக 25
▁இதெல 25
▁ஈடுசெய 25
▁உசுப 25
▁உடனடியாகத 25
▁உணவிற 25
▁உதவுவதாக 25
▁உபயோகிக 25
▁உயிரினங 25
▁உருவாவதற 25
▁உறங 25
▁உலுக 25
▁உலோக 25
▁ஊகிக 25
▁ஊழலுக 25
▁எதிராகச 25
▁எறிக 25
▁எழுதுகின 25
▁ஏதோமின 25
▁ஏம 25
▁ஏராளம 25
▁ஏறும 25
▁ஏலத 25
▁ஐசுவர 25
▁ஒருவனாகிய 25
▁ஓபனிங 25
▁கடனாக 25
▁கனில 25
▁கரீதியான 25
▁கருடைய 25
▁கருதினார 25
▁கருது 25
▁கரையின 25
▁கறைப 25
▁கலையுலக 25
▁களாகத 25
▁களாகி 25
▁களானது 25
▁கவந 25
▁கவிதை 25
▁கானல 25
▁காரின 25
▁காரியால 25
▁காலூன 25
▁காவைப 25
▁காவோ 25
▁கிடும 25
▁கியாக 25
▁கிரசிற 25
▁கிரியைகளை 25
▁கிரியைகளையும 25
▁கீரியாத 25
▁குகிறீர 25
▁குமூலங 25
▁குவாமின 25
▁குவில 25
▁கூடிக 25
▁கூறுபாடுகளை 25
▁கேரியா 25
▁கேலி 25
▁கையாவது 25
▁கையிலேயே 25
▁கோய 25
▁கோலும 25
▁சதாகாலங 25
▁சரீரம 25
▁சரை 25
▁சவாலாக 25
▁சாரும 25
▁சாலொமோனின 25
▁சாவடிகளில 25
▁சாவடிகளை 25
▁சாவு 25
▁சிபி 25
▁சியற 25
▁சியாயிருக 25
▁சிறிதளவு 25
▁சிறிம 25
▁சிஹல 25
▁சீனியர 25
▁சுடர 25
▁சுள 25
▁செலவாக 25
▁சைல 25
▁ஜா 25
▁ஜாதிகளுடைய 25
▁ஜாவோ 25
▁ஜீப 25
▁ஜெயித 25
▁ஞானதிருஷ 25
▁டதாகத 25
▁டதானது 25
▁டனிலுள 25
▁டனைகள 25
▁டபோதிலும 25
▁டரசு 25
▁டவள 25
▁டாளிகளும 25
▁டிரான 25
▁டுபோ 25
▁டுவிழா 25
▁டைகளில 25
▁தறிவார 25
▁தலாலா 25
▁தலைமைச 25
▁தலையீற 25
▁தானியாவின 25
▁தாராளமாக 25
▁திஜீவிகள 25
▁திதான 25
▁தினவர 25
▁தியானது 25
▁தியாவசியப 25
▁திரமல 25
▁திரலோகத 25
▁திரையுலகினர 25
▁திவருகிறது 25
▁தீவிற 25
▁துடைம 25
▁துவை 25
▁தெரியல 25
▁தேவையின 25
▁தையாவது 25
▁தைரியத 25
▁தொடரான 25
▁தொனிக 25
▁தோஷமாக 25
▁நகராட 25
▁நனவாக 25
▁நிரலை 25
▁நிலைபெற 25
▁நிலையாக 25
▁நிவாரணப 25
▁நீரில 25
▁நூலக 25
▁நூலகத 25
▁நேரடியாகப 25
▁நோபல 25
▁னவர 25
▁பகம 25
▁பகுதிகளாக 25
▁படிவ 25
▁படுகொலைகளில 25
▁படுபவற 25
▁படுவதைத 25
▁பணியின 25
▁பமாகும 25
▁பரவியது 25
▁பரிவர 25
▁பரிஷத 25
▁பவு 25
▁பாடப 25
▁பாதியாக 25
▁பாருக 25
▁பிடுவேன 25
▁பிதாவினிடத 25
▁பிரதேசமான 25
▁பிரபலம 25
▁பிரயாணப 25
▁பிராத 25
▁பீதிக 25
▁புடனும 25
▁புதுச 25
▁புனரமைக 25
▁புமை 25
▁புரித 25
▁புரிவதற 25
▁புரு 25
▁புவாதம 25
▁பூரிக 25
▁பெனாதாத 25
▁பேரழிவுத 25
▁பொதிந 25
▁பொருளற 25
▁பொழிவ 25
▁போகச 25
▁போவதை 25
▁பௌத 25
▁மகம 25
▁மசடோன 25
▁மஜா 25
▁மனமகிழ 25
▁மனியர 25
▁மனுதாரர 25
▁மனைக 25
▁மாடு 25
▁மிள 25
▁மீறுகின 25
▁முறிப 25
▁மூடன 25
▁மூலமாகவும 25
▁மூலமோ 25
▁மூவ 25
▁மெசுல 25
▁மெதுவான 25
▁மையா 25
▁மையிலும 25
▁மோசமானது 25
▁யராஜின 25
▁யாவற 25
▁யாவிட 25
▁ரஜினியுடன 25
▁ராஜாவையும 25
▁ரீமேக 25
▁ரோபொன 25
▁றவாளிகளாக 25
▁றாலே 25
▁றாவதாக 25
▁றியிருப 25
▁றுமதிக 25
▁றுவட 25
▁றொபர 25
▁லாதவை 25
▁லையும 25
▁ளதில 25
▁ளியின 25
▁ளிருப 25
▁ளுவதாக 25
▁ளோ 25
▁வசதிகளையும 25
▁வசூலை 25
▁வடத 25
▁வடிகட 25
▁வரிசையாக 25
▁வரைபடம 25
▁வரைய 25
▁வலதுபக 25
▁வலதுபுறத 25
▁வலையமைப 25
▁வழியைத 25
▁வழிவகைகளில 25
▁வவுனியாவில 25
▁வஸந 25
▁வாகிகளும 25
▁வாதிடுகிறார 25
▁விசாரணைகளுக 25
▁விடங 25
▁விடுவதில 25
▁வினியோகிக 25
▁விரிவு 25
▁விரோதமாகச 25
▁விரோதி 25
▁விலகும 25
▁விளைபயனுள 25
▁விளைவே 25
▁வீணாக 25
▁வெறுமே 25
▁வெளிநாடுகள 25
▁வேதபாரகரும 25
▁வேறுவிதமாக 25
▁வோடு 25
▁ஷகிலா 25
▁ஷரத 25
▁ஷார 25
▁ஷீக 25
▁ஷீல 25
▁ஹு 25
▁ஹெலிகொப 25
▁ஹைஜென 25
,7 24
.07 24
48 24
74 24
99 24
CD 24
CF 24
ER 24
IV 24
LC 24
OR 24
RS 24
TO 24
` 24
ane 24
berg 24
ense 24
ien 24
ney 24
ome 24
one 24
oth 24
ration 24
set 24
son 24
uz 24
அரசாங 24
கரமாக 24
சாமி 24
சீன 24
ஜய 24
டப 24
பங 24
ரிச 24
ருவேன 24
ழை 24
வயது 24
ஹான 24
ஹார 24
ாஜன 24
ாதேயும 24
ாநாயக 24
ானுடைய 24
ானை 24
ாமாக 24
ாமோ 24
ாராக 24
ாளை 24
ாவைத 24
ியமுள 24
ியாகத 24
ிரும 24
ிலா 24
ிலையில 24
ிவெட 24
ுடம 24
ுரிமை 24
ூருவ 24
ேவன 24
ைமுற 24
ைவழ 24
ொய 24
ோவே 24
▁1.9 24
▁100- 24
▁13,000 24
▁175 24
▁196 24
▁1994- 24
▁2.4 24
▁2016 24
▁225 24
▁4.3 24
▁91 24
▁96 24
▁Alain 24
▁Ardipithecus 24
▁Association 24
▁Brzezinski 24
▁Centre 24
▁Cross 24
▁Gaz 24
▁Green 24
▁III 24
▁Jack 24
▁Liber 24
▁Martin 24
▁NBC 24
▁Net 24
▁North 24
▁Ohio 24
▁Red 24
▁SN 24
▁UDF 24
▁color 24
▁அகம 24
▁அடிபணிய 24
▁அடைமானங 24
▁அதிகாரமளிக 24
▁அதிமுக 24
▁அனுஷ 24
▁அமைதியற 24
▁அமைவாக 24
▁அரைப 24
▁அறியீர 24
▁அலகு 24
▁அலகுகள 24
▁அலப 24
▁அவனோட 24
▁அவரோடே 24
▁ஆகியோரிடம 24
▁ஆசரித 24
▁ஆசையை 24
▁ஆதாரமற 24
▁ஆரவாரம 24
▁ஆறுமாத 24
▁ஆலைக 24
▁இடமாற 24
▁இதுவரையில 24
▁இனது 24
▁இயேசுவினிடத 24
▁இயேசுவைக 24
▁இரகசியப 24
▁இரவிலே 24
▁இவைகளைக 24
▁இவைகளையெல 24
▁இவையனைத 24
▁ஈசாயின 24
▁உதவியளிக 24
▁உயிரோட 24
▁உரக 24
▁உருவானது 24
▁உரையின 24
▁உறுதிக 24
▁ஊகித 24
▁எதுவுமின 24
▁எனலாம 24
▁எரிபொருளை 24
▁எவை 24
▁ஒரிஜினல 24
▁ஓரம 24
▁கடலிலே 24
▁கடுமையாகப 24
▁கதரிசன 24
▁கதான 24
▁கனிக 24
▁கமில 24
▁கரவாதக 24
▁கருதிக 24
▁கலகக 24
▁களிடையேயும 24
▁கவாதிகள 24
▁கானதும 24
▁காரு 24
▁காலநிலை 24
▁கிடைச 24
▁கியதன 24
▁கிரசும 24
▁கிராமவாசிகள 24
▁கிரியைகளின 24
▁கிரீட 24
▁கிருபாசனத 24
▁கிரே 24
▁கிளில 24
▁கீதவாத 24
▁குகளைக 24
▁குதலைப 24
▁குருடர 24
▁குறிய 24
▁குறைவானது 24
▁குழுவையும 24
▁கூடாதபடிக 24
▁கூடாமல 24
▁கூடியவை 24
▁கூறமுடியாது 24
▁கூறுகிறேன 24
▁கூறை 24
▁கேடு 24
▁கேதுருமரங 24
▁கையர 24
▁கையைச 24
▁கோசியுடன 24
▁கோடைக 24
▁கோடைகாலத 24
▁கோவுடன 24
▁சகோதரியாகிய 24
▁சதிகாரமான 24
▁சனுக 24
▁சனுடைய 24
▁சமாஜ 24
▁சமாந 24
▁சமிருக 24
▁சமீபகாலமாக 24
▁சவுந 24
▁சாகாதபடிக 24
▁சாமான 24
▁சிகரப 24
▁சிதைவு 24
▁சினையின 24
▁சிறைவைக 24
▁சிலந 24
▁சிவகுமார 24
▁சீதை 24
▁சீருடை 24
▁செடி 24
▁செலவைக 24
▁செவிகள 24
▁சேரவேண 24
▁சேவல 24
▁ஜாதியார 24
▁ஜாலங 24
▁ஜூடித 24
▁ஜெயா 24
▁ஜோதிர 24
▁டடங 24
▁டந 24
▁டனைத 24
▁டபடியால 24
▁டயலாக 24
▁டவரைவை 24
▁டவைகள 24
▁டாடும 24
▁டாருக 24
▁டிநீக 24
▁டியொன 24
▁டிலில 24
▁டுகோளின 24
▁டுகோளுக 24
▁டுநிரப 24
▁டுமந 24
▁டுவச 24
▁டுவதோடு 24
▁ணாவிரதம 24
▁ணினவர 24
▁தகுதியற 24
▁தடையில 24
▁ததானால 24
▁ததினாலே 24
▁தரவெள 24
▁தரைச 24
▁தரையிறங 24
▁தளவிற 24
▁தானியா 24
▁தானோ 24
▁தாறும 24
▁தாவிட 24
▁தாவில 24
▁தாவுடன 24
▁திகதிக 24
▁திமான 24
▁திரனும 24
▁திரமாய 24
▁திவாலான 24
▁துபேர 24
▁துயரங 24
▁துயரம 24
▁துரோகிகள 24
▁துறைகளை 24
▁துறையும 24
▁துளி 24
▁துளிர 24
▁துவிடுவோம 24
▁துவித 24
▁தூணாக 24
▁தூல 24
▁தைதான 24
▁தைலத 24
▁நடராஜா 24
▁நடைமுறைகளுக 24
▁நனவில 24
▁நபரின 24
▁நலமான 24
▁நாடகங 24
▁நாமின 24
▁நாளிலும 24
▁நாவு 24
▁நிஜமான 24
▁நிதிசார 24
▁நிதியளிக 24
▁நிதியியல 24
▁நியமன 24
▁நியாயமும 24
▁நிறத 24
▁நிறைவை 24
▁நிலுவை 24
▁நீளத 24
▁நேபாத 24
▁நேரடியாகவோ 24
▁நேரு 24
▁நை 24
▁நொக 24
▁னணித 24
▁னவோ 24
▁படவிழாவில 24
▁படாதது 24
▁படிதான 24
▁படியில 24
▁படுமோ 24
▁படுமோசமாக 24
▁படைவாதிகளின 24
▁பதிவான 24
▁பதிவுகள 24
▁பதுக 24
▁பனம 24
▁பனைகளை 24
▁பரவியுள 24
▁பரா 24
▁பலவீனமாக 24
▁பலியானார 24
▁பழனியப 24
▁பழமையான 24
▁பவதியாகி 24
▁பாடிக 24
▁பாடினார 24
▁பாடுங 24
▁பாலைவன 24
▁பிடிச 24
▁பிடிவாதமாக 24
▁பிதாம 24
▁பியாவிற 24
▁பிரஞ 24
▁பிரயாசத 24
▁பிரியமானவர 24
▁பிரிவிலும 24
▁பிருத 24
▁பிளவுற 24
▁புறநிலையான 24
▁புலிகேசி 24
▁புழ 24
▁புவோம 24
▁பூசலுக 24
▁பெனிகளின 24
▁பெறவுள 24
▁பேசினான 24
▁பேசுவதை 24
▁பேராச 24
▁பேரீச 24
▁பொதுமன 24
▁பொலன 24
▁போகிறாய 24
▁போதை 24
▁போனை 24
▁போராளிகளின 24
▁போரெதிர 24
▁போலச 24
▁மதபோதகர 24
▁மனுத 24
▁மனை 24
▁மனைவிகள 24
▁மனோபாலா 24
▁மயோகி 24
▁மரபுவ 24
▁மரபுவழி 24
▁மருமகன 24
▁மறுதலிக 24
▁மாதிரியில 24
▁மிகை 24
▁மிஷன 24
▁முடியாததாகும 24
▁முடியாதவர 24
▁முடிவைக 24
▁முடிவையும 24
▁முதலிடம 24
▁மேடுகள 24
▁மொச 24
▁மோசடிக 24
▁மோதுதல 24
▁யுகத 24
▁யூரேனியத 24
▁யூல 24
▁யேமன 24
▁ரமின 24
▁ரவதை 24
▁ராணுவத 24
▁ராதாமோகன 24
▁ராபர 24
▁ரூபாவுக 24
▁ரூபாவும 24
▁ரூவின 24
▁ரெயின 24
▁ரேட 24
▁ரேடியோ 24
▁ரைம 24
▁றியதை 24
▁றியைத 24
▁றுமதிய 24
▁றேக 24
▁றோலியக 24
▁லாமியக 24
▁லாருடைய 24
▁லுகள 24
▁லூஜ 24
▁ளதைக 24
▁ளர 24
▁ளவே 24
▁ளுகிறான 24
▁ளுவான 24
▁ளேயான 24
▁ளைமாளிக 24
▁ளையார 24
▁வகைதேட 24
▁வகையின 24
▁வடிகால 24
▁வமானது 24
▁வயதுடைய 24
▁வரைவ 24
▁வலதுபுற 24
▁வலயம 24
▁வாகனப 24
▁வாசனை 24
▁வாதிகாரங 24
▁வாரிய 24
▁விசுவாசமாக 24
▁விசுவாசிகள 24
▁விடுமுறைக 24
▁விநியோகங 24
▁வினியோகித 24
▁வியாதி 24
▁விரோதிகள 24
▁விலகினார 24
▁விழைந 24
▁வீரரின 24
▁வுகளால 24
▁வெகுஜனக 24
▁வெறிபிடித 24
▁வெளியிலிருந 24
▁ஷிப 24
▁ஸான 24
▁ஸால 24
▁ஹடோய 24
▁ஹப 24
▁ஹல 24
▁ஹூசேனை 24
26 23
50,000 23
54 23
II 23
NG 23
RD 23
SE 23
aine 23
ald 23
ami 23
ani 23
ars 23
ater 23
aus 23
ei 23
era 23
ident 23
imon 23
kar 23
lect 23
line 23
mar 23
nel 23
ons 23
pr 23
ray 23
ree 23
ux 23
உண 23
கமும 23
களை 23
குத 23
குற 23
சியாவின 23
ஜித 23
ஜேர 23
தாம 23
தாராளவாத 23
துமுதல 23
நலன 23
பச 23
பொழுது 23
முடியாமல 23
யாக 23
ருபவர 23
றிவு 23
றுபவர 23
வளைக 23
வாளர 23
விகள 23
விய 23
ாகு 23
ாதர 23
ாயண 23
ாவள 23
ாவினிடத 23
ிடன 23
ிநாள 23
ினத 23
ினெட 23
ினோம 23
ிமானங 23
ியபடி 23
ியாது 23
ியியல 23
ியோக 23
ிறவர 23
ுகிறதாம 23
ுடனேகூட 23
ுடை 23
ுடைம 23
ுமின 23
ுறுப 23
ுலக 23
ுவதின 23
ேனிய 23
ைமுக 23
ையாகவே 23
ையைவிட 23
ொடங 23
ோகன 23
▁1944 23
▁1997-98 23
▁28- 23
▁4.4 23
▁5.5 23
▁600,000 23
▁AG 23
▁Att 23
▁Bert 23
▁CF 23
▁CRS 23
▁Chan 23
▁China 23
▁Cont 23
▁Dem 23
▁Email 23
▁Energy 23
▁French 23
▁GNP 23
▁Gen 23
▁Guardian 23
▁Herald 23
▁Hortefeux 23
▁Im 23
▁Ke 23
▁Laurent 23
▁Left 23
▁London 23
▁Los 23
▁MP 23
▁Ma 23
▁Min 23
▁NSSP 23
▁Operation 23
▁Os 23
▁PUK 23
▁Research 23
▁SCIRI 23
▁Sar 23
▁Tra 23
▁Travailleurs 23
▁West 23
▁f 23
▁அகிம 23
▁அகோல 23
▁அசரியா 23
▁அடம 23
▁அடியெடுத 23
▁அதிகமாகப 23
▁அதிகளவு 23
▁அநீத 23
▁அனமுர 23
▁அனுக 23
▁அனுமதியை 23
▁அபராதத 23
▁அரமனைக 23
▁அரிவாள 23
▁அருகாமையிலுள 23
▁அருவ 23
▁அறிவில 23
▁அறிவுப 23
▁அளவும 23
▁அவமதிக 23
▁ஆஜராக 23
▁ஆதிமுதல 23
▁ஆனையிறவு 23
▁ஆறுமுகம 23
▁ஆளாகியுள 23
▁ஆழப 23
▁ஆவணக 23
▁ஆவிக 23
▁ஆஷே 23
▁இசையை 23
▁இடிமுழக 23
▁இடைம 23
▁இடையற 23
▁இதுமுதல 23
▁இமயம 23
▁இரகசியங 23
▁இருவரின 23
▁இலாபமுற 23
▁இளைத 23
▁உடைமையாக 23
▁உதைத 23
▁உபதேசத 23
▁உயரக 23
▁உருவப 23
▁உறுமயவின 23
▁ஊம 23
▁எகிற 23
▁எடை 23
▁எடைய 23
▁எதிரிகளுக 23
▁எதைப 23
▁எமிரேட 23
▁எழுகிறது 23
▁எழுதுவது 23
▁ஏவுகணைகளை 23
▁ஐர 23
▁ஒருவனுடைய 23
▁ஒளிவ 23
▁ககள 23
▁கடவோம 23
▁கதும 23
▁கனுடைய 23
▁கனை 23
▁கமாகவே 23
▁கமுள 23
▁கராங 23
▁கருதுவதாக 23
▁கருவிகளும 23
▁களிலிருக 23
▁களூரில 23
▁கவகையில 23
▁காசியா 23
▁காசுக 23
▁காசோல 23
▁காடுகள 23
▁காணமுடியாத 23
▁காரணமாகவே 23
▁காரனாக 23
▁காரியாலயத 23
▁காவையும 23
▁கிணறுகள 23
▁கினது 23
▁கினுள 23
▁கியாங 23
▁கியுடன 23
▁கிரமடைந 23
▁கிவர 23
▁கிவீச 23
▁குடியரசுகளின 23
▁குபோக 23
▁குமுறைகள 23
▁குமுறையில 23
▁குரிம 23
▁குலைவு 23
▁குழுவாக 23
▁குழுவினரின 23
▁குவதால 23
▁குவதுதான 23
▁கூறுவதில 23
▁கைகளான 23
▁கையாயிரு 23
▁கொடைய 23
▁கொடையாளர 23
▁கொமாண 23
▁கொலைத 23
▁கோயிலுக 23
▁சகோதரனும 23
▁சகோதரரென 23
▁சகோதரிகள 23
▁சதிப 23
▁சபையும 23
▁சமநிலையை 23
▁சமீபமாயிருக 23
▁சரியே 23
▁சலாபி 23
▁சாராத 23
▁சாலைகளிலும 23
▁சிகப 23
▁சிகளுடைய 23
▁சினைகளின 23
▁சினையாகும 23
▁சியுடனான 23
▁சியுறும 23
▁சியோனிஸ 23
▁சிரமங 23
▁சிரமத 23
▁சிறிலங 23
▁சிலவேளை 23
▁சிலான 23
▁சிஷ 23
▁சீரியல 23
▁சுவாசம 23
▁சுவீ 23
▁சுஹாசினி 23
▁சூடானின 23
▁செதுக 23
▁செனியின 23
▁சேதமுற 23
▁சேபிக 23
▁சையில 23
▁ஜீவாவுக 23
▁ஜுலை 23
▁ஜெசீரா 23
▁ஜெயராம 23
▁டமே 23
▁டரி 23
▁டளைகளுக 23
▁டவிரோதம 23
▁டாலன 23
▁டாலராக 23
▁டாஸ 23
▁டியதாகும 23
▁டியதுதான 23
▁டியைச 23
▁டிலின 23
▁டுபோம 23
▁டுரைத 23
▁டுழைப 23
▁டுவோம 23
▁டூன 23
▁டூழ 23
▁டோங 23
▁டோசர 23
▁டோய 23
▁ணான 23
▁ணாவிரதத 23
▁ணியிருந 23
▁தகாரத 23
▁தகுதிக 23
▁தகைம 23
▁தடைந 23
▁ததானது 23
▁தபடியெல 23
▁தராலே 23
▁தரோ 23
▁தலைச 23
▁தலைமறைவாக 23
▁தலையீடுகள 23
▁தளாய 23
▁தவறுகளை 23
▁தாதில 23
▁தாமதித 23
▁தாயாகிய 23
▁தாராளமயமாக 23
▁தாராளவாதத 23
▁தாவுக 23
▁திபாரங 23
▁தியட 23
▁தியற 23
▁தியாலத 23
▁தியேகமாக 23
▁தியேகமான 23
▁திரவப 23
▁திருடி 23
▁திருவிழா 23
▁தீருமட 23
▁தீஸ 23
▁துகளும 23
▁துகிறான 23
▁துடைமை 23
▁துணையாக 23
▁துமீறல 23
▁துரையாடுவதற 23
▁துறைகளிலும 23
▁துவதே 23
▁தெளிக 23
▁தேகமும 23
▁தேசமும 23
▁தேசியவாதிகள 23
▁தேயிலைத 23
▁தேல 23
▁தேவதை 23
▁தேவவச 23
▁தையொட 23
▁தொடரவேண 23
▁தொடரில 23
▁தோச 23
▁தோபஸ 23
▁தோழி 23
▁தோஷமாய 23
▁நய 23
▁நிதிகளை 23
▁நிதியளிப 23
▁நிதியாதிக 23
▁நினைவுகளை 23
▁நியம 23
▁நீதியையும 23
▁நீந 23
▁நீரும 23
▁நூறுபேருக 23
▁நெறிக 23
▁நேரக 23
▁நொருங 23
▁னரின 23
▁னரை 23
▁னறிவித 23
▁பசுக 23
▁படவ 23
▁படியாவது 23
▁படுகிறவன 23
▁பதாகைகள 23
▁பதாய 23
▁பநிலை 23
▁பனங 23
▁பனான 23
▁பயலே 23
▁பழமைவாதிகள 23
▁பழையபடி 23
▁பவெப 23
▁பாகிய 23
▁பாகுபாட 23
▁பாசிசம 23
▁பாடுகளால 23
▁பானை 23
▁பிடிவ 23
▁பிதாவே 23
▁பினோம 23
▁பிரதமரை 23
▁பிரபுதேவ 23
▁பிரின 23
▁பிரிவாக 23
▁பிரிவினைக 23
▁பிரிவுகளிலும 23
▁பிரேக 23
▁பிளவ 23
▁பீடங 23
▁பீடம 23
▁பீதியடைந 23
▁புதலைப 23
▁புதைப 23
▁புமுறையின 23
▁புரிதல 23
▁புறமான 23
▁பெயரைக 23
▁பெயினுக 23
▁பெரிதுபடுத 23
▁பெருஞ 23
▁பெருமைக 23
▁பெறுமதிய 23
▁பேசுவேன 23
▁பேணுவதற 23
▁பேரன 23
▁பேரழிவைத 23
▁பேறான 23
▁போகத 23
▁போடலாம 23
▁போதிருந 23
▁போலிஸ 23
▁போவிட 23
▁மகிமையின 23
▁மடத 23
▁மணிப 23
▁மணிவண 23
▁மதுபான 23
▁மனிதாபிமானமற 23
▁மனியிலும 23
▁மரி 23
▁மாவும 23
▁மாவை 23
▁மிதக 23
▁முடிவுரையாக 23
▁முளைத 23
▁மையானதைச 23
▁மொப 23
▁மொபைல 23
▁மோசடியை 23
▁யச 23
▁யுன 23
▁யுமாறும 23
▁யோசனையை 23
▁ரகசியம 23
▁ரகசியமாக 23
▁ரவிகிருஷ 23
▁ராலினிசக 23
▁ராலினின 23
▁ரியாமணி 23
▁ருத 23
▁ரெடி 23
▁ரேன 23
▁ரேலியப 23
▁ரோலியம 23
▁றதுதான 23
▁றவாளிகளை 23
▁றாகப 23
▁றிராத 23
▁றிவிடும 23
▁றுகையிடப 23
▁றுதற 23
▁றுலாப 23
▁றைம 23
▁றொப 23
▁லகேம 23
▁லவின 23
▁லாமா 23
▁லாரிலும 23
▁லாவிற 23
▁லுதல 23
▁வடம 23
▁வதைக 23
▁வருடக 23
▁வருடமாக 23
▁வருப 23
▁வலயங 23
▁வழிவிட 23
▁வாதித 23
▁வாந 23
▁விசுவாசமான 23
▁விடுவேன 23
▁விதப 23
▁விதிகளில 23
▁விருதும 23
▁விலிருந 23
▁விலைப 23
▁விலைவாச 23
▁வெகுவாக 23
▁வெளியரங 23
▁வெளியிடுவது 23
▁வேறொருவரும 23
▁வோருக 23
▁ஸிக 23
▁ஹூரியத 23
.01 22
.09 22
21 22
22 22
76 22
AE 22
Claude 22
MC 22
ala 22
amb 22
cc 22
ft 22
go 22
hard 22
hem 22
here 22
igh 22
ild 22
isation 22
itt 22
itz 22
ka 22
lin 22
ma 22
omb 22
ott 22
que 22
rysler 22
ty 22
ult 22
ush 22
uth 22
yl 22
ö 22
அரியன 22
அவ 22
கரிக 22
கொய 22
சுந 22
சோன 22
ணக 22
ணமுள 22
ணிப 22
ணைக 22
தத 22
மயப 22
முக 22
ரிம 22
றித 22
ழிவு 22
ழுக 22
ழுங 22
ழுது 22
ழைய 22
வய 22
வாதிகளுக 22
வாவது 22
விலும 22
வீத 22
வெஸ 22
ாணுவ 22
ாதனைக 22
ானவள 22
ாபத 22
ாயன 22
ாயோ 22
ாரியான 22
ாவதாக 22
ிசா 22
ிநேர 22
ியமும 22
ியாவிடம 22
ிவருகிறார 22
ிவழ 22
ிஷா 22
ீசின 22
ீனத 22
ுகிறதினால 22
ுடா 22
ுமில 22
ுறம 22
ுறைப 22
ுவதுமில 22
ுவதைக 22
ுவாச 22
ுவே 22
ெயில 22
ெளி 22
ேசுக 22
ேபோன 22
ேயிருந 22
ைநகர 22
ையோடே 22
ைவைக 22
ோதி 22
ோவாக 22
ோவெனில 22
▁0.5 22
▁135 22
▁1966 22
▁1970- 22
▁1985 22
▁1989- 22
▁4.2 22
▁Af 22
▁CPA 22
▁Cal 22
▁Cap 22
▁Chase 22
▁Cit 22
▁Continental 22
▁Defence 22
▁Fabius 22
▁Franz 22
▁GSEE 22
▁Gl 22
▁IS 22
▁ISO 22
▁Khan 22
▁Lafontaine 22
▁League 22
▁MI 22
▁Nou 22
▁Off 22
▁Policy 22
▁Reg 22
▁Ro 22
▁School 22
▁Serge 22
▁Solid 22
▁Stratfor 22
▁left 22
▁அசைத 22
▁அடைவதில 22
▁அதிகாரிகளில 22
▁அதிபதிகளும 22
▁அதியமான 22
▁அநியாயத 22
▁அனுச 22
▁அனைவரது 22
▁அனைவரின 22
▁அபாயங 22
▁அமுத 22
▁அயலுற 22
▁அரசியலளவில 22
▁அருணாச 22
▁அலாஸ 22
▁அளக 22
▁அளவீட 22
▁அழிவில 22
▁அழுதுகொண 22
▁அவசரமான 22
▁அவசியப 22
▁அவிவ 22
▁அஹமது 22
▁ஆசாரியனிடத 22
▁ஆசாரியனும 22
▁ஆடைகள 22
▁ஆதரவற 22
▁ஆபேல 22
▁ஆளை 22
▁ஆவலாக 22
▁இசைத 22
▁இடற 22
▁இதையே 22
▁இலியானா 22
▁இளைஞனாக 22
▁ஈச 22
▁உடனடித 22
▁உடனும 22
▁உயிரி 22
▁உருள 22
▁உருவத 22
▁உறுமயவும 22
▁ஊடுருவி 22
▁ஊராகிய 22
▁ஊரும 22
▁ஊறு 22
▁எதினாலே 22
▁எமோரியர 22
▁எரிம 22
▁ஐயம 22
▁ஒழியப 22
▁கனல 22
▁கயிருப 22
▁கறையை 22
▁களிலுமிருந 22
▁கழகமும 22
▁காசர 22
▁காசி 22
▁காணச 22
▁காததற 22
▁காதான 22
▁காதீர 22
▁காரிகள 22
▁காலியில 22
▁காளையையும 22
▁கிசம 22
▁கியதாகவும 22
▁கியமானதும 22
▁கிறவனுக 22
▁கிலித 22
▁குகளிலும 22
▁குகொள 22
▁குடிகளுக 22
▁குதலுடன 22
▁குமாரும 22
▁குமிடத 22
▁குமேயானால 22
▁குறுகலான 22
▁குறுகியக 22
▁குலுங 22
▁குவிம 22
▁கூடாதென 22
▁கூடாரவாச 22
▁கூடினார 22
▁கூன 22
▁கூறியபடி 22
▁கூறியவர 22
▁கூறிற 22
▁கூறுகளை 22
▁கூறுதல 22
▁கூறுவார 22
▁கைகோர 22
▁கையாட 22
▁கொசோவோவின 22
▁கொடைக 22
▁கோபிகா 22
▁கோபை 22
▁கோருகிறார 22
▁கோவா 22
▁சகாய 22
▁சதவிகிதப 22
▁சதவீதமாகும 22
▁சனைகளும 22
▁சபையால 22
▁சபையினால 22
▁சமநிலைப 22
▁சமைத 22
▁சறுக 22
▁சாதனைகளை 22
▁சானது 22
▁சாரதிகளின 22
▁சாரமும 22
▁சாற 22
▁சிகரெட 22
▁சிநிர 22
▁சினத 22
▁சினேகன 22
▁சினைகளையும 22
▁சிபார 22
▁சியினரை 22
▁சியோனிசத 22
▁சியோல 22
▁சிலின 22
▁சிலுள 22
▁சீனிவாசன 22
▁சீஷரில 22
▁சுவரை 22
▁சுவாச 22
▁செலவீன 22
▁செலவுகளில 22
▁செவிகொடுப 22
▁சேரக 22
▁சேவைப 22
▁ஜனாதிபதிகள 22
▁ஜல 22
▁ஜலப 22
▁ஜவுளி 22
▁ஜிப 22
▁ஜீவித 22
▁ஞானேந 22
▁டஈடு 22
▁டதட 22
▁டமில 22
▁டரோக 22
▁டறியும 22
▁டலிசா 22
▁டளையிடுவேன 22
▁டவுன 22
▁டாடினார 22
▁டாலினிச 22
▁டினது 22
▁டினம 22
▁டிபிலிச 22
▁டிரிப 22
▁டிரைலர 22
▁டிலை 22
▁டுகளுடன 22
▁டுகிறதற 22
▁டுகோல 22
▁டுடே 22
▁டுதற 22
▁டுநாயக 22
▁டுபோவான 22
▁டுமானப 22
▁டுவதும 22
▁டுவருதல 22
▁டூம 22
▁டேஷன 22
▁டையான 22
▁டொய 22
▁டோகிராஃப 22
▁ணயிப 22
▁ணாம 22
▁ணுவதற 22
▁ணுவீர 22
▁தகக 22
▁தபடிய 22
▁தரிசிக 22
▁தலைகீழ 22
▁தலைநகரங 22
▁தலைநகரம 22
▁தலைமையிட 22
▁தலைவனாயிருந 22
▁தலைவரையும 22
▁தவமிருந 22
▁தானாக 22
▁தானி 22
▁திகை 22
▁தியடைய 22
▁தியமுள 22
▁திரனின 22
▁திரிகையிடம 22
▁திரீக 22
▁திருவிளையாடல 22
▁திரேலியப 22
▁திரைமற 22
▁திறனையும 22
▁திறமையின 22
▁திலகம 22
▁திவருகின 22
▁திவிடக 22
▁தீவிரமாகக 22
▁தீவிரித 22
▁துசமய 22
▁துசெய 22
▁துநின 22
▁துபோனான 22
▁துரும 22
▁துவமானது 22
▁துவேற 22
▁தூதரான 22
▁தூஷிக 22
▁தெழுதல 22
▁தேடினார 22
▁தேதியை 22
▁தேவதூதன 22
▁தேவனாயிருப 22
▁தேவைகளில 22
▁தைஜ 22
▁தொர 22
▁தோனியா 22
▁நடிகருக 22
▁நடிகைக 22
▁நடு 22
▁நவர 22
▁நவீனப 22
▁நாடுகின 22
▁நாளன 22
▁நாளைய 22
▁நிதிந 22
▁நிதியின 22
▁நியாப 22
▁நியாயாதிப 22
▁நிவாரணக 22
▁நீரூற 22
▁நெடுந 22
▁நே 22
▁நேரும 22
▁நொண 22
▁நோயினால 22
▁நோவா 22
▁னதமானவர 22
▁னராக 22
▁னருக 22
▁னெல 22
▁னேஷ 22
▁னையின 22
▁பகைமை 22
▁பசுப 22
▁படாதிருக 22
▁படுவன 22
▁பதாகைகளை 22
▁பதினாறு 22
▁பயிரிட 22
▁பரிசாக 22
▁பரிசோதித 22
▁பரியங 22
▁பலனையும 22
▁பலரது 22
▁பளமாக 22
▁பஹா 22
▁பாகுபாடு 22
▁பாடில 22
▁பாதகங 22
▁பானோ 22
▁பாலசுப 22
▁பாலானவற 22
▁பாவிப 22
▁பிகாரி 22
▁பிஜ 22
▁பினரை 22
▁பினேஷன 22
▁பிரகார 22
▁பிரதானமான 22
▁பிரபஞ 22
▁பிரபுவ 22
▁பிரபுவின 22
▁பிராணன 22
▁பிரிவினரால 22
▁பிரென 22
▁பிரேரணைகளை 22
▁பீராக 22
▁பீஸ 22
▁புழுதிய 22
▁புவதும 22
▁பூபதி 22
▁பூமியிலிருந 22
▁பெரியோர 22
▁பேசுபவர 22
▁போகாத 22
▁போராடுவது 22
▁போரானது 22
▁போலியாக 22
▁மகளை 22
▁மகாப 22
▁மகாராஷ 22
▁மகிமையுள 22
▁மணிநேரத 22
▁மதப 22
▁மதுபானத 22
▁மனுஷனும 22
▁மரபணுக 22
▁மரிக 22
▁மறுமொழ 22
▁மறைமுகமாகவோ 22
▁மறையான 22
▁மாணம 22
▁மாதளம 22
▁மாதிரிகள 22
▁மியான 22
▁மிலோசெவிக 22
▁மீதுள 22
▁மீறியது 22
▁முகாப 22
▁முஜா 22
▁முறையானது 22
▁முழுவதுமே 22
▁மூவாயிரம 22
▁மேஜிக 22
▁மேலிருக 22
▁மையோடு 22
▁மொராக 22
▁மொழியாக 22
▁மோ 22
▁யிடம 22
▁யுரேனியத 22
▁யூதருக 22
▁யூதேய 22
▁யூரேனிய 22
▁யெ 22
▁யேசப 22
▁யோசுவாவை 22
▁ரஜினியும 22
▁ராஜாவுடைய 22
▁ராணி 22
▁ராதிக 22
▁ரூபவாஹினி 22
▁ரூபவாஹினிக 22
▁ரைட 22
▁ரைனுக 22
▁ரொப 22
▁ரோவின 22
▁றலின 22
▁றிபெறும 22
▁றியைப 22
▁றுகளையும 22
▁றுதரம 22
▁றுமே 22
▁லமையை 22
▁லயன 22
▁லாகியே 22
▁லாதோர 22
▁லினோய 22
▁லிற 22
▁லீபன 22
▁லுகிறான 22
▁லூஜாவில 22
▁லெறிந 22
▁லேவி 22
▁லையின 22
▁ளாகியது 22
▁ளிகளுக 22
▁ளையில 22
▁வதோ 22
▁வமணி 22
▁வமும 22
▁வயதானபோது 22
▁வரல 22
▁வரின 22
▁வருகிறபோது 22
▁வருகைதந 22
▁வருவதும 22
▁வரைவை 22
▁வறுமையின 22
▁வலய 22
▁வழிகளையும 22
▁வழிவகைக 22
▁வாதியான 22
▁விசால 22
▁விடாது 22
▁விதங 22
▁வினியோகஸ 22
▁வீதமானவர 22
▁வுதிய 22
▁வுல 22
▁வெளியேறுமாறு 22
▁வேகமான 22
▁வைரஸ 22
▁ஷரின 22
▁ஷாவின 22
▁ஷே 22
▁ஹாமில 22
▁ஹொன 22
,8 21
.11 21
45 21
71 21
86 21
BS 21
ID 21
IF 21
JP 21
Louis 21
ME 21
ML 21
RO 21
RT 21
WS 21
ao 21
asse 21
ates 21
cker 21
erry 21
ex 21
gh 21
ind 21
itor 21
la 21
let 21
med 21
out 21
ows 21
reed 21
ts 21
uble 21
uropean 21
அரசு 21
உடன 21
உற 21
கூ 21
சேன 21
ஜாதியான 21
ஜென 21
டைகிறது 21
பிஷ 21
பொ 21
ரைக 21
லகத 21
வேற 21
வைகளைப 21
ாசல 21
ாதது 21
ாயாவும 21
ாயே 21
ாரோ 21
ிகளாலும 21
ிகளிலே 21
ிதாக 21
ிநாம 21
ிமைப 21
ிமொழ 21
ியட 21
ியாப 21
ியாவைக 21
ியாவைச 21
ியாவைப 21
ியோனின 21
ிராஜா 21
ிலைப 21
ீனம 21
ுபாடுகள 21
ுமுண 21
ுரிய 21
ுரூப 21
ுறும 21
ுழுதும 21
ுழுவதும 21
ூஷ 21
ெறிக 21
ேயோ 21
ேரத 21
ேரா 21
ைகளினால 21
ையக 21
ோவுடன 21
▁193 21
▁1997- 21
▁2.8 21
▁7.5 21
▁America 21
▁Basque 21
▁COSATU 21
▁Dawn 21
▁Democracy 21
▁ElBaradei 21
▁Eng 21
▁Gle 21
▁Hen 21
▁Hist 21
▁ISAF 21
▁ISSE 21
▁Iraq 21
▁Jacques 21
▁KDP 21
▁Kar 21
▁MS 21
▁Mass 21
▁Mir 21
▁Morning 21
▁NA 21
▁NL 21
▁Nah 21
▁Paris 21
▁Phil 21
▁Po 21
▁Poor 21
▁Power 21
▁Revolution 21
▁Révolutionnaire 21
▁Soz 21
▁Sud 21
▁TNA 21
▁Tbilisi 21
▁Trans 21
▁Unasur 21
▁William 21
▁c 21
▁justify 21
▁அசாத 21
▁அடைபட 21
▁அடையவில 21
▁அணிக 21
▁அணிசேர 21
▁அதட 21
▁அதர 21
▁அதிகமானவர 21
▁அதிருஷ 21
▁அதுமட 21
▁அதுல 21
▁அநீதிய 21
▁அநேகரை 21
▁அனுசரணை 21
▁அனுதாபம 21
▁அனுர 21
▁அமள 21
▁அமிழ 21
▁அறியான 21
▁அறைகள 21
▁அளவைக 21
▁அழியும 21
▁அவதாரம 21
▁ஆகவேண 21
▁ஆசாப 21
▁ஆணையின 21
▁ஆதங 21
▁ஆபிஸ 21
▁ஆயக 21
▁ஆயுர 21
▁ஆரவார 21
▁ஆரோனுடைய 21
▁ஆறுநாள 21
▁ஆவலுடன 21
▁இடதில 21
▁இடதுபுறம 21
▁இணையதளத 21
▁இதிலே 21
▁இரஜ 21
▁இராணுவமயமாக 21
▁இருதயமுள 21
▁இழிவு 21
▁இவைதான 21
▁ஈடுக 21
▁உதவியைப 21
▁உருமாற 21
▁உலகுக 21
▁ஊகக 21
▁ஊகவாண 21
▁எஜமானர 21
▁எதிரிகளாக 21
▁எதிரியாக 21
▁எதிலும 21
▁ஏகன 21
▁ஏரோத 21
▁ஏலம 21
▁ஏழும 21
▁ஏவுக 21
▁ஐன 21
▁ஐயும 21
▁ஒபாமாவும 21
▁ஒருபுறத 21
▁ஒருவரால 21
▁ஓரிடத 21
▁ஓரேப 21
▁ஓவியங 21
▁கடமையில 21
▁கடலை 21
▁கடவத 21
▁கணேஷ 21
▁கதல 21
▁கனட 21
▁கனவுகள 21
▁கமானவர 21
▁கமாயிருக 21
▁கமாலினி 21
▁கருதிப 21
▁கறைபடிந 21
▁கறையில 21
▁கலாபக 21
▁கலைம 21
▁களாயிருப 21
▁களாயும 21
▁களினாலே 21
▁களுமாக 21
▁களோடுங 21
▁காகதான 21
▁காடுகளில 21
▁காதிருக 21
▁கானதாக 21
▁கானியர 21
▁காமிராக 21
▁காமெடியன 21
▁காரராக 21
▁காரரான 21
▁காளங 21
▁கிடத 21
▁கினியில 21
▁கிரீடத 21
▁கிருமி 21
▁கிளாம 21
▁கீழிறங 21
▁குதலாக 21
▁குதிரைவீர 21
▁குனருமான 21
▁குமாருக 21
▁குமிட 21
▁குரியத 21
▁குருமார 21
▁குறைவூதியத 21
▁குளறுப 21
▁குளிக 21
▁குவதிலும 21
▁குவதே 21
▁கூறினேன 21
▁கேகாலை 21
▁கேதுவான 21
▁கையினை 21
▁கொதிக 21
▁கோசியை 21
▁கோபமடைந 21
▁சகோதரனுடைய 21
▁சகோதரரை 21
▁சசிக 21
▁சனும 21
▁சபைகூட 21
▁சமமாகும 21
▁சமாத 21
▁சமில 21
▁சமூகமளித 21
▁சரசமும 21
▁சரால 21
▁சவரம 21
▁சவுண 21
▁சாராரும 21
▁சாலமன 21
▁சிகளுடனும 21
▁சிதமான 21
▁சிதறிப 21
▁சிதறும 21
▁சினைகளைத 21
▁சியுடனும 21
▁சிரமம 21
▁சிலரும 21
▁சீரமைத 21
▁சீரழிக 21
▁சுகயீனமுற 21
▁சுஜாத 21
▁சுமிராய 21
▁சுலோக 21
▁செனவிர 21
▁செயலின 21
▁செயலிழந 21
▁செருபாப 21
▁செவிகொடாமற 21
▁சேகாவின 21
▁சேனாபதி 21
▁சேனை 21
▁சேனைகளுடைய 21
▁சேவக 21
▁சேஷ 21
▁ஜனநாதன 21
▁ஜனமும 21
▁ஜிதம 21
▁ஜெகன 21
▁ஜெருசல 21
▁ஞானமுள 21
▁டயங 21
▁டவராக 21
▁டாவோ 21
▁டியடிக 21
▁டியதாயிருக 21
▁டியதென 21
▁டுன 21
▁டுவரவும 21
▁டுவிடப 21
▁டுவீசி 21
▁டெடுக 21
▁டெயின 21
▁டைகளையும 21
▁ணீரும 21
▁ணுகிறான 21
▁தகை 21
▁ததியை 21
▁ததுமில 21
▁தனுப 21
▁தனுஷின 21
▁தனைகளின 21
▁தபிறகு 21
▁தயாராகின 21
▁தயை 21
▁தருகிறேன 21
▁தலைமையகம 21
▁தலையீடுகளுக 21
▁தலைவணங 21
▁தவாதம 21
▁தாணு 21
▁தானியாவில 21
▁தாயகம 21
▁தாயிரம 21
▁தாராளக 21
▁தாரிடத 21
▁திகரித 21
▁தினந 21
▁தினரால 21
▁திபாரம 21
▁தியாளரான 21
▁திரீயை 21
▁திருமுருகன 21
▁திருவனந 21
▁திருஷ 21
▁திரைபண 21
▁திறனின 21
▁திவாலாகிவிட 21
▁தீவிரவாதிகளை 21
▁துகல 21
▁துகிறதற 21
▁துகிறீர 21
▁துதலின 21
▁துநாள 21
▁துமுழ 21
▁தூபகல 21
▁தேசித 21
▁தேஜாஸ 21
▁தேடுகிறார 21
▁தேழ 21
▁தேவனாலே 21
▁தைரியமான 21
▁தொடும 21
▁நயமற 21
▁நாகேஷ 21
▁நாடியான 21
▁நாடுகிறது 21
▁நாபோத 21
▁நினிவ 21
▁நினைவுப 21
▁நிமிஷம 21
▁நியாயமாக 21
▁நிருபத 21
▁நிருபரிடம 21
▁நிலைமைதான 21
▁நிவாரணங 21
▁நீடிய 21
▁நீயோ 21
▁நு 21
▁நுழைத 21
▁நெறிமுறைகளை 21
▁நேபாளி 21
▁நோப 21
▁னகை 21
▁னடம 21
▁னடைவை 21
▁னாடி 21
▁னாயக 21
▁னிர 21
▁னிலை 21
▁னிஷியன 21
▁னோ 21
▁பகமான 21
▁பகால 21
▁பசந 21
▁படாதிருப 21
▁படிவங 21
▁படுகுழ 21
▁படுமாறு 21
▁படையைக 21
▁பதல 21
▁பதிகாரம 21
▁பனைப 21
▁பனையின 21
▁பயிலகத 21
▁பரிசீல 21
▁பரிசேயரும 21
▁பரிமள 21
▁பருப 21
▁பருவம 21
▁பலிபீட 21
▁பாடுகளைத 21
▁பாதைகளை 21
▁பானதாக 21
▁பானர 21
▁பாரிஸில 21
▁பாரு 21
▁பிஜி 21
▁பிணையில 21
▁பினதும 21
▁பினரின 21
▁பிம 21
▁பியதும 21
▁பியதை 21
▁பிரதமரான 21
▁பிரபுவும 21
▁பிரயோகத 21
▁பிரள 21
▁பிரவாக 21
▁பிரிவினரும 21
▁பிரிவுகளுடன 21
▁பிரேமர 21
▁பிரேரணை 21
▁பிரேரணையை 21
▁பிளாஸ 21
▁பிளேயரும 21
▁பிளேர 21
▁புகளைச 21
▁புகொள 21
▁புடையது 21
▁புதேவன 21
▁புமுனையாக 21
▁பெனிகளுக 21
▁பெயெர 21
▁பெரிதான 21
▁பெருமைபாராட 21
▁பெறாது 21
▁பெறுவதாக 21
▁பேணும 21
▁பேனோ 21
▁பேரவாக 21
▁பேஸ 21
▁பைல 21
▁பொதுவாகக 21
▁பொப 21
▁பொறிவு 21
▁போடக 21
▁போதுமானதல 21
▁போதுமானவை 21
▁போனபின 21
▁போராளிகளும 21
▁போலீசாருடன 21
▁மகார 21
▁மடியிலே 21
▁மதகு 21
▁மதங 21
▁மனநல 21
▁மனநோய 21
▁மனிதனுக 21
▁மனியிலுள 21
▁மனுஷரால 21
▁மறுதல 21
▁மறுபரிசீலனை 21
▁மறும 21
▁மலையும 21
▁மாகாணமான 21
▁மாணித 21
▁மாநிலப 21
▁மாவையும 21
▁மீனாட 21
▁முரணானது 21
▁முறைகளால 21
▁முறைகளும 21
▁முறைமை 21
▁முழுவத 21
▁மேலதிகக 21
▁மேள 21
▁மையிலிருந 21
▁மொக 21
▁மொழிவை 21
▁மோசர 21
▁மோதி 21
▁யஜோதி 21
▁யாரடி 21
▁யாவிடம 21
▁யூதாவ 21
▁யூபிலி 21
▁ரகு 21
▁ரமன 21
▁ரிலீஸாகும 21
▁ரிஷாவுக 21
▁ரொபின 21
▁ரோஜ 21
▁ரோனின 21
▁றபோதிலும 21
▁றளவும 21
▁றிமாற 21
▁றிரண 21
▁றுமுழுதாக 21
▁றுலாத 21
▁றுவதும 21
▁றுவிடக 21
▁றொணா 21
▁லகன 21
▁லகான 21
▁லாததாக 21
▁லாமலேயே 21
▁லினின 21
▁லூரியின 21
▁லேயாள 21
▁லேவியன 21
▁லோவாக 21
▁ளதன 21
▁ளதாகும 21
▁ளதையும 21
▁ளுண 21
▁ளையும 21
▁வசதிப 21
▁வசதியை 21
▁வதிலிருந 21
▁வதுபோல 21
▁வநாதன 21
▁வயதானவர 21
▁வயதுமுதல 21
▁வலிக 21
▁வலிந 21
▁வலுவிழந 21
▁வலுவூட 21
▁வலையங 21
▁வானிலை 21
▁வாயினால 21
▁வாரமும 21
▁வாராக 21
▁வாழத 21
▁விசுவாசமுள 21
▁விஜயன 21
▁விடுதி 21
▁விபச 21
▁வியாகுல 21
▁விரைவிலேயே 21
▁விளாடிமிர 21
▁விளைவினால 21
▁விளைவுகளில 21
▁விளைவுகளைப 21
▁விவசாயிகளும 21
▁வீதியின 21
▁வீரக 21
▁வெந 21
▁வெய 21
▁வெறிகொண 21
▁வெறுங 21
▁வெளிவிவக 21
▁வேணடும 21
▁வேதிக 21
▁வைஸ 21
▁ஸந 21
▁ஹா 21
▁ஹுண 21
▁ஹெள 21
4- 20
77 20
91 20
ARC 20
FOR 20
IL 20
OM 20
Pierre 20
ative 20
bo 20
bottom 20
burg 20
ca 20
ear 20
eral 20
het 20
illy 20
ischer 20
len 20
mail 20
reat 20
ti 20
uro 20
ஃபர 20
காட 20
சாரி 20
ஜனங 20
தாஸ 20
தியாகிய 20
திற 20
துற 20
தொழில 20
நிதி 20
னாலே 20
மண 20
யமாதல 20
ரீதிய 20
லகம 20
ழியில 20
ழைத 20
வளங 20
வளே 20
வியை 20
வெட 20
வையே 20
ஹாமி 20
ாகரன 20
ாசா 20
ாசும 20
ாஞ 20
ாநாட 20
ாவதால 20
ாஹ 20
ிணீக 20
ினவர 20
ிபத 20
ிபவர 20
ிமுறை 20
ிமெலேக 20
ியாமற 20
ியுண 20
ியொருவர 20
ியோப 20
ியோர 20
ிரிய 20
ிறகு 20
ிலத 20
ிழும 20
ிவிலி 20
ுகளைக 20
ுதவி 20
ுனு 20
ுமைக 20
ுயர 20
ுரி 20
ுறையை 20
ுவுடன 20
ெதிர 20
ேசனின 20
ேனின 20
ைகளிலே 20
ையாகப 20
ையானாலும 20
ையிடம 20
ைவான 20
ொழிற 20
ோதான 20
ோதே 20
▁1,200 20
▁1995- 20
▁2.9 20
▁2887 20
▁290 20
▁4.8 20
▁Asbos 20
▁At 20
▁Black 20
▁Blo 20
▁Bu 20
▁FATA 20
▁Fox 20
▁Fried 20
▁HR 20
▁Hollande 20
▁IGM 20
▁IP 20
▁Intern 20
▁LRU 20
▁Live 20
▁Mer 20
▁Mic 20
▁MoD 20
▁NSDAP 20
▁Pen 20
▁Rob 20
▁SACP 20
▁San 20
▁Ser 20
▁Siemens 20
▁Stra 20
▁Thomas 20
▁Tr 20
▁Trade 20
▁UK 20
▁Vin 20
▁Wind 20
▁feb 20
▁ஃபார 20
▁அசிங 20
▁அஜர 20
▁அணிதிரளல 20
▁அதனிடம 20
▁அதிகமாகி 20
▁அதிகாரசபையின 20
▁அதிவலதுசாரி 20
▁அதீத 20
▁அதோ 20
▁அநியாயஞ 20
▁அனுமதியின 20
▁அனுமதியுடன 20
▁அனைவருடைய 20
▁அபரிமித 20
▁அபாய 20
▁அரசுகளாக 20
▁அறிகுறியாக 20
▁அறிவுஜீவிகள 20
▁அவமதித 20
▁அவிசுவாச 20
▁ஆகின 20
▁ஆகியோரது 20
▁ஆசாரியருக 20
▁ஆனையிற 20
▁ஆயுச 20
▁ஆயுட 20
▁ஆயுதபாணியாக 20
▁ஆளொருவர 20
▁ஆவன 20
▁ஆவியினாலே 20
▁ஆவேசத 20
▁இடதிற 20
▁இதுபோல 20
▁இனர 20
▁இனிச 20
▁இரகசியமாய 20
▁இருதயமும 20
▁இறைவ 20
▁இலகுவான 20
▁இலுள 20
▁ஈரானிடம 20
▁உடலின 20
▁உதவினார 20
▁உபகர 20
▁உபதேசிக 20
▁உபதேசித 20
▁உயரதிக 20
▁உருண 20
▁உருவாகிறது 20
▁உறவில 20
▁உறவும 20
▁உறுது 20
▁உறைவ 20
▁உலவ 20
▁ஊசிய 20
▁ஊரான 20
▁எடையை 20
▁எதிரெதிர 20
▁எருசலேமை 20
▁எலக 20
▁ஏளன 20
▁ஏழுதரம 20
▁ஏழுபேர 20
▁ஐசக 20
▁ஐதராபாத 20
▁ஒருசிலவராட 20
▁ஒருபடி 20
▁ஒலிவம 20
▁ஒழ 20
▁ஓபர 20
▁ஓபேத 20
▁ஓவர 20
▁ஓவியம 20
▁ஓவியர 20
▁கடுமையாகக 20
▁கடுமையாகத 20
▁கதவடைப 20
▁கதவைத 20
▁கனமாக 20
▁கனாக 20
▁கமாயிருந 20
▁கமால 20
▁கருவூலம 20
▁கரைய 20
▁கரையிலிருந 20
▁கரையை 20
▁கறைகளை 20
▁கலாமே 20
▁களையிட 20
▁கவசத 20
▁கவனமான 20
▁கவீனமுற 20
▁கவைப 20
▁காகி 20
▁காமராஜர 20
▁காயீன 20
▁காரணமாகத 20
▁காலாவதியாக 20
▁காலியா 20
▁காலுக 20
▁காளிகளும 20
▁கினிஜ 20
▁கியமும 20
▁கியூபாவில 20
▁கியே 20
▁கிரஹாம 20
▁கிராக 20
▁கிறாரென 20
▁கிளிக 20
▁குடிகளே 20
▁குடிகளையும 20
▁குடை 20
▁குணச 20
▁குணப 20
▁குதிரைகளையும 20
▁குனருக 20
▁குமாரனே 20
▁குமாரனையும 20
▁குமூலத 20
▁குருக 20
▁குரோதம 20
▁குறுதியளிக 20
▁குளியல 20
▁குவின 20
▁கூடியிருக 20
▁கூறாமல 20
▁கூறுகிறோம 20
▁கூறுவதுபோல 20
▁கெலின 20
▁கேடயங 20
▁கேளாமற 20
▁கைகளிலிருந 20
▁கையளவில 20
▁கைவ 20
▁கைவிர 20
▁கொடாமல 20
▁கொமோர 20
▁கொழ 20
▁கோடியில 20
▁கோனியின 20
▁கோபிக 20
▁கோரவில 20
▁கோருபவர 20
▁சகலவிதமான 20
▁சனா 20
▁சபடோ 20
▁சமரவீர 20
▁சமைக 20
▁சரணாக 20
▁சரணால 20
▁சராசரியை 20
▁சரிசம 20
▁சலப 20
▁சலுகைகளும 20
▁சாகக 20
▁சாதகம 20
▁சாதனம 20
▁சாதாரணக 20
▁சாதிப 20
▁சாமர 20
▁சாரமாக 20
▁சாவட 20
▁சாவடியில 20
▁சாவுகள 20
▁சாஷ 20
▁சிகளாக 20
▁சிகளாலும 20
▁சிகளைத 20
▁சிதறி 20
▁சிதா 20
▁சினைகளும 20
▁சியமளிக 20
▁சிறிதே 20
▁சிறுகுழ 20
▁சிறுநகரங 20
▁சிவநாதன 20
▁சீனிவ 20
▁சீரான 20
▁சீலோவில 20
▁சுநூல 20
▁சுயத 20
▁சுயம 20
▁சூற 20
▁செகோலென 20
▁செலவுப 20
▁செழிக 20
▁செவன 20
▁செவில 20
▁சேனைகள 20
▁சேபனை 20
▁சேரப 20
▁சைபீர 20
▁சோதனைகளுக 20
▁சோரம 20
▁சோள 20
▁ஜிந 20
▁ஜீரிய 20
▁ஜீரியாவில 20
▁ஜெனீவாவில 20
▁ஜெருசலத 20
▁ஜேக 20
▁டணியும 20
▁டமாகக 20
▁டளைகளைக 20
▁டளைச 20
▁டவரின 20
▁டவரை 20
▁டாமலும 20
▁டாயிரம 20
▁டாரோ 20
▁டாளியாக 20
▁டிகளைப 20
▁டுபோவ 20
▁டுவதாகவும 20
▁டுவான 20
▁டூஸ 20
▁டேயிருக 20
▁டேவ 20
▁டைலில 20
▁டொம 20
▁டொலருக 20
▁ணுகிறதற 20
▁ணைத 20
▁ததிலும 20
▁தமாகக 20
▁தமானவர 20
▁தமிக 20
▁தமுட 20
▁தரிசனமாகி 20
▁தலையிடும 20
▁தலைவிதியை 20
▁தளபதியின 20
▁தளவாட 20
▁தவணை 20
▁தவம 20
▁தவமாய 20
▁தவாதிகள 20
▁தஹார 20
▁தானுடைய 20
▁தாராளமான 20
▁தாளிடம 20
▁திகைக 20
▁திஜீ 20
▁தினசர 20
▁தினூடாக 20
▁தியஜீவன 20
▁தியிலே 20
▁தியிலேயே 20
▁திரமானது 20
▁திரியாகவும 20
▁திருகோணம 20
▁திருநெல 20
▁திறனுக 20
▁திறவுகோல 20
▁தீனி 20
▁துகாட 20
▁துகிடக 20
▁துகை 20
▁துடைப 20
▁துரதிர 20
▁துவிடுகிறார 20
▁துவிடுமோ 20
▁துவும 20
▁தூபம 20
▁தெளிவாகப 20
▁தெளிவுப 20
▁தேடுங 20
▁தேவதூதர 20
▁தையானது 20
▁நகோம 20
▁நசர 20
▁நடிகைகளுக 20
▁நடிகைகளை 20
▁நதியின 20
▁நபராக 20
▁நாடுகளைப 20
▁நாடெரின 20
▁நாமே 20
▁நிஜமாகவே 20
▁நினைவுறுத 20
▁நிராயுதபாணியாக 20
▁நிரூப 20
▁நிலைந 20
▁நிலைமைகளும 20
▁நிவிர 20
▁நூலகங 20
▁நெடுகிலும 20
▁நெரிச 20
▁நெரிசல 20
▁னடியின 20
▁னணியுடன 20
▁னணு 20
▁னலை 20
▁னிபந 20
▁னிருவர 20
▁னுள 20
▁பகுதியினரும 20
▁பகுதியே 20
▁பகை 20
▁பகைவர 20
▁படவே 20
▁படியா 20
▁படுவதைப 20
▁படையானது 20
▁பணிகளின 20
▁பதிவை 20
▁பனிடத 20
▁பனே 20
▁பனைகளின 20
▁பபட 20
▁பமே 20
▁பரியம 20
▁பரிவு 20
▁பலகைகள 20
▁பலரையும 20
▁பலவீனங 20
▁பலிகளையும 20
▁பழனி 20
▁பழியை 20
▁பவரை 20
▁பவைக 20
▁பாடுபடும 20
▁பாதர 20
▁பாலன 20
▁பாலை 20
▁பினது 20
▁பிரதிநிதிகளால 20
▁பிரதிநிதிகளில 20
▁பிரதியுப 20
▁பிரயாணத 20
▁பிரிவுகளால 20
▁பிரேதங 20
▁பிளின 20
▁பிழை 20
▁புகழை 20
▁புநாடுகள 20
▁புநூல 20
▁புரூக 20
▁புலிகளில 20
▁புவரி 20
▁பூகோளத 20
▁பூஜையில 20
▁பூராகவும 20
▁பெருவணிகம 20
▁பெறமுடியும 20
▁பெறுபேறுகளை 20
▁பேசலாம 20
▁பேசியவர 20
▁பேசுகிறவர 20
▁பேணி 20
▁பொதுவ 20
▁போகவும 20
▁போதகம 20
▁போராடியது 20
▁போரிடுவதற 20
▁போவாஸ 20
▁போஷ 20
▁மசூதிய 20
▁மணவாள 20
▁மதகுரும 20
▁மதுரையில 20
▁மனநிலை 20
▁மனுஷரில 20
▁மனைகள 20
▁மனோப 20
▁மயர 20
▁மரணச 20
▁மறுதேர 20
▁மறுமொழி 20
▁மறையாக 20
▁மாடுகளும 20
▁மாணவி 20
▁மாதவனின 20
▁மாதிரிகளை 20
▁மாநாடுகள 20
▁மானகரமான 20
▁மாமா 20
▁மாவினால 20
▁மியாமி 20
▁மீடியாக 20
▁மீரின 20
▁மீறுகிறது 20
▁முடியர 20
▁முடிவுகளில 20
▁முயலவில 20
▁முரளிதரன 20
▁முறையைப 20
▁மூளை 20
▁மெராரியின 20
▁மேலதிகார 20
▁மொஸ 20
▁மோசடிய 20
▁மோப 20
▁யாவர 20
▁யூதாவில 20
▁யூதாவிலுள 20
▁யூதாவிலே 20
▁யெக 20
▁யெத 20
▁யைப 20
▁யையும 20
▁யோசுவாவும 20
▁ரவுஸ 20
▁ராகவேந 20
▁ராஜாவாகி 20
▁ரானுடன 20
▁ரிலீஸான 20
▁ரீக 20
▁ரீதிய 20
▁ரேணுகா 20
▁ரோமில 20
▁றகரமான 20
▁றதாகக 20
▁றநிவாரணபல 20
▁றனராம 20
▁றியதோடு 20
▁றுகிறவர 20
▁றுந 20
▁றுபோடும 20
▁றுமையின 20
▁றுவந 20
▁றோன 20
▁லதல 20
▁லாகூர 20
▁லாவிடினும 20
▁லாவியாவிற 20
▁லாவில 20
▁லிணக 20
▁லெகேம 20
▁லைலா 20
▁லோப 20
▁ளவரும 20
▁ளாகின 20
▁ளுபவர 20
▁ளோப 20
▁வகையை 20
▁வடகொரிய 20
▁வடகொரியாவின 20
▁வதி 20
▁வராக 20
▁வராதபடிக 20
▁வராவிட 20
▁வருகையை 20
▁வருவதாகக 20
▁வருவாயை 20
▁வரைப 20
▁வழிகளுக 20
▁வழிசெய 20
▁வாதிடுகிறது 20
▁வாரண 20
▁வாளரான 20
▁விஐப 20
▁விசில 20
▁விஜேச 20
▁விடுதலைபண 20
▁விபரித 20
▁வியடையும 20
▁வியர 20
▁வியானது 20
▁விறக 20
▁வீடிழந 20
▁வீடும 20
▁வீதிகளிலும 20
▁வுபெறும 20
▁வெளிநாடுகளிலும 20
▁வெளியேறியுள 20
▁வெளிவிவகாரத 20
▁வேதா 20
▁வேயில 20
▁வோனிடத 20
▁ஷவிற 20
▁ஸபடேர 20
▁ஸியல 20
▁ஹாரி 20
▁ஹாவார 20
▁ஹெயிம 20
-10 19
03 19
44 19
AF 19
HS 19
NS 19
TC 19
TL 19
ZA 19
ander 19
by 19
ction 19
der 19
di 19
elt 19
hy 19
ices 19
ida 19
ight 19
ij 19
ini 19
off 19
omberg 19
ound 19
ount 19
ox 19
oyal 19
ps 19
rd 19
rie 19
rist 19
rog 19
rop 19
rou 19
so 19
sp 19
uck 19
val 19
vest 19
கமான 19
ஜூன 19
டவை 19
டைவதை 19
ணிகள 19
ணித 19
திஷ 19
துறை 19
தைவிட 19
நிர 19
படியினாலும 19
படியே 19
பாசிச 19
பிரக 19
பீட 19
ரல 19
ரஷ 19
ருடனான 19
றிந 19
றுண 19
ளன 19
ளவான 19
ழம 19
வப 19
வரிக 19
விடாமல 19
வினால 19
வுல 19
வெறி 19
வைகளைக 19
வைச 19
ஹேன 19
ாடுகளை 19
ாதபடியினால 19
ாமணி 19
ாலையில 19
ாளிகளின 19
ாவித 19
ிகிற 19
ிடுச 19
ிபால 19
ிபோல 19
ியாலும 19
ியிட 19
ியினிடத 19
ிலின 19
ிழக 19
ிவரும 19
ிவைக 19
ுகிர 19
ுகிறதாவது 19
ுடியாத 19
ுலா 19
ுழு 19
ெனக 19
ெமன 19
ேயை 19
ையமாக 19
ொருளாதார 19
ொளி 19
ோண 19
ோனிக 19
ோயிஸ 19
ோவார 19
▁10.30 19
▁111 19
▁1951 19
▁1955 19
▁6.2 19
▁8.5 19
▁AA 19
▁AS 19
▁Adam 19
▁Agency 19
▁Air 19
▁Ange 19
▁Bal 19
▁Bes 19
▁CEO 19
▁CIO 19
▁CPP 19
▁Ca 19
▁Center 19
▁Claude 19
▁Committee 19
▁Courier 19
▁Detroit 19
▁Director 19
▁East 19
▁Ersin 19
▁Europe 19
▁Fein 19
▁HRE 19
▁Luc 19
▁Mann 19
▁Michel 19
▁Mélenchon 19
▁NPC 19
▁Ol 19
▁Ouvriere 19
▁PSA 19
▁Public 19
▁Radio 19
▁Ru 19
▁SAS 19
▁State 19
▁Su 19
▁TRI 19
▁Zod 19
▁அசே 19
▁அசைவ 19
▁அசோசியேடட 19
▁அடிச 19
▁அடியில 19
▁அடைம 19
▁அணுவாயுதப 19
▁அதனைப 19
▁அதிகமாகத 19
▁அதிகமானோர 19
▁அதிகமாயிற 19
▁அதிபராக 19
▁அநேகந 19
▁அனில 19
▁அபகரிப 19
▁அபியும 19
▁அமீருக 19
▁அரவணைத 19
▁அராஃபத 19
▁அறிவதற 19
▁அறிவுக 19
▁அறுதிப 19
▁அலுவ 19
▁அலைப 19
▁அலையென 19
▁அளவான 19
▁அழிவின 19
▁அழுதான 19
▁அவசியமானது 19
▁அவத 19
▁அவதிப 19
▁அவதிய 19
▁அவனுடனே 19
▁அவமானம 19
▁அவளது 19
▁அஹம 19
▁ஆகியோருடைய 19
▁ஆபர 19
▁ஆலய 19
▁ஆலோசனைச 19
▁ஆழங 19
▁ஆழமாகிக 19
▁ஆழும 19
▁ஆவியையும 19
▁இடதும 19
▁இடமான 19
▁இடையிட 19
▁இடையிலும 19
▁இனச 19
▁இலாபகரமான 19
▁இழிவாக 19
▁ஈசாய 19
▁உடனடிக 19
▁உடனிருந 19
▁உணவும 19
▁உதவியோடு 19
▁உதாரண 19
▁உபகரண 19
▁உருவாகிவிட 19
▁உறுதிகொண 19
▁உறுதிபூண 19
▁உஷார 19
▁எஜமானுடைய 19
▁எதிரிக 19
▁எதிரிடையாக 19
▁எலிப 19
▁எழுதியவர 19
▁எழுதுகிறேன 19
▁ஏகமன 19
▁ஏறின 19
▁ஐசுவரியத 19
▁ஒருமனப 19
▁ஒருவகை 19
▁ஒருவிதத 19
▁ஒரேமாதிரியான 19
▁ஓடுகிறது 19
▁ஓரிரு 19
▁கசக 19
▁கடிகளின 19
▁கடியைப 19
▁கடுமையாய 19
▁கணவருடன 19
▁கதி 19
▁கனக 19
▁கனவுக 19
▁கனா 19
▁கபில 19
▁கமொன 19
▁கருகில 19
▁கருணாரட 19
▁கருவியை 19
▁கரோலின 19
▁கறையும 19
▁கலர 19
▁கலவையாக 19
▁கலாய 19
▁கலைச 19
▁களிகூ 19
▁கழுவி 19
▁கவலையுடன 19
▁கவிருந 19
▁காசாவின 19
▁காஜாமைதீன 19
▁காணமாட 19
▁காதலும 19
▁கானிப 19
▁காமின 19
▁காரமான 19
▁காளையும 19
▁கிணறுகளை 19
▁கினியின 19
▁கிரயத 19
▁கிரிகோர 19
▁கிளைமாக 19
▁குகிறோம 19
▁குகொண 19
▁குணால 19
▁குபெறும 19
▁குறைபாடு 19
▁குவக 19
▁குவன 19
▁கூடாதா 19
▁கூடுமானால 19
▁கூறிப 19
▁கூறியதன 19
▁கூறியதற 19
▁கூறிவருகிறது 19
▁கூறுப 19
▁கேடயம 19
▁கேபிள 19
▁கைகளைச 19
▁கைகழுவ 19
▁கைகுலுக 19
▁கைமாறாக 19
▁கையாயிருந 19
▁கையினாலே 19
▁கையுடைய 19
▁கோடாபய 19
▁கோபுரங 19
▁சடுத 19
▁சதவீதமாகவும 19
▁சதுரங 19
▁சனையால 19
▁சமுதாயப 19
▁சரம 19
▁சலுகையையும 19
▁சவாலை 19
▁சாதுர 19
▁சிகளிலிருந 19
▁சிண 19
▁சிநேகிதன 19
▁சினைகளிலும 19
▁சினைகளைப 19
▁சிபாரிசு 19
▁சியைவிட 19
▁சிறைகள 19
▁சிலிர 19
▁சுஜாதா 19
▁சுண 19
▁சுமியின 19
▁சுமையாக 19
▁சூறையாடப 19
▁செருப 19
▁செருயாவின 19
▁செறிவ 19
▁சேகாவும 19
▁சேச 19
▁சேபனைகளை 19
▁சேவைகளையும 19
▁சைம 19
▁சையின 19
▁ஜனாதிபதியால 19
▁ஜயந 19
▁ஜெனிலியா 19
▁டடத 19
▁டபங 19
▁டாரே 19
▁டாலே 19
▁டிகையை 19
▁டிடிஇ 19
▁டிதர 19
▁டியதற 19
▁டியபோது 19
▁டியாளரான 19
▁டிவிக 19
▁டிஷன 19
▁டீஷ 19
▁டுகளைக 19
▁டுகிறவன 19
▁டுசெல 19
▁டுதலின 19
▁டுதலை 19
▁டுபேரும 19
▁டுவதிலும 19
▁டுவருவார 19
▁டுவித 19
▁டுவிர 19
▁ணனின 19
▁ணனை 19
▁ணால 19
▁ணீரையும 19
▁ணைக 19
▁தகவலைக 19
▁ததினிமித 19
▁தமானி 19
▁தமொன 19
▁தராயிருக 19
▁தருளினார 19
▁தரைவழ 19
▁தறுவாய 19
▁தவரின 19
▁தவறவிட 19
▁தாளின 19
▁திசொல 19
▁தினராக 19
▁தினைத 19
▁திமரத 19
▁தியதும 19
▁தியனான 19
▁தியாகர 19
▁தியிலான 19
▁திரமில 19
▁திரவதைகள 19
▁திரிகைகளும 19
▁திருடப 19
▁திரேலியன 19
▁திறமைகளை 19
▁திறமையாக 19
▁தீரு 19
▁தீவிரமாகியுள 19
▁தீவுகளுக 19
▁துகிட 19
▁துகிறவன 19
▁துமாவோடும 19
▁துறைகளின 19
▁துறைமுகமான 19
▁தூணாதாரங 19
▁தேசிக 19
▁தேலுக 19
▁தேவி 19
▁தேவைகளைப 19
▁தையது 19
▁தொகையையும 19
▁தொலைபேசித 19
▁நகரசப 19
▁நங 19
▁நடனக 19
▁நடிகன 19
▁நனவு 19
▁நமிதாவை 19
▁நஸ 19
▁நாடாகும 19
▁நாயகர 19
▁நிதியளித 19
▁நினைவுச 19
▁நிமிஷத 19
▁நியாயஞ 19
▁நிறுவியது 19
▁நிலவற 19
▁நிலைகுலைந 19
▁நிலைமுற 19
▁நிலையினால 19
▁நீதிபதிய 19
▁நீரை 19
▁நுழ 19
▁நெறிமுறை 19
▁நேகோ 19
▁நேராகத 19
▁நோயாளிகளுக 19
▁னதத 19
▁னனி 19
▁னலின 19
▁னோர 19
▁பகலிலே 19
▁பகுதிகளான 19
▁பகுதிநேர 19
▁பசுமைவாதிகளின 19
▁படநிறுவனம 19
▁படமுடியாத 19
▁படிம 19
▁படியாகவும 19
▁படுபயங 19
▁படுவதுமில 19
▁படுவோர 19
▁படைவாதக 19
▁பணியிலிருந 19
▁பதனை 19
▁பதிலடியாக 19
▁பதிலளிப 19
▁பதுநாள 19
▁பயக 19
▁பயமும 19
▁பரமசிவன 19
▁பரி 19
▁பரிசை 19
▁பரேட 19
▁பலகைகளையும 19
▁பளிச 19
▁பளை 19
▁பவருமான 19
▁பாகி 19
▁பாடலின 19
▁பாடிய 19
▁பாதைகளில 19
▁பாரோ 19
▁பாலனவர 19
▁பாலானோர 19
▁பாவெல 19
▁பிடங 19
▁பிரகாசித 19
▁பிரதமருக 19
▁பிரபலமாக 19
▁பிரிவினரை 19
▁பிரிவினைவாதிகள 19
▁பிரிவுத 19
▁பிரேரித 19
▁பிறன 19
▁பிளஸ 19
▁பிழிந 19
▁பீரோ 19
▁புகளைத 19
▁புதத 19
▁புமுனை 19
▁புமுறைக 19
▁புரவல 19
▁புராஜெக 19
▁புறஜாத 19
▁புறமாக 19
▁புறவு 19
▁பூன 19
▁பெயரளவில 19
▁பெயரையும 19
▁பெருகியது 19
▁பெருப 19
▁பெருமாள 19
▁பெருமையடித 19
▁பெருமையாக 19
▁பெறல 19
▁பெறுமாறு 19
▁பெளச 19
▁பேசினேன 19
▁பேசுகிறோம 19
▁பேசுவார 19
▁பேரணியை 19
▁பேராதனை 19
▁பொதிய 19
▁பொறிக 19
▁பொலிசாரால 19
▁பொலின 19
▁போஜனத 19
▁போரடிக 19
▁போராடவும 19
▁போராடிப 19
▁போராடுகிறோம 19
▁போரிலும 19
▁போலாந 19
▁மகாநாட 19
▁மசால 19
▁மனிதனாக 19
▁மனோகர 19
▁மரபுகளை 19
▁மறுச 19
▁மறுமதிப 19
▁மலசலகூட 19
▁மழுங 19
▁மழைப 19
▁மாசெய 19
▁மாடி 19
▁மாடியில 19
▁மாறிவிடும 19
▁மிகாய 19
▁மிசேல 19
▁மீதியாயிருப 19
▁மீளப 19
▁முடியாவிட 19
▁முதலாளிகளும 19
▁முதலே 19
▁முருக 19
▁முறைதான 19
▁முறைமைகளை 19
▁மூலோபாயக 19
▁மேகாவ 19
▁மேசையில 19
▁மேடையின 19
▁மைகளுக 19
▁மொரக 19
▁மொழிவுகளை 19
▁யவோ 19
▁யூதேயா 19
▁யோசியா 19
▁யோத 19
▁யோதாம 19
▁ரவீந 19
▁ராகுல 19
▁ராஜகுமார 19
▁ராவின 19
▁ராஷ 19
▁ருதிவிராஜ 19
▁ரைனின 19
▁ரைனில 19
▁ரோனுக 19
▁றதோ 19
▁றாயிருக 19
▁றியதன 19
▁றியாக 19
▁றுகையில 19
▁றுநிருப 19
▁றெடுப 19
▁லாடி 19
▁லாததினால 19
▁லீடர 19
▁லுகிறதைக 19
▁லுவான 19
▁லெஹ 19
▁லேய 19
▁லோன 19
▁லோவ 19
▁ளதுமான 19
▁ளாதே 19
▁ளிசிட 19
▁ளினர 19
▁ளுகிறோம 19
▁ளூரில 19
▁வகைம 19
▁வசூலில 19
▁வதேசியம 19
▁வரவுசெலவு 19
▁வரிகளுக 19
▁வருமானமும 19
▁வருமுன 19
▁வருவதன 19
▁வலதுகரத 19
▁வலு 19
▁வலையில 19
▁வளவோ 19
▁வாசலிலே 19
▁வானொலியில 19
▁வாறுதான 19
▁வாழக 19
▁வாழவேண 19
▁விசுவாசியாத 19
▁விடாய 19
▁விடுதியில 19
▁விடுவதை 19
▁விடுவோம 19
▁வியன 19
▁விராஜ 19
▁விளைவாகத 19
▁விளைவுகளுக 19
▁விளைவுகளையும 19
▁விவச 19
▁விவசாயிகளையும 19
▁விஷாலின 19
▁வீணடிக 19
▁வுகளைப 19
▁வெளியிடுகிறார 19
▁வெளியேயும 19
▁வெளியேறத 19
▁வேச 19
▁வேறுவிதமான 19
▁வைட 19
▁வையையும 19
▁வொருவனும 19
▁ஷிண 19
▁ஷெராவத 19
▁ஹரிக 19
▁ஹிக 19
▁ஹைலைட 19
▁ஹொண 19
8,000 18
85 18
93 18
HA 18
TV 18
ada 18
adr 18
arch 18
arity 18
ated 18
avier 18
ble 18
cent 18
cl 18
ct 18
ew 18
gel 18
gi 18
iale 18
ied 18
ino 18
kel 18
ker 18
ket 18
lear 18
min 18
nar 18
ority 18
ork 18
orm 18
ose 18
reg 18
unt 18
urg 18
usiness 18
van 18
velopment 18
ym 18
ஃபி 18
இற 18
ஒர 18
சரித 18
சான 18
சிற 18
சீ 18
ஜிக 18
டர 18
டைதல 18
ணேசன 18
துர 18
தொன 18
நாயகம 18
னல 18
னாலும 18
பாலஸ 18
மொ 18
யமாத 18
ரியந 18
ருடங 18
ழியாய 18
வடிக 18
வாசம 18
வாசல 18
வீரர 18
வுடனே 18
வேளையில 18
வையல 18
ஷரீப 18
ஹி 18
ாடை 18
ாடோ 18
ானதால 18
ானந 18
ாயி 18
ாயுத 18
ாரில 18
ிடைய 18
ிநாதன 18
ிபாப 18
ிபீட 18
ிமுட 18
ியோல 18
ிராஜ 18
ிவளை 18
ிவை 18
ீகர 18
ீதா 18
ீரல 18
ுமாக 18
ுராதப 18
ுறமும 18
ூபத 18
ெடிய 18
ெந 18
ெமென 18
ெழ 18
ெவனோ 18
ேரம 18
ேவை 18
ையியல 18
ைவரை 18
ைவிடங 18
ோசேத 18
▁....... 18
▁0.4 18
▁109 18
▁191 18
▁1927 18
▁1929 18
▁3.3 18
▁3.6 18
▁3.8 18
▁4.1 18
▁6.30 18
▁6.4 18
▁60- 18
▁65,000 18
▁AF 18
▁Abd 18
▁Are 18
▁Barroso 18
▁Bild 18
▁Clairoix 18
▁Dominique 18
▁Don 18
▁FE 18
▁FN 18
▁Fore 18
▁Forum 18
▁Global 18
▁Ho 18
▁Leon 18
▁Mac 18
▁NCP 18
▁NPD 18
▁NR 18
▁People 18
▁Pet 18
▁Philip 18
▁Revolutionnaire 18
▁Road 18
▁SED 18
▁SYRI 18
▁Sal 18
▁Service 18
▁Sol 18
▁Step 18
▁Sup 18
▁TV 18
▁Tah 18
▁Trib 18
▁Trotsky 18
▁USSR 18
▁Van 18
▁pp 18
▁von 18
▁அகலத 18
▁அடூர 18
▁அடையாளமும 18
▁அதிகளவிலான 18
▁அரவ 18
▁அறுநூறுபேர 18
▁அலைய 18
▁அலைவரிசை 18
▁அவய 18
▁ஆடி 18
▁ஆதரவாகவும 18
▁ஆனான 18
▁ஆமிட 18
▁ஆளு 18
▁இடையிலுள 18
▁இணையதள 18
▁இயலாமல 18
▁இரசாய 18
▁இராமல 18
▁இளந 18
▁உடைகள 18
▁உதயன 18
▁உயிரிழக 18
▁உலாவ 18
▁உலை 18
▁ஊரில 18
▁ஊழலை 18
▁எடின 18
▁எதையாவது 18
▁எபேச 18
▁ஏசே 18
▁ஏபேர 18
▁ஐத 18
▁ஐஷ 18
▁கடமான 18
▁கடவள 18
▁கடியையும 18
▁கனுக 18
▁கமலும 18
▁கமா 18
▁கமைய 18
▁கரக 18
▁கருதுகிறோம 18
▁களற 18
▁களினது 18
▁களுடையது 18
▁கவுத 18
▁காடி 18
▁கானை 18
▁காமற 18
▁காமெடியில 18
▁காரும 18
▁காளிகளாக 18
▁காவலாள 18
▁கிறாங 18
▁கிறுக 18
▁கீங 18
▁கீதத 18
▁குடம 18
▁குடியேறுவோர 18
▁குமாயின 18
▁குமாரனான 18
▁குருணாகல 18
▁குளோப 18
▁குழிகள 18
▁குழிப 18
▁குவத 18
▁குவீர 18
▁குவை 18
▁கூடு 18
▁கூறியதாகவும 18
▁கெளரவிக 18
▁கொடுமைகளை 18
▁கோபமூட 18
▁சபரி 18
▁சபையானது 18
▁சராகவும 18
▁சரியாய 18
▁சவாரி 18
▁சாலி 18
▁சாஹ 18
▁சிடம 18
▁சினர 18
▁சியது 18
▁சியாளரான 18
▁சிரசின 18
▁சிறிதாக 18
▁சிறைவ 18
▁சிவசப 18
▁சீஷன 18
▁சுயமாக 18
▁சுவரில 18
▁செயன 18
▁செயலிழக 18
▁ஜீங 18
▁ஜூம 18
▁ஜெருசலேத 18
▁டகனும 18
▁டணியான 18
▁டதான 18
▁டரீதியாக 18
▁டவையாகும 18
▁டாஜ 18
▁டுடிய 18
▁டுதலாக 18
▁டுவருகிற 18
▁ணவில 18
▁தடைகளின 18
▁தயத 18
▁தரவிற 18
▁தரவும 18
▁தலைமையதிப 18
▁தளமானது 18
▁தவறியத 18
▁தவறுதல 18
▁தவறொன 18
▁தானமாக 18
▁தானாம 18
▁தாபனமும 18
▁தாவாக 18
▁திறத 18
▁துதலில 18
▁துதலும 18
▁துவாயாக 18
▁துவிடுவதாக 18
▁தூச 18
▁தூட 18
▁தூது 18
▁தெழும 18
▁தேயரின 18
▁தொகையானது 18
▁தொனியில 18
▁நகு 18
▁நடைபெறுவதற 18
▁நரஜீவன 18
▁நாதன 18
▁நிதானம 18
▁நிலைமையிலும 18
▁நூலகம 18
▁நெச 18
▁நெறிகள 18
▁நேரமில 18
▁நேரலை 18
▁னவல 18
▁னாவின 18
▁னியக 18
▁படவிருந 18
▁பதவிநீக 18
▁பநில 18
▁பனவுகளை 18
▁பனிகளின 18
▁பரமும 18
▁பரிணாமத 18
▁பரிமாறிக 18
▁பறவை 18
▁பலட 18
▁பலான 18
▁பவள 18
▁பாசன 18
▁பாதியை 18
▁பாரி 18
▁பாளி 18
▁பிடலாம 18
▁பினராகவும 18
▁பினிமித 18
▁பினெக 18
▁பிரகடனங 18
▁பிரெ 18
▁பிரேரிக 18
▁பிறரை 18
▁பிறழ 18
▁பிவ 18
▁புதியவர 18
▁புதைசேற 18
▁புவதாகக 18
▁புவான 18
▁பெறுக 18
▁பெறுபேறுகள 18
▁பேராபத 18
▁பையா 18
▁பொண 18
▁பொருளாதர 18
▁போடாதே 18
▁மதர 18
▁மனசு 18
▁மனுஷனாகிய 18
▁மரபுகள 18
▁மாங 18
▁மாஜிஸ 18
▁மாரடைப 18
▁மாறுவதற 18
▁முகமூடிய 18
▁முஷார 18
▁மூலாதார 18
▁மெளஹவுஸ 18
▁மேடம 18
▁மேலுமொரு 18
▁மொனர 18
▁யட 18
▁யாராக 18
▁யுவ 18
▁ரஜ 18
▁ரபீ 18
▁ராஜாவைச 18
▁ராஜீய 18
▁ராந 18
▁ரீமா 18
▁ருவ 18
▁ரூபாயை 18
▁ரேவதி 18
▁ரைக 18
▁ரொன 18
▁றவராக 18
▁றியானது 18
▁றுவாய 18
▁றையே 18
▁றோரின 18
▁லமாட 18
▁லறையில 18
▁லாதொழ 18
▁லினுக 18
▁லீப 18
▁லெக 18
▁லெஸ 18
▁லேடனின 18
▁லேல 18
▁லேவியரின 18
▁லையோர 18
▁ளமுடியும 18
▁ளவாறான 18
▁ளுணர 18
▁ளைகளைப 18
▁வகாலத 18
▁வகைத 18
▁வடமேல 18
▁வருகிறதைக 18
▁வருவதையும 18
▁வலதுசாரியினர 18
▁வலதுபாரிசத 18
▁வாடக 18
▁விசாக 18
▁விடமாட 18
▁விதிமுறை 18
▁வியாப 18
▁வியாபாரிகள 18
▁விரிசல 18
▁வீடற 18
▁வீதங 18
▁வுள 18
▁வேறெந 18
▁வேறொருவர 18
▁வேலைகளைக 18
▁வேலையையும 18
▁வொ 18
▁ஷப 18
▁ஷம 18
▁ஷிடம 18
▁ஷோ 18
▁ஹெய 18
,0 17
-480. 17
.15 17
.201 17
73 17
IR 17
RING 17
ague 17
aign 17
aimler 17
ame 17
ames 17
arin 17
ating 17
att 17
ces 17
ichheit 17
ilit 17
ira 17
istan 17
lan 17
ning 17
nn 17
ort 17
rat 17
rem 17
rick 17
rov 17
ta 17
uds 17
wa 17
É 17
ère 17
ஃ 17
கடந 17
கூட 17
சாலை 17
டாக 17
டிச 17
துசார 17
நிம 17
மய 17
றுபேர 17
விகித 17
விள 17
வுதான 17
ாணும 17
ாததால 17
ானாக 17
ாமண 17
ிகளே 17
ிரிஸ 17
ிறபோது 17
ுநாட 17
ுறைக 17
ுவாங 17
ூஜ 17
ேரி 17
ேவிக 17
ைதோறும 17
ைமதிப 17
ைமார 17
ையோட 17
▁-11 17
▁1,4 17
▁121 17
▁185 17
▁1958 17
▁2011.09 17
▁4, 17
▁5.4 17
▁5.6 17
▁6.7 17
▁700,000 17
▁DPJ 17
▁DSP 17
▁Diet 17
▁Fr 17
▁Frank 17
▁Hy 17
▁Jun 17
▁King 17
▁Lib 17
▁Miller 17
▁Mood 17
▁Mé 17
▁NASA 17
▁Sam 17
▁USFI 17
▁WCKD 17
▁Watch 17
▁Wen 17
▁Wu 17
▁bottom 17
▁v 17
▁அகழ 17
▁அதிகமாகியுள 17
▁அதிகால 17
▁அதேம 17
▁அபார 17
▁அபிக 17
▁அயத 17
▁அரசுகளும 17
▁அறையை 17
▁அவச 17
▁ஆதாத 17
▁ஆமோத 17
▁ஆயின 17
▁இடைமறித 17
▁இருதய 17
▁இருநாடுகள 17
▁இறைத 17
▁உதவிகளையும 17
▁உதவியளித 17
▁உதித 17
▁உயிரையும 17
▁உரம 17
▁உறைபனிக 17
▁ஊழலின 17
▁ஏசியான 17
▁ஒருமன 17
▁ஓநாய 17
▁கடவுச 17
▁கணிச 17
▁கனிந 17
▁கமைவாக 17
▁கரீபியன 17
▁கருதுக 17
▁காமெடிய 17
▁கீற 17
▁குடிம 17
▁குடு 17
▁குணவர 17
▁கூடிவர 17
▁கூறுவ 17
▁கையேற 17
▁கொலர 17
▁கோஷத 17
▁சதவிகிதக 17
▁சதாக 17
▁சதியை 17
▁சமாரியா 17
▁சரணடைய 17
▁சரியமாக 17
▁சலுகைமிக 17
▁சாலைய 17
▁சியமாக 17
▁சிறுநகர 17
▁செலவழிப 17
▁சொட 17
▁சோத 17
▁சோனி 17
▁சோவின 17
▁ஜாதியான 17
▁ஜானி 17
▁ஜூலியா 17
▁ஜேப 17
▁டகம 17
▁டவச 17
▁டிகிரி 17
▁டுவைக 17
▁தடத 17
▁தயாரா 17
▁தலைமைதாங 17
▁தளபாடங 17
▁தாளில 17
▁தியமை 17
▁திரேட 17
▁தெரியாதா 17
▁தொழுதுக 17
▁நாஸ 17
▁நிராயுதபாண 17
▁நிறுவனமானது 17
▁நிலைமைகளையும 17
▁நென 17
▁னலுக 17
▁னுரை 17
▁பணிவிட 17
▁பழுது 17
▁பாடசாலைகளுக 17
▁பியதாக 17
▁பிரதிபல 17
▁பிரெண 17
▁பிளக 17
▁புதுமுக 17
▁பேசுகிறீர 17
▁பேசுவதில 17
▁பேழ 17
▁மசூதியில 17
▁மரபில 17
▁மரபுர 17
▁மருமக 17
▁மலம 17
▁மலைநாட 17
▁மாறானது 17
▁முய 17
▁மூலைக 17
▁மூலையில 17
▁ரின 17
▁ரீச 17
▁ரீர 17
▁றலுக 17
▁றளவு 17
▁றியடைய 17
▁றிவள 17
▁லுற 17
▁லேச 17
▁லோச 17
▁வருடமும 17
▁வரைவில 17
▁வலுச 17
▁வழியம 17
▁வியாக 17
▁வேணும 17
▁ஸா 17
▁ஸாய 17
▁ஹய 17
▁ஹை 17
-09 16
-5 16
46 16
84 16
DA 16
aire 16
ake 16
amil 16
ano 16
ashidze 16
bigniew 16
bu 16
ency 16
gemeine 16
hn 16
igs 16
isen 16
ition 16
its 16
ling 16
mi 16
ode 16
onne 16
owell 16
pect 16
sch 16
sey 16
uelle 16
uge 16
ura 16
ustrial 16
uyn 16
இர 16
ஏற 16
கான 16
சூரிய 16
பாண 16
யே 16
றும 16
லையில 16
வெல 16
ாசுக 16
ிடைக 16
ிடையேயும 16
ியானவர 16
ுகிறாய 16
ெழுந 16
ேசி 16
ையாண 16
ோரிட 16
▁-1 16
▁0.2 16
▁105 16
▁12.5 16
▁161 16
▁166 16
▁1776 16
▁18,000 16
▁1931 16
▁1946 16
▁21,000 16
▁210 16
▁3.9 16
▁320 16
▁360 16
▁6000 16
▁AK 16
▁CMP 16
▁End 16
▁SRI 16
▁Serv 16
▁Stan 16
▁et 16
▁அதனைக 16
▁அதிகாரச 16
▁அறநெற 16
▁அவசரம 16
▁ஆசார 16
▁ஆளின 16
▁ஆளெவரும 16
▁இடைவிட 16
▁இணையதளம 16
▁இறைவன 16
▁உறும 16
▁ஊசி 16
▁ஊடகக 16
▁எஃ 16
▁எடு 16
▁ஒசிட 16
▁கனிம 16
▁கலவை 16
▁கவி 16
▁கிழமைகளில 16
▁கீதம 16
▁கைர 16
▁கோடக 16
▁சமீபக 16
▁சலாம 16
▁செலவீனம 16
▁ஜெபஆல 16
▁டிண 16
▁டியூக 16
▁தரகு 16
▁தலைமற 16
▁துமுட 16
▁தேடுகிறீர 16
▁நரகம 16
▁நினைவிருக 16
▁நியமத 16
▁நியூட 16
▁னறிவ 16
▁னிலங 16
▁பதம 16
▁பரிமாணத 16
▁பழன 16
▁பாலைவனத 16
▁பாவாக 16
▁பிடுவதற 16
▁பியூட 16
▁பிலேய 16
▁புழுத 16
▁பூல 16
▁பூஸ 16
▁பேசியத 16
▁பேஷ 16
▁பௌ 16
▁மதுப 16
▁மாணப 16
▁மோல 16
▁யானை 16
▁ரிங 16
▁றுண 16
▁ளதோ 16
▁ளோச 16
▁வடிக 16
▁வளிமண 16
▁விளை 16
▁வெனிச 16
▁ஹபீப 16
▁ஹரிரி 16
,5 15
,600 15
-52 15
.05 15
.200 15
.31 15
2005 15
35 15
4,000 15
MP 15
TS 15
agon 15
ais 15
ara 15
arian 15
arie 15
ase 15
ati 15
ave 15
ban 15
chi 15
day 15
deutsche 15
ean 15
ents 15
ese 15
ga 15
gin 15
grena 15
hib 15
hler 15
ht 15
ict 15
illepin 15
ines 15
inger 15
inos 15
ision 15
ities 15
ius 15
ja 15
ko 15
lement 15
ny 15
ology 15
omi 15
onst 15
otal 15
oud 15
ove 15
over 15
oz 15
pos 15
ras 15
rian 15
rust 15
saoui 15
sk 15
tern 15
ual 15
uan 15
uelfer 15
ues 15
ull 15
undschau 15
ures 15
ward 15
சட 15
டால 15
னிக 15
போக 15
றுங 15
ளாவிய 15
வசம 15
வயத 15
ஹம 15
ாதபடிய 15
ாதாரண 15
ாநாயகர 15
ாரியின 15
ாரு 15
ிகம 15
ிமண 15
ிமற 15
ியவான 15
ியானா 15
[...]
