▁් 49545
▁. 10883
▁the 7858
▁, 7209
▁of 5764
▁: 3562
▁) 3488
▁( 3486
▁and 3265
▁to 2734
▁ප 2623
▁in 2090
▁ය 2067
▁ව 1618
▁- 1603
▁for 1425
▁හා 1394
▁සහ 1372
▁a 1370
. 1319
▁සඳහා 1200
▁ක 1155
▁කිරීම 1060
▁ත 1008
▁/ 940
▁කර 843
▁වර 814
▁වන 776
▁කරන 747
▁on 744
▁සංස 727
▁ස 712
▁සම 702
▁by 701
▁+ 693
▁කාර 686
▁project 664
▁with 662
▁been 658
▁as 652
▁94 642
▁; 642
▁දී 611
▁had 590
▁ද 581
▁ලබා 569
▁වැඩසටහන 569
▁rs 565
▁මෙම 555
▁ධන 540
ක 531
▁or 531
▁was 529
▁හෝ 525
▁1 521
▁this 517
▁කෘතික 508
▁cultural 506
▁ශ 505
▁අමාත 501
▁ඇති 495
- 494
▁පත 491
▁කටයුතු 484
▁be 483
▁at 478
▁is 478
▁that 465
▁2011 458
▁මාර 457
▁රු 450
▁බන 446
▁2012 444
▁2 443
▁මධ 442
; 432
▁& 432
▁from 432
▁ජාතික 432
▁sri 429
▁අතර 429
▁ඇත 427
▁රී 426
▁නම 423
▁year 421
▁under 417
▁අධ 410
▁ලද 409
▁සංවර 408
▁යාපෘතිය 407
▁විසින 406
▁national 404
▁යස 404
▁වා 399
▁මක 398
▁development 394
▁ථානය 394
▁name 393
▁වූ 390
▁රාජ 385
▁එම 384
▁වීම 383
▁were 382
▁ගේ 375
▁කරනු 372
▁ග 372
▁ලෙස 371
▁වාර 369
▁committee 366
▁ම 366
▁lanka 363
▁3 361
▁11 356
amp 354
▁භාෂා 351
▁2014 350
▁විය 347
▁මණ 343
▁officer 332
▁ෂණ 329
▁යන 327
▁are 325
▁ලංකා 319
▁health 316
▁දක 316
▁කළ 312
▁තමේන 310
▁සෞඛ 307
▁ministry 303
▁කාරක 302
▁center 300
▁පිළිබඳ 300
▁no 298
▁road 298
▁යටතේ 297
▁අවශ 295
▁තුළ 295
▁සිදු 295
▁shall 293
▁මුදල 292
▁programme 288
▁වෙත 288
▁තු 286
▁සේවා 286
▁ඒ 282
▁not 281
▁රණවිරු 280
▁4 275
▁ට 272
▁සභාව 270
▁ෂ 269
▁කිරීමේ 267
▁විද 266
▁අදාළ 264
▁මානසික 264
▁financial 261
▁ලදී 259
▁කිරීමට 258
▁වය 258
▁රියාත 255
▁s 254
▁පවත 254
▁උද 251
▁ධනය 251
▁අනුව 248
▁දෙපාර 248
▁මූල 247
▁සිට 247
▁an 246
▁mental 246
▁රවර 246
▁ෂය 243
▁amp 242
▁public 242
▁excise 240
▁යක 239
▁it 236
▁වියදම 236
▁ආයතන 232
▁මගින 231
▁ලේකම 231
▁’ 231
▁language 229
▁රධාන 229
▁programmes 228
▁telephone 228
▁යුතු 226
▁ලබන 226
▁ගැනීම 225
▁තර 225
▁other 223
▁ආයතනය 223
▁දීම 223
▁ranaviru 222
▁services 221
▁දින 221
▁න 221
▁නිලධාරීන 220
▁තාක 217
▁ල 217
▁ගිණුම 216
▁5 215
▁යාපෘතියේ 215
▁department 214
▁අත 214
▁දුරකථන 214
▁ධ 214
▁ෂයේ 214
▁have 213
▁ගෙන 213
▁යාංශය 213
▁“ 213
▁තත 212
▁– 212
▁මහතා 211
▁රික 211
▁address 210
▁officers 209
▁which 209
▁ඉදිරිපත 208
▁පාර 207
▁යාලය 207
▁ණය 206
▁ලිපිනය 205
▁වැය 204
▁ගණන 203
▁වේ 203
▁විශ 202
▁training 201
▁ති 201
▁දිස 201
▁තනතුර 197
▁දීමේ 197
▁institutions 196
▁” 196
▁01 195
▁expenditure 195
▁general 195
▁බව 195
▁ලදි 194
▁ගරු 193
▁ධයෙන 191
▁% 190
▁තුව 190
▁බර 189
▁ඩලය 188
▁වෛද 185
▁authority 184
▁පහසුකම 183
▁such 182
▁පුහුණු 182
▁all 181
▁division 181
▁promotion 180
▁යුතුය 180
▁who 179
▁10 178
▁has 178
▁mr 178
▁එක 177
▁සත 176
▁act 175
▁unit 174
▁31 172
▁institute 172
▁ෂණය 172
▁12 171
▁ගත 171
▁ගය 171
▁යාපෘති 171
▁hon 170
▁6 169
▁කොට 169
▁2013 167
▁district 167
▁their 167
▁සඳහන 167
▁corporation 166
▁අය 166
▁තා 166
▁out 163
▁නිර 163
▁පහත 163
▁ර 163
▁any 162
▁මාන 162
▁management 161
▁නිෂ 161
▁2015 160
▁වල 160
▁charge 158
▁made 158
▁projects 158
▁ඇතුළත 158
▁තැනැත 158
▁government 157
▁designation 156
▁review 154
▁අංක 154
▁ආදායම 154
▁විශේෂ 154
▁fund 153
▁මුල 153
▁අංශය 150
▁during 149
▁වෙනත 149
▁million 147
▁පර 147
▁සදහා 147
▁director 146
▁වශයෙන 145
▁හැකි 145
▁පැවැත 144
▁අවසන 143
▁income 142
▁යම 142
▁රතිපත 142
▁board 141
▁conducted 141
▁action 140
▁report 140
▁service 139
▁social 138
▁members 137
▁research 137
▁total 137
▁අවස 137
▁staff 136
▁යාපන 135
▁රුපියල 135
▁02 134
▁ගම 134
▁මිලියන 133
▁2010 132
▁මත 132
▁යුත 132
▁නව 131
▁යේෂණ 131
▁15 130
▁education 130
▁තිය 130
▁අ 129
▁නිලධාරිවරයා 129
▁ආරක 128
▁දු 128
▁නා 128
▁රාදේශීය 128
▁කොටස 127
▁භාණ 127
▁වැඩි 127
▁සමාජ 127
▁special 126
▁වී 126
▁budget 125
▁council 125
▁taken 125
▁000 124
▁hindu 124
▁incharge 124
▁also 123
▁minister 123
▁හින 123
▁ආරම 122
▁තොරතුරු 122
▁පාසල 122
▁13 121
▁being 121
▁war 121
▁ඉල 121
▁නිලධාරි 121
▁පරිදි 121
▁වසර 121
▁following 120
▁km 120
▁කම 120
▁ථාව 120
▁සකස 120
▁05 119
▁languages 119
▁office 119
▁progress 119
▁අධිකාරිය 119
▁හි 119
▁person 118
▁ඔවුන 118
▁පළාත 117
▁8 116
▁b 116
▁policy 116
▁ගැනීමට 116
▁මන 116
▁ලිමේන 116
▁7 115
▁activities 115
▁time 115
▁university 115
▁ථානාධිපති 115
▁මික 115
▁මේ 115
▁official 114
▁සභාවේ 114
▁account 113
▁may 113
▁අරමුදල 113
▁වෙන 113
▁වෙනුවෙන 113
▁loan 112
▁උත 111
▁නිරීක 111
▁සුරාබදු 111
▁secretary 110
▁තන 110
▁audit 108
▁colombo 108
▁new 108
▁ඒකාබද 108
▁children 107
▁period 107
▁පරීක 107
▁home 106
▁these 106
▁years 106
▁දැක 106
▁පාදන 106
▁පාලම 106
▁පිළිබඳව 106
▁03 105
▁14 105
▁medical 105
▁පාදනය 105
▁සියලු 105
▁patient 104
▁through 104
▁දෙසැම 104
▁its 103
▁tamil 103
▁අන 103
▁කි 103
▁වසරේ 103
▁04 102
▁heroes 102
▁තිබුණි 102
▁නිවාස 102
▁information 101
▁part 101
▁දැනුම 101
▁කොළඹ 99
▁පොදු 99
▁මට 99
▁i 98
▁ආධාර 98
▁භ 98
▁08 97
▁25 97
▁assistant 97
▁gardens 97
▁hospital 97
▁ආර 97
▁ඉඩම 97
▁යය 97
▁ලැබිය 97
▁සැලසුම 97
▁december 96
▁ආ 96
▁18 95
▁යාන 95
▁ao 94
▁මිය 94
▁community 93
▁regulations 93
▁එහි 93
▁වලට 93
▁සිටින 93
▁UTI 92
▁cao 92
▁e 92
▁number 92
▁parliament 92
▁uti 92
▁දේශීය 92
▁භිද 92
▁සහකාර 92
▁ltd 91
▁අංකය 91
▁දෙමළ 91
▁පිටුව 91
▁සිංහල 91
▁bank 90
▁bridge 90
▁held 90
▁will 90
▁within 90
▁ඒකකය 90
th 89
▁20 89
▁කළමනාකරණ 89
▁යානය 89
▁විවිධ 89
▁about 87
▁ඩ 87
▁නියමිත 87
▁නොතිබුණි 87
▁පනත 87
▁යයන 87
▁රජයේ 87
▁ලැබූ 87
▁30 86
▁per 86
▁පදනම 86
▁රගතිය 86
▁order 85
▁යාව 85
▁country 84
▁day 84
▁land 84
▁programs 84
▁technology 84
▁them 84
▁treasury 84
▁සංඛ 84
▁සමාගම 84
▁school 83
▁ථා 83
▁මයා 83
▁යොමු 83
▁ලක 83
▁71 82
▁his 82
▁up 82
▁අප 82
▁නේ 82
▁වාහන 82
▁විට 82
▁සාමාන 82
▁accounts 81
▁construction 81
▁into 81
▁length 81
▁ඉන 81
▁ගලික 81
▁ii 80
▁necessary 80
▁sector 80
▁sinhala 80
▁ඉදිකිරීම 80
▁තුවේ 80
▁තේ 80
▁දෙන 80
▁පුද 80
▁housing 79
▁paid 79
▁performance 79
▁නිලධාරී 79
▁පසු 79
▁මස 79
▁රෝහල 79
▁ෂක 79
▁c 78
▁provisions 78
▁resources 78
▁වත 78
▁වැනි 78
▁divisional 77
▁work 77
▁රාත 77
▁administration 76
▁affairs 76
▁state 76
▁stated 76
▁එකතුව 76
▁ෂා 76
▁9 75
▁level 75
▁those 75
▁ආයතනයේ 75
▁කරමින 75
▁ඩල 75
▁තාව 75
▁දරන 75
▁නන 75
▁නිකුත 75
▁නොවන 75
▁පොත 75
▁මහාමාර 75
▁යා 75
▁රතිපාදන 75
▁ෂික 75
▁assistance 74
▁building 74
▁one 74
▁relevant 74
▁three 74
▁අඩු 74
▁අදහස 74
▁උසස 74
▁කොන 74
▁මනෝ 74
▁රමාණය 74
▁රැස 74
m 73
▁07 73
▁එය 73
▁ගන 73
▁සාමාජිකයන 73
▁සැලැස 73
▁annual 72
▁fax 72
▁non 72
▁provided 72
▁treatment 72
▁ඇස 72
▁යාපනය 72
▁ෂේත 72
▁ෆැක 72
▁17 71
▁integration 71
▁secretariat 71
▁ථාන 71
▁දිග 71
▁ලංකාවේ 71
▁finance 70
▁given 70
▁rupavahini 70
▁පද 70
▁යාංශයේ 70
▁රතිකාර 70
▁සන 70
▁සමග 70
▁සමාලෝචිත 70
▁සාකච 70
▁06 69
▁centre 69
▁plan 69
▁providing 69
▁අභ 69
▁ලැබේ 69
▁විගණන 69
▁විස 69
▁each 68
▁highways 68
▁loans 68
▁local 68
▁ආගමික 68
▁එස 68
▁ඡා 68
▁පෙර 68
▁බවත 68
▁වි 68
▁ශාක 68
▁place 67
▁section 67
▁two 67
▁ඩී 67
▁දේශ 67
▁නිදහස 67
▁පාලන 67
▁09 66
▁apos 66
▁her 66
▁implementation 66
▁over 66
▁physical 66
▁provide 66
▁අතිරේක 66
▁ඉටු 66
▁කාලය 66
▁දිනට 66
▁පූර 66
▁යාග 66
▁වවිද 66
▁22 65
▁aranery 65
▁chairman 65
▁facilities 65
▁iti 65
▁program 65
▁statements 65
▁students 65
▁without 65
▁ඇමුණුම 65
▁පෞද 65
▁වැඩ 65
▁වෘත 65
▁amounting 64
▁balance 64
▁completed 64
▁directed 64
▁even 64
▁religious 64
▁vehicles 64
▁දැනුවත 64
▁මි 64
▁රණවිරුවන 64
▁වගන 64
▁සහභාගි 64
▁carried 63
▁due 63
▁main 63
▁provincial 63
▁උපදේශක 63
▁ථාපිත 63
▁යාපාර 63
▁21 62
▁facility 62
▁related 62
▁telecast 62
▁village 62
▁අධීක 62
▁කාල 62
▁කාලීන 62
▁තැන 62
▁මුළු 62
▁මූලික 62
▁වීමට 62
▁සේ 62
▁16 61
▁botanic 61
▁while 61
▁පනතේ 61
▁city 60
▁further 60
▁private 60
▁කිරීමෙන 60
▁ගෙවීම 60
▁ඡානුග 60
▁දායකත 60
▁නියම 60
▁නීති 60
▁පන 60
▁පරිපාලන 60
▁මඟින 60
▁සංරක 60
▁සහිත 60
▁සැපයීම 60
▁23 59
▁24 59
▁after 59
▁d 59
▁days 59
▁foreign 59
▁mrs 59
▁rehabilitation 59
▁respect 59
▁ඇ 59
▁දහම 59
▁දීමට 59
▁ධතා 59
▁සේවාවන 59
▁accordance 58
▁among 58
▁preparation 58
▁කළමනාකරණය 58
▁පැය 58
▁මුද 58
▁ලිපි 58
▁වෝද 58
▁50 57
▁based 57
▁more 57
▁post 57
▁අරමුණු 57
▁ඉහළ 57
▁ගුවන 57
▁නාට 57
▁පවුල 57
▁මානව 57
▁වැඩිදියුණු 57
▁‘ 57
▁commission 56
▁details 56
▁improvement 56
▁news 56
▁people 56
▁quality 56
▁චක 56
▁තීරණය 56
▁පාලනය 56
▁පිටපත 56
▁මෙහෙයුම 56
▁යාල 56
▁රදර 56
▁ශිෂ 56
▁සහන 56
▁19 55
▁amount 55
▁cost 55
▁internal 55
▁persons 55
▁sum 55
▁අනෙකුත 55
▁ආබාධිත 55
▁ගාස 55
▁ජෛව 55
▁මෙහි 55
▁රව 55
▁රූපවාහිනී 55
mail 54
▁approval 54
▁basis 54
▁plants 54
▁police 54
▁regard 54
▁well 54
▁අලුත 54
▁අවුරුදු 54
▁චිකිත 54
▁ණ 54
▁තැපෑල 54
▁තිබුණු 54
▁නැවත 54
▁මෙන 54
▁රය 54
▁වගුව 54
▁contract 53
▁m 53
▁month 53
▁they 53
▁අංශ 53
▁තව 53
▁පොලිස 53
▁බදු 53
▁බාහිර 53
▁යටත 53
▁රකාශන 53
▁වෙනස 53
▁provision 52
▁schools 52
▁technical 52
▁කල 52
▁කළේය 52
▁තිබූ 52
▁පී 52
▁සමඟ 52
▁සිසුන 52
▁හදිසි 52
quot 51
▁2017 51
▁annex 51
▁co 51
▁control 51
▁end 51
▁examination 51
▁province 51
▁required 51
▁there 51
▁අරනෙරි 51
▁එසේ 51
▁තිකාරම 51
▁පෙන 51
▁යවස 51
▁ශනය 51
▁ෂිත 51
▁හට 51
▁2009 50
▁DNP 50
▁appeal 50
▁copies 50
▁court 50
▁decision 50
▁dnp 50
▁live 50
▁present 50
▁අධිකාරී 50
▁කරයි 50
▁කොමසාරිස 50
▁නියෝජ 50
▁මහා 50
▁රත 50
▁විෂය 50
▁accordingly 49
▁application 49
▁capital 49
▁hours 49
▁including 49
▁opinion 49
▁our 49
▁sewa 49
▁table 49
▁though 49
▁transport 49
▁අපේක 49
▁කාලයක 49
▁කෝවිල 49
▁ථාපනය 49
▁දරුවන 49
▁දුරකථනය 49
▁පාඨමාලා 49
▁බවට 49
▁බෙදා 49
▁ශක 49
d 48
▁commissioner 48
▁established 48
▁expenses 48
▁involuntary 48
▁southern 48
▁අනුමත 48
▁කරණ 48
▁නඩත 48
▁වනු 48
▁සමස 48
▁සමාලෝචනය 48
▁හැකිය 48
▁හැකියාව 48
▁27 47
▁additional 47
▁best 47
▁every 47
▁if 47
▁knowledge 47
▁money 47
▁responsible 47
▁should 47
▁අයිතිවාසිකම 47
▁ඉලක 47
▁කණ 47
▁කරණය 47
▁තම 47
▁තය 47
▁ථාවේ 47
▁දර 47
▁දිනය 47
▁දුන 47
▁පවතින 47
▁පිණිස 47
▁පින 47
▁මල 47
▁මී 47
▁යත 47
▁රතිසංස 47
▁රියා 47
▁ලබයි 47
▁වැටුප 47
▁011 46
▁60 46
▁auditor 46
▁estimates 46
▁here 46
▁human 46
▁illness 46
▁make 46
▁member 46
▁support 46
▁zoo 46
▁අධිකාරියේ 46
▁අනිච 46
▁අනුකූල 46
▁අනුමැතිය 46
▁ආංශික 46
▁ඔහු 46
▁ටෙලි 46
▁ථ 46
▁රෙගුලාසි 46
▁රෝගියා 46
▁වයක 46
▁වයෙන 46
▁සියයට 46
▁සී 46
km 45
කින 45
▁above 45
▁access 45
▁according 45
▁batticaloa 45
▁billion 45
▁functions 45
▁means 45
▁observed 45
▁since 45
▁skills 45
▁used 45
▁අක 45
▁කය 45
▁ගනිමින 45
▁ගල 45
▁ගෙවා 45
▁ථික 45
▁මාධ 45
▁මුදලක 45
▁සටහන 45
▁සවය 45
st 44
▁compared 44
▁deputy 44
▁detention 44
▁environment 44
▁funds 44
▁maintenance 44
▁objective 44
▁only 44
▁take 44
▁ඔහුගේ 44
▁තවදුරටත 44
▁පරිච 44
▁බදුල 44
▁බලපත 44
▁බැංකුව 44
▁බිලියන 44
▁යාංශ 44
▁යාලයේ 44
▁විම 44
▁ෂණික 44
a 43
p 43
▁advance 43
▁awareness 43
▁badulla 43
▁economic 43
▁garden 43
▁institution 43
▁jaffna 43
▁meeting 43
▁station 43
▁welfare 43
▁ඔබ 43
▁කොමිෂන 43
▁ටම 43
▁නගරය 43
▁පුහුණුව 43
▁මාණ 43
▁මිල 43
▁යාම 43
▁රැකියා 43
▁රි 43
▁වගකීම 43
▁ශීර 43
▁සහතික 43
▁සහාය 43
▁සේවක 43
▁2006 42
▁accounting 42
▁discharge 42
▁engineering 42
▁establishment 42
▁galle 42
▁plans 42
▁plant 42
▁received 42
▁reports 42
▁results 42
▁than 42
▁units 42
▁අයවැය 42
▁උතුරු 42
▁උපදෙස 42
▁කෙරෙන 42
▁ජී 42
▁ඩලයේ 42
▁තමාන 42
▁තාවක 42
▁නෙන 42
▁මාස 42
▁රවෘත 42
▁සක 42
▁හේතුවෙන 42
▁32 41
▁books 41
▁circular 41
▁concessionary 41
▁date 41
▁employment 41
▁iii 41
▁increase 41
▁international 41
▁making 41
▁where 41
▁ආයතනවල 41
▁ඉහත 41
▁ඊට 41
▁ගනු 41
▁ජන 41
▁නොහැකි 41
▁පමණ 41
▁පරිගණක 41
▁බැංකු 41
▁භෞතික 41
▁මානය 41
▁රතිලාභ 41
▁රදවා 41
▁සංසද 41
▁සෑම 41
▁සීමාසහිත 41
▁2016 40
▁areas 40
▁assets 40
▁classes 40
▁committees 40
▁conservation 40
▁current 40
▁expressway 40
▁gallery 40
▁observations 40
▁october 40
▁phone 40
▁process 40
▁quot 40
▁second 40
▁selected 40
▁status 40
▁us 40
▁අදියර 40
▁අනු 40
▁ඇයගේ 40
▁ඉංජිනේරු 40
▁කන 40
▁කමිටුව 40
▁ගැන 40
▁දෙවන 40
▁පුත 40
▁යතා 40
▁රණ 40
▁රවාහන 40
▁රසම 40
▁රිත 40
▁වාගෙන 40
▁විධිවිධාන 40
▁සංවිධාන 40
▁ළමා 40
▁33 39
▁48 39
▁cash 39
▁cope 39
▁districts 39
▁first 39
▁five 39
▁increased 39
▁society 39
▁workshop 39
▁අතිකාල 39
▁ඉකුත 39
▁කිරිම 39
▁ථානයේ 39
▁නරඹන 39
▁පරිසර 39
▁මතය 39
▁රකාශ 39
▁රම 39
▁වැළැක 39
▁හොඳම 39
▁1.2 38
▁care 38
▁ceylon 38
▁completion 38
▁disabled 38
▁he 38
▁high 38
▁ministries 38
▁overtime 38
▁payment 38
▁prescribed 38
▁produced 38
▁rights 38
▁system 38
▁view 38
▁you 38
▁අම 38
▁අයත 38
▁ඒවා 38
▁කේ 38
▁ඩාගාර 38
▁දියුණු 38
▁නිසා 38
▁නොවැම 38
▁මඩකලපුව 38
▁මහත 38
▁රඳවා 38
▁ලීම 38
▁විකාශය 38
▁සේවයේ 38
▁2008 37
▁balances 37
▁before 37
▁beneficiaries 37
▁conducting 37
▁consultant 37
▁customs 37
▁granting 37
▁guidelines 37
▁kandy 37
▁operating 37
▁participated 37
▁secretariats 37
▁අධිවේගී 37
▁උපකරණ 37
▁කමිටු 37
▁කරු 37
▁ගැනීමේ 37
▁ඩායම 37
▁දැන 37
▁පමණක 37
▁පැවති 37
▁පුනරුත 37
▁පුවත 37
▁පෙළ 37
▁මෙය 37
▁යටිතල 37
▁යවරයා 37
▁රයේ 37
▁විමර 37
▁හඳුනා 37
▁100 36
▁38 36
▁approved 36
▁description 36
▁duties 36
▁educational 36
▁emergency 36
▁employees 36
▁english 36
▁higher 36
▁july 36
▁obtained 36
▁prepared 36
▁presented 36
▁production 36
▁subject 36
▁submit 36
▁teachers 36
▁temples 36
▁world 36
▁written 36
▁zone 36
▁අතිරික 36
▁අයදුම 36
▁ගැලරිය 36
▁ගොඩ 36
▁දැනට 36
▁පරිත 36
▁භාවිත 36
▁මාණය 36
▁රන 36
▁රියාකාරකම 36
▁සංචාරක 36
▁සංවිධානය 36
▁සභා 36
▁සභාපති 36
▁හැඳින 36
s 35
▁26 35
▁addition 35
▁central 35
▁enterprises 35
▁interest 35
▁months 35
▁objectives 35
▁planning 35
▁procurement 35
▁published 35
▁roads 35
▁superintended 35
▁various 35
▁අර 35
▁අලෙවි 35
▁අවම 35
▁ඇගයීම 35
▁ඉංග 35
▁ඊ 35
▁කෙරෙහි 35
▁තුළින 35
▁නැගෙනහිර 35
▁නියෝග 35
▁නොමැති 35
▁පරිවර 35
▁පියවර 35
▁මෙතනයි 35
▁රජා 35
▁රතිලාභීන 35
▁රිකුණාමලය 35
▁රියාමාර 35
▁ශේෂය 35
▁සමාලෝචන 35
▁සිය 35
▁36 34
▁37 34
▁40 34
▁41 34
▁72 34
▁77 34
▁able 34
▁available 34
▁between 34
▁bridges 34
▁g 34
▁industrial 34
▁security 34
▁term 34
▁trincomalee 34
▁use 34
▁අරමුදලේ 34
▁ඔක 34
▁කරුණු 34
▁චිත 34
▁තලම 34
▁දෙනෙකු 34
▁නිවේදන 34
▁නුවරඑළිය 34
▁පහ 34
▁පුරා 34
▁බැවින 34
▁භාර 34
▁රණය 34
▁රීසි 34
▁වැදගත 34
▁සමාජීය 34
▁සැකසීම 34
▁0 33
▁air 33
▁august 33
▁book 33
▁commenced 33
▁documentary 33
▁hospitals 33
▁infrastructure 33
▁p 33
▁park 33
▁phase 33
▁position 33
▁self 33
▁systems 33
▁teledrama 33
▁your 33
▁ඉතිරි 33
▁ගෙවිය 33
▁ගොඩනැගිල 33
▁තරුණ 33
▁දත 33
▁බ 33
▁වයං 33
▁විදේශීය 33
▁ශන 33
▁සව 33
▁සාර 33
▁II 32
▁against 32
▁agencies 32
▁course 32
▁decisions 32
▁existing 32
▁families 32
▁future 32
▁implemented 32
▁informed 32
▁introduction 32
▁last 32
▁legal 32
▁medicine 32
▁northern 32
▁payments 32
▁preceding 32
▁psychiatrist 32
▁relative 32
▁senior 32
▁water 32
▁අංශයේ 32
▁ආයෝජන 32
▁කෙරේ 32
▁ගාල 32
▁ගුණාත 32
▁තිබේ 32
▁තීය 32
▁තොට 32
▁දීමනා 32
▁දෙකක 32
▁මාතර 32
▁ලිඛිත 32
▁වලින 32
කට 31
▁28 31
▁anuradhapura 31
▁capacity 31
▁culture 31
▁fees 31
▁granted 31
▁incurred 31
▁issued 31
▁january 31
▁matara 31
▁media 31
▁nuwara 31
▁tax 31
▁towards 31
▁අභියාචනා 31
▁අයි 31
▁ඇතුළු 31
▁එන 31
▁කලාපීය 31
▁කැමැත 31
▁ජූලි 31
▁තුවට 31
▁ථානයක 31
▁නි 31
▁නිශ 31
▁මීටර 31
▁යාවත 31
▁යුක 31
▁රතිඵල 31
▁රිය 31
▁විපරම 31
▁ශිල 31
▁ශේෂ 31
▁සර 31
▁හේතු 31
▁45 30
▁54 30
▁actual 30
▁chief 30
▁data 30
▁head 30
▁improve 30
▁lankan 30
▁matters 30
▁recommendations 30
▁referred 30
▁right 30
▁title 30
▁අගෝස 30
▁අවධානය 30
▁ඨ 30
▁තබා 30
▁තවත 30
▁පසුව 30
▁පළ 30
▁බලන 30
▁මහජන 30
▁රක 30
▁රීඩා 30
▁ලා 30
▁විදේශ 30
▁සේවය 30
▁හැර 30
▁but 29
▁consent 29
▁courses 29
▁distribution 29
▁ensure 29
▁equipment 29
▁exceeding 29
▁field 29
▁function 29
▁house 29
▁identified 29
▁matter 29
▁north 29
▁relating 29
▁standards 29
▁taking 29
▁vision 29
▁අරමුණ 29
▁අරමුණින 29
▁ඈ 29
▁ඉතා 29
▁කිරුළ 29
▁ගිය 29
▁ජනතාව 29
▁ජාත 29
▁තක 29
▁තියේ 29
▁තෙල 29
▁දැයට 29
▁නඩු 29
▁නිවැරදි 29
▁නොවීම 29
▁පාරිසරික 29
▁භාවිතා 29
▁යුද 29
▁රාග 29
▁ලැබෙන 29
▁ලෝක 29
▁විත 29
▁විදුලි 29
▁ෂණයන 29
▁සාක 29
e 28
▁150 28
▁29 28
▁500 28
▁admission 28
▁boards 28
▁cabinet 28
▁certain 28
▁company 28
▁deposits 28
▁directors 28
▁dr 28
▁ended 28
▁events 28
▁issue 28
▁iv 28
▁june 28
▁laboratory 28
▁need 28
▁notice 28
▁organized 28
▁purpose 28
▁responsibility 28
▁send 28
▁short 28
▁some 28
▁value 28
▁අගලවත 28
▁ඇය 28
▁ඉවත 28
▁එච 28
▁ඒකකයේ 28
▁ගුරුවරුන 28
▁දවස 28
▁දුක 28
▁ධතාවය 28
▁ධති 28
▁පශ 28
▁බී 28
▁මුලතිව 28
▁රවේශය 28
▁රියාකාරී 28
▁රේගු 28
▁රෝගීන 28
▁ලියාපදිංචි 28
▁ලුම 28
▁ලේඛන 28
▁වගා 28
▁වඩා 28
▁සමන 28
▁සුදුසු 28
apos 27
▁= 27
▁LLC 27
▁SBE 27
▁amounted 27
▁below 27
▁college 27
▁implementing 27
▁llc 27
▁monitoring 27
▁sbe 27
▁several 27
▁we 27
▁when 27
▁ආචාර 27
▁ආශ 27
▁කරගත 27
▁කාණ 27
▁කිලිනොච 27
▁ගොනු 27
▁නිල 27
▁නිසි 27
▁පවතී 27
▁භාජනය 27
▁භාවිතය 27
▁යයි 27
▁වයට 27
▁වෙළඳ 27
▁සලකා 27
▁allocated 26
▁ampara 26
▁applications 26
▁biological 26
▁botanical 26
▁both 26
▁branches 26
▁brought 26
▁energy 26
▁enhance 26
▁evaluation 26
▁give 26
▁grievance 26
▁heads 26
▁however 26
▁kirula 26
▁law 26
▁laws 26
▁loss 26
▁motor 26
▁nearest 26
▁needs 26
▁november 26
▁offence 26
▁participation 26
▁puttalam 26
▁relation 26
▁so 26
▁then 26
▁අඛණ 26
▁අනුරාධපුර 26
▁උපාධි 26
▁කමිටුවේ 26
▁කයේ 26
▁කුරුණෑගල 26
▁ගොඩනැගිලි 26
▁ගෝපදේශ 26
▁චි 26
▁ජ 26
▁ජනවාරි 26
▁ඩය 26
▁තබාගැනීම 26
▁නපුර 26
▁නුවර 26
▁පතු 26
▁මහනුවර 26
▁යනු 26
▁යෙහි 26
▁ලන 26
▁විවිධත 26
▁වීමෙන 26
▁ෂයට 26
▁සහභාගී 26
▁හරහා 26
▁හැම 26
▁හුවමාරු 26
1 25
▁200 25
▁A 25
▁agriculture 25
▁appointed 25
▁channel 25
▁could 25
▁done 25
▁eastern 25
▁family 25
▁foundation 25
▁get 25
▁issues 25
▁l 25
▁line 25
▁others 25
▁percent 25
▁rda 25
▁sale 25
▁studio 25
▁temple 25
▁took 25
▁visitors 25
▁voluntary 25
▁අනුස 25
▁ආයතනික 25
▁ආවරණය 25
▁කුසලතා 25
▁ජංගම 25
▁තල 25
▁ථක 25
▁දුර 25
▁ධව 25
▁නිලධාරියා 25
▁පිහිටි 25
▁යාත 25
▁යානයේ 25
▁රියාවට 25
▁රෝහලේ 25
▁ලංකාව 25
▁වගකිවයුතු 25
▁වැඩසටහනක 25
▁විකාශන 25
▁විශාල 25
▁වෙතින 25
▁ශාඛා 25
▁සජීවී 25
▁සභාවට 25
existence 24
▁1.1 24
▁34 24
▁42 24
▁75 24
▁administrative 24
▁attention 24
▁circulars 24
▁collaboration 24
▁computer 24
▁custody 24
▁defence 24
▁eliya 24
▁expected 24
▁four 24
▁fuel 24
▁industry 24
▁license 24
▁ms 24
▁payable 24
▁policies 24
▁president 24
▁procedure 24
▁respectively 24
▁set 24
▁she 24
▁steps 24
▁terms 24
▁valued 24
▁would 24
▁අනතුරුව 24
▁අපනයන 24
▁අමතරව 24
▁ආපසු 24
▁ඇතැම 24
▁ඉක 24
▁උලෙළ 24
▁කට 24
▁කරුවන 24
▁චාත 24
▁ඡේදයක 24
▁ටර 24
▁ටී 24
▁ඩබ 24
▁තැම 24
▁තූර 24
▁දිනැති 24
▁දිය 24
▁පිළිගත 24
▁පුස 24
▁මරණ 24
▁රමය 24
▁රලේඛ 24
▁රෝගියකු 24
▁ලඟම 24
▁විගණකාධිපති 24
▁විධිමත 24
▁වෙබ 24
▁ෂිණ 24
▁සහය 24
▁සැප 24
▁සීමාව 24
▁2.1 23
▁2007 23
▁43 23
▁80 23
▁@ 23
▁RMI 23
▁aid 23
▁another 23
▁area 23
▁army 23
▁article 23
▁cases 23
▁close 23
▁contribution 23
▁exhibition 23
▁external 23
▁follows 23
▁gampaha 23
▁groups 23
▁indigenous 23
▁meetings 23
▁music 23
▁obtain 23
▁opportunities 23
▁outside 23
▁patients 23
▁promote 23
▁r 23
▁request 23
▁rmi 23
▁same 23
▁shown 23
▁submitted 23
▁supplementary 23
▁surplus 23
▁tea 23
▁upon 23
▁using 23
▁vehicle 23
▁western 23
▁writing 23
▁අයුරින 23
▁ආණ 23
▁ආහාර 23
▁ඉ 23
▁උපරිම 23
▁කළුතර 23
▁කෑගල 23
▁කෙරිණි 23
▁ඩාගාරය 23
▁තරය 23
▁තහවුරු 23
▁තිබිය 23
▁තොග 23
▁තොරව 23
▁තෝරන 23
▁තෝරා 23
▁දීර 23
▁පළාතේ 23
▁පාලමෙහි 23
▁පිහිටුවීම 23
▁බඳවා 23
▁බැගින 23
▁මැයි 23
▁යභාරය 23
▁රා 23
▁රෝග 23
▁ලීමක 23
▁වයේ 23
▁විභාග 23
▁වීමක 23
▁සංගීත 23
▁සංවාද 23
▁සහජීවනය 23
▁සුරක 23
c 22
k 22
▁3.1 22
▁46 22
▁59 22
▁III 22
▁appropriate 22
▁benefit 22
▁different 22
▁down 22
▁either 22
▁environmental 22
▁etc 22
▁festival 22
▁follow 22
▁funded 22
▁hall 22
▁ill 22
▁image 22
▁island 22
▁items 22
▁kegalle 22
▁located 22
▁long 22
▁manner 22
▁marketing 22
▁measures 22
▁mullaitivu 22
▁organizations 22
▁prevent 22
▁priority 22
▁products 22
▁psychiatric 22
▁regarding 22
▁scholarships 22
▁seminars 22
▁sent 22
▁spent 22
▁sports 22
▁sustainable 22
▁user 22
▁workshops 22
▁youth 22
▁ආදර 22
▁ඇතිව 22
▁උදෙසා 22
▁එකඟ 22
▁එකතු 22
▁ඒකක 22
▁කරගෙන 22
▁කෘෂිකර 22
▁ජනරාල 22
▁ණයගැති 22
▁තිමත 22
▁තුනක 22
▁ථාවන 22
▁දේ 22
▁ධීකරණය 22
▁නැවේ 22
▁නිම 22
▁නොතිබිණි 22
▁පුළුල 22
▁පූජා 22
▁බඩු 22
▁බලය 22
▁යොදා 22
▁රාජකාරි 22
▁රියාන 22
▁ලබාදීම 22
▁ෂාව 22
▁සහගත 22
▁සොයා 22
▁52 21
▁57 21
▁around 21
▁ayurvedic 21
▁bilingual 21
▁can 21
▁connection 21
▁considered 21
▁dry 21
▁effective 21
▁event 21
▁h 21
▁implement 21
▁insurance 21
▁kilinochchi 21
▁list 21
▁maintain 21
▁maintaining 21
▁mission 21
▁next 21
▁peradeniya 21
▁preparing 21
▁psychosocial 21
▁regulation 21
▁respective 21
▁result 21
▁revenue 21
▁select 21
▁sn 21
▁structure 21
▁studies 21
▁sub 21
▁survey 21
▁traditional 21
▁users 21
▁villages 21
▁works 21
▁කමිටුවක 21
▁කාන 21
▁ගයක 21
▁ගයේ 21
▁ගැටලු 21
▁තනතුරු 21
▁තිරසාර 21
▁තීරණ 21
▁තෙකු 21
▁ථාවර 21
▁දන 21
▁නියෝජනය 21
▁නුම 21
▁නේවාසික 21
▁පිහිටුවන 21
▁මා 21
▁රජය 21
▁රතිපාදනය 21
▁රථ 21
▁රදේශවල 21
▁රමුඛ 21
▁රශ 21
▁රාම 21
▁ලං 21
▁වඩාත 21
▁විගණනය 21
▁වියළි 21
▁ෂි 21
▁සතු 21
▁සාධාරණ 21
▁සාමාජික 21
▁සියලුම 21
▁හම 21
▁ළඟ 21
b 20
r 20
▁1.2.1 20
▁250 20
▁3.4 20
▁39 20
▁66 20
▁agreed 20
▁april 20
▁awards 20
▁benefits 20
▁budgetary 20
▁companies 20
▁concerned 20
▁conduct 20
▁continuously 20
▁controls 20
▁cumulative 20
▁detained 20
▁develop 20
▁developed 20
▁distributed 20
▁export 20
▁gazette 20
▁grant 20
▁improving 20
▁included 20
▁kurunegala 20
▁limit 20
▁major 20
▁matale 20
▁materials 20
▁meet 20
▁monthly 20
▁ordinance 20
▁primary 20
▁recurrent 20
▁regional 20
▁sabaragamuwa 20
▁science 20
▁sl 20
▁spending 20
▁statement 20
▁statutory 20
▁zoological 20
▁අඩුපාඩු 20
▁අදාළව 20
▁අනුග 20
▁අපගේ 20
▁අසනීප 20
▁ආයුර 20
▁ආසන 20
▁ඉච 20
▁ඉදිරි 20
▁එකී 20
▁එවන 20
▁කටුනායක 20
▁කලා 20
▁කිරීමක 20
▁කෙටි 20
▁ගැනවිලි 20
▁ගැසට 20
▁ගිවිසුම 20
▁ඝ 20
▁දූ 20
▁නවල 20
▁නියෝගයක 20
▁පරික 20
▁පළමු 20
▁පැහැදිලි 20
▁පිරිවැය 20
▁පිළියෙල 20
▁බලශක 20
▁බස 20
▁මනෝචිකිත 20
▁මාසික 20
▁මෙහෙවර 20
▁යතුමා 20
▁යවරුන 20
▁යහපත 20
▁රදානය 20
▁රයක 20
▁රයෝජනය 20
▁රෝගී 20
▁ලැබීමට 20
▁ලෙසත 20
▁වගාව 20
▁වාරික 20
▁වැඩියා 20
▁වැල 20
▁වු 20
▁සමීක 20
▁සාධක 20
h 19
▁47 19
▁achieve 19
▁acquisition 19
▁agreement 19
▁already 19
▁appeals 19
▁cargo 19
▁centres 19
▁ceremony 19
▁contact 19
▁debtors 19
▁dialogue 19
▁discharged 19
▁duty 19
▁establish 19
▁except 19
▁eye 19
▁force 19
▁guardian 19
▁kottawa 19
▁letters 19
▁missing 19
▁obtaining 19
▁organization 19
▁pinnawala 19
▁plantation 19
▁pre 19
▁printed 19
▁prior 19
▁purposes 19
▁reasons 19
▁reconstruction 19
▁recovery 19
▁registered 19
▁religion 19
▁resource 19
▁rewards 19
▁rules 19
▁salaries 19
▁september 19
▁serious 19
▁source 19
▁species 19
▁successfully 19
▁updated 19
▁way 19
▁අධිකරණ 19
▁අපරාධ 19
▁අභියාචනයක 19
▁ඉදිරියට 19
▁උ 19
▁එමගින 19
▁ඖෂධ 19
▁කෙටුම 19
▁ගමන 19
▁ජුනි 19
▁ටමින 19
▁ටාව 19
▁ඩලයට 19
▁තාවේ 19
▁තිබෙන 19
▁තීරණයක 19
▁තෝබර 19
▁දමිළ 19
▁නාරම 19
▁නාවික 19
▁නැංවීම 19
▁නිපුණතා 19
▁නිරවුල 19
▁නීතිය 19
▁පැමිණීම 19
▁පිටත 19
▁පිහිටා 19
▁පුනරාවර 19
▁පොල 19
▁මහ 19
▁මාතලේ 19
▁මැදිරි 19
▁යි 19
▁යෝජනා 19
▁රහය 19
▁රියාකාරිත 19
▁රේල 19
▁වයන 19
▁වැඩසටහනකි 19
▁වේද 19
▁සබරගමුව 19
▁සැලකිල 19
f 18
▁1.2.2 18
▁2000 18
▁55 18
▁64 18
▁65 18
▁81 18
▁I 18
▁along 18
▁calendar 18
▁centers 18
▁chapter 18
▁civil 18
▁deficiencies 18
▁dehiwala 18
▁documents 18
▁efficient 18
▁estimated 18
▁factory 18
▁food 18
▁formulation 18
▁framework 18
▁generated 18
▁imprisonment 18
▁justice 18
▁labourer 18
▁liabilities 18
▁liable 18
▁living 18
▁low 18
▁mainly 18
▁maximum 18
▁monaragala 18
▁most 18
▁noted 18
▁otherwise 18
▁polonnaruwa 18
▁postgraduate 18
▁power 18
▁prepare 18
▁proper 18
▁protection 18
▁region 18
▁removed 18
▁savings 18
▁scheme 18
▁standard 18
▁study 18
▁supply 18
▁thus 18
▁tourism 18
▁wise 18
▁අරමුදලින 18
▁අසනීපයක 18
▁ආකාරයට 18
▁ආධ 18
▁උපචිත 18
▁උපදේශන 18
▁උපවගන 18
▁කොටසක 18
▁ඛනිජ 18
▁ගණනාවක 18
▁චිය 18
▁ඡේදයේ 18
▁ඩාගාරයේ 18
▁තුන 18
▁ථය 18
▁දුම 18
▁දෙනු 18
▁දෙහිවල 18
▁නමින 18
▁නරුව 18
▁නිලධාරියකු 18
▁පරිපාලනය 18
▁පස 18
▁පාඩු 18
▁පිළිබද 18
▁පිළිබිඹු 18
▁බලපෑම 18
▁මෝස 18
▁යසාධනය 18
▁යාපෘතීන 18
▁යුතුව 18
▁රමාණයක 18
▁රමාණවත 18
▁රියාවලිය 18
▁රීති 18
▁ලැබීම 18
▁වටිනාකම 18
▁වරාය 18
▁වැඩමුළුව 18
▁විනෝදාත 18
▁විවෘත 18
▁වීමේ 18
▁වෙනි 18
▁ශබ 18
▁ශාලා 18
▁සහායක 18
▁සාපේක 18
▁සිල 18
▁හිමි 18
ට 17
▁-2 17
▁2005 17
▁91 17
▁B 17
▁C 17
▁Km 17
▁animal 17
▁arts 17
▁associations 17
▁award 17
▁bill 17
▁biodiversity 17
▁carry 17
▁certificates 17
▁continued 17
▁coordinating 17
▁creating 17
▁cultivation 17
▁departments 17
▁deyata 17
▁ethnic 17
▁evidence 17
▁fixed 17
▁form 17
▁forward 17
▁identification 17
▁industries 17
▁investment 17
▁issuance 17
▁katunayake 17
▁lands 17
▁library 17
▁method 17
▁nominee 17
▁notices 17
▁nov 17
▁parents 17
▁parliamentary 17
▁parties 17
▁practitioners 17
▁proficiency 17
▁purchasing 17
▁ratnapura 17
▁record 17
▁released 17
▁said 17
▁sales 17
▁scholarship 17
▁secretaries 17
▁significant 17
▁single 17
▁six 17
▁sunday 17
▁targets 17
▁trust 17
▁v 17
▁very 17
▁week 17
▁අගය 17
▁අතරින 17
▁අතුරුදහන 17
▁අනාගත 17
▁ආකාරය 17
▁ආසියානු 17
▁එල 17
▁කරගනු 17
▁කවර 17
▁කිහිපයක 17
▁කෙසේ 17
▁ගලයන 17
▁ජල 17
▁තකු 17
▁තරග 17
▁තිබිණි 17
▁දායක 17
▁නත 17
▁පනතෙහි 17
▁පැමිණිලි 17
▁පැවසීය 17
▁පියන 17
▁පුරප 17
▁පෙබරවාරි 17
▁ඵලදායී 17
▁බරපතල 17
▁බෞද 17
▁මාරු 17
▁මිස 17
▁මොනරාගල 17
▁යාපනික 17
▁රයන 17
▁ලැබී 17
▁ලැබුණු 17
▁ලේ 17
▁ලේෂණය 17
▁වායු 17
▁වැඩමුළු 17
▁වැවිලි 17
▁විගණනයේ 17
▁විශේෂයෙන 17
▁විසර 17
▁වූහ 17
▁වෙතත 17
▁ෂම 17
▁සංගම 17
▁සංයුක 17
▁සහල 17
▁සහිතව 17
▁සිරැසිය 17
▁සීමා 17
▁හඳුන 17
▁හිමිකම 17
▁හෙවත 17
▁1000 16
▁2002 16
▁4.1 16
▁49 16
▁78 16
▁IV 16
▁accountant 16
▁accrual 16
▁admitted 16
▁affected 16
▁allowances 16
▁apply 16
▁appropriation 16
▁arrangements 16
▁broadcasting 16
▁buddhist 16
▁cent 16
▁charges 16
▁child 16
▁collection 16
▁commercial 16
▁common 16
▁complaints 16
▁corporate 16
▁criminal 16
▁daily 16
▁decreased 16
▁deficits 16
▁designs 16
▁disable 16
▁discussed 16
▁divisions 16
▁elephant 16
▁ex 16
▁facilitation 16
▁fair 16
▁fine 16
▁floriculture 16
▁goods 16
▁heritage 16
▁highway 16
▁himself 16
▁importance 16
▁initial 16
▁installments 16
▁key 16
▁maintained 16
▁mannar 16
▁mentally 16
▁officials 16
▁operations 16
▁practitioner 16
▁previous 16
▁prizes 16
▁purchased 16
▁receive 16
▁recovered 16
▁recruited 16
▁representing 16
▁requirements 16
▁stock 16
▁subsection 16
▁trade 16
▁travel 16
▁women 16
▁ආනයනය 16
▁එනම 16
▁ඒකකයක 16
▁කරගැනීම 16
▁කලින 16
▁කළයුතු 16
▁කිසිදු 16
▁කෘතිය 16
▁චය 16
▁ඡේදය 16
▁ජනතාවට 16
▁ජයග 16
▁ජයවර 16
▁ජෙනරාල 16
▁ටමේ 16
▁ඩලික 16
▁තනතුරෙන 16
▁තමන 16
▁දඩන 16
▁දරු 16
▁දා 16
▁දැනටමත 16
▁දිනයන 16
▁දුෂ 16
▁නමුත 16
▁නොතිබුණු 16
▁පාලක 16
▁පිටු 16
▁පේරාදෙණිය 16
▁බද 16
▁බැර 16
▁භාවිතයට 16
▁මූලධන 16
▁යාධාර 16
▁යාප 16
▁රජාව 16
▁රථම 16
▁රවේශ 16
▁රාමුව 16
▁රෝගියකුට 16
▁වතු 16
▁වරදකරු 16
▁වාට 16
▁විකාශනය 16
▁විටත 16
▁විතයේ 16
▁වුව 16
▁ශාලාව 16
▁ශේෂයන 16
▁ෂයන 16
▁සංග 16
▁සපයන 16
▁සමත 16
▁සමහර 16
▁සලකනු 16
▁සාමාජිකයින 16
▁සැලසීම 16
▁සිදුවීම 16
▁හිඟ 16
▁හෙයින 16
-2217 15
l 15
▁111 15
▁2217 15
▁44 15
▁58 15
▁67 15
▁68 15
▁79 15
▁92 15
▁SRI 15
▁advances 15
▁analysis 15
▁animals 15
▁appointment 15
▁armed 15
▁asian 15
▁behalf 15
▁coconut 15
▁code 15
▁compilation 15
▁deficit 15
▁dignity 15
▁drama 15
▁establishing 15
▁february 15
▁free 15
▁functioning 15
▁furnished 15
▁godagama 15
▁group 15
▁history 15
▁kalutara 15
▁life 15
▁losses 15
▁my 15
▁names 15
▁needed 15
▁printing 15
▁promoting 15
▁purchase 15
▁receivable 15
▁residential 15
▁rice 15
▁small 15
▁specified 15
▁stage 15
▁supervision 15
▁therefore 15
▁unable 15
▁whether 15
▁අග 15
▁අලාභ 15
▁අලි 15
▁අවසාන 15
▁ආයෝජනය 15
▁ඇතුලත 15
▁ඇල 15
▁එහෙත 15
▁ඔස 15
▁කඩවත 15
▁කලාව 15
▁කින 15
▁කියවන 15
▁කු 15
▁කුලම 15
▁කේන 15
▁ගොස 15
▁චන 15
▁ඩව 15
▁තයක 15
▁තිබුණ 15
▁ථාවට 15
▁දකුණු 15
▁දිනවල 15
▁දෙමව 15
▁ධතිය 15
▁ධර 15
▁නාමය 15
▁නාහිර 15
▁පදිංචි 15
▁පසුගිය 15
▁පාඨමාලාව 15
▁පාදිත 15
▁පාරම 15
▁පැළ 15
▁බැහැරව 15
▁මග 15
▁මින 15
▁යතාව 15
▁යපෘතිය 15
▁රතිඵලය 15
▁රධානත 15
▁රිතාන 15
▁ලැබ 15
▁වටිනා 15
▁වයඹ 15
▁වයස 15
▁වික 15
▁විගණනයට 15
▁විදුලිබල 15
▁ෂාපතන 15
▁ෂිකව 15
▁සදහන 15
▁සලසා 15
▁සසඳන 15
▁සිටීම 15
▁සුදුසුකම 15
▁සුරැකුම 15
▁හමුදා 15
▁හැරීම 15
▁000.00 14
▁3.2 14
▁4.2 14
▁82 14
▁9411 14
▁PRP 14
▁accepted 14
▁acres 14
▁advisory 14
▁allocation 14
▁annually 14
▁authorized 14
▁better 14
▁case 14
▁china 14
▁consists 14
▁coordination 14
▁credited 14
▁examinations 14
▁fifteen 14
▁flows 14
▁forces 14
▁giving 14
▁good 14
▁hambantota 14
▁include 14
▁japan 14
▁k 14
▁kadawatha 14
▁learning 14
▁leave 14
▁march 14
▁natural 14
▁net 14
▁network 14
▁paragraph 14
▁personnel 14
▁petroleum 14
▁point 14
▁professional 14
▁profit 14
▁property 14
▁prp 14
▁rain 14
▁re 14
▁read 14
▁recognising 14
▁relatives 14
▁renewable 14
▁role 14
▁room 14
▁sectoral 14
▁sentence 14
▁target 14
▁targeted 14
▁task 14
▁transferred 14
▁trilingual 14
▁type 14
▁uk 14
▁values 14
▁vi 14
▁vocational 14
▁w 14
▁working 14
▁අධික 14
▁අනුයුක 14
▁අමතර 14
▁අස 14
▁ඉරිදා 14
▁කවල 14
▁කාරණය 14
▁කාරණා 14
▁කාරය 14
▁කුඩා 14
▁ගණකාධිකාරී 14
▁ගොඩගම 14
▁ගෞරවය 14
▁ජනතා 14
▁තලේ 14
▁තිකයන 14
▁තුගත 14
▁දැඩි 14
▁දිවයින 14
▁ධතියක 14
▁නර 14
▁නාම 14
▁නාවූ 14
▁පරාසයක 14
▁පවරා 14
▁පහක 14
▁පැන 14
▁පිවිසුම 14
▁පිළිතුරු 14
▁පෙනී 14
▁බලතල 14
▁බිල 14
▁බුද 14
▁භක 14
▁මවා 14
▁මහජනතාව 14
▁යමය 14
▁යහ 14
▁යළි 14
▁යුතුයි 14
▁යුහය 14
▁රටෙහි 14
▁රටේ 14
▁රතිඵලයක 14
▁රලේඛය 14
▁රස 14
▁රෝද 14
▁ලාභය 14
▁ලැබීමේ 14
▁ලැයිස 14
▁ලේඛනයක 14
▁වස 14
▁වැඩමුළුවක 14
▁විමට 14
▁වුවහොත 14
▁වෙමින 14
▁ෂණයක 14
▁සේවකයින 14
▁සේවාව 14
compliance 13
g 13
lk 13
w 13
▁2011.10.10 13
▁51 13
▁559 13
▁56 13
▁70 13
▁74 13
▁86 13
▁adequate 13
▁advertisements 13
▁agalawattta 13
▁annexure 13
▁awarding 13
▁basic 13
▁collected 13
▁conditions 13
▁constitution 13
▁continuing 13
▁copy 13
▁countries 13
▁dancing 13
▁described 13
▁document 13
▁duration 13
▁electricity 13
▁electro 13
▁experience 13
▁film 13
▁fisheries 13
▁gov 13
▁governance 13
▁great 13
▁ground 13
▁hand 13
▁having 13
▁hero 13
▁him 13
▁increasing 13
▁indicated 13
▁indicating 13
▁integrated 13
▁investigation 13
▁least 13
▁location 13
▁market 13
▁medium 13
▁minimum 13
▁nature 13
▁operational 13
▁organizing 13
▁outstanding 13
▁perera 13
▁places 13
▁qualified 13
▁records 13
▁register 13
▁registration 13
▁repairs 13
▁representative 13
▁retired 13
▁safari 13
▁salary 13
▁series 13
▁signed 13
▁specific 13
▁suffering 13
▁summary 13
▁supplying 13
▁testing 13
▁transactions 13
▁urban 13
▁utilized 13
▁web 13
▁website 13
▁wednesday 13
▁අදාල 13
▁ආගම 13
▁ආයතනයක 13
▁ආයතනවලට 13
▁ඇතැයි 13
▁ඉගැන 13
▁උපයෝගී 13
▁එමෙන 13
▁ගාලු 13
▁ගික 13
▁ගිණුමේ 13
▁ගීකරණය 13
▁ජීවත 13
▁ටෙන 13
▁ඩුක 13
▁තරමුල 13
▁තරාත 13
▁තැපැල 13
▁තිබුණී 13
▁තිස 13
▁දි 13
▁ධීවර 13
▁නගර 13
▁නට 13
▁නද 13
▁නියෝගවලට 13
▁නීතිගත 13
▁නීතිමය 13
▁නොකළ 13
▁පල 13
▁පැළෑටි 13
▁පිණීස 13
▁පිළිවෙළින 13
▁පෙරේරා 13
▁පෙළෙන 13
▁පො 13
▁බත 13
▁බදාදා 13
▁බලා 13
▁බලාත 13
▁බැංකුවේ 13
▁භූමි 13
▁මවන 13
▁මාපිය 13
▁මාසය 13
▁මිනුම 13
▁මුදලින 13
▁මෙවැනි 13
▁මොරටුව 13
▁යකඩ 13
▁යාපෘතියක 13
▁යෙදී 13
▁යේෂ 13
▁රදේශයේ 13
▁රසායනාගාර 13
▁රසායනාගාරය 13
▁රියාකාරීත 13
▁රේක 13
▁ලබාදිය 13
▁ලැබීය 13
▁ලිඛිතව 13
▁ලේඛනය 13
▁විරෝධී 13
▁විශේෂිත 13
▁වුවද 13
▁වෙනුවට 13
▁වේච 13
▁ශාරීරික 13
▁සපයා 13
▁සභාපතිවරයා 13
▁සලකන 13
▁සහයෝගය 13
▁සාධනය 13
▁සාමාජිකයකු 13
▁සැපයුම 13
▁සැම 13
▁සිටි 13
▁සියල 13
▁සුභසාධන 13
▁සුභසාධනය 13
▁හතරක 13
▁හැඳුනුම 13
2 12
වන 12
▁$ 12
▁0.0 12
▁1.2.4 12
▁2.2 12
▁2014.12.31 12
▁2865482 12
▁63 12
▁93 12
▁ac 12
▁activity 12
▁agency 12
▁ambepussa 12
▁appendix 12
▁art 12
▁attorney 12
▁authorities 12
▁awarded 12
▁battaramulla 12
▁bio 12
▁business 12
▁cadre 12
▁category 12
▁change 12
▁clinic 12
▁comments 12
▁communication 12
▁communities 12
▁consideration 12
▁contents 12
▁covering 12
▁cpc 12
▁debt 12
▁decrease 12
▁deposit 12
▁determine 12
▁direct 12
▁do 12
▁east 12
▁effect 12
▁enforcement 12
▁engaged 12
▁enquired 12
▁exchange 12
▁executive 12
▁fields 12
▁filing 12
▁growth 12
▁identify 12
▁important 12
▁improved 12
▁innovative 12
▁instructions 12
▁investments 12
▁jail 12
▁mahaweli 12
▁ministers 12
▁mn 12
▁moratuwa 12
▁nation 12
▁navy 12
▁now 12
▁o 12
▁offered 12
▁paper 12
▁participants 12
▁prevention 12
▁problems 12
▁provides 12
▁publications 12
▁rate 12
▁recreation 12
▁republic 12
▁requested 12
▁rupees 12
▁saving 12
▁sections 12
▁sheet 12
▁show 12
▁situation 12
▁steel 12
▁subjects 12
▁tab 12
▁technological 12
▁tele 12
▁together 12
▁trained 12
▁transfer 12
▁transfers 12
▁true 12
▁turned 12
▁unless 12
▁vavuniya 12
▁අඩංගුවේ 12
▁අනාථාගාරය 12
▁අභියාවනය 12
▁අරමුදලට 12
▁අවධානයට 12
▁ආඥාපනත 12
▁ඇමතුම 12
▁ඉඩ 12
▁ඉතිහාසය 12
▁ඊළඟ 12
▁උල 12
▁එයට 12
▁කවරවූ 12
▁කළයුතුය 12
▁කෘත 12
▁ගලයින 12
▁ගෙවන 12
▁චර 12
▁ඩර 12
▁තවද 12
▁තෝරාගත 12
▁ථානවල 12
▁ථාවකදී 12
▁දිනදර 12
▁දිසානායක 12
▁දෙමින 12
▁ධනාගාරගත 12
▁ධීකරණ 12
▁නාලිකාව 12
▁නෑයා 12
▁නිරන 12
▁නිලධාරින 12
▁නිවාඩු 12
▁නෛතික 12
▁නොඉක 12
▁පමණකි 12
▁පාසැල 12
▁පිළිගනිමින 12
▁පීන 12
▁පොලොන 12
▁බැහැර 12
▁භය 12
▁මහවැලි 12
▁යතුමාගේ 12
▁යයක 12
▁යයනය 12
▁යෙෂ 12
▁යෝග 12
▁යෝජිත 12
▁රකාශයට 12
▁රට 12
▁රටවල 12
▁රතික 12
▁රමවේදය 12
▁රවාහ 12
▁රහස 12
▁රීය 12
▁රෝගියාගේ 12
▁ලවාය 12
▁ලිමිටඩ 12
▁වටරවුම 12
▁වරයා 12
▁වරින 12
▁වැඩිහිටි 12
▁විධාන 12
▁විමසීම 12
▁විරුද 12
▁විසිනි 12
▁වූයේ 12
▁ශුද 12
▁සංශෝධනය 12
▁සතුන 12
▁සපුරා 12
▁සලස 12
▁සායනය 12
▁සුළු 12
▁සේවාවල 12
▁සෞන 12
▁හමුදාවේ 12
▁හානියට 12
▁හැක 12
▁හැකියාවන 12
10 11
day 11
ilities 11
rd 11
▁161 11
▁2004 11
▁244 11
▁3000 11
▁35 11
▁62 11
▁76 11
▁88 11
▁TIIP 11
▁abuse 11
▁accreditation 11
▁achieved 11
▁actions 11
▁anti 11
▁arrears 11
▁authorization 11
▁built 11
▁called 11
▁ceremonies 11
▁christmas 11
▁complex 11
▁comprehensive 11
▁conflict 11
▁constructed 11
▁contributions 11
▁creation 11
▁de 11
▁decided 11
▁deemed 11
▁detailed 11
▁discussion 11
▁diseases 11
▁employee 11
▁enable 11
▁entity 11
▁f 11
▁facilitate 11
▁facilitating 11
▁filter 11
▁formal 11
▁guide 11
▁handicrafts 11
▁herbal 11
▁hold 11
▁identifying 11
▁initiated 11
▁inspection 11
▁instances 11
▁institutional 11
▁labour 11
▁later 11
▁lk 11
▁machinery 11
▁many 11
▁material 11
▁noise 11
▁observation 11
▁opening 11
▁operation 11
▁orphanage 11
▁oversight 11
▁personal 11
▁plains 11
▁ports 11
▁poya 11
▁premises 11
▁principles 11
▁prison 11
▁provinces 11
▁pvt 11
▁real 11
▁receipt 11
▁recover 11
▁requests 11
▁responsib 11
▁revealed 11
▁running 11
▁settled 11
▁settlement 11
▁sharing 11
▁silva 11
▁site 11
▁software 11
▁statistics 11
▁superintendent 11
▁tiip 11
▁translation 11
▁tuesday 11
▁twenty 11
▁utilization 11
▁wellawaya 11
▁winners 11
▁අඟහරුවාදා 11
▁අඩවිය 11
▁අතුරු 11
▁අභියාචනය 11
▁අඹේපුස 11
▁අලාභය 11
▁අවසානයේ 11
▁ආකෘති 11
▁ආදායමක 11
▁ආදී 11
▁ආපදා 11
▁ආයතනයන 11
▁ආවේණික 11
▁ඉදි 11
▁ඉදිරියේ 11
▁එදිනෙන 11
▁එවැනි 11
▁ඔබේ 11
▁කව 11
▁කාලපරිච 11
▁කාලසීමාව 11
▁කුලී 11
▁ගනුදෙනු 11
▁ගැටුම 11
▁ගෙවිම 11
▁ජනප 11
▁ඩන 11
▁තකාල 11
▁තනය 11
▁තීරණවලට 11
▁තොර 11
▁ථිර 11
▁දළ 11
▁දැකීම 11
▁දිවයිනේ 11
▁දිසා 11
▁දේපළ 11
▁දේශන 11
▁ධනාගාර 11
▁නල 11
▁නායක 11
▁නොමැතිව 11
▁නොමිලේ 11
▁පටිගත 11
▁පශු 11
▁පැමිණ 11
▁පැමිණි 11
▁පැරණි 11
▁පිළියෙළ 11
▁පුරාවිද 11
▁පුවරු 11
▁බණ 11
▁බල 11
▁බැලීම 11
▁බිම 11
▁භාෂාව 11
▁භාෂාවන 11
▁මතු 11
▁මානයේ 11
▁මැදිහත 11
▁මීට 11
▁මෘදුකාංග 11
▁යවන 11
▁යසාධන 11
▁රචණ 11
▁රදේශ 11
▁රබර 11
▁ලට 11
▁ලැබුවේ 11
▁ලියවිල 11
▁ලොතරැයි 11
▁වයංක 11
▁වැඩදියුණු 11
▁විධායක 11
▁විමසුම 11
▁විෂයය 11
▁වුවත 11
▁වූයෙන 11
▁ෂමව 11
▁ෂවල 11
▁සජීව 11
▁සමගාමීව 11
▁සමාජයක 11
▁සවිස 11
▁සහභාගීත 11
▁සායන 11
▁සාරාංශය 11
▁සේවකයන 11
▁හමුදාව 11
▁හස 11
▁හැටන 11
n 10
of 10
වරයාගේ 10
▁105 10
▁153 10
▁17025 10
▁28.11.2012 10
▁2887467 10
▁3.3 10
▁5.5 10
▁5000 10
▁83 10
▁87 10
▁99 10
▁CP 10
▁V 10
▁achievement 10
▁again 10
▁age 10
▁airtime 10
▁anniversary 10
▁appoint 10
▁articles 10
▁assisting 10
▁attempt 10
▁bureau 10
▁camp 10
▁changes 10
▁choose 10
▁citizens 10
▁clinics 10
▁closed 10
▁competitions 10
▁concerning 10
▁connectivity 10
▁conserve 10
▁contributed 10
▁cp 10
▁create 10
▁cross 10
▁dated 10
▁departmental 10
▁deterioration 10
▁determination 10
▁developing 10
▁directions 10
▁discussions 10
▁display 10
▁donations 10
▁drugs 10
▁eco 10
▁effects 10
▁enhancing 10
▁entire 10
▁episode 10
▁estate 10
▁flags 10
▁flowers 10
▁furniture 10
▁generally 10
▁grade 10
▁guidance 10
▁hatton 10
▁highest 10
▁horton 10
▁includes 10
▁individuals 10
▁kantale 10
▁kelaniya 10
▁leadership 10
▁less 10
▁limits 10
▁link 10
▁look 10
▁magazine 10
▁manage 10
▁mapiya 10
▁memorial 10
▁message 10
▁model 10
▁modern 10
▁mountain 10
▁muslim 10
▁must 10
▁mutual 10
▁namely 10
▁offices 10
▁oral 10
▁ownership 10
▁padeniya 10
▁pay 10
▁percentage 10
▁presently 10
▁privacy 10
▁produce 10
▁productions 10
▁professionals 10
▁profits 10
▁proposed 10
▁protect 10
▁quarters 10
▁rathnapura 10
▁ratio 10
▁reason 10
▁recommendation 10
▁recorded 10
▁reference 10
▁renovation 10
▁requires 10
▁reward 10
▁see 10
▁side 10
▁start 10
▁suitable 10
▁suspected 10
▁t 10
▁teaching 10
▁telecasted 10
▁third 10
▁thousand 10
▁transformation 10
▁trees 10
▁understanding 10
▁universities 10
▁unlawfully 10
▁until 10
▁uva 10
▁video 10
▁wet 10
▁wide 10
▁www 10
▁yet 10
▁youths 10
▁අඩංගු 10
▁අඩංගුවට 10
▁අණ 10
▁අතිගරු 10
▁අනාවරණය 10
▁අයට 10
▁අයිතිය 10
▁අලුතින 10
▁අහිතකර 10
▁ආකාරයකට 10
▁ආදිය 10
▁ඇතුල 10
▁ඇතුළුව 10
▁ඇප 10
▁උක 10
▁උප 10
▁ඌව 10
▁එයින 10
▁එසේම 10
▁එෆ 10
▁ඒකාංගික 10
▁කමකට 10
▁කරා 10
▁කලාපය 10
▁කිසියම 10
▁ගිණුමට 10
▁ගුරු 10
▁ගොවි 10
▁ජනයා 10
▁ජීවන 10
▁ජීවිතය 10
▁ජූනි 10
▁ජෝන 10
▁ඥාතීන 10
▁ටු 10
▁ඩොලර 10
▁තථ 10
▁තබාගනු 10
▁තරුණියන 10
▁තාගේ 10
▁තිමය 10
▁තියක 10
▁තුලින 10
▁ථාවක 10
▁දමා 10
▁දෑ 10
▁දිනකට 10
▁දිවි 10
▁දෙක 10
▁ධනයක 10
▁නැතහොත 10
▁නියුතු 10
▁නිලධාරියාගේ 10
▁නොගත 10
▁පරිසරය 10
▁පාදක 10
▁පාදෙනිය 10
▁පාලි 10
▁පැකේජය 10
▁පැවතුණි 10
▁පුර 10
▁පොලී 10
▁බලපා 10
▁බිහි 10
▁බෙදාගැනීම 10
▁මඟ 10
▁මාලා 10
▁මාවත 10
▁මෝටර 10
▁යාගශීලීන 10
▁යැවීම 10
▁යූ 10
▁යෝන 10
▁රජාතාන 10
▁රේඛීය 10
▁රෝගියාට 10
▁රෝපකරණ 10
▁වරදක 10
▁වරදකට 10
▁වරුන 10
▁වසා 10
▁වැඩියාව 10
▁විග 10
▁විතැන 10
▁විනය 10
▁විනිශ 10
▁විශිෂ 10
▁විශේෂයකට 10
▁ෂකගේ 10
▁ෂයක 10
▁ෂාත 10
▁ෂේප 10
▁සංකීර 10
▁සඳුදා 10
▁සබඳතා 10
▁සමාජයේ 10
▁සවාරි 10
▁සහභාගිත 10
▁සහාවේ 10
▁සාපරාධී 10
▁සාව 10
▁සිටිය 10
▁සිටී 10
▁සිත 10
▁සිවිල 10
▁සෙසු 10
▁සේවකයකු 10
▁හයක 10
▁හිඟයක 10
▁හෙක 10
▁ළමුන 10
15 9
31 9
gov 9
governmental 9
nd 9
t 9
the 9
up 9
කි 9
▁* 9
▁10.30 9
▁120 9
▁130 9
▁190 9
▁2014.01.01 9
▁240 9
▁421 9
▁85 9
▁90 9
▁95 9
▁KT 9
▁NRRP 9
▁aa 9
▁accountability 9
▁achieving 9
▁acting 9
▁admin 9
▁advancement 9
▁agalawatta 9
▁agrarian 9
▁agreements 9
▁alerts 9
▁allowance 9
▁ancient 9
▁artistic 9
▁artists 9
▁assessment 9
▁attendance 9
▁automated 9
▁became 9
▁benivo 9
▁boi 9
▁branch 9
▁breeding 9
▁bulletin 9
▁command 9
▁consultancy 9
▁consultation 9
▁contractors 9
▁contracts 9
▁contribute 9
▁councils 9
▁counseling 9
▁covered 9
▁debtor 9
▁dec 9
▁degree 9
▁democratic 9
▁difficulties 9
▁donors 9
▁empowerment 9
▁enter 9
▁estimate 9
▁excess 9
▁exploration 9
▁extent 9
▁file 9
▁final 9
▁fish 9
▁forty 9
▁full 9
▁gauge 9
▁gem 9
▁growers 9
▁help 9
▁herbarium 9
▁identity 9
▁independence 9
▁invested 9
▁investigations 9
▁j 9
▁john 9
▁kt 9
▁large 9
▁leasing 9
▁limited 9
▁manager 9
▁manufacture 9
▁manufacturing 9
▁maps 9
▁mass 9
▁medicinal 9
▁mentioned 9
▁monday 9
▁musical 9
▁neguma 9
▁newly 9
▁normal 9
▁notification 9
▁nrrp 9
▁numbers 9
▁nutrition 9
▁obligations 9
▁off 9
▁old 9
▁once 9
▁open 9
▁opportunity 9
▁overall 9
▁own 9
▁package 9
▁pension 9
▁popular 9
▁porject 9
▁powers 9
▁practice 9
▁prev 9
▁pro 9
▁provident 9
▁purview 9
▁queried 9
▁recommended 9
▁reforms 9
▁relief 9
▁remembrance 9
▁rendered 9
▁reporting 9
▁require 9
▁reset 9
▁resulted 9
▁rimem 9
▁rubber 9
▁sectors 9
▁situ 9
▁socialist 9
▁stakeholders 9
▁started 9
▁stations 9
▁submitting 9
▁sugar 9
▁supplies 9
▁tabled 9
▁ten 9
▁textbook 9
▁throughout 9
▁times 9
▁transmission 9
▁undertaken 9
▁variety 9
▁veterinary 9
▁whole 9
▁wholesale 9
▁words 9
▁අංශයට 9
▁අකාර 9
▁අනතුරු 9
▁අනුබද 9
▁අනුරාධපුරය 9
▁අනෙක 9
▁අපේ 9
▁අභියාචනාධිකරණය 9
▁අවබෝධය 9
▁ආයුබෝවන 9
▁ඇන 9
▁ඇඳුම 9
▁ඉඩමක 9
▁ඉතුරුම 9
▁උපග 9
▁උපයන 9
▁උරුමය 9
▁එකක 9
▁එළිදැක 9
▁ඔප 9
▁කගත 9
▁කපා 9
▁කමිටුවල 9
▁කා 9
▁කිරීමත 9
▁කෘෂිකාර 9
▁කොඩි 9
▁ගගත 9
▁ගබඩා 9
▁ගෝපදේශන 9
▁ජනතාවගේ 9
▁ජනරජයේ 9
▁ජනවාර 9
▁ජීවිත 9
▁ජීවී 9
▁ණාභරණ 9
▁තබන 9
▁තමා 9
▁තරගකාරී 9
▁තැබීම 9
▁තෙක 9
▁තෙත 9
▁තෙන 9
▁ථාවල 9
▁ථිකය 9
▁දහසක 9
▁දැරියන 9
▁දිනපතා 9
▁දිනයේ 9
▁දෙනෙකුට 9
▁ධනපුර 9
▁ධනයට 9
▁ධාවන 9
▁නැංවිම 9
▁නියාමන 9
▁නියුක 9
▁පටිපාටිය 9
▁පතින 9
▁පදක 9
▁පදනමින 9
▁පරිපූරක 9
▁පරිසරයක 9
▁පහසුකරණ 9
▁පහසුකරණය 9
▁පැකේජ 9
▁පැවතිණි 9
▁පිටපතක 9
▁පිරිසෙයින 9
▁පිහිටීම 9
▁පුනර 9
▁පෙරනය 9
▁පොදුවේ 9
▁බලාපොරොත 9
▁බවද 9
▁භාරකරු 9
▁භාෂාවෙන 9
▁මහාචාර 9
▁මානයෙහි 9
▁මාසයේ 9
▁මැතිතුමා 9
▁මැදුර 9
▁මුහුණ 9
▁මූලධර 9
▁යතාවය 9
▁යමණ 9
▁යාංශවල 9
▁යාලවල 9
▁යැයි 9
▁යොමුව 9
▁රකාශනවලින 9
▁රතිශක 9
▁රතීතක 9
▁රදානෝත 9
▁රදේශය 9
▁රමවේද 9
▁රසායන 9
▁රියාකාරි 9
▁රේෂණ 9
▁රෛභාෂා 9
▁ලංඝනය 9
▁ලස 9
▁ලාභ 9
▁ලැබු 9
▁ලෙන 9
▁වගාකරුවන 9
▁වසන 9
▁වාණිජ 9
▁වාස 9
▁වැඩසටහනට 9
▁විකිණීම 9
▁විමසන 9
▁වෙල 9
▁ශාලාවේ 9
▁ෂයේදී 9
▁ෂව 9
▁ෂුද 9
▁සඟරාමය 9
▁සජීවි 9
▁සතියේ 9
▁සනාථ 9
▁සමාජවාදී 9
▁සාධන 9
▁සියළුම 9
▁සීනි 9
▁සුබ 9
▁සේරු 9
▁සේවාවක 9
▁හඳුනාගෙන 9
▁හරින 9
▁හිඟය 9
▁හිදී 9
▁හෝටන 9
being 8
compliances 8
eight 8
හි 8
▁00 8
▁052 8
▁1. 8
▁1.2.3 8
▁146 8
▁149 8
▁175 8
▁184 8
▁1971 8
▁1978 8
▁2003 8
▁212 8
▁260 8
▁2871212 8
▁473 8
▁53 8
▁600 8
▁69 8
▁707 8
▁73 8
▁89 8
▁902 8
▁DCD 8
▁ISO 8
▁SL 8
▁ability 8
▁absence 8
▁accident 8
▁added 8
▁advanced 8
▁agricultural 8
▁aimed 8
▁alleviate 8
▁appealable 8
▁appellant 8
▁applicants 8
▁approximately 8
▁arising 8
▁assist 8
▁attached 8
▁attend 8
▁ayubowan 8
▁become 8
▁behaving 8
▁bills 8
▁botany 8
▁bring 8
▁buildings 8
▁cards 8
▁carers 8
▁circles 8
▁commemorate 8
▁competition 8
▁competitive 8
▁compiling 8
▁compliance 8
▁conference 8
▁confirmation 8
▁considering 8
▁consolidated 8
▁constructions 8
▁context 8
▁continue 8
▁convulsive 8
▁cooperation 8
▁corresponding 8
▁danger 8
▁dayata 8
▁dc 8
▁dcd 8
▁death 8
▁degrading 8
▁design 8
▁discrimination 8
▁discuss 8
▁dissanayake 8
▁does 8
▁downloads 8
▁earned 8
▁efficiency 8
▁email 8
▁emoluments 8
▁encourage 8
▁entered 8
▁entrance 8
▁essential 8
▁examined 8
▁filed 8
▁find 8
▁followed 8
▁former 8
▁freedom 8
▁friday 8
▁fully 8
▁functioned 8
▁furnish 8
▁getting 8
▁gis 8
▁go 8
▁graduate 8
▁grants 8
▁graphics 8
▁gratitude 8
▁guilty 8
▁hakgala 8
▁handed 8
▁hotel 8
▁houses 8
▁immediately 8
▁imported 8
▁improvements 8
▁individual 8
▁instructors 8
▁introduced 8
▁irreversible 8
▁iso 8
▁issuing 8
▁jewellery 8
▁kaluthara 8
▁keeping 8
▁kurunagala 8
▁kuwait 8
▁lack 8
▁lankans 8
▁lead 8
▁leading 8
▁lecture 8
▁lectures 8
▁lives 8
▁locations 8
▁lottery 8
▁lr 8
▁maga 8
▁map 8
▁master 8
▁mawatha 8
▁mechanism 8
▁milk 8
▁mohan 8
▁monuments 8
▁morakatiyahena 8
▁multi 8
▁nearly 8
▁necessity 8
▁nos 8
▁online 8
▁outer 8
▁pali 8
▁paying 8
▁permanent 8
▁planned 8
▁possible 8
▁preserving 8
▁prize 8
▁producing 8
▁prof 8
▁properties 8
▁referral 8
▁regulatory 8
▁relations 8
▁remuneration 8
▁renewal 8
▁requesting 8
▁reviewing 8
▁royal 8
▁save 8
▁seminar 8
▁serial 8
▁session 8
▁south 8
▁spirits 8
▁spiritual 8
▁strategies 8
▁strengthening 8
▁subsequently 8
▁teacher 8
▁telecommun 8
▁tenders 8
▁therapy 8
▁thereby 8
▁thursday 8
▁top 8
▁totaling 8
▁trading 8
▁urgent 8
▁varieties 8
▁via 8
▁vidyalaya 8
▁viewers 8
▁vii 8
▁viii 8
▁violently 8
▁visitor 8
▁ward 8
▁wards 8
▁weekly 8
▁අංග 8
▁අටක 8
▁අඩුවෙන 8
▁අතරතුර 8
▁අධිකරණය 8
▁අධිකාරි 8
▁අධිකාරියට 8
▁අනුපාතය 8
▁අනුරූප 8
▁අපොහොසත 8
▁අභිමානය 8
▁අරමුණයි 8
▁අල 8
▁අවමන 8
▁ඉදිකරන 8
▁ඉදිකිරීමට 8
▁උපද 8
▁උපයා 8
▁එරෙහි 8
▁ඒකකයෙන 8
▁ඕකිඩ 8
▁කරගැනීමට 8
▁කරුණුවලින 8
▁කැමරා 8
▁කිරිමේ 8
▁කිසිම 8
▁කොමිසම 8
▁ගලිකත 8
▁ගැටළු 8
▁ගී 8
▁ගෙවනු 8
▁චීන 8
▁ඡානුගව 8
▁ජනනීය 8
▁ජනමාධ 8
▁ජර 8
▁ජලය 8
▁ජාතීන 8
▁ජේ 8
▁ටත 8
▁ටමෙන 8
▁ඩිප 8
▁තමාගේ 8
▁තයේ 8
▁තරායක 8
▁තිකයකු 8
▁තිකරණය 8
▁තිදාමයට 8
▁තුඩුදෙන 8
▁තුවක 8
▁තුවෙන 8
▁තුළට 8
▁තෝම 8
▁ථසාධක 8
▁ථාවලදී 8
▁දැයි 8
▁දැව 8
▁දිනෙන 8
▁දියණිය 8
▁දිරිගැන 8
▁දීමෙන 8
▁දෙනෙක 8
▁නගරයක 8
▁නාගරික 8
▁නාමිතයකු 8
▁නායකත 8
▁නෑව 8
▁නියමය 8
▁නියෝජිතයකු 8
▁නොවිය 8
▁පසුතල 8
▁පහළොවක 8
▁පාරිතෝෂික 8
▁පිරිසක 8
▁පිළිබදව 8
▁පු 8
▁පෝෂණ 8
▁බක 8
▁බි 8
▁භෝග 8
▁මකභාවය 8
▁මනා 8
▁මසකට 8
▁මහජනතාවට 8
▁මැදිරිය 8
▁මිලට 8
▁මිළ 8
▁මෙතෙක 8
▁මෙයට 8
▁මෙසේ 8
▁මෙහෙයවීම 8
▁මොරකැටියහේන 8
▁මොහාන 8
▁යකාලීන 8
▁යටතට 8
▁යනුවෙන 8
▁යයෙන 8
▁යවසාය 8
▁යාපෘතිවල 8
▁යුතුකම 8
▁රකාශනවල 8
▁රකාශය 8
▁රචනා 8
▁රචාරක 8
▁රණයක 8
▁රධානී 8
▁රමාණ 8
▁රමාණයන 8
▁රමාණාත 8
▁රමාද 8
▁රමිතීන 8
▁රසායනාගාරයේ 8
▁රාමික 8
▁රෝහලක 8
▁ලත 8
▁ලදුව 8
▁ලබාදීමට 8
▁ලබාදෙන 8
▁ලිබිත 8
▁වභාවික 8
▁වමින 8
▁වාගණනය 8
▁වාසය 8
▁වැඩසටහනේ 8
▁වැරදි 8
▁විකුණුම 8
▁විල 8
▁විෂයයන 8
▁විසි 8
▁වෙනසක 8
▁ශනයට 8
▁ෂණයට 8
▁ෂමතා 8
▁සංදේශ 8
▁සතිය 8
▁සපයනු 8
▁සභාගත 8
▁සභාපතිතුමාගේ 8
▁සළකා 8
▁සා 8
▁සාම 8
▁සාමාජිකාවන 8
▁සැකකාර 8
▁සිතියම 8
▁සුවිශේෂී 8
▁සෙල 8
▁සෙවණ 8
▁සේවයෙන 8
▁සෛව 8
▁හග 8
▁හතලිස 8
▁හඳුනාගැනීම 8
▁හමුදාවල 8
▁හානි 8
▁හාර 8
▁හැකිවේ 8
▁ළඟා 8
committee 7
general 7
i 7
poor 7
time 7
▁... 7
▁101 7
▁109 7
▁152 7
▁1982 7
▁241 7
▁3.5 7
▁300 7
▁4.3 7
▁597 7
▁8.2 7
▁84 7
▁9.30 7
▁VI 7
▁accountants 7
▁accumulated 7
▁ad 7
▁admitting 7
▁advice 7
▁aesthetic 7
▁although 7
▁amendments 7
▁animation 7
▁applied 7
▁arab 7
▁associated 7
▁aware 7
▁base 7
▁beginning 7
▁benefitted 7
▁boc 7
▁body 7
▁broadcast 7
▁build 7
▁calibration 7
▁camera 7
▁car 7
▁carrying 7
▁ceb 7
▁cement 7
▁ceramics 7
▁certificate 7
▁chemical 7
▁cohesion 7
▁coming 7
▁commitment 7
▁composition 7
▁computers 7
▁conclusion 7
▁content 7
▁contentious 7
▁corporations 7
▁coverage 7
▁craftsmen 7
▁dangerous 7
▁depreciation 7
▁designed 7
▁determined 7
▁died 7
▁diploma 7
▁directing 7
▁directory 7
▁dodangoda 7
▁donation 7
▁duly 7
▁economy 7
▁effectively 7
▁efficiently 7
▁efforts 7
▁eligible 7
▁endemic 7
▁exploitation 7
▁fact 7
▁factories 7
▁fertilizer 7
▁festivals 7
▁forms 7
▁gained 7
▁galnewa 7
▁gardening 7
▁generating 7
▁got 7
▁gratuity 7
▁green 7
▁hambanthota 7
▁handicraft 7
▁heading 7
▁hearing 7
▁helping 7
▁hence 7
▁horana 7
▁idle 7
▁initiative 7
▁initiatives 7
▁inland 7
▁installment 7
▁instance 7
▁instrument 7
▁interested 7
▁item 7
▁janatha 7
▁jayawardena 7
▁launched 7
▁letter 7
▁levels 7
▁lion 7
▁london 7
▁lost 7
▁lotteries 7
▁lower 7
▁mahiyangana 7
▁managing 7
▁medals 7
▁memoranda 7
▁miscellaneous 7
▁mobile 7
▁much 7
▁n 7
▁nawimana 7
▁newspapers 7
▁nominated 7
▁note 7
▁opened 7
▁orders 7
▁organisation 7
▁organizational 7
▁original 7
▁owned 7
▁papers 7
▁parks 7
▁participate 7
▁participating 7
▁ped 7
▁played 7
▁pollution 7
▁positive 7
▁practices 7
▁presence 7
▁presentation 7
▁prime 7
▁problem 7
▁professor 7
▁profile 7
▁publication 7
▁publicity 7
▁publish 7
▁puja 7
▁puttlam 7
▁qualifications 7
▁queries 7
▁questioned 7
▁reach 7
▁recognition 7
▁recreational 7
▁recruitment 7
▁reduce 7
▁reimbursement 7
▁remaining 7
▁rent 7
▁requirement 7
▁rest 7
▁ruhuna 7
▁samples 7
▁schedule 7
▁scientific 7
▁scientists 7
▁scope 7
▁sessions 7
▁settle 7
▁share 7
▁showroom 7
▁slacs 7
▁songs 7
▁sought 7
▁star 7
▁stipulated 7
▁studios 7
▁submission 7
▁successful 7
▁super 7
▁supplied 7
▁supported 7
▁supreme 7
▁surekum 7
▁swamy 7
▁talents 7
▁telecasting 7
▁theatre 7
▁thero 7
▁timely 7
▁traffic 7
▁transaction 7
▁tv 7
▁usage 7
▁vacant 7
▁visual 7
▁volume 7
▁vote 7
▁wanted 7
▁waste 7
▁won 7
▁අතරට 7
▁අතරේ 7
▁අද 7
▁අධිකාරියෙන 7
▁අනුකූලව 7
▁අනුගමනය 7
▁අභිමානවත 7
▁අමුත 7
▁අයගේ 7
▁අරාබි 7
▁අවධාරණය 7
▁අවසරය 7
▁අවුරුද 7
▁ආංශීය 7
▁ආරාධිත 7
▁ආරෝග 7
▁ඇතොත 7
▁ඉගෙනුම 7
▁ඉඩමේ 7
▁ඉතාමත 7
▁උතුර 7
▁උනන 7
▁උපාය 7
▁ඌනතාව 7
▁ඒවායේ 7
▁කටයුත 7
▁කටයුතුභාවය 7
▁කටයුතුවලින 7
▁කරවීම 7
▁කරුණක 7
▁කළේ 7
▁කිරීමටත 7
▁කිරීමෙහි 7
▁කිරීමේදී 7
▁කුමාර 7
▁කුවේට 7
▁කෙරිණ 7
▁කෙරෙමින 7
▁කොළ 7
▁ඛණීජ 7
▁ගණනය 7
▁ගමුව 7
▁ගවේෂණ 7
▁ගවේෂණය 7
▁ගුණාංග 7
▁ගෙවතු 7
▁ගොඩනැංවීම 7
▁ගොඩනැගීම 7
▁චැනල 7
▁චෝදනා 7
▁ජනාධිපති 7
▁ජනාධිපතිතුමාගේ 7
▁ජය 7
▁ජාතියේ 7
▁ජාලය 7
▁ඩලයක 7
▁ඩුවේ 7
▁තරම 7
▁තැබිය 7
▁තිබීම 7
▁තිබුණේ 7
▁ථාපන 7
▁ථාවේදී 7
▁දල 7
▁දිරි 7
▁දීත 7
▁දීප 7
▁දුගී 7
▁දුප 7
▁දෙනා 7
▁දේගම 7
▁දෛනික 7
▁දොඩංගොඩ 7
▁ධීකාරක 7
▁නවීකරණය 7
▁නාමාවලිය 7
▁නාවිමන 7
▁නැණ 7
▁නැත 7
▁නිදර 7
▁නිමල 7
▁නියමිතය 7
▁නියෝජිතයන 7
▁නිවසක 7
▁නුගේදොළවත 7
▁නෙකු 7
▁නේත 7
▁නේය 7
▁නො 7
▁නොගෙන 7
▁නොතිබුණී 7
▁නොලැබූ 7
▁නොවූ 7
▁පක 7
▁පටුන 7
▁පදිංචිව 7
▁පහළ 7
▁පා 7
▁පාඩම 7
▁පාලනයන 7
▁පැල 7
▁පික 7
▁පියවරක 7
▁පෙ 7
▁පෙට 7
▁පොහොර 7
▁පොළී 7
▁පෞරාණික 7
▁බාගත 7
▁බැඳී 7
▁බෙදී 7
▁භාරව 7
▁භාවය 7
▁මගනැගුම 7
▁මඩකළපුව 7
▁මවලට 7
▁මහතාගේ 7
▁මාරක 7
▁මාසයක 7
▁මැණීක 7
▁මැද 7
▁මිලදී 7
▁මිහින 7
▁මුස 7
▁මෙරට 7
▁යංශය 7
▁යතුමන 7
▁යවසායන 7
▁යහපාලනය 7
▁යාකාරයෙන 7
▁යාඥයින 7
▁යාමට 7
▁යායතනය 7
▁යාස 7
▁රකාර 7
▁රකාශනය 7
▁රචලිත 7
▁රජයට 7
▁රණවිරුවා 7
▁රතිෂ 7
▁රමවේදයක 7
▁රමසිංහ 7
▁රවේශයක 7
▁රාජපක 7
▁රාථමික 7
▁රායෝගික 7
▁රාශියක 7
▁රැසක 7
▁රියාවලියට 7
▁රිවිධ 7
▁රීතු 7
▁රුහුණු 7
▁රූප 7
▁රෙගුලාසිවලට 7
▁ලංකාවට 7
▁ලබාගත 7
▁ලබාගැනීම 7
▁ලයින 7
▁ලසන 7
▁ලාංකිකයන 7
▁ලාංකීය 7
▁ලැබුවහොත 7
▁ලිපිගොනු 7
▁ලිම 7
▁වගකීමෙන 7
▁වචන 7
▁වටිනාකමින 7
▁වනුයේ 7
▁වයින 7
▁වවුනියා 7
▁වසරක 7
▁වැට 7
▁වැව 7
▁විගණක 7
▁විණි 7
▁විඳින 7
▁විභාගය 7
▁විමසීය 7
▁විසිතුරු 7
▁විහාරස 7
▁වේලාවට 7
▁ශාන 7
▁ෂාවට 7
▁සංගමය 7
▁සංගීතය 7
▁සංවත 7
▁සමිති 7
▁සමුච 7
▁සමුපකාර 7
▁සවයට 7
▁සවි 7
▁සවිබල 7
▁සාරධර 7
▁සැමරුම 7
▁සැලකිය 7
▁සිකුරාදා 7
▁සිටීමට 7
▁සිද 7
▁සිදුවන 7
▁සිමෙන 7
▁සියළු 7
▁සීමිත 7
▁සේවයට 7
▁හතර 7
▁හර 7
▁හරිත 7
024 6
034 6
eliya 6
pass 6
▁&#124; 6
▁-- 6
▁017 6
▁081 6
▁113 6
▁12- 6
▁129 6
▁1500 6
▁157 6
▁1988 6
▁1989 6
▁1994 6
▁1996 6
▁2001 6
▁205 6
▁208 6
▁216 6
▁264 6
▁2863296 6
▁2887473 6
▁296 6
▁321 6
▁33.45 6
▁365 6
▁4.5 6
▁533 6
▁750 6
▁913 6
▁AA 6
▁VIII 6
▁absent 6
▁accuracy 6
▁acquire 6
▁acquired 6
▁acts 6
▁addressed 6
▁admissions 6
▁admit 6
▁advertising 6
▁affiliated 6
▁african 6
▁aim 6
▁am 6
▁ambagamuwa 6
▁aquatic 6
▁archaeological 6
▁arranged 6
▁asia 6
▁asset 6
▁assigned 6
▁auditing 6
▁back 6
▁bad 6
▁bakmaha 6
▁balangoda 6
▁becoming 6
▁belonging 6
▁benefited 6
▁booths 6
▁bringing 6
▁budgeted 6
▁call 6
▁cheques 6
▁click 6
▁closest 6
▁com 6
▁come 6
▁commencement 6
▁comparison 6
▁compensation 6
▁complete 6
▁connected 6
▁containing 6
▁continuous 6
▁costs 6
▁counter 6
▁credit 6
▁criteria 6
▁crop 6
▁dates 6
▁dead 6
▁deal 6
▁dealing 6
▁debts 6
▁defined 6
▁delivery 6
▁demand 6
▁direction 6
▁disaster 6
▁discipline 6
▁distribute 6
▁diversity 6
▁doctors 6
▁draw 6
▁effectiveness 6
▁elders 6
▁election 6
▁electronic 6
▁emission 6
▁enterprise 6
▁entertainment 6
▁equal 6
▁equality 6
▁especially 6
▁essays 6
▁exhibitions 6
▁expansion 6
▁expenditures 6
▁experts 6
▁expiration 6
▁expressways 6
▁extended 6
▁face 6
▁faced 6
▁faculty 6
▁farmers 6
▁fault 6
▁files 6
▁fit 6
▁focal 6
▁found 6
▁friendship 6
▁funding 6
▁gain 6
▁gce 6
▁govt 6
▁graphic 6
▁greater 6
▁guest 6
▁hazardous 6
▁hired 6
▁homes 6
▁honor 6
▁how 6
▁http 6
▁huge 6
▁illnesses 6
▁impact 6
▁importation 6
▁independent 6
▁india 6
▁inefficiencies 6
▁inform 6
▁installation 6
▁installed 6
▁instalment 6
▁internationally 6
▁investigate 6
▁investigating 6
▁involved 6
▁jathika 6
▁junction 6
▁killinochchi 6
▁known 6
▁kobbekaduwa 6
▁kumara 6
▁kumari 6
▁lane 6
▁lasantha 6
▁liquor 6
▁longer 6
▁maha 6
▁mapalagama 6
▁millions 6
▁models 6
▁mutandis 6
▁mutatis 6
▁named 6
▁nethra 6
▁notifications 6
▁offender 6
▁offenders 6
▁ordered 6
▁ornamental 6
▁overseas 6
▁overview 6
▁passara 6
▁passed 6
▁performing 6
▁piliyandala 6
▁pirith 6
▁planting 6
▁pointed 6
▁pooja 6
▁poson 6
▁possibility 6
▁potential 6
▁practical 6
▁preventing 6
▁prisoners 6
▁proceeding 6
▁propagation 6
▁psychiatrists 6
▁quarries 6
▁questions 6
▁rainfall 6
▁recommend 6
▁recommends 6
▁reconciliation 6
▁rectify 6
▁reduced 6
▁regular 6
▁remained 6
▁remedial 6
▁represented 6
▁samaranayake 6
▁saumyamoorthi 6
▁seclusion 6
▁secure 6
▁sets 6
▁seven 6
▁situated 6
▁skill 6
▁slps 6
▁speaker 6
▁step 6
▁sundry 6
▁supporting 6
▁taxes 6
▁team 6
▁television 6
▁temporarily 6
▁tender 6
▁thereon 6
▁thondaman 6
▁tickets 6
▁timber 6
▁tourist 6
▁trainings 6
▁trial 6
▁troupes 6
▁turnover 6
▁ukuwela 6
▁ulela 6
▁unforeseen 6
▁update 6
▁upgrading 6
▁uttama 6
▁vacates 6
▁vesak 6
▁vice 6
▁wayamba 6
▁wellbeing 6
▁whom 6
▁wildlife 6
▁wilfully 6
▁wish 6
▁worker 6
▁x 6
▁· 6
▁අගයක 6
▁අතුරින 6
▁අධිකරණයකට 6
▁අපද 6
▁අපයෝජනය 6
▁අභිවර 6
▁අමරතුංග 6
▁අඹගමුව 6
▁අයවැයගත 6
▁අයිතිවාසිකමක 6
▁අරමුණක 6
▁අලංකරණ 6
▁අලාභයක 6
▁අවට 6
▁ආකර 6
▁ආකල 6
▁ආකාරයේ 6
▁ආඥා 6
▁ආධුනිකත 6
▁ආපේක 6
▁ආයතනයකට 6
▁ආයතනයට 6
▁ඇගයීමට 6
▁ඇතිවන 6
▁ඇමරිකානු 6
▁ඈවර 6
▁ඉබ 6
▁ඉමහත 6
▁ඉහල 6
▁උකුවෙල 6
▁උපලේඛන 6
▁උපාංග 6
▁එකඟත 6
▁එබදු 6
▁එයාර 6
▁ඒකකයට 6
▁ඔඩ 6
▁ඔබගේ 6
▁ඔහුට 6
▁කටයුතුවල 6
▁කඩිනම 6
▁කඩුව 6
▁කඩුවෙල 6
▁කථිකාචාර 6
▁කමක 6
▁කයන 6
▁කරනුයේ 6
▁කලාත 6
▁කලාපයේ 6
▁කවුළු 6
▁කවුළුව 6
▁කළහොත 6
▁කළාය 6
▁කායික 6
▁කාරණයක 6
▁කාලයෙන 6
▁කාලීනව 6
▁කිරි 6
▁කිරීමකට 6
▁කිරීමටද 6
▁කුමාරි 6
▁කෙත 6
▁කෙරෙනු 6
▁කෝ 6
▁කෝවිලේ 6
▁ගනුදෙනුව 6
▁ගනේවත 6
▁ගමනාගමන 6
▁ගැනීමෙන 6
▁ගීත 6
▁ගුණ 6
▁ගෘහ 6
▁ගෙවීමට 6
▁ගොවිජන 6
▁ඡේ 6
▁ජනයට 6
▁ජාල 6
▁ටිය 6
▁ටුව 6
▁ටුවලට 6
▁ටේ 6
▁ඨාශය 6
▁ඩමන 6
▁ඩාගාරයට 6
▁ඩුසුඩාන 6
▁ඩෙංගු 6
▁ණායක 6
▁තරගය 6
▁තරගයේ 6
▁තවාන 6
▁තාප 6
▁තාවකාලිකව 6
▁තෑගි 6
▁තියට 6
▁තීරණයට 6
▁තුනකට 6
▁තෙකුගේ 6
▁තේත 6
▁තේය 6
▁තොණ 6
▁තොම 6
▁ථකව 6
▁ථානයකට 6
▁දඩය 6
▁දඩයකට 6
▁දරා 6
▁දැරීම 6
▁දැරීමට 6
▁දිගටම 6
▁දියත 6
▁දීමත 6
▁දුරකතන 6
▁දෙකකින 6
▁දෙකටම 6
▁දෙදෙනෙකු 6
▁දෙනෙකුටත 6
▁දෙස 6
▁දේපල 6
▁ධනාගාරය 6
▁ධය 6
▁ධාන 6
▁ධි 6
▁නගා 6
▁නපුරය 6
▁නාලිකාවේ 6
▁නැටුම 6
▁නෑයාට 6
▁නිමිත 6
▁නියමයේ 6
▁නිරාකරණය 6
▁නිලධාරීහු 6
▁නිවසට 6
▁නිවේදනය 6
▁නිස 6
▁නොඅඩු 6
▁නොලැබිය 6
▁නොසලකා 6
▁පඩිනඩි 6
▁පදනමක 6
▁පදමාලා 6
▁පනතට 6
▁පනවනු 6
▁පරමාණුක 6
▁පරිහරණය 6
▁පවරන 6
▁පවරනු 6
▁පහසුව 6
▁පහසුවෙන 6
▁පැලවත 6
▁පිටිය 6
▁පිදූ 6
▁පිරිත 6
▁පිරිවැටුම 6
▁පිළිගැන 6
▁පිළිගැනීම 6
▁පිළියන 6
▁පුරවැසියන 6
▁පූජකවරුන 6
▁පෙළගැස 6
▁පොසොන 6
▁පොළොන 6
▁බහු 6
▁බැංකුවට 6
▁බැඳීම 6
▁බැරකම 6
▁බුත 6
▁බුලත 6
▁බොල 6
▁බොහෝ 6
▁භාරකරුට 6
▁භාරය 6
▁භාවිතයේ 6
▁මතභේදයට 6
▁මව 6
▁මහල 6
▁මහියංගනය 6
▁මාගේ 6
▁මානවල 6
▁මාලාව 6
▁මිශ 6
▁මුත 6
▁මුදා 6
▁මූර 6
▁මූලාශ 6
▁මෙමගින 6
▁යමි 6
▁යමින 6
▁යමූර 6
▁යයයි 6
▁යවශ 6
▁යාංශයක 6
▁යාගය 6
▁යායුතු 6
▁යාලයට 6
▁යාලයීය 6
▁යාලවලට 6
▁යාවක 6
▁යැපෙන 6
▁යූහය 6
▁යෙදීම 6
▁රකාරව 6
▁රගති 6
▁රචාරය 6
▁රජාවන 6
▁රණයේ 6
▁රපට 6
▁රමසම 6
▁රමාණයකින 6
▁රමාණයෙන 6
▁රමිති 6
▁රමුඛතා 6
▁රයෝජන 6
▁රවණතා 6
▁රසංගය 6
▁රසන 6
▁රසාදය 6
▁රසිරි 6
▁රහයෙන 6
▁රහිත 6
▁රාජකීය 6
▁රාමාත 6
▁රිකානු 6
▁රියදුරු 6
▁රේණිය 6
▁රෝහලට 6
▁ලබත 6
▁ලබමින 6
▁ලාංකේය 6
▁ලෙඩුන 6
▁ලෙසට 6
▁ලේඛනමය 6
▁වගකිව 6
▁වට 6
▁වතුර 6
▁වයි 6
▁වරක 6
▁වරදකරුවකු 6
▁වරයාගේ 6
▁වලදී 6
▁වහන 6
▁වාණීජ 6
▁වාධීන 6
▁වැඩියෙන 6
▁විකිණීමෙන 6
▁විදීම 6
▁විධි 6
▁විභාෂා 6
▁විමේදී 6
▁වීඩියෝ 6
▁වෙසක 6
▁වෙළඳාම 6
▁වෙළෙඳපොළ 6
▁වේතන 6
▁වේශ 6
▁ශනයේ 6
▁ශනාගාරය 6
▁සංකල 6
▁සංයුතිය 6
▁සංශෝධන 6
▁සංශෝධිත 6
▁සංසදය 6
▁සකගේ 6
▁සකවරයා 6
▁සකසා 6
▁සජීවීකරණ 6
▁සමරනායක 6
▁සමාගමක 6
▁සමාජය 6
▁සමාන 6
▁සමික 6
▁සමීකරණ 6
▁සල 6
▁සහයෝගිත 6
▁සහාව 6
▁සාමය 6
▁සාහිත 6
▁සැමරීම 6
▁සැලසුමක 6
▁සිරකරුවන 6
▁සිරගෙදර 6
▁සිසු 6
▁සුන 6
▁සුපර 6
▁සුබසාධන 6
▁සුභසාධක 6
▁සෘජු 6
▁සේනාරත 6
▁සෞ 6
▁සෞම 6
▁හඟුරන 6
▁හදාරන 6
▁හල 6
▁හැකියා 6
▁ළමයින 6
▁ 6
9 5
hetekma 5
ication 5
in 5
operation 5
ordination 5
ratnapura 5
residential 5
u 5
දී 5
▁01.01.2014 5
▁03. 5
▁033 5
▁037 5
▁065 5
▁085 5
▁1-2006 5
▁1.2.5 5
▁104 5
▁124 5
▁135 5
▁144 5
▁156 5
▁173 5
▁182 5
▁196 5
▁1995 5
▁2. 5
▁201 5
▁203 5
▁247 5
▁297 5
▁3.6 5
▁30.06.2013 5
▁31.12.2014 5
▁313 5
▁315 5
▁34,184,264 5
▁378 5
▁383 5
▁400 5
▁5.4 5
▁599 5
▁648 5
▁677 5
▁808 5
▁822 5
▁837 5
▁844 5
▁98 5
▁accredited 5
▁accurate 5
▁achievements 5
▁actor 5
▁adopted 5
▁adverse 5
▁airport 5
▁alagiyawanna 5
▁allocations 5
▁amended 5
▁amongst 5
▁amounts 5
▁analytical 5
▁analyzing 5
▁appealed 5
▁approach 5
▁approvals 5
▁archaeology 5
▁association 5
▁assurance 5
▁attending 5
▁audited 5
▁auditors 5
▁avoid 5
▁avurudu 5
▁banks 5
▁barriers 5
▁belong 5
▁birds 5
▁bonds 5
▁bran 5
▁bribery 5
▁buddha 5
▁buddhasasana 5
▁calling 5
▁came 5
▁card 5
▁categories 5
▁categorization 5
▁caused 5
▁celebrate 5
▁celebration 5
▁celebrations 5
▁certified 5
▁chandrasiri 5
▁channels 5
▁charged 5
▁class 5
▁clear 5
▁closing 5
▁commencing 5
▁committed 5
▁compiled 5
▁complaint 5
▁concern 5
▁confidence 5
▁consist 5
▁contains 5
▁contest 5
▁controlled 5
▁corruption 5
▁covers 5
▁crafts 5
▁creditors 5
▁dance 5
▁dedication 5
▁deeds 5
▁defense 5
▁delay 5
▁delays 5
▁dengue 5
▁developments 5
▁difficult 5
▁digital 5
▁disability 5
▁disciplinary 5
▁discretion 5
▁disease 5
▁divided 5
▁diyaniya 5
▁documentation 5
▁draft 5
▁drainage 5
▁drawing 5
▁driver 5
▁early 5
▁educating 5
▁employed 5
▁encouraging 5
▁enhanced 5
▁ensuing 5
▁ensuring 5
▁equitable 5
▁evaluated 5
▁excellency 5
▁existed 5
▁explained 5
▁exports 5
▁expressed 5
▁extraordinary 5
▁fee 5
▁fence 5
▁financing 5
▁firm 5
▁fiscal 5
▁formulated 5
▁forwarded 5
▁fruit 5
▁fulfil 5
▁gammana 5
▁ganewatta 5
▁gathering 5
▁gender 5
▁gmail 5
▁going 5
▁gosl 5
▁governing 5
▁hanguranketha 5
▁healthy 5
▁hector 5
▁helped 5
▁herath 5
▁hire 5
▁historical 5
▁holding 5
▁hourly 5
▁ibbagamuwa 5
▁immunization 5
▁imprest 5
▁incentives 5
▁indirect 5
▁initially 5
▁innovation 5
▁inquiry 5
▁intended 5
▁interchange 5
▁inventions 5
▁jayawardenapura 5
▁jurisdiction 5
▁kaduwela 5
▁kahapola 5
▁katugastota 5
▁killed 5
▁korea 5
▁kotalawala 5
▁kuliyapitiya 5
▁kurudugaha 5
▁lakshman 5
▁leaders 5
▁leased 5
▁liability 5
▁licence 5
▁licenses 5
▁liquidated 5
▁lists 5
▁literature 5
▁maganeguma 5
▁magistrate 5
▁makes 5
▁mandate 5
▁manual 5
▁medicines 5
▁mihin 5
▁mihira 5
▁minor 5
▁monument 5
▁nimal 5
▁notified 5
▁notify 5
▁nugasevana 5
▁nuwaraeliya 5
▁occasions 5
▁oct 5
▁ordinary 5
▁oshin 5
▁pages 5
▁painting 5
▁pannisai 5
▁parallel 5
▁parts 5
▁party 5
▁pasala 5
▁patronage 5
▁periods 5
▁pertaining 5
▁photographs 5
▁placed 5
▁poojas 5
▁portion 5
▁posts 5
▁poverty 5
▁presentations 5
▁preserve 5
▁press 5
▁prices 5
▁print 5
▁procedures 5
▁procurements 5
▁producer 5
▁producers 5
▁productivity 5
▁properly 5
▁proposals 5
▁publishing 5
▁quorum 5
▁race 5
▁ranga 5
▁range 5
▁rare 5
▁reality 5
▁recipients 5
▁reclamation 5
▁recognized 5
▁recruitments 5
▁refer 5
▁regions 5
▁remain 5
▁remitted 5
▁reported 5
▁reside 5
▁retained 5
▁retirement 5
▁rev 5
▁risk 5
▁roga 5
▁rural 5
▁sabha 5
▁safety 5
▁saivapothini 5
▁saturday 5
▁scholars 5
▁sculpture 5
▁secondary 5
▁selling 5
▁semi 5
▁separate 5
▁served 5
▁severe 5
▁shakthi 5
▁sir 5
▁siripala 5
▁sitemap 5
▁slas 5
▁solid 5
▁sound 5
▁sources 5
▁space 5
▁specimens 5
▁speed 5
▁sport 5
▁stall 5
▁stating 5
▁stores 5
▁strategic 5
▁student 5
▁subjected 5
▁subsidiaries 5
▁success 5
▁sujatha 5
▁sumathi 5
▁telecasts 5
▁tertiary 5
▁tests 5
▁thank 5
▁theme 5
▁thirteen 5
▁thiruwanaketiya 5
▁threatened 5
▁tobacco 5
▁too 5
▁tools 5
▁tour 5
▁tractors 5
▁traditions 5
▁trailers 5
▁translator 5
▁u 5
▁understated 5
▁uniform 5
▁unity 5
▁unusual 5
▁upto 5
▁vacancies 5
▁vacancy 5
▁viewership 5
▁visitation 5
▁visitations 5
▁volumes 5
▁whatsoever 5
▁wheel 5
▁wheelers 5
▁whereas 5
▁whilst 5
▁width 5
▁wild 5
▁write 5
▁අංශයක 5
▁අංශයෙන 5
▁අංශවල 5
▁අංශවලට 5
▁අනවශ 5
▁අනුකුලව 5
▁අභිමතය 5
▁අභියාචකයා 5
▁අමුද 5
▁අයහපත 5
▁අරලියගහ 5
▁අලගියවන 5
▁අවදානමට 5
▁අවලංගු 5
▁අවසානය 5
▁අවිධිමත 5
▁අවිනිශ 5
▁අසතුටුදායක 5
▁අසාමාන 5
▁ආදියට 5
▁ආමන 5
▁ආයතනයීය 5
▁ආවරණ 5
▁ඇදීම 5
▁ඉදිකර 5
▁ඉඳිකිරීම 5
▁ඉස 5
▁උපකාර 5
▁උපයෝජනය 5
▁උරුමයන 5
▁ඌ 5
▁ඌන 5
▁එබැවින 5
▁එරෙහිව 5
▁එළවළු 5
▁එළි 5
▁එළිදක 5
▁ඒකකවලින 5
▁ඓතිහාසික 5
▁ඔලිම 5
▁ඔෂීන 5
▁කච 5
▁කඩිනමින 5
▁කඳවුර 5
▁කඳුකර 5
▁කඳුවැටි 5
▁කමිටුවට 5
▁කරගන 5
▁කරගැනීමේ 5
▁කරතා 5
▁කරමි 5
▁කරවා 5
▁කලාකරුවන 5
▁කළමණාකරණ 5
▁කළමණාකරන 5
▁කළමනාකරු 5
▁කළමනාකාරිත 5
▁කැඳවනු 5
▁කිරිඇල 5
▁කිරිමට 5
▁කී 5
▁කුරුඳුගහහැතැක 5
▁කුලි 5
▁කුලිය 5
▁කුලියාපිටිය 5
▁කොතලාවල 5
▁කොබ 5
▁ගතය 5
▁ගයන 5
▁ගලයෙකු 5
▁ගැනීමටත 5
▁ගැනීමත 5
▁ගුණවර 5
▁ගෙනයනු 5
▁ගොඩනැංවීමේ 5
▁චිතව 5
▁චෙක 5
▁ඡායාරූප 5
▁ජයසේකර 5
▁ජලජ 5
▁ජෙ 5
▁ටතම 5
▁ටයාර 5
▁ටාර 5
▁ටි 5
▁ඨාසයන 5
▁ඩලවල 5
▁ණයගැතියන 5
▁තකරුවන 5
▁තකාලය 5
▁තදබල 5
▁තමාට 5
▁තයන 5
▁තරාතිරම 5
▁තාවකාලික 5
▁තාවට 5
▁තිබු 5
▁තිබුණත 5
▁තිවල 5
▁තුතිය 5
▁තුරු 5
▁තුල 5
▁තූරියම 5
▁තෙකුට 5
▁තේරුම 5
▁තොරතුරුවලට 5
▁තෝරාගනු 5
▁ථාවෙන 5
▁දකුණ 5
▁දරිද 5
▁දායකයන 5
▁දැරිය 5
▁දිගින 5
▁දිනක 5
▁දුබලතා 5
▁දූෂණ 5
▁දෘශ 5
▁දෙනෙකුගේ 5
▁දෙපස 5
▁දෙසැ 5
▁දේශිත 5
▁ධෛර 5
▁නගරයේ 5
▁නවීන 5
▁නළුවා 5
▁නාමලේඛන 5
▁නැංවීමට 5
▁නැරඹීමට 5
▁නිපැයුම 5
▁නියමයන 5
▁නියාමනය 5
▁නියෝජිතායතන 5
▁නිවස 5
▁නිසෛ 5
▁නීතිපතිවරයා 5
▁නුග 5
▁නොකිරීම 5
▁නොගැනීම 5
▁නොමැත 5
▁පටිපාටි 5
▁පණිවිඩය 5
▁පති 5
▁පථය 5
▁පදියතලාව 5
▁පනවන 5
▁පනවා 5
▁පනස 5
▁පරමාර 5
▁පරහෙට 5
▁පරිමාණ 5
▁පරිවාරක 5
▁පවසන 5
▁පවිත 5
▁පසුබිම 5
▁පළතුරු 5
▁පාරිභෝගික 5
▁පාලමක 5
▁පාලිත 5
▁පැතිකඩ 5
▁පැමිණීමේ 5
▁පැමිණෙන 5
▁පැවත 5
▁පි 5
▁පිංකම 5
▁පිඟන 5
▁පිරි 5
▁පිහිටුවිම 5
▁පිළිබඳවත 5
▁පිළිවෙලින 5
▁පුරුෂ 5
▁පේරාදෙණීය 5
▁පොළ 5
▁පෝදිනි 5
▁බලකාය 5
▁බලපිටිය 5
▁බලයෙන 5
▁බාගමුව 5
▁බාධා 5
▁බාර 5
▁බැලිය 5
▁බැසිලස 5
▁බෑකඩුව 5
▁බේරා 5
▁භයේ 5
▁භාගත 5
▁භාරකාර 5
▁මගපෙන 5
▁මඟපෙන 5
▁මතයක 5
▁මතුගම 5
▁මය 5
▁මරණය 5
▁මහින 5
▁මාරකය 5
▁මාසයකට 5
▁මාසයට 5
▁මැසීම 5
▁මිනල 5
▁මිහිර 5
▁මෙයින 5
▁යතාවන 5
▁යනය 5
▁යවරයාගේ 5
▁යානයක 5
▁යාලයය 5
▁යැවීමට 5
▁යේ 5
▁රචාරණ 5
▁රටක 5
▁රණාම 5
▁රතිචාර 5
▁රතිඵලවල 5
▁රතිශතය 5
▁රථගාල 5
▁රදාන 5
▁රදායික 5
▁රමයක 5
▁රමාංකණ 5
▁රමික 5
▁රයත 5
▁රයෝජනයට 5
▁රයෝජනවත 5
▁රලේඛයේ 5
▁රවාහනය 5
▁රශස 5
▁රාජගිරිය 5
▁රාමීය 5
▁රාහකයන 5
▁රාහකයින 5
▁රැක 5
▁රියල 5
▁රීන 5
▁රීවරුන 5
▁රේගුව 5
▁රෛභාෂාවෙන 5
▁රොස 5
▁රෝලියම 5
▁ලඟා 5
▁ලබාදුන 5
▁ලභ 5
▁ලම 5
▁ලාංකික 5
▁ලැබුණි 5
▁ලැබෙනු 5
▁ලික 5
▁ලිපියක 5
▁ලෙසද 5
▁වක 5
▁වතුපිටිවල 5
▁වරු 5
▁වවුනියාව 5
▁වසරට 5
▁වසරවල 5
▁වහාම 5
▁වළක 5
▁වාචික 5
▁වාණිජමය 5
▁වානගුරු 5
▁වාමි 5
▁වැඩසටහනෙහි 5
▁වැඩිදුර 5
▁විකල 5
▁විගණකාධිපතිවරයා 5
▁විචාරාත 5
▁විජය 5
▁විණ 5
▁විදුලිය 5
▁විනිමය 5
▁විඳිමින 5
▁විපුලානන 5
▁වියදමක 5
▁විශේෂඥ 5
▁විෂ 5
▁විෂයන 5
▁විසඳුම 5
▁වීමත 5
▁වීය 5
▁වුණි 5
▁වෙති 5
▁වෙළෙඳ 5
▁ශනයක 5
▁ශවකරුවන 5
▁ශවයන 5
▁ශාකාගාරය 5
▁ශාලාවට 5
▁ශාස 5
▁ෂකයන 5
▁ෂකවරුන 5
▁ෂණයෙන 5
▁ෂණීක 5
▁ෂමතාව 5
▁ෂයෙන 5
▁ෂයෙහි 5
▁සංචාරකයන 5
▁සති 5
▁සතුටුදායක 5
▁සනීපාරක 5
▁සඳහාත 5
▁සභාපතිවරයාගේ 5
▁සභාවක 5
▁සමීප 5
▁සමුළු 5
▁සරල 5
▁සහයක 5
▁සහයෝගිතා 5
▁සිදුවිම 5
▁සිදුවේ 5
▁සිරිපාල 5
▁සීමාවක 5
▁සුජාත 5
▁සුදර 5
▁සුම 5
▁සුමති 5
▁සුහදතා 5
▁සෘජුව 5
▁සෙනෙවිරත 5
▁සේවයක 5
▁හත 5
▁හඳුනාගත 5
▁හැකියාවක 5
▁හැදින 5
▁හෙළිදරව 5
▁හේතුව 5
▁හේතූන 5
▁හේරත 5
▁හොඳ 5
▁හොරණ 5
005 4
5 4
7 4
based 4
charge 4
current 4
discrimination 4
economic 4
four 4
government 4
housing 4
iarachchi 4
j 4
level 4
operational 4
operative 4
school 4
supplying 4
term 4
y 4
year 4
▁# 4
▁004 4
▁005 4
▁01. 4
▁010 4
▁024 4
▁034 4
▁050 4
▁066 4
▁1.2.7 4
▁10.10.2011 4
▁102 4
▁11- 4
▁112 4
▁118 4
▁12.265 4
▁126 4
▁13.038 4
▁145 4
▁155 4
▁158 4
▁161,995,774 4
▁169 4
▁17.3 4
▁17.5 4
▁171 4
▁174 4
▁180 4
▁1921 4
▁1967 4
▁1980 4
▁1986 4
▁1990 4
▁1991 4
▁1999 4
▁2.3 4
▁2.5 4
▁2011.09.30 4
▁2015.12.31 4
▁202 4
▁204 4
▁2050513 4
▁210 4
▁2187158 4
▁2222596 4
▁225 4
▁23- 4
▁230 4
▁24.10 4
▁245 4
▁2695366 4
▁27.00 4
▁278 4
▁279 4
▁2817821 4
▁2817823 4
▁283 4
▁2854635 4
▁2862712 4
▁2862717 4
▁2862746 4
▁2864958 4
▁2865310 4
▁2865315 4
▁2868701 4
▁2868703 4
▁2871099 4
▁2871119 4
▁2872020 4
▁2872292 4
▁2877134 4
▁2887466 4
▁2887472 4
▁2887677 4
▁2888011 4
▁289 4
▁290 4
▁3. 4
▁30.00 4
▁30.09.2011 4
▁30.25 4
▁316 4
▁317 4
▁324 4
▁33.5 4
▁338 4
▁34.35 4
▁350 4
▁354 4
▁376 4
▁385 4
▁390 4
▁4. 4
▁4.30 4
▁4.4 4
▁4000 4
▁407 4
▁427 4
▁437 4
▁446 4
▁472 4
▁5. 4
▁5.0 4
▁5.2 4
▁5.3 4
▁573 4
▁579 4
▁6.1 4
▁6.7 4
▁6000 4
▁61 4
▁649 4
▁654 4
▁659 4
▁7.55 4
▁700 4
▁734 4
▁754 4
▁756 4
▁774 4
▁8.0 4
▁8.1 4
▁820 4
▁823 4
▁824 4
▁845 4
▁879 4
▁889 4
▁9.92 4
▁900 4
▁9001 4
▁922 4
▁995 4
▁998 4
▁? 4
▁IX 4
▁SWEDEC 4
▁X 4
▁XI 4
▁absents 4
▁abu 4
▁acceptance 4
▁across 4
▁active 4
▁actively 4
▁add 4
▁addl 4
▁adhere 4
▁adjustment 4
▁affect 4
▁agents 4
▁ago 4
▁aids 4
▁ali 4
▁allegations 4
▁alleged 4
▁almost 4
▁aluthgama 4
▁appear 4
▁applicable 4
▁apurwa 4
▁archeology 4
▁arrival 4
▁atomic 4
▁attended 4
▁auditorium 4
▁audits 4
▁authorised 4
▁average 4
▁aviation 4
▁bacillus 4
▁background 4
▁bandaragama 4
▁bangadeniya 4
▁banking 4
▁banners 4
▁beauty 4
▁because 4
▁beneficiary 4
▁binari 4
▁bingiriya 4
▁biology 4
▁birth 4
▁bodies 4
▁break 4
▁breakdown 4
▁bulathsinhala 4
▁buttala 4
▁cameraman 4
▁camps 4
▁cancer 4
▁chairperson 4
▁chanting 4
▁chartered 4
▁check 4
▁chenkaladi 4
▁circulated 4
▁classified 4
▁clients 4
▁climate 4
▁commemoration 4
▁commerce 4
▁competitiveness 4
▁comply 4
▁components 4
▁comprising 4
▁concept 4
▁concert 4
▁conferred 4
▁confirmed 4
▁conform 4
▁consider 4
▁considerable 4
▁consisting 4
▁construct 4
▁consumer 4
▁contributing 4
▁controlling 4
▁convicted 4
▁conviction 4
▁coordinate 4
▁coorporation 4
▁courts 4
▁cpstl 4
▁cream 4
▁creative 4
▁currently 4
▁cut 4
▁debate 4
▁declared 4
▁deems 4
▁dependants 4
▁designations 4
▁detail 4
▁determinations 4
▁dialogues 4
▁difference 4
▁differences 4
▁directive 4
▁disabilities 4
▁disclosed 4
▁dissatisfaction 4
▁disturbance 4
▁dodamgoda 4
▁donor 4
▁download 4
▁drive 4
▁ds 4
▁dubbed 4
▁earlier 4
▁earn 4
▁effort 4
▁eighteen 4
▁empowered 4
▁empowering 4
▁encyclopedia 4
▁endeavors 4
▁enhancement 4
▁entering 4
▁entrusted 4
▁equipments 4
▁erected 4
▁examine 4
▁excellence 4
▁excellent 4
▁execution 4
▁existence 4
▁expertise 4
▁express 4
▁extending 4
▁failure 4
▁far 4
▁fellowships 4
▁fifty 4
▁figures 4
▁flag 4
▁floor 4
▁flora 4
▁focused 4
▁focusing 4
▁formulate 4
▁fraud 4
▁fruits 4
▁fulfill 4
▁fulfilling 4
▁fullest 4
▁fundamental 4
▁galkulama 4
▁gamage 4
▁games 4
▁gamini 4
▁gee 4
▁generations 4
▁glossaries 4
▁goals 4
▁grand 4
▁graphite 4
▁greeting 4
▁grounds 4
▁guarantee 4
▁guideline 4
▁guru 4
▁heavy 4
▁hectares 4
▁hereby 4
▁hereinafter 4
▁highly 4
▁hingurana 4
▁holdings 4
▁honourable 4
▁hour 4
▁hrm 4
▁illegal 4
▁immunisation 4
▁imperative 4
▁imposed 4
▁imprisoned 4
▁incorrect 4
▁indian 4
▁influence 4
▁informants 4
▁injury 4
▁inpatient 4
▁inspector 4
▁instead 4
▁instituted 4
▁instructor 4
▁integrity 4
▁interim 4
▁internet 4
▁introducing 4
▁inventory 4
▁investor 4
▁ix 4
▁jails 4
▁jayasekara 4
▁job 4
▁joint 4
▁joseph 4
▁jump 4
▁kalkudah 4
▁kallady 4
▁kalpitiya 4
▁kapilawasthu 4
▁kasthur 4
▁keep 4
▁kekirawa 4
▁kiriella 4
▁laboratories 4
▁lakdiva 4
▁lanintegmin 4
▁ledger 4
▁lesser 4
▁like 4
▁lines 4
▁linking 4
▁livestock 4
▁lying 4
▁machine 4
▁machines 4
▁mahapola 4
▁mahinda 4
▁mail 4
▁makeup 4
▁mammals 4
▁mandatory 4
▁mankulam 4
▁manpower 4
▁manushya 4
▁marine 4
▁married 4
▁mega 4
▁met 4
▁methodology 4
▁metrology 4
▁michael 4
▁microbiological 4
▁mines 4
▁minimize 4
▁ministerial 4
▁minutes 4
▁mobility 4
▁moment 4
▁monetary 4
▁moneys 4
▁moral 4
▁morale 4
▁moringa 4
▁mother 4
▁motherland 4
▁movement 4
▁mtef 4
▁museum 4
▁nagoda 4
▁nallur 4
▁namal 4
▁nana 4
▁nattarampotha 4
▁nautical 4
▁navukarasan 4
▁ndu 4
▁near 4
▁negative 4
▁neglect 4
▁ngos 4
▁notes 4
▁notwithstanding 4
▁nsb 4
▁ntv 4
▁nugedolawattha 4
▁num 4
▁nurseries 4
▁ob 4
▁obligation 4
▁oil 4
▁operates 4
▁operative 4
▁operator 4
▁orchid 4
▁outpatient 4
▁overcome 4
▁oversee 4
▁oya 4
▁page 4
▁paranthan 4
▁particular 4
▁pass 4
▁past 4
▁peace 4
▁pedro 4
▁peliyagoda 4
▁perahettiya 4
▁performed 4
▁pinnaduwa 4
▁plantations 4
▁pool 4
▁poor 4
▁postal 4
▁pradeshiya 4
▁pranama 4
▁prasanna 4
▁preference 4
▁premakumara 4
▁prisons 4
▁proceedings 4
▁productive 4
▁protected 4
▁psu 4
▁psychological 4
▁punch 4
▁pura 4
▁quarantine 4
▁quarterly 4
▁quiz 4
▁raise 4
▁rajagiriya 4
▁rajarata 4
▁rapid 4
▁rathnayake 4
▁raw 4
▁reappointment 4
▁receipts 4
▁receiving 4
▁recipient 4
▁recoverable 4
▁rectified 4
▁referrals 4
▁reform 4
▁regardless 4
▁regulate 4
▁relationships 4
▁release 4
▁relic 4
▁religions 4
▁remarkable 4
▁render 4
▁repeal 4
▁requiring 4
▁resettlement 4
▁residence 4
▁resolved 4
▁resting 4
▁returned 4
▁revised 4
▁rich 4
▁round 4
▁run 4
▁safe 4
▁saints 4
▁salawa 4
▁salusala 4
▁saman 4
▁sanda 4
▁sardapura 4
▁sasana 4
▁scales 4
▁scheduled 4
▁scheduling 4
▁scrutiny 4
▁selection 4
▁sep 4
▁seriously 4
▁setting 4
▁shared 4
▁shipping 4
▁showed 4
▁showing 4
▁significance 4
▁simple 4
▁sivarathri 4
▁skin 4
▁socio 4
▁sponsorship 4
▁st 4
▁stages 4
▁states 4
▁stationery 4
▁stocks 4
▁storage 4
▁stressed 4
▁strong 4
▁suit 4
▁suppliers 4
▁surveying 4
▁swedac 4
▁syllabus 4
▁symptoms 4
▁teach 4
▁techniques 4
▁technologies 4
▁tested 4
▁textbooks 4
▁textile 4
▁thanamalwila 4
▁themselves 4
▁thereafter 4
▁titled 4
▁tooth 4
▁tours 4
▁town 4
▁tracking 4
▁trainees 4
▁travelers 4
▁understood 4
▁undertook 4
▁underutilized 4
▁unfavourable 4
▁untrue 4
▁updating 4
▁upgraded 4
▁uplift 4
▁uplifting 4
▁useful 4
▁valuable 4
▁vihara 4
▁visited 4
▁volunteers 4
▁vulnerable 4
▁wages 4
▁wall 4
▁wallapatta 4
▁wanaguru 4
▁wayside 4
▁weerasinghe 4
▁whose 4
▁why 4
▁wickramasinghe 4
▁wimalawansa 4
▁worked 4
▁xi 4
▁xiangjiang 4
▁අඛන 4
▁අඩි 4
▁අතිවිශේෂ 4
▁අධිකරණයක 4
▁අධිකරණයේ 4
▁අධිකාරය 4
▁අධිශිෂ 4
▁අනන 4
▁අනුපාතික 4
▁අබේවික 4
▁අභිජනනය 4
▁අයකර 4
▁අයගෙන 4
▁අයිතම 4
▁අවධානයක 4
▁අවප 4
▁අවබෝධයක 4
▁අවිස 4
▁අසත 4
▁අසනීපයෙන 4
▁අසනීපයේ 4
▁අසමත 4
▁අහිමි 4
▁අළලා 4
▁ආකෘතිය 4
▁ආඥාව 4
▁ආදි 4
▁ආයතනයෙහි 4
▁ආයෝජනයක 4
▁ආශි 4
▁ඇතිකිරීම 4
▁ඉඩකඩ 4
▁ඉදිකිරීමේ 4
▁ඉදිරියෙන 4
▁ඉපයීම 4
▁උචිත 4
▁උඩරට 4
▁උදාහරණයක 4
▁උරුම 4
▁ඌනතාවක 4
▁එකට 4
▁එහෙයින 4
▁එළඹෙන 4
▁ඒකකයකට 4
▁ඒවාට 4
▁ඔත 4
▁ඔවුනට 4
▁ඔහුටම 4
▁ඖෂධීය 4
▁කටුගස 4
▁කඩ 4
▁කදෛගල 4
▁කඳවුරු 4
▁කමිටුවකට 4
▁කරගනිමින 4
▁කලඩි 4
▁කලාප 4
▁කවුන 4
▁කස 4
▁කහපොල 4
▁කළමනාකරණයට 4
▁කාරකයන 4
▁කාලීනය 4
▁කැටිය 4
▁කැඳවා 4
▁කැඳවිය 4
▁කැප 4
▁කැපවීමෙන 4
▁කැමති 4
▁කිසිවක 4
▁කිහිපයකට 4
▁කුමක 4
▁කුලියට 4
▁කෘෂි 4
▁කෙරුණි 4
▁කෙරුණු 4
▁කේවල 4
▁කොස 4
▁ගතයුතු 4
▁ගමගේ 4
▁ගවල 4
▁ගාමිණී 4
▁ගැහැට 4
▁ගැළපෙන 4
▁ගිවිසුමේ 4
▁ගුරුවරු 4
▁ගෘහස 4
▁ගෙවිමට 4
▁ගෙවූ 4
▁ගේද 4
▁චාද 4
▁චියේ 4
▁චීනය 4
▁චෙන 4
▁ඡාමය 4
▁ඡාවට 4
▁ජගත 4
▁ජනතාවගේත 4
▁ජනාධිපතිතුමා 4
▁ජනිත 4
▁ජපානයේ 4
▁ජයසූරිය 4
▁ජාතියක 4
▁ජියැන 4
▁ජීවිතයේ 4
▁ජෝශප 4
▁ඥාතියා 4
▁ටුවක 4
▁ටෝරිඡේ 4
▁ඩායමක 4
▁ඩාරගම 4
▁තංගල 4
▁තකුගේ 4
▁තබාගැනීමට 4
▁තබාගැනීමේ 4
▁තමාටම 4
▁තමානයේ 4
▁තරගාවලිය 4
▁තලාව 4
▁තාකරණය 4
▁තාත 4
▁තානාපති 4
▁තාවන 4
▁තැනක 4
▁තිවලට 4
▁තිළිණ 4
▁තීරණයන 4
▁තුකරුවන 4
▁තුවල 4
▁තුවාල 4
▁තුවේදී 4
▁තුළදී 4
▁තෘතීය 4
▁තෘප 4
▁තෙකුටම 4
▁තෙකුම 4
▁තෛපොංගල 4
▁තොරතුරක 4
▁ථානයකින 4
▁දඩුවම 4
▁දණ 4
▁දනය 4
▁දයාරත 4
▁දරණ 4
▁දස 4
▁දහතුනකට 4
▁දිනකම 4
▁දිනයෙන 4
▁දිනුම 4
▁දියාවේ 4
▁දිව 4
▁දුණී 4
▁දුව 4
▁දූෂණය 4
▁දෙනකු 4
▁දෙනාට 4
▁දෙනෙකුගෙන 4
▁දෙල 4
▁දේශයන 4
▁දේශයේ 4
▁දොඩන 4
▁ධතාව 4
▁ධතීන 4
▁ධනාගාරගතව 4
▁ධනාගාරයක 4
▁ධනාගාරවල 4
▁ධාපුර 4
▁ධාරිතා 4
▁ධාවනය 4
▁ධීකරණයෙන 4
▁නංවන 4
▁නතම 4
▁නදූව 4
▁නාමයට 4
▁නාමල 4
▁නාය 4
▁නාලිකාවල 4
▁නාවුකරසන 4
▁නාවූද 4
▁නැගී 4
▁නිපදවීම 4
▁නියමයක 4
▁නියැදි 4
▁නියෝගයකට 4
▁නියෝගවල 4
▁නියෝජිත 4
▁නියෝජිතායතනය 4
▁නිරුපණය 4
▁නිරූපණ 4
▁නිරෝධායන 4
▁නෙකුට 4
▁නේද 4
▁නොකඩවා 4
▁නොකර 4
▁නොතිබූ 4
▁නොවැ 4
▁නොහැකිව 4
▁පණත 4
▁පතක 4
▁පතල 4
▁පමණි 4
▁පය 4
▁පරන 4
▁පරම 4
▁පරාවන 4
▁පරිගණකගත 4
▁පරිශ 4
▁පරිශිෂ 4
▁පසුතලය 4
▁පසුවන 4
▁පහතරට 4
▁පළල 4
▁පාඩුව 4
▁පාත 4
▁පාපැදි 4
▁පාරිතෝෂිත 4
▁පාරිභාෂික 4
▁පාරිශ 4
▁පාවිච 4
▁පැකට 4
▁පැයෙන 4
▁පැවරුම 4
▁පැහැර 4
▁පැළෑදගොඩ 4
▁පිගන 4
▁පියවා 4
▁පියස 4
▁පිරිවිත 4
▁පිරිස 4
▁පිරිසිදු 4
▁පිරිහීම 4
▁පිහිටු 4
▁පිහිටුවා 4
▁පිළිකා 4
▁පිළිවෙත 4
▁පිළිස 4
▁පීඊඩී 4
▁පීඨ 4
▁පුජ 4
▁පුෂ 4
▁පුහුණුවීම 4
▁පෙදෙස 4
▁පෙනෙන 4
▁පේ 4
▁පොකුණ 4
▁පොද 4
▁පොලිය 4
▁පෝය 4
▁ඵලදායි 4
▁ඵලදායීතාවය 4
▁බංගදෙණිය 4
▁බටහිර 4
▁බම 4
▁බලපාන 4
▁බලපෑමක 4
▁බලම 4
▁බලයලත 4
▁බලවත 4
▁බැනර 4
▁බැඳුම 4
▁බැලීමට 4
▁බිංගිරිය 4
▁බිනරි 4
▁බීම 4
▁බොහොමයක 4
▁බොහෝමයක 4
▁බෝතල 4
▁භාෂාවල 4
▁භූ 4
▁මකව 4
▁මකවීම 4
▁මඟනැගුම 4
▁මඩුල 4
▁මණින 4
▁මතුවට 4
▁මනාව 4
▁මනුෂ 4
▁මයිකල 4
▁මර 4
▁මහපොළ 4
▁මහාධිකරණ 4
▁මාචාර 4
▁මාතෘකාව 4
▁මානයන 4
▁මාපලගම 4
▁මැදිරියේ 4
▁මැන 4
▁මිණුම 4
▁මිත 4
▁මියගේ 4
▁මීගහකිවුල 4
▁මු 4
▁මුඛ 4
▁මුලික 4
▁මෙබඳු 4
▁මෙහෙයවනු 4
▁මේලන 4
▁යතාවක 4
▁යතාවයන 4
▁යභාරයක 4
▁යභාරයන 4
▁යමත 4
▁යයකි 4
▁යවරු 4
▁යෂ 4
▁යසාධනයක 4
▁යහපැවැත 4
▁යාංශයට 4
▁යාංශයෙන 4
▁යාකාරයකින 4
▁යානයට 4
▁යාපනයේ 4
▁යාපාරය 4
▁යාපාරික 4
▁යෙදවීම 4
▁යොදාගත 4
▁යොදාගෙන 4
▁යෝජනාක 4
▁යෞවනයන 4
▁රංග 4
▁රකාශයකින 4
▁රකාශයන 4
▁රඟහල 4
▁රජරට 4
▁රජාවගේ 4
▁රතිකාරක 4
▁රදේශයන 4
▁රධානතම 4
▁රධානි 4
▁රධානින 4
▁රධානීන 4
▁රමවත 4
▁රමිතියෙන 4
▁රමිතිවලට 4
▁රමුඛතාව 4
▁රයට 4
▁රවයක 4
▁රවිණතාව 4
▁රසිද 4
▁රහණය 4
▁රහයක 4
▁රාජකාරී 4
▁රැගෙන 4
▁රිකා 4
▁රිම 4
▁රියාදාම 4
▁රීඩාංගණයේ 4
▁රීමත 4
▁රේගුවේ 4
▁රේමකුමාර 4
▁රේලර 4
▁රේෂණය 4
▁රෝගියෙකු 4
▁රෝපණ 4
▁රෝහලකට 4
▁රෝහලෙන 4
▁රෝහලෙහි 4
▁ලංකාවෙන 4
▁ලකට 4
▁ලඩි 4
▁ලපට 4
▁ලබාගනු 4
▁ලබාගැනීමට 4
▁ලබාදී 4
▁ලවා 4
▁ලාභයක 4
▁ලිපිලේඛන 4
▁ලියනගේ 4
▁ලියාපදිංචිය 4
▁ලුමක 4
▁ලුහුඩු 4
▁ලේඛනයේ 4
▁ලෝමා 4
▁වගකීමක 4
▁වනජීවී 4
▁වභාවය 4
▁වයකට 4
▁වරට 4
▁වරද 4
▁වරදකරුවන 4
▁වරයාට 4
▁වලපනේ 4
▁වසනීයත 4
▁වාදය 4
▁වාහනවල 4
▁වැඩිකිරීම 4
▁වැලක 4
▁විකාශයන 4
▁විගණනයක 4
▁විඥාපන 4
▁විධිවිධානවලට 4
▁විභාගයක 4
▁විමක 4
▁විමලවංශ 4
▁වියුක 4
▁වියුත 4
▁විවාහ 4
▁විශේෂයක 4
▁වීරසිංහ 4
▁වෘක 4
▁වේගය 4
▁වේලාවන 4
▁වේලාසටහන 4
▁ශාඛාවන 4
▁ශිවරාත 4
▁ෂිප 4
▁ෂීන 4
▁ෂීරපායී 4
▁සංක 4
▁සංගණනය 4
▁සංයෝගය 4
▁සංවිධානයේ 4
▁සංසදවල 4
▁සකයකු 4
▁සකයන 4
▁සකවරයකු 4
▁සතිපතා 4
▁සද 4
▁සපයයි 4
▁සපුරාලීමට 4
▁සපුෂප 4
▁සමගින 4
▁සමරසේකර 4
▁සමරු 4
▁සමාගමට 4
▁සමාගමෙන 4
▁සමාජභාවය 4
▁සමානත 4
▁සමිතිය 4
▁සමූපකාර 4
▁සලසනු 4
▁සවයේ 4
▁සහාවට 4
▁සෆාරි 4
▁සාදනු 4
▁සාධනීය 4
▁සාමාජිකයකුට 4
▁සාමාජිකයකුම 4
▁සාලාව 4
▁සාවේල 4
▁සැක 4
▁සැත 4
▁සැපයීමට 4
▁සැපයීමේ 4
▁සැලකේ 4
▁සැසිවාරය 4
▁සැළකිය 4
▁සිංහ 4
▁සිටම 4
▁සිටීමේ 4
▁සිමාසහිත 4
▁සියැන 4
▁සිරගෙවල 4
▁සිලෝන 4
▁සිසුවියන 4
▁සිහිපත 4
▁සීතාවක 4
▁සීනෝර 4
▁සුගතදාස 4
▁සුනිල 4
▁සුපරීක 4
▁සුභ 4
▁සුව 4
▁සුවිශේෂ 4
▁සූරාකෑම 4
▁සේවයෙහි 4
▁සේවල 4
▁හ 4
▁හදුනා 4
▁හමුවේ 4
▁හරවා 4
▁හරිනු 4
▁හලාවත 4
▁හසුන 4
▁හාරව 4
▁හැසිරීමක 4
▁හැසිරීමෙන 4
▁හිතකාමී 4
▁හොදය 4
▁හොඳින 4
▁හෝඇයගේ 4
▁හෝටල 4
▁‟ 4
.2,000 3
.500 3
06 3
11 3
12 3
21 3
230 3
3 3
4 3
6 3
A 3
B 3
agalawatteroad 3
aging 3
baddegama 3
com 3
establishment 3
ethnic 3
hour 3
ications 3
inflammatory 3
iv 3
katunayake 3
may 3
national 3
ordinate 3
schools 3
secretary 3
set 3
situ 3
social 3
susil 3
ullaitivu 3
v 3
න 3
▁-20 3
▁.. 3
▁0.15 3
▁020 3
▁021 3
▁023 3
▁038 3
▁040 3
▁047 3
▁048 3
▁051 3
▁063 3
▁067 3
▁073 3
▁076 3
▁08-19 3
▁1,232 3
▁1.2012 3
▁10,000 3
▁10.00 3
▁100,533 3
▁101,085 3
▁103 3
▁114 3
▁12,707 3
▁121 3
▁128 3
▁131 3
▁14,854 3
▁14.1 3
▁141 3
▁148 3
▁150.0 3
▁154 3
▁16-27 3
▁160 3
▁167 3
▁17,161,040 3
▁17.50 3
▁18,148 3
▁18,677 3
▁185 3
▁186 3
▁1897 3
▁190,648 3
▁191 3
▁1952 3
▁197 3
▁2007-2014 3
▁2009,2010 3
▁2011- 3
▁2011.01.01 3
▁212,917 3
▁22.36 3
▁229 3
▁232 3
▁25,754 3
▁25.74 3
▁253 3
▁259 3
▁27- 3
▁272 3
▁280 3
▁2872024 3
▁2884719 3
▁292 3
▁293 3
▁294 3
▁3,294 3
▁3.1.1 3
▁3.1.2 3
▁30,000 3
▁301 3
▁311 3
▁32,419 3
▁336 3
▁348 3
▁353 3
▁363 3
▁375 3
▁38,065 3
▁4.0 3
▁41,313 3
▁410 3
▁413 3
▁419 3
▁424 3
▁432 3
▁450 3
▁461 3
▁470 3
▁487 3
▁489 3
▁490 3
▁497 3
▁498 3
▁5.30 3
▁50,000 3
▁508 3
▁512 3
▁525 3
▁529 3
▁535 3
▁543 3
▁545 3
▁549 3
▁566 3
▁584 3
▁585 3
▁587 3
▁590 3
▁598 3
▁6,844 3
▁6.0 3
▁60,000 3
▁603 3
▁62,153 3
▁636 3
▁639 3
▁646 3
▁650 3
▁672 3
▁676 3
▁680 3
▁682 3
▁693 3
▁7.1 3
▁7.30 3
▁7.8 3
▁704 3
▁726 3
▁744 3
▁749 3
▁75,837 3
▁755 3
▁757 3
▁773 3
▁776 3
▁783 3
▁792 3
▁8.05 3
▁8.5 3
▁816 3
▁847 3
▁848 3
▁85.0 3
▁854 3
▁877 3
▁887 3
▁9,446 3
▁9,913 3
▁917 3
▁929 3
▁934 3
▁959 3
▁969 3
▁983 3
▁990 3
▁994 3
▁D 3
▁MN 3
▁NBRO 3
▁QAD 3
▁RVSA 3
▁SLAB 3
▁USP 3
▁XII 3
▁abandoned 3
▁abilities 3
▁abroad 3
▁academic 3
▁acceptable 3
▁accessing 3
▁accessories 3
▁accolades 3
▁accountable 3
▁accuratly 3
▁acquiring 3
▁actress 3
▁adarsha 3
▁adding 3
▁addresses 3
▁adequacy 3
▁admiral 3
▁agree 3
▁ahasa 3
▁aided 3
▁airlines 3
▁akuressa 3
▁al 3
▁allocating 3
▁alternative 3
▁amarathunga 3
▁amaratunga 3
▁amendment 3
▁anamaduwa 3
▁anguruwatota 3
▁answers 3
▁appeared 3
▁applicant 3
▁applying 3
▁appointing 3
▁appointments 3
▁appreciates 3
▁apprentice 3
▁approve 3
▁aquaculture 3
▁architecture 3
▁aspects 3
▁assess 3
▁assignment 3
▁assignments 3
▁assisted 3
▁athula 3
▁attitudes 3
▁audio 3
▁awakening 3
▁baddegama 3
▁bar 3
▁batahira 3
▁becomes 3
▁beer 3
▁behaviour 3
▁beliefs 3
▁benevolent 3
▁bengal 3
▁bilingualism 3
▁black 3
▁block 3
▁bottled 3
▁box 3
▁breach 3
▁broad 3
▁bt 3
▁bungalow 3
▁burden 3
▁bus 3
▁campaign 3
▁canal 3
▁cannot 3
▁capabilities 3
▁capable 3
▁capitalized 3
▁cassette 3
▁categorized 3
▁cater 3
▁causes 3
▁causing 3
▁ceiling 3
▁celebrated 3
▁ceo 3
▁ceynor 3
▁chain 3
▁challenges 3
▁chanaka 3
▁chemicals 3
▁christian 3
▁circuit 3
▁clarified 3
▁clean 3
▁clearance 3
▁clothes 3
▁club 3
▁coexistence 3
▁collapse 3
▁commence 3
▁commendable 3
▁complied 3
▁computation 3
▁computerization 3
▁concepts 3
▁condition 3
▁conducts 3
▁confidentiality 3
▁conformity 3
▁consecutive 3
▁consequences 3
▁constantly 3
▁constitutional 3
▁container 3
▁contingent 3
▁contrary 3
▁contributes 3
▁convenience 3
▁coop 3
▁cooperative 3
▁coordinators 3
▁copa 3
▁cordial 3
▁corp 3
▁count 3
▁created 3
▁cricket 3
▁cultures 3
▁culverts 3
▁curry 3
▁customers 3
▁dambulla 3
▁daughter 3
▁dearth 3
▁debit 3
▁dedicated 3
▁deducted 3
▁defunct 3
▁deliberations 3
▁delivered 3
▁demonstrated 3
▁den 3
▁despite 3
▁dev 3
▁devi 3
▁diagnosis 3
▁dialog 3
▁differently 3
▁difficulty 3
▁disasters 3
▁disclaimer 3
▁disclose 3
▁discussing 3
▁displayed 3
▁displaying 3
▁disposal 3
▁distance 3
▁distilled 3
▁dividend 3
▁documented 3
▁domestic 3
▁drawn 3
▁economically 3
▁editing 3
▁eight 3
▁elkaduwawa 3
▁ella 3
▁embassies 3
▁emissions 3
▁emphasis 3
▁enabling 3
▁enacted 3
▁enclosure 3
▁encouragement 3
▁endangered 3
▁ends 3
▁engineer 3
▁enrolled 3
▁ensured 3
▁estates 3
▁evaluating 3
▁ever 3
▁everland 3
▁example 3
▁exceeded 3
▁execute 3
▁executed 3
▁exim 3
▁exotic 3
▁expects 3
▁expedite 3
▁experienced 3
▁experiences 3
▁experiments 3
▁expiry 3
▁exposure 3
▁extend 3
▁extraction 3
▁facts 3
▁fails 3
▁farm 3
▁features 3
▁feb 3
▁feeding 3
▁fill 3
▁filled 3
▁finalize 3
▁finding 3
▁findings 3
▁fire 3
▁flower 3
▁flowering 3
▁fly 3
▁focus 3
▁forest 3
▁foudation 3
▁frauds 3
▁fraudulent 3
▁friendly 3
▁fruitfulness 3
▁fungal 3
▁furthermore 3
▁gajadeera 3
▁galgamuwa 3
▁ganesan 3
▁gauges 3
▁geographical 3
▁german 3
▁germany 3
▁glossary 3
▁gone 3
▁govermant 3
▁gradually 3
▁growing 3
▁gunarathne 3
▁gunasekara 3
▁gunawardena 3
▁habour 3
▁handunnetti 3
▁harm 3
▁harmony 3
▁harvest 3
▁hasini 3
▁hazard 3
▁highlands 3
▁holders 3
▁hub 3
▁humanities 3
▁immediate 3
▁immigration 3
▁imparting 3
▁improper 3
▁inadequacy 3
▁inauguration 3
▁incapable 3
▁incentive 3
▁inception 3
▁incidental 3
▁incomes 3
▁incurring 3
▁indoor 3
▁indunil 3
▁inefficiency 3
▁initiating 3
▁injustice 3
▁inquire 3
▁institutes 3
▁instruments 3
▁interchanges 3
▁interference 3
▁intervention 3
▁invasive 3
▁involvement 3
▁involves 3
▁irregularities 3
▁irrigation 3
▁ishani 3
▁islandwide 3
▁isuru 3
▁itself 3
▁jayasinghe 3
▁jib 3
▁judges 3
▁jury 3
▁kachchatheevu 3
▁katha 3
▁kathaikal 3
▁katukurunda 3
▁kept 3
▁kinds 3
▁king 3
▁kumaratunga 3
▁kuruwita 3
▁lady 3
▁laid 3
▁lakh 3
▁laksala 3
▁landa 3
▁landslides 3
▁late 3
▁launch 3
▁lawn 3
▁leaf 3
▁learn 3
▁lease 3
▁led 3
▁left 3
▁legislature 3
▁lending 3
▁lessons 3
▁lifestyle 3
▁lighting 3
▁limbs 3
▁lipid 3
▁liquid 3
▁listed 3
▁livelihood 3
▁liyanage 3
▁lot 3
▁lowering 3
▁lowland 3
▁lubricants 3
▁madurawela 3
▁maharagama 3
▁mahawa 3
▁maheshika 3
▁majority 3
▁mal 3
▁malaysia 3
▁malkanthi 3
▁managed 3
▁manjari 3
▁mankulamm 3
▁mano 3
▁manohara 3
▁manufactured 3
▁marriages 3
▁maternal 3
▁matugama 3
▁mayuri 3
▁mcr 3
▁meadia 3
▁meant 3
▁measurements 3
▁meegahakiula 3
▁meerigama 3
▁merit 3
▁methods 3
▁middle 3
▁milco 3
▁mixed 3
▁mobilization 3
▁monitory 3
▁moses 3
▁mosquito 3
▁motion 3
▁mullativu 3
▁nandhi 3
▁navarathri 3
▁nbd 3
▁nbro 3
▁negombo 3
▁nevertheless 3
▁ngo 3
▁nishantha 3
▁nivana 3
▁nurses 3
▁nursing 3
▁occasion 3
▁oddusudan 3
▁oddusuddan 3
▁offences 3
▁offering 3
▁older 3
▁olympic 3
▁olympics 3
▁ongoing 3
▁onwards 3
▁operated 3
▁orchids 3
▁oriental 3
▁outdoor 3
▁overdraft 3
▁overstated 3
▁owner 3
▁packaging 3
▁palitha 3
▁pallawala 3
▁pallegama 3
▁palmyrah 3
▁panel 3
▁parent 3
▁particulars 3
▁payables 3
▁pdhs 3
▁pelawatte 3
▁pelendagoda 3
▁performances 3
▁petty 3
▁ph 3
▁philosophy 3
▁photo 3
▁pilgrimage 3
▁pilissum 3
▁pilot 3
▁pinkama 3
▁pipeline 3
▁piyasa 3
▁please 3
▁political 3
▁poly 3
▁port 3
▁possess 3
▁powder 3
▁preamble 3
▁preliminary 3
▁premajayantha 3
▁presenter 3
▁presenting 3
▁preservation 3
▁presidents 3
▁priest 3
▁processing 3
▁procession 3
▁profitable 3
▁promoted 3
▁promotes 3
▁promotional 3
▁protective 3
▁providers 3
▁qad 3
▁quantity 3
▁question 3
▁radiation 3
▁radio 3
▁raigam 3
▁rajapaksa 3
▁rajapaksha 3
▁rajatha 3
▁rambukkana 3
▁ranganath 3
▁ranged 3
▁ranges 3
▁ranviru 3
▁rathupaswala 3
▁rdhs 3
▁reading 3
▁ready 3
▁rear 3
▁receivables 3
▁recognize 3
▁recording 3
▁recordings 3
▁recruit 3
▁red 3
▁reflects 3
▁regards 3
▁registers 3
▁rejected 3
▁relationship 3
▁releasing 3
▁remove 3
▁renamed 3
▁renovated 3
▁repaired 3
▁repeated 3
▁requisites 3
▁researches 3
▁reserved 3
▁residents 3
▁resin 3
▁restructured 3
▁return 3
▁reviews 3
▁rio 3
▁rise 3
▁ritual 3
▁rohanadeera 3
▁route 3
▁rvsa 3
▁saarc 3
▁sacrificed 3
▁safeguarding 3
▁saivanerium 3
▁salmal 3
▁samarasekera 3
▁sanitary 3
▁sanskrit 3
▁satellite 3
▁satisfactory 3
▁scale 3
▁scattered 3
▁sea 3
▁securing 3
▁securities 3
▁seem 3
▁seethawaka 3
▁senanayake 3
▁senarathna 3
▁sending 3
▁seneviratne 3
▁sensitization 3
▁separately 3
▁serasinghe 3
▁serve 3
▁server 3
▁serving 3
▁seventh 3
▁sewing 3
▁shade 3
▁sheets 3
▁shelter 3
▁ships 3
▁shortage 3
▁shsdp 3
▁sign 3
▁signing 3
▁similarly 3
▁singer 3
▁sitha 3
▁slab 3
▁slow 3
▁slt 3
▁socially 3
▁sold 3
▁solution 3
▁solving 3
▁sometimes 3
▁son 3
▁soon 3
▁specialist 3
▁specially 3
▁specify 3
▁spend 3
▁sponsored 3
▁stamp 3
▁standing 3
▁stresses 3
▁studying 3
▁subsequent 3
▁substance 3
▁sufficient 3
▁sugathadasa 3
▁summon 3
▁sunil 3
▁supportive 3
▁surgeon 3
▁surgery 3
▁suspense 3
▁suwasiripaya 3
▁systematic 3
▁talent 3
▁tamilnadu 3
▁teledramas 3
▁temporary 3
▁territorial 3
▁test 3
▁thailand 3
▁thaksalawa 3
▁thambalagamuwa 3
▁themes 3
▁thermal 3
▁thirty 3
▁thirukk 3
▁thiruvasaka 3
▁threats 3
▁thurusaviya 3
▁ticket 3
▁tiger 3
▁tissa 3
▁tmv 3
▁today 3
▁toilet 3
▁totally 3
▁tower 3
▁trainers 3
▁transportation 3
▁travelling 3
▁treated 3
▁tremendous 3
▁trends 3
▁turn 3
▁twice 3
▁udanaya 3
▁udupila 3
▁unauthorized 3
▁undergo 3
▁undertaking 3
▁unemployment 3
▁union 3
▁unique 3
▁united 3
▁unnecessary 3
▁unrealistic 3
▁unsatisfactory 3
▁unutilized 3
▁unveiling 3
▁usp 3
▁variances 3
▁vegetable 3
▁ven 3
▁verification 3
▁vested 3
▁vienna 3
▁viharaya 3
▁violated 3
▁violation 3
▁violence 3
▁vipulananda 3
▁visit 3
▁vs 3
▁wagolla 3
▁walapane 3
▁walbotale 3
▁wanshaya 3
▁wastewater 3
▁watupitiwala 3
▁welgama 3
▁what 3
▁widening 3
▁wife 3
▁wijaya 3
▁wine 3
▁winning 3
▁wishes 3
▁wives 3
▁wooden 3
▁xii 3
▁yasa 3
▁yatinuwara 3
▁yogarajan 3
▁ඃ 3
▁අංගයක 3
▁අංශයන 3
▁අකුරැස 3
▁අකුරු 3
▁අඟුරුවාතොට 3
▁අඩමාන 3
▁අඩවි 3
▁අඩුකිරීම 3
▁අතහිත 3
▁අති 3
▁අතුල 3
▁අධි 3
▁අධිකාර 3
▁අනපේක 3
▁අනාගතය 3
▁අනිකුත 3
▁අනියම 3
▁අනිවාර 3
▁අනුකූලතා 3
▁අපජල 3
▁අපනයනය 3
▁අපරදිග 3
▁අපි 3
▁අපූර 3
▁අභිමානයක 3
▁අභියාචනයට 3
▁අමතන 3
▁අයවිය 3
▁අලිමඩු 3
▁අලෙවිය 3
▁අවදානම 3
▁අවබෝධ 3
▁අවසර 3
▁අවසානයේදී 3
▁අවිවාහක 3
▁අශෝක 3
▁අසාර 3
▁අහස 3
▁අහෝසි 3
▁අළුත 3
▁අළුතින 3
▁ආක 3
▁ආකාරයකින 3
▁ආඥාපනතේ 3
▁ආදායමට 3
▁ආදායමේ 3
▁ආධාරක 3
▁ආන 3
▁ආනයන 3
▁ආයතනවලින 3
▁ආරච 3
▁ආලේපන 3
▁ආසවනය 3
▁ඇගයීමක 3
▁ඇඩ 3
▁ඇතිවීම 3
▁ඇඹිලිපිටිය 3
▁ඇවිරිණි 3
▁ඉංජිනේරුවරුන 3
▁ඉතිරිය 3
▁ඉදිකිරිම 3
▁ඉඳුනිල 3
▁ඉපයූ 3
▁ඉවහල 3
▁ඉෂ 3
▁ඉසව 3
▁ඉසුරු 3
▁ඊශානි 3
▁උකස 3
▁උච 3
▁උඩුපිල 3
▁උදානය 3
▁උදෑසන 3
▁උපත 3
▁උපදේශකවරු 3
▁උපරිමාධිකරණ 3
▁උපායක 3
▁උයන 3
▁උරගයන 3
▁උලෙළවල 3
▁උවදුරු 3
▁උළු 3
▁ඍණ 3
▁එ 3
▁එකිනෙකට 3
▁එකිනෙකාට 3
▁එතුමාගේ 3
▁එබඳු 3
▁එමින 3
▁එවර 3
▁එළඹ 3
▁එළඹීම 3
▁එළිය 3
▁ඒකකවල 3
▁ඒජන 3
▁ඕනෑම 3
▁කජු 3
▁කටයුතුවලට 3
▁කඩවල 3
▁කඩා 3
▁කණුව 3
▁කතරගම 3
▁කතා 3
▁කථන 3
▁කඹුරුපිටිය 3
▁කයක 3
▁කයෙහි 3
▁කරති 3
▁කරපිංචා 3
▁කරලීමට 3
▁කරුණ 3
▁කලක 3
▁කළමණාකාරීත 3
▁කාමර 3
▁කාමරය 3
▁කාරකයක 3
▁කැකිරාව 3
▁කැඳවීම 3
▁කැපකරු 3
▁කැපවීම 3
▁කැපී 3
▁කැලණිය 3
▁කැළණිය 3
▁කියනු 3
▁කිරීමකින 3
▁කිරීමයි 3
▁කිලෝමීටර 3
▁කුටියක 3
▁කුම 3
▁කුමාරණතුංග 3
▁කුරුණැගල 3
▁කුරුවිට 3
▁කුසලතාව 3
▁කෘතිකමය 3
▁කෙටිකාලීන 3
▁කෙනෙකු 3
▁කො 3
▁කොටගත 3
▁කොඩිවල 3
▁කොත 3
▁කොපමණ 3
▁කොමිෂම 3
▁කොරියානු 3
▁කොරියාව 3
▁කොළඹින 3
▁කෝට 3
▁කෝන 3
▁කෞතුකාගාර 3
▁ගණකාධිකාරවරුන 3
▁ගණකාධිකාරි 3
▁ගතවන 3
▁ගනුදෙනුකරුවන 3
▁ගනේශන 3
▁ගමනාගමනය 3
▁ගයෙන 3
▁ගලයා 3
▁ගලිකව 3
▁ගායන 3
▁ගායනය 3
▁ගැනිමට 3
▁ගැනීමෙහි 3
▁ගැමි 3
▁ගැසටේ 3
▁ගැළපීම 3
▁ගිනි 3
▁ගුණතිලක 3
▁ගුණරත 3
▁ගුණසේකර 3
▁ගෘහයක 3
▁ගෙනා 3
▁ගොඩනගා 3
▁ගොඩනැගීමේ 3
▁ගෞරවයෙන 3
▁ච 3
▁චතිව 3
▁චානක 3
▁ඡාව 3
▁ජනනය 3
▁ජපන 3
▁ජයතිලක 3
▁ජයසිංහ 3
▁ජලජීවි 3
▁ජා 3
▁ජීව 3
▁ජීවනෝපාය 3
▁ඥාතී 3
▁ටයර 3
▁ටවර 3
▁ටිකට 3
▁ටින 3
▁ටෝරුවක 3
▁ඨාස 3
▁ඨාසවල 3
▁ඩත 3
▁ඩතාව 3
▁ඩපයේ 3
▁ඩි 3
▁ඩිය 3
▁ඩිවි 3
▁ණයෙන 3
▁තණ 3
▁තණමල 3
▁තමිල 3
▁තඹලගමුව 3
▁තරායකර 3
▁තලයකට 3
▁තාගත 3
▁තානායම 3
▁තායිලන 3
▁තැ 3
▁තැටි 3
▁තැඹිලි 3
▁තිබීමේ 3
▁තියානි 3
▁තිරුවන 3
▁තිරුවානාකැටිය 3
▁තිරුවාසග 3
▁තිසහගත 3
▁තිහගොඩ 3
▁තීන 3
▁තීමය 3
▁තීර 3
▁තුමා 3
▁තුමාගේ 3
▁තුරිආරච 3
▁තුරෙන 3
▁තුරේ 3
▁තුවලින 3
▁තූතිය 3
▁තෙවන 3
▁තොටුපල 3
▁ථකත 3
▁ථානමාරු 3
▁ථානයන 3
▁ථානයෙන 3
▁ථානවලින 3
▁ථානීය 3
▁ථාමය 3
▁ථාවරත 3
▁ථාවෝචිත 3
▁දකින 3
▁දට 3
▁දඩ 3
▁දමන 3
▁දමාගත 3
▁දඹුල 3
▁දරනු 3
▁දරුවාගේ 3
▁දරුවෙකි 3
▁දවත 3
▁දෑවරුන 3
▁දික 3
▁දිගන 3
▁දිනයට 3
▁දිනා 3
▁දිනේෂ 3
▁දියරයක 3
▁දියුණුවීම 3
▁දීමනාවක 3
▁දුරට 3
▁දුරටත 3
▁දුරස 3
▁දුවක 3
▁දූදරුවන 3
▁දෙකෙහි 3
▁දෙදින 3
▁දෙදෙනෙකුගේ 3
▁දෙමාපියන 3
▁දෙයාකාරයෙන 3
▁දෙයි 3
▁දෙවැනි 3
▁දේශගුණික 3
▁දේශනා 3
▁දේශපාලන 3
▁දේශය 3
▁දේසි 3
▁දෝෂ 3
▁ධනයේ 3
▁ධනාත 3
▁ධශ 3
▁ධශාසන 3
▁ධාතුන 3
▁ධිවර 3
▁නතර 3
▁නය 3
▁නවගම 3
▁නවරාත 3
▁නවින 3
▁නාගොඩ 3
▁නාමලේඛනය 3
▁නාවත 3
▁නාවුක 3
▁නැති 3
▁නිතර 3
▁නිතිපතා 3
▁නිමා 3
▁නිමැයුම 3
▁නියමිතව 3
▁නියමු 3
▁නියාමක 3
▁නියෝගය 3
▁නියෝජිතයින 3
▁නිරවද 3
▁නිලධාරියාට 3
▁නිවන 3
▁නිවැරදිතාව 3
▁නිවුඩු 3
▁නිවේදනයක 3
▁නිශාන 3
▁නිළිය 3
▁නීතිපති 3
▁නීතිපතිවරයාගේ 3
▁නෙත 3
▁නෙමු 3
▁නෙහි 3
▁නොකරන 3
▁නොතකා 3
▁නොදක 3
▁නොලැබීම 3
▁නොව 3
▁නොවැඩි 3
▁නොවි 3
▁නොවේ 3
▁නෝර 3
▁පථයේ 3
▁පරපුර 3
▁පරාග 3
▁පරිචය 3
▁පරිපාලිත 3
▁පරිමාණයන 3
▁පලතුරු 3
▁පලාත 3
▁පලාතේ 3
▁පවුලේ 3
▁පසුබිමක 3
▁පහතින 3
▁පළපුරුද 3
▁පළමුවැනි 3
▁පාඨමාලාවක 3
▁පාදකවරු 3
▁පාදනයේ 3
▁පාන 3
▁පාලනකාරකයක 3
▁පාසලක 3
▁පැතුම 3
▁පැයට 3
▁පැලඳ 3
▁පැවතීම 3
▁පැවසු 3
▁පැවැති 3
▁පිතිගම 3
▁පිල 3
▁පිහිටුවනු 3
▁පිහිටුවිමේ 3
▁පීඩා 3
▁පීය 3
▁පුටු 3
▁පුහුණුකරුවන 3
▁පූජ 3
▁පූජනීය 3
▁පෘශ 3
▁පෙනුම 3
▁පෙලගැස 3
▁පෙළඹවීම 3
▁පොතහි 3
▁පොතෙහි 3
▁පොලිසිය 3
▁පොලිසියේ 3
▁පොහොය 3
▁පෝනි 3
▁පෝෂිත 3
▁ඵලදායක 3
▁ඵලදායිතාව 3
▁බංගලා 3
▁බඩ 3
▁බදවා 3
▁බලංගොඩ 3
▁බලගැන 3
▁බලධාරීන 3
▁බවටත 3
▁බවයි 3
▁බසින 3
▁බාධක 3
▁බැඳුණු 3
▁බැලීමෙන 3
▁බෑග 3
▁බෑව 3
▁බියර 3
▁බිරින 3
▁බීජ 3
▁බුන 3
▁බෙදාහරින 3
▁බෙන 3
▁බෙහෙත 3
▁බෙහෙවින 3
▁බේරුම 3
▁බොක 3
▁බොරළු 3
▁බෝ 3
▁බෝක 3
▁බෝග 3
▁බෝතලේ 3
▁භවීමට 3
▁භාගයේ 3
▁භාභිෂේක 3
▁භාරදීම 3
▁භාරදෙන 3
▁භාව 3
▁භාවිතයෙන 3
▁භාෂාවකින 3
▁භාෂාවලින 3
▁භික 3
▁භීත 3
▁භුක 3
▁භූගෝලීය 3
▁භෞමික 3
▁මංතීරු 3
▁මගහරවා 3
▁මගිනි 3
▁මගී 3
▁මඟහරවා 3
▁මඩකලපුවේ 3
▁මතා 3
▁මදුරාවල 3
▁මනි 3
▁මනෝහර 3
▁මම 3
▁මයුරි 3
▁මලේ 3
▁මහජනයා 3
▁මහරගම 3
▁මහව 3
▁මහාධිකරණය 3
▁මහියංගන 3
▁මහේශිකා 3
▁මහේස 3
▁මාණාත 3
▁මාතෘ 3
▁මානසිකත 3
▁මානු 3
▁මාලපගම 3
▁මාසයේදී 3
▁මාළු 3
▁මැතිතුමාගේ 3
▁මැතිවරණ 3
▁මිගලෑව 3
▁මිට 3
▁මිනිරන 3
▁මිරාල 3
▁මීගමුව 3
▁මීරිගම 3
▁මුදලට 3
▁මුදාහරින 3
▁මුරුංගා 3
▁මුහුදු 3
▁මුළුල 3
▁මෙ 3
▁මෙලෙස 3
▁මෙහිදී 3
▁මෙහෙය 3
▁මේන 3
▁යංශ 3
▁යටිනුවර 3
▁යටියන 3
▁යනාදියට 3
▁යභාරයකි 3
▁යභාවය 3
▁යයතා 3
▁යයිද 3
▁යවනු 3
▁යවා 3
▁යශෝධා 3
▁යාංශයීය 3
▁යාචන 3
▁යාපෘතියට 3
▁යාපෘතියෙන 3
▁යාමෙන 3
▁යාය 3
▁යාලයක 3
▁යාලයන 3
▁යාලයයේ 3
▁යාලයෙන 3
▁යාවකින 3
▁යැයිද 3
▁යෑම 3
▁යේෂක 3
▁යොදවන 3
▁යොදවා 3
▁යෝගරාජන 3
▁රංගනාත 3
▁රකට 3
▁රකාශයේ 3
▁රකාශිත 3
▁රගතියක 3
▁රඟ 3
▁රජත 3
▁රජයෙන 3
▁රටට 3
▁රණවිරුවාගේ 3
▁රතාවය 3
▁රති 3
▁රතිඔක 3
▁රතිකර 3
▁රතිග 3
▁රතිපාදනවලින 3
▁රතිපූරක 3
▁රතිඵලයේ 3
▁රතිරූපය 3
▁රතිලාභී 3
▁රතීතකරණය 3
▁රතුපස 3
▁රබල 3
▁රභවය 3
▁රභවයන 3
▁රමණශීලී 3
▁රමයෙන 3
▁රමයේ 3
▁රමාංකණය 3
▁රමාදය 3
▁රඹුක 3
▁රයිගම 3
▁රලේඛන 3
▁රලේඛයට 3
▁රවල 3
▁රවිණතා 3
▁රවිණතාවය 3
▁රවීණතා 3
▁රසාද 3
▁රහ 3
▁රාජකාරිවල 3
▁රාවණාගාරයේ 3
▁රාස 3
▁රාහක 3
▁රාහකත 3
▁රාාවක 3
▁රැකියාවන 3
▁රිකට 3
▁රිකුණාමල 3
▁රිකොන 3
▁රියදර 3
▁රියර 3
▁රියාකරු 3
▁රියාවලියේ 3
▁රියෝ 3
▁රිස 3
▁රූපවාහිනිය 3
▁රෙගුලාසියේ 3
▁රෙසින 3
▁රේණියේ 3
▁රේමජයන 3
▁රෛභාෂික 3
▁රෝහණධීර 3
▁ලංඝණය 3
▁ලබාගැනීමේ 3
▁ලබාගෙන 3
▁ලබාදෙනු 3
▁ලාභී 3
▁ලාවල 3
▁ලැබිණි 3
▁ලිපිනයන 3
▁ලියන 3
▁ලිහිසි 3
▁ලීමකට 3
▁ලූර 3
▁ලේගම 3
▁ලේෂණ 3
▁වංචාවන 3
▁වංශය 3
▁වගාමීව 3
▁වගුවේ 3
▁වඥ 3
▁වටා 3
▁වටිනාකමක 3
▁වතාවක 3
▁වදේශ 3
▁වයකින 3
▁වයසේ 3
▁වලද 3
▁වශක 3
▁වශයෙනි 3
▁වහාවික 3
▁වාගැනීම 3
▁වාගොල 3
▁වාභාවික 3
▁වාසස 3
▁වැටුපෙන 3
▁වැඩපිළිවෙළක 3
▁වැඩම 3
▁වැඩිවීම 3
▁වැලැක 3
▁වැලි 3
▁විකාශනයන 3
▁විගණකවරුන 3
▁විචලනයන 3
▁විඡේසිංහ 3
▁විජේවර 3
▁විනෝද 3
▁විනෝදාස 3
▁විපර 3
▁විභාගයට 3
▁විමේ 3
▁වියදමින 3
▁විරු 3
▁විවාහක 3
▁විවේගානන 3
▁විසිරී 3
▁වීර 3
▁වූවන 3
▁වෙනම 3
▁වෙමි 3
▁වෙළද 3
▁වෙළඳපොළ 3
▁වෙළුම 3
▁වෛරීභාවය 3
▁ශනපති 3
▁ශරීරාංග 3
▁ශාකවල 3
▁ශාකාගාර 3
▁ශාඛ 3
▁ශාසන 3
▁ශේෂයක 3
▁ෂණයේ 3
▁ෂතා 3
▁ෂවරුන 3
▁ෂාකාරී 3
▁ෂාවන 3
▁ෂාවේ 3
▁ෂිකා 3
▁ෂු 3
▁සංගීතමය 3
▁සංචාර 3
▁සංචාරය 3
▁සංචිත 3
▁සංවිධානයක 3
▁සංහිඳියාව 3
▁සතර 3
▁සඳ 3
▁සපුරාලීම 3
▁සභාපතිවරුන 3
▁සමගිය 3
▁සමය 3
▁සමහරක 3
▁සමාගමකට 3
▁සමාජගත 3
▁සමාරම 3
▁සමෘද 3
▁සරය 3
▁සලාව 3
▁සවයක 3
▁සහභාගිවන 3
▁සහයෝගීතා 3
▁සාත 3
▁සාමාජිකත 3
▁සාමුහික 3
▁සායනයක 3
▁සාරණ 3
▁සැකසුම 3
▁සැපයූ 3
▁සැබෑ 3
▁සැල 3
▁සැලක 3
▁සැලසීමේ 3
▁සැසි 3
▁සැළසුම 3
▁සෑහෙන 3
▁සිංහයා 3
▁සිටියි 3
▁සිදුකරනු 3
▁සිදුකිරීම 3
▁සිදුවි 3
▁සිදුවූ 3
▁සිරි 3
▁සිලයේ 3
▁සිව 3
▁සීඝ 3
▁සීදුව 3
▁සුනිත 3
▁සුවඳ 3
▁සුවසිරිපාය 3
▁සුසිල 3
▁සූදානම 3
▁සෙනෙහසක 3
▁සෙම 3
▁සේනානායක 3
▁සේරසිංහ 3
▁සේලා 3
▁සේවාදායක 3
▁හඬ 3
▁හතක 3
▁හඳුනාගන 3
▁හමුදාපතිවරුන 3
▁හරස 3
▁හලුක 3
▁හසිනි 3
▁හාලි 3
▁හැරීමට 3
▁හැසිරීම 3
▁හිඟුරාන 3
▁හිටපු 3
▁හිමියන 3
▁හී 3
▁හුදෙක 3
▁හේතුවක 3
▁හෝල 3
▁ෆිල 3
-1 2
-10 2
-2 2
.01 2
.02 2
.1,000 2
.1,500 2
.2 2
.35 2
.38 2
.8 2
0 2
004 2
007 2
015 2
027 2
032 2
084 2
154 2
157 2
17 2
20 2
2014 2
207 2
22 2
24 2
581 2
added 2
alukkana 2
ankattuwa 2
asdigiliya 2
avurarum 2
azwer 2
chancellor 2
child 2
conducting 2
conformities 2
de 2
dec 2
development 2
dew 2
disanayake 2
dissanayake 2
ela 2
employment 2
established 2
existing 2
friendly 2
ii 2
iii 2
introduction 2
jagath 2
kandy 2
kirimetiyana 2
lane 2
languages 2
million 2
minister 2
month 2
nimal 2
ondiyadimadu 2
pathmanathan 2
pay 2
preneurship 2
printing 2
providing 2
ratnayake 2
recognised 2
religious 2
rupavahini 2
scholarships 2
shanthi 2
sivakumar 2
special 2
spot 2
standard 2
thusitha 2
tissa 2
under 2
vethachchalam 2
welassa 2
wickramasinghe 2
x 2
yapa 2
කටත 2
ත 2
▁0.01 2
▁0.06 2
▁0.09 2
▁0.2 2
▁0.6 2
▁0.75 2
▁0.8 2
▁001 2
▁008 2
▁009 2
▁011-2887061 2
▁0112862686 2
▁016 2
▁018 2
▁02.07.2015 2
▁026 2
▁031 2
▁032 2
▁036 2
▁04. 2
▁041 2
▁042 2
▁046 2
▁058 2
▁072 2
▁075 2
▁0778250447 2
▁08.00 2
▁08.30 2
▁09.03.2013 2
▁091 2
▁098 2
▁1,048 2
▁1,073 2
▁1,260,704 2
▁1,332 2
▁1,390 2
▁1,646 2
▁1,654 2
▁1,730,375 2
▁1,816,630 2
▁1.2.6 2
▁1.45 2
▁1.5 2
▁1.75 2
▁10,316,337 2
▁10,579,837 2
▁10,902 2
▁10. 2
▁10.10 2
▁10.10.2012 2
▁10.72 2
▁10.8 2
▁100,152 2
▁104,173 2
▁1043 2
▁105.6 2
▁109,829 2
▁11,196 2
▁11,657 2
▁11-22 2
▁11.0 2
▁11.00 2
▁11.07.2011 2
▁11.30 2
▁11.31 2
▁110 2
▁1129 2
▁11793 2
▁11862 2
▁1196 2
▁12.00 2
▁12.30 2
▁12.4 2
▁12.7 2
▁1269.5 2
▁1270 2
▁128,000 2
▁13,010 2
▁13,640 2
▁13,851 2
▁13.09 2
▁13.38 2
▁13.65 2
▁1300 2
▁131,451 2
▁1321.0 2
▁134.29 2
▁139.5 2
▁14,336 2
▁14,573 2
▁14,874 2
▁14- 2
▁14.0 2
▁14.34 2
▁140 2
▁1404 2
▁1416 2
▁142 2
▁145,587,707 2
▁146.7 2
▁15,297 2
▁15,883 2
▁15.46 2
▁15.48 2
▁15.527 2
▁15.64 2
▁150,000 2
▁150- 2
▁151 2
▁1511 2
▁15189 2
▁154,887 2
▁15819 2
▁159.3 2
▁16.0 2
▁16.6 2
▁16.8 2
▁160.18 2
▁165.42 2
▁168 2
▁17.4 2
▁17.58 2
▁170 2
▁174,526 2
▁178 2
▁179 2
▁1798 2
▁18,334 2
▁18,952 2
▁18.08.2014 2
▁18.4 2
▁18.5 2
▁18.71 2
▁1821 2
▁1825 2
▁184,994 2
▁1861 2
▁187 2
▁1871 2
▁1876 2
▁188 2
▁19,253 2
▁19,265,543 2
▁19,490 2
▁19.09.2013 2
▁19.3 2
▁193 2
▁1933 2
▁1948 2
▁1950 2
▁1955 2
▁1956 2
▁1959 2
▁1960 2
▁1961 2
▁1973 2
▁1975 2
▁198 2
▁1985 2
▁1987 2
▁1992 2
▁1997 2
▁1998 2
▁1⁄2 2
▁2,300 2
▁2,487 2
▁2,531 2
▁2,603 2
▁2,946,461 2
▁2- 2
▁2.14.1 2
▁2.4 2
▁2.7 2
▁2.72 2
▁2.8 2
▁20.06.2014 2
▁20.12.2014 2
▁20.30 2
▁20.5 2
▁200,000 2
▁200,913,004 2
▁2011.04.22 2
▁2011.09.21 2
▁2011.09.29 2
▁2011.10.20 2
▁2011.11.16 2
▁2011.12.31 2
▁2014.01.14 2
▁2014.07.23 2
▁2014.08.18 2
▁2014.11.24 2
▁2014.12.04 2
▁2015.07.02 2
▁2015.11.30 2
▁2050 2
▁2050518 2
▁2050581 2
▁2050583 2
▁206 2
▁207 2
▁207.5 2
▁2073 2
▁21- 2
▁21.2 2
▁21.3 2
▁211 2
▁211,649 2
▁216.0 2
▁2186036 2
▁22.00 2
▁22.04.2011 2
▁22.30 2
▁220 2
▁22000 2
▁221 2
▁2220123 2
▁2220301 2
▁2222194 2
▁2222213 2
▁2222333 2
▁2222340 2
▁2222550 2
▁2222660 2
▁2222737 2
▁2222810 2
▁2223451 2
▁2223890 2
▁2223951 2
▁2227176 2
▁2228660 2
▁2230490 2
▁2230529 2
▁2232 2
▁2233542 2
▁2234351 2
▁2235292 2
▁2250028 2
▁226 2
▁2279468 2
▁2281267 2
▁23.0 2
▁23.07.2014 2
▁2300185 2
▁231 2
▁234 2
▁2352361 2
▁236 2
▁2380 2
▁24.00 2
▁242 2
▁246 2
▁246.8 2
▁248 2
▁248.2 2
▁2480718 2
▁249 2
▁25,249 2
▁25,654 2
▁25,848 2
▁25- 2
▁25.3 2
▁25.8 2
▁251 2
▁255 2
▁256.592 2
▁257 2
▁26,406 2
▁26.0 2
▁26.60 2
▁262 2
▁263 2
▁263,500 2
▁265 2
▁2692092 2
▁2694767 2
▁27,251 2
▁27.01.2013 2
▁27.06.2013 2
▁27.3 2
▁27.4 2
▁273 2
▁275.09 2
▁2786940 2
▁2786941 2
▁28,260 2
▁28.2 2
▁281 2
▁2813 2
▁2845.5 2
▁286 2
▁286.00 2
▁2861019 2
▁2862705 2
▁2862739 2
▁2862765 2
▁2862807 2
▁2862823 2
▁2864726 2
▁2865311 2
▁2868710 2
▁2871601 2
▁2878019 2
▁2878271 2
▁2879080 2
▁2879088 2
▁2879160 2
▁2879161 2
▁2879163 2
▁2879164 2
▁2879165 2
▁2879166 2
▁2879168 2
▁2879169 2
▁2879180 2
▁2879181 2
▁2879182 2
▁2879185 2
▁2879280 2
▁2879422 2
▁2882992 2
▁2884047 2
▁2887061 2
▁2887285 2
▁2887462 2
▁2887465 2
▁2888505 2
▁2889013 2
▁2889350 2
▁2889361 2
▁2898 2
▁29,30 2
▁29,734 2
▁29.09.2011 2
▁29.1 2
▁29.99 2
▁298 2
▁2992047 2
▁3-2006 2
▁3.00 2
▁3.1. 2
▁3.2. 2
▁3.2.1 2
▁3.2.2 2
▁3.2.5 2
▁3.2.6 2
▁3.4.1 2
▁3.45 2
▁30.08.2012 2
▁30.11 2
▁300,000 2
▁303 2
▁30582 2
▁31.12.2011 2
▁31.12.2015 2
▁31.13 2
▁310 2
▁314.3 2
▁32.0 2
▁3250 2
▁326 2
▁332 2
▁334 2
▁337 2
▁340 2
▁3445603 2
▁345 2
▁3455399 2
▁347 2
▁348,897 2
▁348.2 2
▁3500.00 2
▁357 2
▁359 2
▁360 2
▁366 2
▁37,462 2
▁371 2
▁377 2
▁377,750 2
▁380.8 2
▁381 2
▁382 2
▁3838 2
▁389 2
▁392 2
▁393 2
▁394 2
▁395 2
▁396 2
▁398.00 2
▁399 2
▁4,000 2
▁4,046 2
▁4,392,823 2
▁4,403 2
▁4,407 2
▁4,525 2
▁4,659 2
▁4- 2
▁40,000 2
▁403 2
▁406 2
▁4076 2
▁41.63 2
▁41.8 2
▁41.80 2
▁412 2
▁423 2
▁426.83 2
▁43,168 2
▁430 2
▁4323611 2
▁4323612 2
▁434 2
▁435 2
▁436 2
▁44,047 2
▁44.00 2
▁44047 2
▁449 2
▁45-3455399 2
▁451 2
▁452 2
▁452,982,826 2
▁456 2
▁46.75 2
▁460 2
▁462 2
▁465 2
▁469 2
▁47.0 2
▁47.3 2
▁47.5 2
▁478 2
▁48.00 2
▁48.2 2
▁48.70 2
▁480 2
▁485 2
▁486 2
▁49.1 2
▁49.5 2
▁495 2
▁5-14 2
▁5.1 2
▁5.2.1 2
▁5.25 2
▁5.33 2
▁5.4.4 2
▁5.55 2
▁5.6 2
▁5.63 2
▁50,533 2
▁50.7 2
▁500.00 2
▁50000 2
▁507 2
▁51.4 2
▁510 2
▁514 2
▁518 2
▁518,293 2
▁52,413 2
▁52.13 2
▁526 2
▁527 2
▁531 2
▁537 2
▁5399 2
▁5456 2
▁547 2
▁55,510 2
▁55.54 2
▁5598 2
▁56.5 2
▁56.56 2
▁5618607 2
▁571 2
▁574 2
▁580 2
▁582 2
▁59,424 2
▁59.62 2
▁6,757 2
▁6. 2
▁6.2 2
▁6.3 2
▁6.30 2
▁6.5.1 2
▁6.5.3 2
▁6.9 2
▁60- 2
▁602 2
▁608 2
▁615 2
▁62,934 2
▁622 2
▁625 2
▁630 2
▁638 2
▁640 2
▁644 2
▁645 2
▁6495 2
▁657 2
▁658 2
▁66.646 2
▁663 2
▁6631944 2
▁67.80 2
▁673 2
▁679 2
▁68,970 2
▁687 2
▁694 2
▁7,017,198 2
▁7,301 2
▁7,472 2
▁7,676 2
▁7,998 2
▁7.00 2
▁7.47 2
▁702 2
▁708 2
▁709 2
▁71-2480718 2
▁71-3445603 2
▁71-5618607 2
▁71-8042189 2
▁71-8061834 2
▁713 2
▁716 2
▁717 2
▁72-2992047 2
▁7200 2
▁725 2
▁73,713 2
▁730 2
▁74.4 2
▁742 2
▁75,549 2
▁751 2
▁762 2
▁762,969,822 2
▁766 2
▁77,259 2
▁77,929 2
▁77-6631944 2
▁77.7 2
▁777 2
▁8,141 2
▁8,902 2
▁8.1. 2
▁8.2.2 2
▁8.2.3 2
▁8.2.4 2
▁8.2.5 2
▁8.2.6 2
▁8.2.7 2
▁8.2.8 2
▁8.2.9 2
▁8.24 2
▁8.25 2
▁8.3 2
▁8.9.1 2
▁80.8 2
▁8042189 2
▁805 2
▁8061834 2
▁818 2
▁825 2
▁826 2
▁829 2
▁85.00 2
▁851 2
▁857 2
▁86.5 2
▁863 2
▁871 2
▁874 2
▁876 2
▁883 2
▁8880 2
▁89.6 2
▁897 2
▁9,535 2
▁9,639,109 2
▁9,717 2
▁9.00 2
▁9.13 2
▁9.2 2
▁9000 2
▁907 2
▁91,495 2
▁91.5 2
▁912 2
▁918 2
▁92.6 2
▁93.15 2
▁93.25 2
▁93.85 2
▁938 2
▁94,508,394 2
▁94.5 2
▁94.66 2
▁942236393 2
▁942300172 2
▁942303258 2
▁942329329 2
▁942381751 2
▁942750118 2
▁946 2
▁948 2
▁951 2
▁952 2
▁959,997 2
▁967 2
▁97.2 2
▁970 2
▁98.6 2
▁980 2
▁982 2
▁987 2
▁997 2
▁ABU 2
▁Bt 2
▁CAM 2
▁COPE 2
▁Convulsive 2
▁Dr 2
▁Electro 2
▁G 2
▁ICD 2
▁IMMI 2
▁JICA 2
▁P 2
▁PL 2
▁RSP 2
▁SLIDA 2
▁STC 2
▁Therapy 2
▁UNIDO 2
▁VII 2
▁XD 2
▁XDCAM 2
▁XIII 2
▁XXIXI 2
▁XXX 2
▁XXXI 2
▁abeywickrema 2
▁accelerating 2
▁accept 2
▁accommodation 2
▁accrued 2
▁accurately 2
▁acre 2
▁acreage 2
▁actuaries 2
▁adapt 2
▁additions 2
▁addlsecadmin 2
▁addlsecnl 2
▁adhikari 2
▁adjusted 2
▁administrated 2
▁admittance 2
▁adolescent 2
▁adolescents 2
▁adorning 2
▁adults 2
▁advertisement 2
▁aea 2
▁affecting 2
▁affirm 2
▁ag 2
▁agalawatte 2
▁agro 2
▁ahead 2
▁ailment 2
▁aiming 2
▁akila 2
▁akshi 2
▁alantin 2
▁alawwa 2
▁alcohol 2
▁ale 2
▁allai 2
▁allowed 2
▁allowing 2
▁alms 2
▁amadam 2
▁amalgamation 2
▁amarasinghe 2
▁amaraweera 2
▁amawaka 2
▁ambalantota 2
▁ambassador 2
▁ambilipitiya 2
▁amend 2
▁amila 2
▁amman 2
▁ample 2
▁amutham 2
▁ancl 2
▁aneex 2
▁annum 2
▁answering 2
▁anthurium 2
▁anthuriums 2
▁antioxidant 2
▁anuradapura 2
▁apart 2
▁ape 2
▁apparel 2
▁appellate 2
▁appreciate 2
▁appreciating 2
▁appreciation 2
▁appuhamy 2
▁apuru 2
▁arbitration 2
▁arid 2
▁arivuchchelvam 2
▁arranging 2
▁artificial 2
▁aruma 2
▁ashoka 2
▁asoka 2
▁aspect 2
▁aspirations 2
▁assessing 2
▁assigning 2
▁assistants 2
▁asst 2
▁assuring 2
▁athauda 2
▁athuraliye 2
▁attach 2
▁attacks 2
▁attitude 2
▁attract 2
▁attractive 2
▁aug 2
▁aunt 2
▁automatically 2
▁availability 2
▁avissawella 2
▁avoiding 2
▁awaiting 2
▁away 2
▁ayagama 2
▁ayubowewa 2
▁ayurveda 2
▁bags 2
▁balanced 2
▁bambalapitiya 2
▁bamunakotuwa 2
▁bandarawela 2
▁bangkok 2
▁baseline 2
▁bearing 2
▁began 2
▁behaviors 2
▁beira 2
▁beliatta 2
▁believe 2
▁believes 2
▁beruwala 2
▁beyond 2
▁bhawana 2
▁bhoomi 2
▁bicycle 2
▁bikku 2
▁births 2
▁boils 2
▁bond 2
▁borehole 2
▁borne 2
▁borrow 2
▁bound 2
▁bradby 2
▁bravery 2
▁briefing 2
▁briefly 2
▁british 2
▁buddasarawaka 2
▁buddika 2
▁burns 2
▁buthgamuwa 2
▁butterflies 2
▁buy 2
▁buyers 2
▁calls 2
▁camel 2
▁cancellation 2
▁candidates 2
▁cannabis 2
▁capability 2
▁capture 2
▁captured 2
▁career 2
▁carer 2
▁caring 2
▁cars 2
▁cashew 2
▁cassettes 2
▁categorizing 2
▁catering 2
▁cause 2
▁cave 2
▁cdb 2
▁ceases 2
▁cente 2
▁ceramic 2
▁certification 2
▁certifying 2
▁chairmanship 2
▁chairs 2
▁challenge 2
▁challenging 2
▁champika 2
▁chandima 2
▁character 2
▁characterised 2
▁characters 2
▁charma 2
▁chart 2
▁chemistry 2
▁chilaw 2
▁chillaw 2
▁choice 2
▁cid 2
▁circle 2
▁citi 2
▁civicon 2
▁claim 2
▁claimed 2
▁clay 2
▁cleaning 2
▁clearing 2
▁clearly 2
▁clerk 2
▁clinical 2
▁coal 2
▁cognizance 2
▁coincide 2
▁collect 2
▁collecting 2
▁collections 2
▁collective 2
▁comes 2
▁commanders 2
▁commissioners 2
▁commonwealth 2
▁communicated 2
▁comparative 2
▁compelled 2
▁component 2
▁compound 2
▁compresses 2
▁comprised 2
▁comprises 2
▁compromise 2
▁computed 2
▁computerized 2
▁computing 2
▁concluded 2
▁concreting 2
▁conditioning 2
▁condominium 2
▁conferences 2
▁confinement 2
▁confirm 2
▁confiscated 2
▁conscious 2
▁consensus 2
▁conserving 2
▁consisted 2
▁constructing 2
▁constructive 2
▁consultative 2
▁consulting 2
▁contacts 2
▁contaminated 2
▁contamination 2
▁contractor 2
▁contractual 2
▁contravenes 2
▁controller 2
▁convened 2
▁convention 2
▁conversational 2
▁convey 2
▁cooking 2
▁cooray 2
▁corrected 2
▁corrective 2
▁correctly 2
▁crime 2
▁crisis 2
▁culturalmin 2
▁curative 2
▁curator 2
▁curricula 2
▁curriculums 2
▁customer 2
▁cycle 2
▁daham 2
▁damaging 2
▁davum 2
▁dayarathna 2
▁dayasiri 2
▁dd 2
▁deadline 2
▁deadlines 2
▁debates 2
▁debited 2
▁decades 2
▁declaration 2
▁decoction 2
▁decorative 2
▁deductions 2
▁deem 2
▁defaulters 2
▁defeating 2
▁defiance 2
▁definition 2
▁defray 2
▁defrayed 2
▁deleted 2
▁deliver 2
▁delivering 2
▁delusions 2
▁deniyaya 2
▁deny 2
▁denzil 2
▁depending 2
▁depleting 2
▁deploy 2
▁deployment 2
▁depository 2
▁dept 2
▁deserve 2
▁deserving 2
▁designated 2
▁designers 2
▁designing 2
▁desire 2
▁desires 2
▁desirous 2
▁determines 2
▁detrimental 2
▁device 2
▁deweling 2
▁dhamma 2
▁dharmasariyar 2
▁dharmasiri 2
▁diagnosed 2
▁diagnostic 2
▁dictionary 2
▁did 2
▁dig 2
▁digana 2
▁dikwella 2
▁dilan 2
▁dinesh 2
▁directly 2
▁directorate 2
▁disclosure 2
▁discriminatory 2
▁displacement 2
▁disposed 2
▁disseminate 2
▁distant 2
▁distinction 2
▁distinguished 2
▁distress 2
▁distributing 2
▁diverse 2
▁divi 2
▁divsions 2
▁diya 2
▁doctor 2
▁dompe 2
▁donated 2
▁dothak 2
▁double 2
▁dramas 2
▁dream 2
▁dsng 2
▁earmarked 2
▁earning 2
▁earnings 2
▁easily 2
▁eberthu 2
▁ecology 2
▁edition 2
▁educate 2
▁eelam 2
▁effected 2
▁effluent 2
▁elahera 2
▁elapatha 2
▁elayapattuwa 2
▁elder 2
▁elderly 2
▁elements 2
▁elephants 2
▁elevate 2
▁embankment 2
▁emigration 2
▁employers 2
▁empower 2
▁enables 2
▁enclosures 2
▁encountered 2
▁enderamulla 2
▁engineers 2
▁enjoyment 2
▁enlighten 2
▁enriched 2
▁enrichment 2
▁ensures 2
▁entails 2
▁entertain 2
▁entitled 2
▁entre 2
▁entries 2
▁environmentally 2
▁equity 2
▁eragama 2
▁eran 2
▁erroneous 2
▁escort 2
▁estab 2
▁establishments 2
▁esteem 2
▁etf 2
▁etha 2
▁ethics 2
▁etl 2
▁evet 2
▁evidenced 2
▁exam 2
▁examining 2
▁exceed 2
▁exceeds 2
▁excesses 2
▁exchanging 2
▁excisen 2
▁exclusion 2
▁excursions 2
▁exercise 2
▁exhibit 2
▁exhibited 2
▁exist 2
▁expand 2
▁expanding 2
▁expectation 2
▁explaining 2
▁explanation 2
▁exploits 2
▁expressly 2
▁extension 2
▁extensive 2
▁extract 2
▁fabrication 2
▁facilitated 2
▁factor 2
▁factors 2
▁failed 2
▁faith 2
▁falk 2
▁false 2
▁faqs 2
▁farook 2
▁father 2
▁fauna 2
▁favourable 2
▁favoured 2
▁feasibility 2
▁feelings 2
▁feet 2
▁felt 2
▁female 2
▁fermentation 2
▁fernando 2
▁fernandopulle 2
▁ferns 2
▁few 2
▁filling 2
▁filtration 2
▁finalized 2
▁fines 2
▁fishermen 2
▁flavor 2
▁fleet 2
▁floods 2
▁floors 2
▁folk 2
▁foot 2
▁forced 2
▁forefront 2
▁foresee 2
▁format 2
▁formation 2
▁formats 2
▁formulating 2
▁forth 2
▁foster 2
▁fostering 2
▁fourteen 2
▁fourth 2
▁fractures 2
▁france 2
▁freely 2
▁fresh 2
▁friends 2
▁front 2
▁fruitful 2
▁fruitless 2
▁ft 2
▁fulfilled 2
▁functional 2
▁furnishes 2
▁gajaba 2
▁galagedara 2
▁galewatta 2
▁galewela 2
▁gama 2
▁gampola 2
▁ganegoda 2
▁gangei 2
▁ganthalawa 2
▁gases 2
▁gdp 2
▁gedi 2
▁generate 2
▁geological 2
▁giribawa 2
▁global 2
▁glove 2
▁goal 2
▁gocs 2
▁gopuram 2
▁governed 2
▁governmental 2
▁grace 2
▁grain 2
▁grama 2
▁grass 2
▁gratuiry 2
▁gravel 2
▁gravets 2
▁greenhouse 2
▁grero 2
▁guard 2
▁guarded 2
▁guardians 2
▁guarding 2
▁guests 2
▁guiding 2
▁gunatilake 2
▁haj 2
▁hakeem 2
▁hakmana 2
▁half 2
▁hali 2
▁haliela 2
▁halls 2
▁hallucinations 2
▁handing 2
▁handled 2
▁handover 2
▁hands 2
▁hanwella 2
▁hard 2
▁harms 2
▁harsha 2
▁hasitha 2
▁hathara 2
▁headed 2
▁hear 2
▁hedeniya 2
▁hedging 2
▁helicobacter 2
▁helps 2
▁henarathgoda 2
▁herbivores 2
▁hercondition 2
▁heroin 2
▁higashiyama 2
▁highlighted 2
▁hill 2
▁hindrance 2
▁hinduism 2
▁hiniduma 2
▁hinterland 2
▁hinterlands 2
▁hiru 2
▁holds 2
▁homoeopathy 2
▁horawela 2
▁hos 2
▁hospitalization 2
▁hunais 2
▁hunger 2
▁hunupitiya 2
▁hurubuhuti 2
▁husband 2
▁huts 2
▁hybrids 2
▁hydrophobia 2
▁icd 2
▁ict 2
▁ideas 2
▁ihala 2
▁illicit 2
▁immi 2
▁impairing 2
▁impairs 2
▁import 2
▁impress 2
▁improves 2
▁inability 2
▁inclusive 2
▁inconsistency 2
▁incorporating 2
▁incur 2
▁indicates 2
▁indicators 2
▁inducements 2
▁industrialists 2
▁infection 2
▁info 2
▁informal 2
▁informing 2
▁initiate 2
▁iniya 2
▁inpatients 2
▁inscription 2
▁inspections 2
▁instant 2
▁instructed 2
▁instruction 2
▁insulation 2
▁intangible 2
▁integral 2
▁inter 2
▁interbank 2
▁interlocutory 2
▁interpreters 2
▁intervals 2
▁interview 2
▁interviews 2
▁inthu 2
▁introduce 2
▁invasions 2
▁inventers 2
▁inventors 2
▁investors 2
▁invincibility 2
▁invited 2
▁irrational 2
▁iskole 2
▁isolated 2
▁ja 2
▁jaffana 2
▁jalabhithika 2
▁jana 2
▁janitorial 2
▁jayasuriya 2
▁jayatilake 2
▁jayaweera 2
▁jayewardenepura 2
▁jehan 2
▁jobs 2
▁journalists 2
▁judge 2
▁judicature 2
▁judiciary 2
▁just 2
▁kahatag 2
▁kahatagaha 2
▁kalapura 2
▁kalmunai 2
▁kalubovitiyana 2
▁kalyani 2
▁kamburupitiya 2
▁kankotiyawatta 2
▁kantha 2
▁kanthale 2
▁kariyawasam 2
▁karu 2
▁karunanayake 2
▁kataragama 2
▁kathai 2
▁kesbewa 2
▁keyword 2
▁kind 2
▁kithul 2
▁kodei 2
▁kokavil 2
▁kopay 2
▁kosgama 2
▁koswatta 2
▁kotapola 2
▁kothmale 2
▁kumbhabisheka 2
▁kundasale 2
▁labs 2
▁lacks 2
▁lal 2
▁lan 2
▁landscape 2
▁lanintegmiin 2
▁lapses 2
▁latest 2
▁latex 2
▁latter 2
▁laying 2
▁leader 2
▁leads 2
▁leases 2
▁leather 2
▁lecturer 2
▁legislation 2
▁lenin 2
▁leopard 2
▁levies 2
▁levy 2
▁libor 2
▁libraries 2
▁licensing 2
▁lift 2
▁limitations 2
▁linguistic 2
▁linkages 2
▁listeners 2
▁locally 2
▁lochore 2
▁lodged 2
▁logistics 2
▁lorikeet 2
▁ltrs 2
▁ludwigia 2
▁lunama 2
▁madulla 2
▁magazines 2
▁mahiyanganaya 2
▁maintains 2
▁malangamuwa 2
▁malani 2
▁malaya 2
▁malaysian 2
▁mallawapitiya 2
▁managers 2
▁mandapam 2
▁manel 2
▁manimandapam 2
▁mantai 2
▁mapitiya 2
▁marapana 2
▁marginalisation 2
▁marginalized 2
▁marichchikade 2
▁mark 2
▁marks 2
▁marshall 2
▁mathararachchi 2
▁mattala 2
▁mawanella 2
▁meaning 2
▁measure 2
▁measurement 2
▁measuring 2
▁mechanisms 2
▁mediums 2
▁meegallawa 2
▁meesalai 2
▁meets 2
▁membership 2
▁mention 2
▁messages 2
▁methodologies 2
▁metres 2
▁microbiology 2
▁mid 2
▁mind 2
▁mineral 2
▁mirigama 2
▁mmc 2
▁mobilizing 2
▁modeling 2
▁modernization 2
▁mohsl 2
▁molecular 2
▁monitor 2
▁monitors 2
▁mood 2
▁moovar 2
▁morawaka 2
▁motivating 2
▁moulana 2
▁mountains 2
▁moxibustions 2
▁mulatiyana 2
▁municipal 2
▁muthu 2
▁muthumariyamman 2
▁mw 2
▁nade 2
▁nadee 2
▁nagahakanda 2
▁nagoya 2
▁naita 2
▁namunukula 2
▁narammala 2
▁narcotics 2
▁nationalities 2
▁naula 2
▁navalar 2
▁navatkuda 2
▁nawagampura 2
▁nearing 2
▁necessities 2
▁nedunkerny 2
▁negambo 2
▁neglects 2
▁nena 2
▁nic 2
▁nics 2
▁nitrogen 2
▁noble 2
▁nominations 2
▁nominees 2
▁none 2
▁nongovernmental 2
▁nonperforming 2
▁norway 2
▁nrc 2
▁nugedolawatta 2
▁nugegoda 2
▁nutritional 2
▁object 2
▁objections 2
▁objects 2
▁obligatory 2
▁obstacle 2
▁obstacles 2
▁occurred 2
▁odonata 2
▁offer 2
▁officio 2
▁oficials 2
▁ofid 2
▁oleifera 2
▁omaragalla 2
▁omega 2
▁opatha 2
▁opinions 2
▁opium 2
▁opposition 2
▁optimal 2
▁optimum 2
▁ordinarily 2
▁organize 2
▁origin 2
▁outsourcing 2
▁outstation 2
▁overcoming 2
▁overpayment 2
▁pH 2
▁pace 2
▁packages 2
▁packeting 2
▁paddy 2
▁padiyatalawa 2
▁padiyathalawa 2
▁paediatric 2
▁pagoda 2
▁painted 2
▁palali 2
▁pallets 2
▁panadura 2
▁pannipitiya 2
▁panpadu 2
▁para 2
▁paramitha 2
▁particularly 2
▁partner 2
▁path 2
▁pathadumbara 2
▁pathway 2
▁pave 2
▁pavithra 2
▁pawning 2
▁peaceful 2
▁peak 2
▁pelawatta 2
▁pending 2
▁pepper 2
▁perahera 2
▁perches 2
▁perform 2
▁permanently 2
▁permission 2
▁pests 2
▁pharmaceuticals 2
▁phases 2
▁photography 2
▁photos 2
▁piduruthalagala 2
▁pintharu 2
▁pitabeddara 2
▁pitigala 2
▁pits 2
▁pl 2
▁play 2
▁poisons 2
▁pokuna 2
▁pollinators 2
▁polpithigama 2
▁pon 2
▁popularity 2
▁population 2
▁populations 2
▁porgramme 2
▁positions 2
▁possession 2
▁possibilities 2
▁potuhera 2
▁prabha 2
▁practicing 2
▁pradeepa 2
▁preface 2
▁premachandran 2
▁premalal 2
▁premier 2
▁preparations 2
▁preschool 2
▁presents 2
▁prevail 2
▁prevented 2
▁preventive 2
▁pride 2
▁priests 2
▁principal 2
▁prisoner 2
▁prix 2
▁priyadarshana 2
▁probable 2
▁probiotic 2
▁processed 2
▁product 2
▁progarmmes 2
▁progrms 2
▁promotions 2
▁prompt 2
▁promptly 2
▁propagate 2
▁props 2
▁protecting 2
▁protections 2
▁proved 2
▁provider 2
▁prudent 2
▁psychiatry 2
▁psycho 2
▁puduma 2
▁pujapitiya 2
▁puliyankulam 2
▁pulses 2
▁punishment 2
▁pursuance 2
▁pursue 2
▁pushpakumara 2
▁pushpani 2
▁puttur 2
▁puwath 2
▁qualification 2
▁qualities 2
▁quantitative 2
▁quarter 2
▁quite 2
▁radical 2
▁rainbow 2
▁raised 2
▁rajathasara 2
▁rajawella 2
▁rajitha 2
▁rajiva 2
▁ralkuli 2
▁rana 2
▁ranaweera 2
▁rancidity 2
▁random 2
▁ranking 2
▁ransirilal 2
▁ransirimal 2
▁rassagala 2
▁ratagedara 2
▁rates 2
▁rathana 2
▁rather 2
▁rauf 2
▁ravi 2
▁rd 2
▁reaction 2
▁readmission 2
▁readmitted 2
▁realistic 2
▁reasonable 2
▁receives 2
▁recoveries 2
▁reducing 2
▁reduction 2
▁references 2
▁referring 2
▁reflecting 2
▁refund 2
▁refusal 2
▁refuse 2
▁reginald 2
▁regularize 2
▁regularly 2
▁rehabilitated 2
▁rehabilitating 2
▁reinforce 2
▁reiterates 2
▁reliability 2
▁relieving 2
▁remainder 2
▁remains 2
▁remand 2
▁remarks 2
▁renew 2
▁renewals 2
▁rents 2
▁repair 2
▁repairing 2
▁repealed 2
▁replies 2
▁reply 2
▁replying 2
▁representatives 2
▁represents 2
▁reprinting 2
▁reptiles 2
▁requisition 2
▁rescheduling 2
▁researchers 2
▁reservation 2
▁reserve 2
▁resides 2
▁resign 2
▁resigned 2
▁resilience 2
▁resolution 2
▁resolving 2
▁respectable 2
▁respected 2
▁response 2
▁responsive 2
▁restructure 2
▁restructuring 2
▁resulting 2
▁retail 2
▁retention 2
▁reveals 2
▁revise 2
▁revising 2
▁riding 2
▁ridiyagama 2
▁risks 2
▁river 2
▁roda 2
▁rosy 2
▁royalty 2
▁rsp 2
▁rugby 2
▁ruled 2
▁rusted 2
▁ruwanwella 2
▁sacrifice 2
▁safeguard 2
▁saiva 2
▁sakvittho 2
▁salt 2
▁samaraweera 2
▁samsung 2
▁samurdhi 2
▁sand 2
▁sandaruwan 2
▁sanderiana 2
▁sandya 2
▁sara 2
▁sarana 2
▁sarisara 2
▁satisfaction 2
▁satisfied 2
▁satisfying 2
▁scalds 2
▁sciences 2
▁scrap 2
▁searching 2
▁season 2
▁sedioides 2
▁seeds 2
▁seeniththamby 2
▁selecting 2
▁selvarasa 2
▁senaratne 2
▁senasinghe 2
▁senehasaka 2
▁senewiratne 2
▁sense 2
▁sensitive 2
▁separated 2
▁sergeant 2
▁servers 2
▁settings 2
▁settling 2
▁severity 2
▁seyed 2
▁sgd 2
▁shanthi 2
▁sheds 2
▁shield 2
▁shift 2
▁shifting 2
▁shine 2
▁shows 2
▁shuffle 2
▁sick 2
▁sides 2
▁sigiriya 2
▁silvastrie 2
▁similar 2
▁siribopura 2
▁siruvark 2
▁sisilasa 2
▁sit 2
▁sites 2
▁siththi 2
▁sitting 2
▁situations 2
▁sivalingam 2
▁sivan 2
▁slengs 2
▁slida 2
▁sltnet 2
▁smib 2
▁smooth 2
▁smoothly 2
▁snacks 2
▁societies 2
▁soft 2
▁solder 2
▁solely 2
▁solutions 2
▁solve 2
▁somawathiya 2
▁sovereignty 2
▁spanning 2
▁speaking 2
▁spectacles 2
▁spice 2
▁spoken 2
▁sponsorships 2
▁spreads 2
▁spring 2
▁sq 2
▁stability 2
▁stalls 2
▁stationary 2
▁stay 2
▁stc 2
▁stern 2
▁still 2
▁stout 2
▁streaming 2
▁streamline 2
▁street 2
▁strength 2
▁strengthen 2
▁strongly 2
▁structures 2
▁style 2
▁subcommittee 2
▁subsections 2
▁substantially 2
▁succeeds 2
▁sudarshini 2
▁suffered 2
▁sugarcane 2
▁suggestions 2
▁sujeewa 2
▁sums 2
▁supervise 2
▁supervised 2
▁supports 2
▁suranjan 2
▁surekuma 2
▁suresh 2
▁surgeries 2
▁surveys 2
▁suspecting 2
▁suspension 2
▁sustained 2
▁suwa 2
▁suwahas 2
▁suwanda 2
▁sweets 2
▁syllabuses 2
▁tables 2
▁talawa 2
▁tangalla 2
▁tasks 2
▁tech 2
▁telecom 2
▁televise 2
▁televised 2
▁terminal 2
▁terrorism 2
▁text 2
▁texts 2
▁thaipongal 2
▁thaippongal 2
▁thamilum 2
▁thanks 2
▁thecustody 2
▁therapeutic 2
▁thereto 2
▁therewith 2
▁thihagoda 2
▁thilak 2
▁thiniyawala 2
▁thirasara 2
▁thirupeedam 2
▁thiruvakku 2
▁thiruvath 2
▁thonigala 2
▁thotupola 2
▁thuringiensis 2
▁tiles 2
▁till 2
▁tiruwanaketiya 2
▁tod 2
▁toddy 2
▁tool 2
▁totaled 2
▁tournament 2
▁toys 2
▁trace 2
▁tractor 2
▁tradition 2
▁train 2
▁transferring 2
▁translators 2
▁transparency 2
▁traveling 2
▁treats 2
▁tree 2
▁trend 2
▁tried 2
▁trincomelee 2
▁triple 2
▁trips 2
▁troups 2
▁tsunami 2
▁tx 2
▁tyre 2
▁uda 2
▁udarata 2
▁udugampola 2
▁udunuwara 2
▁ulcers 2
▁ultimately 2
▁unaudited 2
▁unavailability 2
▁uncertain 2
▁unclaimed 2
▁uncle 2
▁unclear 2
▁undergoing 2
▁understandable 2
▁undertakes 2
▁underway 2
▁unexpired 2
▁unexplained 2
▁unidentified 2
▁unido 2
▁uninterrupted 2
▁unmarried 2
▁unsettled 2
▁unsuccessful 2
▁upali 2
▁upcoming 2
▁upcountry 2
▁upgrade 2
▁upper 2
▁utilities 2
▁utmost 2
▁vadakkin 2
▁vairavar 2
▁vajira 2
▁valachchenai 2
▁valid 2
▁vana 2
▁variance 2
▁vasamtham 2
▁vasantham 2
▁vaviniya 2
▁vegetables 2
▁vellankulam 2
▁venture 2
▁venue 2
▁verge 2
▁versed 2
▁veyangoda 2
▁vibration 2
▁vijaya 2
▁vijitha 2
▁vinayakar 2
▁vipulananthar 2
▁vipulasara 2
▁viraj 2
▁viru 2
▁virusahana 2
▁visiting 2
▁vithanawasam 2
▁viz 2
▁votes 2
▁wanniarachchi 2
▁warrant 2
▁warrants 2
▁wasana 2
▁wasantha 2
▁wattha 2
▁ways 2
▁weerakumara 2
▁weerasekara 2
▁weligama 2
▁welimada 2
▁wellassa 2
▁wennappuwa 2
▁west 2
▁wewa 2
▁wheal 2
▁whence 2
▁whereby 2
▁whip 2
▁wickramarachchi 2
▁wickramaratne 2
▁wijesinghe 2
▁wijesinha 2
▁witnessing 2
▁workers 2
▁worship 2
▁worth 2
▁writers 2
▁writingby 2
▁xdcam 2
▁xiii 2
▁xl 2
▁xxxi 2
▁xxxix 2
▁ya 2
▁yashodha 2
▁yatiyana 2
▁yearly 2
▁yoga 2
▁yoheswaran 2
▁young 2
▁zahir 2
▁zoos 2
▁අංශයෙහි 2
▁අකිල 2
▁අගනා 2
▁අගයකට 2
▁අගයන 2
▁අගැයීමද 2
▁අගෝසතු 2
▁අට 2
▁අටකට 2
▁අටට 2
▁අඩුකර 2
▁අඩුවීමට 2
▁අණුක 2
▁අතරතුරෙහි 2
▁අතාර 2
▁අතාවුද 2
▁අතිපූජ 2
▁අතිවිශිෂ 2
▁අතුරලියේ 2
▁අදාලව 2
▁අධිකරණයට 2
▁අධිකරණයෙහි 2
▁අධිවේගි 2
▁අධෛර 2
▁අනකූලව 2
▁අනතුරුදායක 2
▁අනනුකුලතාවක 2
▁අනභිභවනීයත 2
▁අනර 2
▁අනවසර 2
▁අනාගතයේ 2
▁අනිවිජානුග 2
▁අනුකමිටුව 2
▁අනුකමිටුවේ 2
▁අනුකලනය 2
▁අනුගත 2
▁අනුප 2
▁අනුපාතයක 2
▁අනුපාතිකය 2
▁අනුමතිය 2
▁අනුමැතියකින 2
▁අනුමැතියන 2
▁අනුර 2
▁අනුවර 2
▁අනුෂංගික 2
▁අඳාළ 2
▁අපයෝජන 2
▁අපයෝජනයකට 2
▁අපයෝජනයට 2
▁අපරාධය 2
▁අපවිත 2
▁අපහරණය 2
▁අපහසු 2
▁අපූරු 2
▁අබඩ 2
▁අබණ 2
▁අබාධිත 2
▁අබිං 2
▁අබියස 2
▁අභිජනන 2
▁අභිමතාර 2
▁අභිමානයට 2
▁අභියාචකයාට 2
▁අභියාචනයේ 2
▁අභියෝග 2
▁අභියෝගය 2
▁අභීතව 2
▁අමරවිර 2
▁අමරසිංහ 2
▁අමාතශ 2
▁අමාදම 2
▁අමාවක 2
▁අමිල 2
▁අමුදම 2
▁අයකරන 2
▁අයගම 2
▁අයටද 2
▁අයිඒඅයි 2
▁අයිතමයන 2
▁අයිතියක 2
▁අයිතියට 2
▁අයිතීන 2
▁අයිරාව 2
▁අයුතු 2
▁අරණ 2
▁අරහයා 2
▁අරිවුච 2
▁අරුම 2
▁අරුල 2
▁අලංකාර 2
▁අලංකාරය 2
▁අලව 2
▁අලාන 2
▁අලාභයන 2
▁අලින 2
▁අලී 2
▁අලෙවියට 2
▁අලෙවියෙන 2
▁අව 2
▁අවතැන 2
▁අවසරදීමක 2
▁අවසරයකින 2
▁අවාසිදායක 2
▁අසනීපය 2
▁අසනීපයකට 2
▁අසනීපයකින 2
▁අසනීපවල 2
▁අසනීපවලින 2
▁අසාධාරණය 2
▁අසෝක 2
▁අහඹු 2
▁අහිරාවනයක 2
▁අහිරාවනා 2
▁ආකෘතියේ 2
▁ආකෘතීන 2
▁ආගමන 2
▁ආචාරධර 2
▁ආඥාපනතෙහි 2
▁ආණමඩුව 2
▁ආත 2
▁ආතතීන 2
▁ආතර 2
▁ආදිවාසී 2
▁ආදිවාසීන 2
▁ආනුෂංශික 2
▁ආපදාවන 2
▁ආබාධයකින 2
▁ආමිතයා 2
▁ආයත 2
▁ආයතනයකින 2
▁ආයු 2
▁ආයුබෝවේවා 2
▁ආයෝජකයන 2
▁ආයෝජකයා 2
▁ආලෝක 2
▁ආසාදනයට 2
▁ආසියා 2
▁ඇඟළුම 2
▁ඇඟිලි 2
▁ඇතිබව 2
▁ඇතිවූ 2
▁ඇදීමේ 2
▁ඇපකර 2
▁ඇබෑර 2
▁ඇයට 2
▁ඇයිද 2
▁ඇලයාපත 2
▁ඇසුරුම 2
▁ඉගෙනීමට 2
▁ඉගෙනීමේ 2
▁ඉටුකර 2
▁ඉඩකඩක 2
▁ඉතිරිකිරීමේ 2
▁ඉදිකරමින 2
▁ඉදිකළ 2
▁ඉදිකිරිමට 2
▁ඉදිකිරීමෙන 2
▁ඉදිරිපස 2
▁ඉදිරිපිටදී 2
▁ඉදිරියේදී 2
▁ඉනිය 2
▁ඉඳි 2
▁ඉවුම 2
▁ඉහතින 2
▁ඉහළම 2
▁උගන 2
▁උඩුගම 2
▁උදා 2
▁උදාර 2
▁උපකරණය 2
▁උපකරණයක 2
▁උපකාරක 2
▁උපකාරී 2
▁උපදේශාත 2
▁උපන 2
▁උපයෝගි 2
▁උපයෝජිත 2
▁උපලේඛනයේ 2
▁උපාධිධාරින 2
▁උපාධිය 2
▁උපාලි 2
▁උස 2
▁උසම 2
▁ඌනතා 2
▁එකකය 2
▁එකඟතා 2
▁එකඟතාව 2
▁එකඟවන 2
▁එකම 2
▁එකවර 2
▁එඩේරමුල 2
▁එතැන 2
▁එතෙකුදු 2
▁එරාන 2
▁එවිට 2
▁එහිදී 2
▁එළඹීමට 2
▁එළිදරව 2
▁ඒක 2
▁ඒකකයන 2
▁ඒකකවලට 2
▁ඒකනායක 2
▁ඒකරාශී 2
▁ඒකීයභාවය 2
▁ඒම 2
▁ඒමට 2
▁ඒරගම 2
▁ඒල 2
▁ඒෂියා 2
▁ඔ 2
▁ඔටුවා 2
▁ඔඩොනාටාවන 2
▁ඔපෙක 2
▁ඔබේබට 2
▁ඔහුද 2
▁ඕ 2
▁ඕනැකමින 2
▁ඕනැම 2
▁ඕපාත 2
▁ඕමාරගොල 2
▁ඕවිට 2
▁ඖෂධවලට 2
▁කටුකුරුන 2
▁කඩදාසි 2
▁කථානායකතුමා 2
▁කදිර 2
▁කඳුකරයේ 2
▁කපිල 2
▁කපිලවස 2
▁කමිටුවලට 2
▁කරණයට 2
▁කරලීම 2
▁කරවනු 2
▁කරවාගනු 2
▁කරුණකි 2
▁කරුණාකර 2
▁කරුණානායක 2
▁කරුවකු 2
▁කලට 2
▁කලාපුර 2
▁කලාවට 2
▁කවලින 2
▁කවි 2
▁කවීතා 2
▁කසන 2
▁කහ 2
▁කහටගස 2
▁කහටගහ 2
▁කළමනාකරණයේ 2
▁කළමනාකරුවන 2
▁කළමනාකාරවරයකු 2
▁කළමනාකාරීත 2
▁කළහ 2
▁කළු 2
▁කළුබෝවිටියාන 2
▁කාතික 2
▁කානු 2
▁කාරකරු 2
▁කාරණ 2
▁කාරණාවන 2
▁කාරයන 2
▁කාරියවසම 2
▁කාලයකට 2
▁කාලයට 2
▁කාලයද 2
▁කාලයේ 2
▁කාෂණ 2
▁කාෂණය 2
▁කැඩුම 2
▁කැදවිය 2
▁කැඳවීමට 2
▁කැපවීමකින 2
▁කැපවෙමින 2
▁කැබ 2
▁කැමට 2
▁කැලණීය 2
▁කැවිලි 2
▁කැස 2
▁කැළණි 2
▁කෑම 2
▁කික 2
▁කිට 2
▁කිතුල 2
▁කිරිමැටියාන 2
▁කිරීමද 2
▁කිරීමෙහිලා 2
▁කිසි 2
▁කීය 2
▁කීරීමේ 2
▁කුටි 2
▁කුටිය 2
▁කුණ 2
▁කුරුල 2
▁කුරේ 2
▁කුසලතාවය 2
▁කෘතිම 2
▁කෘතියෙහි 2
▁කෘමි 2
▁කෘමීන 2
▁කෙ 2
▁කෙටියෙන 2
▁කෙනෙකුටම 2
▁කෙමිකල 2
▁කේත 2
▁කෛයේඩු 2
▁කොකාවිල 2
▁කොටසට 2
▁කොටියාවත 2
▁කොඩිතුවක 2
▁කොතරම 2
▁කොමර 2
▁කෝඩෛයි 2
▁කෝප 2
▁කෝල 2
▁ඛනිජතෙල 2
▁ගංජා 2
▁ගංවතුර 2
▁ගකිවයුතු 2
▁ගඟ 2
▁ගජදීර 2
▁ගජබා 2
▁ගඩොල 2
▁ගණකයින 2
▁ගණකාධිකාරීවරුන 2
▁ගණපුරණය 2
▁ගණපූරණයක 2
▁ගණයේ 2
▁ගතකරන 2
▁ගතයුතුය 2
▁ගතවිල 2
▁ගතහැකි 2
▁ගනී 2
▁ගනුදෙනුවක 2
▁ගනේගොඩ 2
▁ගබඩාව 2
▁ගමනා 2
▁ගයා 2
▁ගයෙහි 2
▁ගලගෙදර 2
▁ගලා 2
▁ගවේෂණයක 2
▁ගස 2
▁ගා 2
▁ගැටලුද 2
▁ගැටලුවක 2
▁ගැටළුවක 2
▁ගැනීමේදී 2
▁ගැල 2
▁ගැළපුම 2
▁ගිණුමක 2
▁ගිණුමකට 2
▁ගිරිබාව 2
▁ගිවිසුමක 2
▁ගිවිසුමකට 2
▁ගිවිසුමට 2
▁ගීකරනය 2
▁ගුරුපූජා 2
▁ගෙඩි 2
▁ගෙනදෙන 2
▁ගෙනවිත 2
▁ගෙනැවිත 2
▁ගෙයි 2
▁ගෙවීමේ 2
▁ගේට 2
▁ගේත 2
▁ගොඩකිරීමේ 2
▁ගොඩනගමින 2
▁ගොඩනැගීමට 2
▁ගොනුවක 2
▁ගොවිපොළ 2
▁ගෝපදේශය 2
▁ගෝපදේශයන 2
▁ගෞරව 2
▁ඝකාලීන 2
▁ඝන 2
▁චකයකු 2
▁චම 2
▁චයකාරවරයකු 2
▁චයකාරවරයාට 2
▁චල 2
▁චස 2
▁චාටඩ 2
▁චාරිකා 2
▁චාරිකාව 2
▁චිකට 2
▁චිකඩේ 2
▁චින 2
▁චියාගම 2
▁චීනයේ 2
▁චෙතසික 2
▁චෙල 2
▁චේනෙයි 2
▁චේරිය 2
▁චෝදිත 2
▁ඡන 2
▁ඡායාරූපකරණය 2
▁ඡාවෙන 2
▁ඡේද 2
▁ඡේදයට 2
▁ඡේදයෙන 2
▁ඡේවයේ 2
▁ජනයාට 2
▁ජපාන 2
▁ජපානය 2
▁ජම 2
▁ජයන 2
▁ජයබාහු 2
▁ජයලත 2
▁ජයවීර 2
▁ජලභීතිකා 2
▁ජලයේ 2
▁ජලාපවහන 2
▁ජවිල 2
▁ජාකික 2
▁ජාතිකව 2
▁ජාතියට 2
▁ජාලයක 2
▁ජි 2
▁ජියම 2
▁ජීවිතයට 2
▁ජීවීන 2
▁ජුලි 2
▁ජෙනරල 2
▁ජෙහාන 2
▁ජේදයම 2
▁ජේදයෙහි 2
▁ජේෂ 2
▁ජෛවවේද 2
▁ටන 2
▁ටමක 2
▁ටමට 2
▁ටය 2
▁ටයිම 2
▁ටල 2
▁ටවුට 2
▁ටැලන 2
▁ටෑන 2
▁ටික 2
▁ටුවේ 2
▁ඨාවක 2
▁ඨාසයේ 2
▁ඩඩ 2
▁ඩයලොග 2
▁ඩලයකට 2
▁ඩලයකින 2
▁ඩලයන 2
▁ඩලයෙහි 2
▁ඩලීය 2
▁ඩසාලේ 2
▁ඩාගාරයෙන 2
▁ඩායමකගේ 2
▁ඩාර 2
▁ඩාරණායක 2
▁ඩාරවෙල 2
▁ඩිජිටල 2
▁ඩියාඩුමඩු 2
▁ඩියාමඩු 2
▁ඩිලාන 2
▁ඩු 2
▁ඩුව 2
▁ඩෙන 2
▁ණයහිමි 2
▁ණයහිමියන 2
▁ණාඩි 2
▁තකණ 2
▁තකයන 2
▁තකි 2
▁තකුට 2
▁තකුහට 2
▁තට 2
▁තණබිම 2
▁තතාවක 2
▁තදබදය 2
▁තනතුරේ 2
▁තනි 2
▁තබගනු 2
▁තබනු 2
▁තබාගත 2
▁තබාගෙන 2
▁තමිලුම 2
▁තයකු 2
▁තයා 2
▁තරගකාරීත 2
▁තරගාවලියේ 2
▁තරඟ 2
▁තරව 2
▁තරා 2
▁තරාදායක 2
▁තරීතර 2
▁තවමත 2
▁තවරුන 2
▁තවල 2
▁තවාදයෙන 2
▁තශාලා 2
▁තහවුරුවක 2
▁තාට 2
▁තානාපතිතුමිය 2
▁තානාපතිවරුන 2
▁තාමිතයකු 2
▁තායතනය 2
▁තායි 2
▁තාරකා 2
▁තාරු 2
▁තාල 2
▁තාවලට 2
▁තාවලින 2
▁තාවූ 2
▁තාවූද 2
▁තැටිය 2
▁තැනැතෝ 2
▁තැනින 2
▁තැපැලට 2
▁තැබීමට 2
▁තැබීමෙන 2
▁තැයාට 2
▁තෑව 2
▁තිකයා 2
▁තිකයින 2
▁තිදෙනෙකු 2
▁තිනියාවල 2
▁තිබූණත 2
▁තිබූණි 2
▁තියකයකු 2
▁තිර 2
▁තිරික 2
▁තිරුනෙරියුම 2
▁තිරුමුරුගන 2
▁තිරුවාක 2
▁තිරුවාදවූරරුම 2
▁තිලක 2
▁තිවිනායගර 2
▁තිසේරා 2
▁තිහක 2
▁තිහකට 2
▁තීකරණය 2
▁තීයවේදීන 2
▁තීරු 2
▁තුමය 2
▁තුමාරියම 2
▁තුරුසවිය 2
▁තුලනාත 2
▁තුවලට 2
▁තුසිත 2
▁තුළඉදිරිපත 2
▁තූති 2
▁තෘණ 2
▁තෙදින 2
▁තෙම 2
▁තෙමි 2
▁තේමා 2
▁තේරීම 2
▁තොගයක 2
▁තොටුපොළ 2
▁තෝ 2
▁තෝරාගන 2
▁ථකාල 2
▁ථතා 2
▁ථයක 2
▁ථයන 2
▁ථාදායකයේ 2
▁ථානයකදී 2
▁ථානයෙහි 2
▁ථාවනාව 2
▁ථාවෙහි 2
▁ථීර 2
▁දගාමී 2
▁දඬන 2
▁දනාත 2
▁දපෝෂණය 2
▁දම 2
▁දයාසිරි 2
▁දරමින 2
▁දරුවෙකු 2
▁දවසේ 2
▁දහ 2
▁දහඅට 2
▁දහතුන 2
▁දහදහසක 2
▁දහහතරකට 2
▁දානපතියන 2
▁දායකය 2
▁දැකීමක 2
▁දැඩිව 2
▁දැනගන 2
▁දැනීම 2
▁දැනුදුන 2
▁දැමීම 2
▁දැයේ 2
▁දැල 2
▁දැවවල 2
▁දැවුම 2
▁දිගට 2
▁දිගිලිය 2
▁දිගුකාලීන 2
▁දිතයෙන 2
▁දිනයකදී 2
▁දිම 2
▁දියර 2
▁දියාව 2
▁දිරිදීමනා 2
▁දිවා 2
▁දිවිනැගුම 2
▁දිවුල 2
▁දිවෙන 2
▁දීමක 2
▁දීමටත 2
▁දීමනාව 2
▁දීමෙහි 2
▁දුපුල 2
▁දුබල 2
▁දුරින 2
▁දූපත 2
▁දෙකම 2
▁දෙකේ 2
▁දෙණියාය 2
▁දෙදහස 2
▁දෙදහසක 2
▁දෙදෙනාම 2
▁දෙදෙනෙක 2
▁දෙදෙනෙකුගෙන 2
▁දෙනාම 2
▁දෙනික 2
▁දෙමුහුන 2
▁දෙසා 2
▁දෙසිය 2
▁දෙහිඅත 2
▁දේපළවලටද 2
▁දේව 2
▁දේශක 2
▁දේශනය 2
▁දේශයෙහි 2
▁දේශයේත 2
▁දේසිවලට 2
▁දොම 2
▁දෝතක 2
▁ධක 2
▁ධතාවන 2
▁ධතාවයට 2
▁ධතාවයන 2
▁ධතියට 2
▁ධනයන 2
▁ධනාගාරයේ 2
▁ධයක 2
▁ධයට 2
▁ධයන 2
▁ධරෙගුලාසිවල 2
▁ධාරා 2
▁ධාරිතාව 2
▁ධිකා 2
▁ධිත 2
▁ධිමත 2
▁ධියෙහි 2
▁ධුරය 2
▁ධූරය 2
▁ධූරයේ 2
▁නංවනු 2
▁නංවා 2
▁නගනු 2
▁නගින 2
▁නගෝයාහිගැෂියාමා 2
▁නදී 2
▁නප 2
▁නමුණුකුල 2
▁නමුදු 2
▁නයිට 2
▁නයේ 2
▁නවතම 2
▁නාඋල 2
▁නාගහකන 2
▁නාගේ 2
▁නාඩු 2
▁නාමිකයන 2
▁නායකයන 2
▁නායිකාවන 2
▁නාවට 2
▁නාවලර 2
▁නාවූත 2
▁නැංවිමේ 2
▁නැක 2
▁නැගීම 2
▁නැතිව 2
▁නැදැයකු 2
▁නැදැයා 2
▁නැදුන 2
▁නැන 2
▁නැමති 2
▁නැයා 2
▁නැවතත 2
▁නැවතී 2
▁නෑයකු 2
▁නිආරච 2
▁නික 2
▁නිගමනයේ 2
▁නිත 2
▁නිතිපතාම 2
▁නිදිග 2
▁නිදේශයක 2
▁නිපද 2
▁නිපිටිය 2
▁නිපුණතාවන 2
▁නිමැවුම 2
▁නියමයකට 2
▁නියමිතනියෝගවලට 2
▁නියමිතවූද 2
▁නියැලී 2
▁නියෝගයකින 2
▁නියෝගයෙහි 2
▁නියෝගයේ 2
▁නිරතව 2
▁නිරූපණය 2
▁නිලධරයකු 2
▁නිලධරයා 2
▁නිලධාරියකුට 2
▁නිලධාරියෙකු 2
▁නිලධාරිවරයාට 2
▁නිලයෙන 2
▁නිවාඩුනොමැතිව 2
▁නිවාසය 2
▁නිවිත 2
▁නිවිතිගල 2
▁නිවිමේ 2
▁නිවුඩ 2
▁නිවේදක 2
▁නිවේදනයේ 2
▁නිසියාකාරව 2
▁නීත 2
▁නීතිඥයෙකු 2
▁නීතිරීති 2
▁නීතිවිරෝධි 2
▁නුගේගොඩ 2
▁නූතන 2
▁නෙල 2
▁නෙළුම 2
▁නේසිස 2
▁නොකළයුතුය 2
▁නොකෙරුණි 2
▁නොච 2
▁නොතිබීම 2
▁නොතිබූණි 2
▁නොදිය 2
▁නොදී 2
▁නොනැසී 2
▁නොපැමිණිම 2
▁නොපැමිණීම 2
▁නොලබන 2
▁නොලබා 2
▁නොවීමේ 2
▁නොවීය 2
▁නොවූයේ 2
▁නොසලකාම 2
▁නොසිටින 2
▁නොහැකිවිම 2
▁නෝත 2
▁පංතිය 2
▁පකුමාර 2
▁පට 2
▁පටන 2
▁පටහැනි 2
▁පටහැනිව 2
▁පටිපාටිවලට 2
▁පණිව 2
▁පණිවිඩයෙහි 2
▁පණිවුඩ 2
▁පතට 2
▁පතත 2
▁පතතේ 2
▁පථයට 2
▁පදනමිකරගත 2
▁පදනමිවූ 2
▁පදනමේ 2
▁පදය 2
▁පනතක 2
▁පනතකි 2
▁පමණද 2
▁පයිලෝරි 2
▁පරතරයන 2
▁පරයට 2
▁පරිගණකයෙන 2
▁පරිදිය 2
▁පරිපාලනමය 2
▁පරිපාලනයට 2
▁පරිපාලනයේ 2
▁පරිභෝජනය 2
▁පරිමාණයේ 2
▁පරීජේදය 2
▁පලකරන 2
▁පලාලි 2
▁පවති 2
▁පවා 2
▁පවුලකට 2
▁පශීලී 2
▁පසුබිමකදී 2
▁පහලොවක 2
▁පහසු 2
▁පහසුකමක 2
▁පහසුකමයෙහි 2
▁පහසුවක 2
▁පහළොව 2
▁පහේ 2
▁පාගොඩ 2
▁පාඨ 2
▁පාඨමාලාවලට 2
▁පාඨය 2
▁පාතදුම 2
▁පාද 2
▁පාදකවරුන 2
▁පාදනයන 2
▁පාදය 2
▁පාදිකා 2
▁පානදුර 2
▁පානි 2
▁පානීය 2
▁පාය 2
▁පාරමිතා 2
▁පාස 2
▁පාසි 2
▁පැණ 2
▁පැත 2
▁පැතවීම 2
▁පැතිරීම 2
▁පැතීම 2
▁පැමිණවීමේ 2
▁පැමිණිල 2
▁පැමෙන 2
▁පැවතිණ 2
▁පැවතිය 2
▁පැවතියාවූ 2
▁පැවතීමේ 2
▁පැවරිය 2
▁පැවරී 2
▁පැවරීමේ 2
▁පැවරූ 2
▁පැවසිය 2
▁පැවසූ 2
▁පැළෑටියක 2
▁පෑලියගොඩ 2
▁පිට 2
▁පිටබැද 2
▁පිටි 2
▁පිටිකිරි 2
▁පිටිගල 2
▁පිටියේ 2
▁පිටිවහලක 2
▁පිටුවහලක 2
▁පියවිමට 2
▁පියා 2
▁පිරික 2
▁පිරිනමන 2
▁පිරිපුන 2
▁පිරිවැයක 2
▁පිරිසකට 2
▁පිරිහීමක 2
▁පිරිහීයාම 2
▁පිහිටුවිමට 2
▁පිහුම 2
▁පිළිගැනීමක 2
▁පිළිගැනීමේ 2
▁පිළිපැදීම 2
▁පිළිපැදීමට 2
▁පිළිබ 2
▁පිළියම 2
▁පිළිවෙතක 2
▁පිළිවෙළක 2
▁පීඨිකා 2
▁පීඩාවට 2
▁පුදුම 2
▁පුරවැසියෙකු 2
▁පුරාම 2
▁පුලතිසි 2
▁පුලයන 2
▁පුලියන 2
▁පුව 2
▁පුහාමි 2
▁පුහුණුවක 2
▁පුහුණුවන 2
▁පූජාව 2
▁පෙරදැරිව 2
▁පෙරවදන 2
▁පෙරවරු 2
▁පෙරහැර 2
▁පෙලෙන 2
▁පෙළේ 2
▁පේක 2
▁පේටන 2
▁පේදුරු 2
▁පේදුරුතුඩුව 2
▁පේෂකර 2
▁පොඩි 2
▁පොතුහැර 2
▁පොන 2
▁පොම 2
▁පොලියක 2
▁පොලීසියට 2
▁පොහෝ 2
▁පොළිය 2
▁පෝදා 2
▁ඵල 2
▁ඵලදායිතා 2
▁ඵලදායීව 2
▁ඵලදායීවීමට 2
▁බඳවාගැනීම 2
▁බමුණාකොටුව 2
▁බරපතලකම 2
▁බලකා 2
▁බලගොල 2
▁බලධාරින 2
▁බලපැවැත 2
▁බලයකින 2
▁බලසීමාව 2
▁බවක 2
▁බවින 2
▁බහාලුම 2
▁බාරගන 2
▁බාල 2
▁බාලයෝගි 2
▁බැංකුවක 2
▁බැංකුවෙන 2
▁බැංකොක 2
▁බැදීම 2
▁බැලීමේ 2
▁බැව 2
▁බිඳ 2
▁බිඳවැටීම 2
▁බිඳුම 2
▁බිරිද 2
▁බිහිකිරීම 2
▁බුදල 2
▁බුදු 2
▁බෙංගාල 2
▁බෙදාහැරීමේ 2
▁බෙලිඅත 2
▁බේරාගැනීම 2
▁බේරුවල 2
▁බේරේ 2
▁භා 2
▁භාගය 2
▁භාරකරුගේ 2
▁භාරකාරත 2
▁භාරගන 2
▁භාරගැනීම 2
▁භාරයට 2
▁භාරයේ 2
▁භාෂණ 2
▁භාෂාත 2
▁භාෂාමය 2
▁භාෂිත 2
▁භූමිය 2
▁භේදයකින 2
▁මං 2
▁මංජරි 2
▁මංසන 2
▁මඩපාත 2
▁මඩල 2
▁මඩළ 2
▁මඩු 2
▁මතද 2
▁මතභේදාත 2
▁මතයන 2
▁මදුරු 2
▁මදුරුවන 2
▁මනාදන 2
▁මනෝජ 2
▁මයන 2
▁මරිච 2
▁මලංගමුව 2
▁මලායා 2
▁මවුලානා 2
▁මසිරි 2
▁මසුන 2
▁මහඟු 2
▁මහජනතාවගේ 2
▁මහජනයාට 2
▁මහානායක 2
▁මහෙස 2
▁මාංශ 2
▁මාතරආරච 2
▁මාතෘභූමිය 2
▁මාතෘභූමියේ 2
▁මාදම 2
▁මානෙල 2
▁මාපිටිය 2
▁මාමා 2
▁මායිම 2
▁මාරපන 2
▁මාලාවක 2
▁මාලාවේ 2
▁මාවනැල 2
▁මාෂල 2
▁මාසිකව 2
▁මැකී 2
▁මැණික 2
▁මැත 2
▁මැතිතුමන 2
▁මැතිතුමාත 2
▁මැදවච 2
▁මැනවින 2
▁මැනීමේ 2
▁මැලේෂියාවේ 2
▁මැලේසියාවේ 2
▁මිටර 2
▁මිණිබිරිය 2
▁මිතුරෝ 2
▁මිනුවන 2
▁මිරිගම 2
▁මිරිස 2
▁මිලි 2
▁මිළඟ 2
▁මිළදී 2
▁මීවන 2
▁මුඩු 2
▁මුණුබුරා 2
▁මුණේ 2
▁මුදලෙන 2
▁මුදාහරන 2
▁මුදාහරනු 2
▁මුදාහැරිය 2
▁මුදාහැරීමේ 2
▁මුරකරු 2
▁මුරුගන 2
▁මුලටියන 2
▁මුලතිවු 2
▁මුලධර 2
▁මුලාව 2
▁මුලින 2
▁මුවදොර 2
▁මුහුණදීමට 2
▁මූලධනය 2
▁මූලාරම 2
▁මූලිකත 2
▁මූලිකාංග 2
▁මූවර 2
▁මෙට 2
▁මෙතැන 2
▁මෙතුමාගේ 2
▁මෙමඟින 2
▁මෙවලම 2
▁මෙහෙයවන 2
▁මෙහෙයවා 2
▁මෙහෙවරක 2
▁මේජර 2
▁මේද 2
▁මේලනය 2
▁මේසලායි 2
▁මොණරාගල 2
▁මොනිටර 2
▁මොරවක 2
▁මොරින 2
▁මෝසස 2
▁ඹෟෂධ 2
▁යකරණය 2
▁යට 2
▁යඨ 2
▁යතාවයක 2
▁යතාවලට 2
▁යතුරුපැදි 2
▁යනයන 2
▁යනාදිය 2
▁යනුවෙනි 2
▁යනෙන 2
▁යපටිපාටි 2
▁යබව 2
▁යභාරයට 2
▁යමාන 2
▁යයයක 2
▁යයා 2
▁යයින 2
▁යයේ 2
▁යවරයකු 2
▁යවරයකුගේ 2
▁යවරයාට 2
▁යවරයෙකු 2
▁යවල 2
▁යවසායකත 2
▁යවීම 2
▁යවීමට 2
▁යවූ 2
▁යවේ 2
▁යවේදීන 2
▁යශය 2
▁යශාලාවට 2
▁යශාලාවෙන 2
▁යසාර 2
▁යාංශයවල 2
▁යාගයන 2
▁යාගාර 2
▁යාගාරය 2
▁යාඝ 2
▁යාජ 2
▁යාඥ 2
▁යාණි 2
▁යානවල 2
▁යාපනයට 2
▁යාපා 2
▁යාපාරයක 2
▁යාපෘතිවලට 2
▁යාමේ 2
▁යායුතුය 2
▁යාලත 2
▁යාලීය 2
▁යාවකට 2
▁යැම 2
▁යු 2
▁යුතුයැයි 2
▁යුතුවේ 2
▁යුධ 2
▁යූහ 2
▁යෙද 2
▁යෙදුණු 2
▁යෙදෙන 2
▁යෙන 2
▁යේෂණය 2
▁යොදන 2
▁යොදවනු 2
▁යොමුකළ 2
▁යොමුවක 2
▁යෝගා 2
▁යෝජකයින 2
▁යෝහේස 2
▁රංශයේ 2
▁රකාශනවලට 2
▁රකාශිතවම 2
▁රකෘති 2
▁රචාරණය 2
▁රජතසර 2
▁රජන 2
▁රජමල 2
▁රජවැල 2
▁රජාවේ 2
▁රජීව 2
▁රටගෙදර 2
▁රටවලට 2
▁රටා 2
▁රටාව 2
▁රටේත 2
▁රණයට 2
▁රණවිරුවෙකු 2
▁රණවීර 2
▁රණාලයක 2
▁රතන 2
▁රතිකාරයකට 2
▁රතිකාරවල 2
▁රතිනිර 2
▁රතිඵලයෙහි 2
▁රතිභා 2
▁රතිලාභයක 2
▁රතිව 2
▁රතිශතයක 2
▁රතිස 2
▁රතු 2
▁රථමයෙන 2
▁රථවාහන 2
▁රදවාගනු 2
▁රදානයන 2
▁රදායයන 2
▁රදීපා 2
▁රදේශයක 2
▁රදේශයෙන 2
▁රදේශයේම 2
▁රදේශවලට 2
▁රදේශවාසීන 2
▁රනා 2
▁රනාන 2
▁රපටය 2
▁රභා 2
▁රභේදයක 2
▁රමක 2
▁රමයන 2
▁රමරත 2
▁රමවේදයන 2
▁රමාදයකින 2
▁රමාදයන 2
▁රමාරච 2
▁රමිකතා 2
▁රමිකයක 2
▁රමිකයන 2
▁රමිතිය 2
▁රමිතියට 2
▁රමෝපාය 2
▁රමෝපායික 2
▁රයනට 2
▁රයමානසික 2
▁රයා 2
▁රයිස 2
▁රයෙන 2
▁රල 2
▁රලේඛයක 2
▁රලේඛවලට 2
▁රවණාධාර 2
▁රවි 2
▁රවීණතාවය 2
▁රවීණයින 2
▁රවීන 2
▁රවුෆ 2
▁රසායනික 2
▁රසායනිකය 2
▁රසූත 2
▁රහණ 2
▁රහණයකි 2
▁රහාත 2
▁රහිතව 2
▁රාජසන 2
▁රාජිත 2
▁රාදේවි 2
▁රාන 2
▁රාප 2
▁රාමක 2
▁රාමුවක 2
▁රාල 2
▁රාව 2
▁රාවකයින 2
▁රාහකගේ 2
▁රාහාත 2
▁රාාම 2
▁රැ 2
▁රැකියාවල 2
▁රැදී 2
▁රැසවූ 2
▁රිකිල 2
▁රිතව 2
▁රිදියගම 2
▁රිදී 2
▁රින 2
▁රියාකර 2
▁රියාපරිපාටියකින 2
▁රියාවලට 2
▁රියාවලීන 2
▁රියාවේ 2
▁රිවරුන 2
▁රිෂ 2
▁රීතීන 2
▁රුක 2
▁රුකුල 2
▁රුවන 2
▁රෙ 2
▁රෙගුලාසිය 2
▁රෙගුලාසිවල 2
▁රෙජිනෝල 2
▁රෙදි 2
▁රේට 2
▁රේන 2
▁රේමචන 2
▁රේමලාල 2
▁රේරු 2
▁රේෂණාගාරයේ 2
▁රෛමාසික 2
▁රොක 2
▁රෝගයෙන 2
▁රෝගයේ 2
▁රෝගියෙකුගේ 2
▁රෝගියෙකුට 2
▁රෝගියෙකුටම 2
▁රෝගීහු 2
▁රෝස 2
▁රෝසි 2
▁ලංකන 2
▁ලංතා 2
▁ලකින 2
▁ලකුණු 2
▁ලගස 2
▁ලගාවීම 2
▁ලදආරෝග 2
▁ලබාදීමේ 2
▁ලබාදීමේදී 2
▁ලබානොගෙන 2
▁ලයාර 2
▁ලර 2
▁ලරට 2
▁ලවපිටිය 2
▁ලාංකිකයින 2
▁ලාක 2
▁ලාභදායක 2
▁ලාභාංශ 2
▁ලාභීන 2
▁ලාම 2
▁ලායි 2
▁ලාල 2
▁ලාව 2
▁ලැබීමක 2
▁ලැබීමෙන 2
▁ලැබීමේදී 2
▁ලැබුණහොත 2
▁ලැබුව 2
▁ලැබුවාවූ 2
▁ලැබූයේ 2
▁ලි 2
▁ලිපිවලට 2
▁ලියවිලි 2
▁ලියා 2
▁ලී 2
▁ලුණම 2
▁ලුර 2
▁ලෙජරයෙන 2
▁ලෙනින 2
▁ලෙහි 2
▁ලේඛනගත 2
▁ලේඛවලට 2
▁ලොක 2
▁ලොජිස 2
▁ලොතරැයිය 2
▁ලොරි 2
▁ලොව 2
▁ලෝ 2
▁ලෝමාධාරින 2
▁ලෝමාව 2
▁ලෝහෝර 2
▁වංචනික 2
▁වංචා 2
▁වංචාව 2
▁වකරුවන 2
▁වකෝෂයේ 2
▁වග 2
▁වගකිය 2
▁වගාවට 2
▁වගු 2
▁වජිර 2
▁වටයට 2
▁වතාවට 2
▁වනතෙක 2
▁වනවිට 2
▁වනාන 2
▁වනෙකුම 2
▁වනෝද 2
▁වඳ 2
▁වපසරියකින 2
▁වභාවයේ 2
▁වම 2
▁වයකි 2
▁වයාර 2
▁වයිස 2
▁වරණයක 2
▁වරදකරුවෝ 2
▁වරදකි 2
▁වරදේ 2
▁වරන 2
▁වරප 2
▁වරම 2
▁වරයකු 2
▁වරාසා 2
▁වරුණ 2
▁වලංගු 2
▁වවුනියාවේ 2
▁වසංගත 2
▁වසරකට 2
▁වසාදමා 2
▁වාක 2
▁වාමිපුරුෂයා 2
▁වාමීන 2
▁වාරි 2
▁වාරු 2
▁වාලච 2
▁වාවක 2
▁වාවන 2
▁වාවූ 2
▁වාෂ 2
▁වාසනා 2
▁වාසවලට 2
▁වාසික 2
▁වාසිදායක 2
▁වාහකයන 2
▁වාහනවලින 2
▁වැටී 2
▁වැටීමක 2
▁වැටීමට 2
▁වැඩබලන 2
▁වැඩමුළුවේ 2
▁වැඩවල 2
▁වැඩිදුරටත 2
▁වැඩිහිටියන 2
▁වැන 2
▁වැලිගම 2
▁වැලිමඩ 2
▁වැවිලිකරුවන 2
▁වැසි 2
▁වැසිකිළි 2
▁වැසිකිළියක 2
▁වැසුම 2
▁වැළකීම 2
▁වෑත 2
▁විකාව 2
▁විකාශ 2
▁විකිණීමට 2
▁විකිත 2
▁විකිරණ 2
▁විකුණා 2
▁විගණකාධිපතිගේ 2
▁විගණකාධිපතිතුමා 2
▁විගණනක 2
▁විගණනයන 2
▁විගමන 2
▁විචලනයක 2
▁විජිත 2
▁විජේරත 2
▁විජේසුන 2
▁විටම 2
▁විතය 2
▁විතවිය 2
▁විතානවසම 2
▁විදීමට 2
▁විදීමෙන 2
▁විදුම 2
▁විදුහල 2
▁විදේශාධාර 2
▁විදේශිය 2
▁විධිවිධානඅදාළ 2
▁විධිවිධානයක 2
▁විනායගර 2
▁විනාශයට 2
▁විපුලසාර 2
▁විභාගයෙන 2
▁විමලරත 2
▁විමසීමට 2
▁විමසුමට 2
▁විමසූ 2
▁විමෙන 2
▁විමෝචනය 2
▁වියදමෙන 2
▁වියදමෙහි 2
▁වියන 2
▁වියපත 2
▁වියයුතු 2
▁විරකුමාර 2
▁විරාඡේ 2
▁විරෝදාර 2
▁විරෝධතා 2
▁විලයාට 2
▁විවිධාකාර 2
▁විවේචන 2
▁විශේෂඥයන 2
▁විශේෂත 2
▁විශේෂවල 2
▁විෂමතා 2
▁විෂයට 2
▁විසදීම 2
▁විසඳා 2
▁විසිදහසකට 2
▁විසිහතරක 2
▁විසූ 2
▁විහාග 2
▁විහාරය 2
▁වීක 2
▁වීකරණය 2
▁වීතියික 2
▁වීමකට 2
▁වීමෙහිලා 2
▁වීරසේකර 2
▁වූත 2
▁වෙතද 2
▁වෙනුවන 2
▁වෙයන 2
▁වෙයි 2
▁වෙසෙන 2
▁වේගවත 2
▁වේදිකාව 2
▁වේයන 2
▁වේලාවක 2
▁වේලාවකදී 2
▁වේස 2
▁වෛරවර 2
▁වොරන 2
▁වොලිබෝල 2
▁ශකය 2
▁ශණ 2
▁ශනාරාම 2
▁ශනිදා 2
▁ශයක 2
▁ශරීරයට 2
▁ශව 2
▁ශවය 2
▁ශාකය 2
▁ශාකසාර 2
▁ශාඛාවේ 2
▁ශාරීරීක 2
▁ශාලාවෙන 2
▁ශිනී 2
▁ශිවන 2
▁ශී 2
▁ශුෂ 2
▁ශේෂයෙන 2
▁ශේෂවලට 2
▁ෂකයකු 2
▁ෂකයින 2
▁ෂගේ 2
▁ෂණයකට 2
▁ෂණවේදය 2
▁ෂතුමන 2
▁ෂයකට 2
▁ෂර 2
▁ෂල 2
▁ෂලතා 2
▁ෂවලදී 2
▁ෂාවක 2
▁ෂිතතා 2
▁ෂිතභාවය 2
▁ෂිතව 2
▁සංගමයේ 2
▁සංචරණය 2
▁සංදර 2
▁සංවිධායකවරයාගේ 2
▁සංවේදීකරණ 2
▁සංසන 2
▁සකවරයකුගෙන 2
▁සකවරයාට 2
▁සකවරයෙකු 2
▁සකසන 2
▁සකසනු 2
▁සකාරකයන 2
▁සකුගේ 2
▁සගල 2
▁සඟරා 2
▁සඟරාවක 2
▁සඟවන 2
▁සජීවීව 2
▁සතියක 2
▁සතියකට 2
▁සතියකම 2
▁සතියට 2
▁සතුටිනි 2
▁සදහාම 2
▁සනිටුහන 2
▁සනීප 2
▁සඳරුවන 2
▁සපයමින 2
▁සපිරි 2
▁සඵලතාව 2
▁සඵලදායී 2
▁සබදතා 2
▁සබරගමු 2
▁සභාපතිත 2
▁සභාපතිවරයාට 2
▁සභික 2
▁සමගි 2
▁සමඟිය 2
▁සමරවීර 2
▁සමරුව 2
▁සමහාරාමය 2
▁සමා 2
▁සමාජයීය 2
▁සමානව 2
▁සමාප 2
▁සමිමත 2
▁සමුද 2
▁සමුළුව 2
▁සමූහාණ 2
▁සයිම 2
▁සරණ 2
▁සරස 2
▁සරික 2
▁සලක 2
▁සවවලට 2
▁සවාරිය 2
▁සවිකර 2
▁සවිබලගැන 2
▁සවිය 2
▁සහජ 2
▁සහජීවක 2
▁සහජීවනයෙන 2
▁සහතිකපත 2
▁සහතිකයක 2
▁සහනදායි 2
▁සහනයසැලැස 2
▁සහපහසුකම 2
▁සහයෝගිතාව 2
▁සහයෝගිතාවය 2
▁සහවෙනත 2
▁සහා 2
▁සහාධිපත 2
▁සහාපති 2
▁සහෝදර 2
▁සාගිනි 2
▁සාදුරංගම 2
▁සාධකයකි 2
▁සාධාරණත 2
▁සාමාජිකයකුටම 2
▁සාමාජිකයාගේ 2
▁සාමාජීකයකු 2
▁සාමාජීකයකුම 2
▁සාමාර 2
▁සායනික 2
▁සාරණය 2
▁සාරාංශ 2
▁සාහ 2
▁සාහීර 2
▁සැදීම 2
▁සැදුම 2
▁සැරයන 2
▁සැරිසර 2
▁සැලසීමත 2
▁සැලසෙනු 2
▁සැසඳීම 2
▁සැසඳීමේ 2
▁සැසඳුම 2
▁සැසිය 2
▁සැසිවාර 2
▁සිග 2
▁සිටද 2
▁සිටිනු 2
▁සිටිමින 2
▁සිටුවීම 2
▁සිතයි 2
▁සිදුකරන 2
▁සිදුකළ 2
▁සිදුවෙමින 2
▁සිම 2
▁සියලුදෙනාගේම 2
▁සියලූ 2
▁සිරකර 2
▁සිරකරුවා 2
▁සිරගෙදරට 2
▁සිරප 2
▁සිරිබෝපුර 2
▁සිරිමල 2
▁සිරිලාල 2
▁සිරුවර 2
▁සිවකුමාර 2
▁සිවලිංගම 2
▁සිවිකොන 2
▁සිසිලස 2
▁සිහින 2
▁සිහිනය 2
▁සීගිරිය 2
▁සීනිතම 2
▁සීමාවන 2
▁සීමාවාසික 2
▁සුජීව 2
▁සුදුසුකමක 2
▁සුනාමි 2
▁සුභූති 2
▁සුරන 2
▁සුරැකීම 2
▁සුරේෂ 2
▁සුවපත 2
▁සුවහස 2
▁සුවාමි 2
▁සුවිශාල 2
▁සුවිශේෂි 2
▁සුවිසල 2
▁සූරා 2
▁සෙනසුරාදා 2
▁සෙයේයිඩ 2
▁සෙවීම 2
▁සෙවුම 2
▁සේක 2
▁සේනසිංහ 2
▁සේම 2
▁සේරුව 2
▁සේවන 2
▁සේවාදායකය 2
▁සේවාරෝග 2
▁සේවාලාභීන 2
▁සේවාවේ 2
▁සේවිකාවන 2
▁සොහොන 2
▁සෝමාවතිය 2
▁හංදියේ 2
▁හංවැල 2
▁හක 2
▁හකීම 2
▁හඬකැවීම 2
▁හතරලියැද 2
▁හදිසියේම 2
▁හදුනාගනු 2
▁හඳුනාගැනීමකින 2
▁හපුතලේ 2
▁හමුදාවට 2
▁හයකට 2
▁හලක 2
▁හවුස 2
▁හසන 2
▁හසිත 2
▁හාඡේ 2
▁හානිදායක 2
▁හානිය 2
▁හාරකරු 2
▁හාරදෙන 2
▁හාරදෙනු 2
▁හාරසිය 2
▁හාවිතා 2
▁හැකිවන 2
▁හැකිවිය 2
▁හැකිවීම 2
▁හැත 2
▁හැරිය 2
▁හැරීමකට 2
▁හැරීමේ 2
▁හිගය 2
▁හිගයක 2
▁හිට 2
▁හිටව 2
▁හිතකාමි 2
▁හිතමතාම 2
▁හිනිදුම 2
▁හිමිකාරිත 2
▁හිමිව 2
▁හිමිවීම 2
▁හිරු 2
▁හුගේ 2
▁හුණුපිටිය 2
▁හුමාරු 2
▁හුරුබුහුටි 2
▁හුවමාරුව 2
▁හෘදයාංගමව 2
▁හෙජිං 2
▁හෙට 2
▁හෙද 2
▁හෙනරත 2
▁හෙරොයින 2
▁හෙළා 2
▁හෙළිකොබැක 2
▁හේතුවන 2
▁හේදෙනිය 2
▁හොටෙල 2
▁හොත 2
▁හොරවෙල 2
▁හෝඅනිච 2
▁හෝආකාරයකින 2
▁හෝඋපදේශක 2
▁හෝමියෝපති 2
▁ළඟම 2
▁ළැදියාවක 2
▁ළිඳ 2
▁ෆාරුක 2
-- 1
-01 1
-04 1
-2014 1
-28 1
-3 1
-30 1
-3333 1
.03 1
.03,398.00 1
.04 1
.05 1
.06 1
.07 1
.1 1
.1,000,000.00 1
.1,022,525.00 1
.1,400 1
.1,598 1
.1,659,299.22 1
.1,690,383 1
.1,693 1
.1,700,000 1
.10,746,805 1
.1000 1
.10000 1
.100000. 1
.10400.00 1
.12 1
.12,126,300 1
.120 1
.12000 1
.14.86 1
.146.91 1
.15,900,000.00 1
.15.38 1
.155 1
.1583.6 1
.16.88 1
.160 1
.161 1
.171 1
.18 1
.185,128,485 1
.19 1
.19,533,639 1
.1924 1
.2,613.1 1
.20 1
.20,472,934 1
.200 1
.2008 1
.2010 1
.229.98 1
.23,912,218.03 1
.25,571,517.25 1
.250,000 1
.259,438,586 1
.26 1
.28 1
.28.6 1
.29.33 1
.293,504,383 1
.3 1
.3,000,000.00 1
.3,212,120 1
.3,708,187,389 1
.3,960,114.50 1
.3.5 1
.3000 1
.30000 1
.301 1
.31.95 1
.317500.00 1
.340,200,616 1
.350000.00 1
.35378.00 1
.36 1
.37,785,110 1
.376.89 1
.383.30 1
.4 1
.4,492,719 1
.4,749,500 1
.40 1
.41.30 1
.45.03 1
.450,000 1
.47,650,000 1
.48.86 1
.48.89 1
.5 1
.5,470,200.00 1
.5,900,000.00 1
.5,978,726.00 1
.50,000 1
.500,000 1
.500,000.00 1
.5000 1
.50000 1
.50000.00 1
.508593 1
.54 1
.58.49 1
.6 1
.6,183,102 1
.6,445,758 1
.60,000,000.00 1
.64.24 1
.651,797 1
.7 1
.700 1
.702 1
.74 1
.750 1
.802.88 1
.85 1
.8622000.00 1
.9.77 1
.90.19 1
.906.5 1
.93,042 1
.95 1
.965.1 1
.973,573.40 1
009 1
01 1
03 1
07 1
1,000,000.00 1
1-2006 1
1. 1
16,627,000.00 1
19.11.2011 1
19.77 1
20.12.2013 1
2013 1
3,313,785.00 1
3-2006 1
34 1
342,835.55 1
347 1
4-2006 1
40 1
437 1
6-2006 1
606 1
7-2006 1
72 1
9.30 1
C 1
E 1
about 1
ac 1
advance 1
agamapura 1
age 1
akorale 1
allocation 1
anathar 1
and 1
aniyamman 1
ant 1
anura 1
anuradhapura 1
are 1
arians 1
ariyamman 1
art 1
aruna 1
ashoka 1
at 1
athirgama 1
aththirunerium 1
ation 1
aug 1
august 1
awards 1
awareness 1
balagolla 1
balayogi 1
bank 1
basnayake 1
breaking 1
buddikasanjeewa 1
budget 1
building 1
camp 1
capital 1
care 1
chandrasekara 1
chandrasena 1
chinthanaikal 1
cholesterol 1
coexistence 1
cola 1
commenced 1
commercial 1
comol 1
confidence 1
cruited 1
data 1
dation 1
dehiattakandiya 1
deniyaya 1
department 1
deposited 1
deyata 1
dharmapala 1
dharmasena 1
dinesh 1
disable 1
discussions 1
diversity 1
divisions 1
donation 1
dresses 1
egedara 1
ekanayake 1
ella 1
elya 1
empowerment 1
environmental 1
environmentmin 1
etheeswaram 1
excise 1
exclusive 1
exporting 1
extension 1
facilitating 1
facilitation 1
finance 1
financing 1
fore 1
foreign 1
fused 1
galnewa 1
gb 1
gce 1
glycation 1
graduate 1
haj 1
hanapura 1
harinda 1
hasen 1
hatton 1
helping 1
hewage 1
hewawasam 1
hoc 1
house 1
ibbagamuwa 1
ikshinarama 1
immigration 1
imprestnlsi 1
inayakar 1
incurring 1
inside 1
inspector 1
internal 1
investment 1
iyankaddu 1
ization 1
jasinghe 1
jayabahu 1
jayah 1
jayalath 1
jayasuriya 1
jeyaratne 1
john 1
kanda 1
kankasnathurei 1
kantale 1
karu 1
keeping 1
kodituwakku 1
kulatunga 1
kulikerati 1
kumaranatunga 1
lalith 1
language 1
lanka 1
lasantha 1
launch 1
learning 1
lhiru 1
liiani 1
line 1
lipase 1
liyanage 1
local 1
lowance 1
lowering 1
lushan 1
madampe 1
mahara 1
mahinda 1
mahiyangana 1
mankulam 1
manmatharajan 1
manoj 1
mapa 1
mapalagama 1
matale 1
matic 1
matugama 1
maximum 1
mbps 1
medawachchiya 1
ment 1
metric 1
ministry 1
minuwangoda 1
mithuro 1
mn 1
motion 1
moving 1
museum 1
named 1
names 1
naramavihara 1
nawagampura 1
near 1
nics 1
nilanthi 1
no 1
nor 1
noyel 1
nutritional 1
nuwaraeliya 1
o 1
obtaining 1
off 1
official 1
officio 1
operations 1
operatives 1
or 1
oriented 1
orocarbons 1
padiyatalawa 1
page 1
pas 1
payment 1
people 1
peramunugama 1
percey 1
performing 1
planning 1
planningdv 1
prathibha 1
prema 1
presentation 1
pressed 1
professor 1
programme 1
programmes 1
progress 1
project 1
promotion 1
propriation 1
protecting 1
quality 1
rajamantri 1
ranasinghe 1
rathnapura 1
receipt 1
rected 1
research 1
reventive 1
review 1
rikillagaskada 1
salary 1
saravanapavan 1
sasad 1
sathees 1
scale 1
seethalaxmy 1
selling 1
senadeera 1
senarathna 1
setting 1
settlement 1
sewa 1
shanmuganathan 1
sirisoma 1
siriwardana 1
siriwardena 1
sisira 1
socializing 1
solutions 1
sopinona 1
spective 1
sponsored 1
stage 1
station 1
stof 1
sumedha 1
sunil 1
tamil 1
technology 1
tharani 1
thasarathan 1
thilakarathne 1
thilakavathy 1
thkm 1
thridu 1
tigamage 1
tings 1
to 1
tourism 1
translation 1
trincomalee 1
trust 1
ugahahetakma 1
units 1
university 1
venkadraman 1
vera 1
viability 1
vinosri 1
visual 1
vitro 1
vumannar 1
wasantha 1
waththaladeniya 1
watupitiwela 1
were 1
while 1
wide 1
wijerathne 1
wijewardana 1
wikramasinghe 1
wimalarathna 1
wise 1
yogaraja 1
z 1
zone 1
කගේ 1
තුමාද 1
පළවන 1
බේස 1
යන 1
වර 1
සමාලෝචනය 1
▁&#91; 1
▁&#93; 1
▁-01 1
▁-05 1
▁-067302 1
▁-08 1
▁-12 1
▁-15 1
▁-2011 1
▁-2013 1
▁-3.0 1
▁0.14 1
▁0.15.0 1
▁0.83 1
▁0.9 1
▁0.925 1
▁006 1
▁01- 1
▁01-05 1
▁01.02.03 1
▁01.04.1980 1
▁01.06.2014 1
▁01.10.1956 1
▁01.2011 1
▁011-2887068 1
▁012 1
▁015 1
▁019 1
▁019.73 1
▁02- 1
▁02-13 1
▁02. 1
▁02.12.2013 1
▁02.2011 1
▁022 1
▁029 1
▁03,05.12.2015 1
▁03.05.2014 1
▁03.08.2011 1
▁03.08.2015 1
▁03.10.2011 1
▁03.2014 1
▁034.05 1
▁039 1
▁04- 1
▁04-1 1
▁04-2 1
▁04-3 1
▁04.05.2014 1
▁04.08 1
▁04.08.2014 1
▁04.10.2011- 1
▁04.10.2014 1
▁04.12.2014 1
▁044 1
▁045 1
▁05-1 1
▁05-2 1
▁05-3 1
▁05-5 1
▁05-6 1
▁05. 1
▁05.10.2014 1
▁05.30 1
▁0523 1
▁055 1
▁057 1
▁06-08 1
▁06-17 1
▁06. 1
▁06.10.2011- 1
▁06.2011 1
▁067302 1
▁069 1
▁07. 1
▁07.01.2013 1
▁07.04.2011 1
▁07.06.2011 1
▁07.09.2011 1
▁070 1
▁071 1
▁074 1
▁077 1
▁079 1
▁08- 1
▁08.01.2015 1
▁08.06.1959 1
▁08.08 1
▁08.08.2014 1
▁08.1 1
▁08.10.2015 1
▁08.11.2014 1
▁089 1
▁09- 1
▁09-1 1
▁09-2 1
▁09-3 1
▁09-4 1
▁09-9 1
▁09.06.2011 1
▁09.09.2015 1
▁09.12.2013 1
▁09.2011 1
▁094 1
▁096 1
▁1,000 1
▁1,001 1
▁1,006,483 1
▁1,008,576 1
▁1,018,792 1
▁1,058 1
▁1,058,182 1
▁1,101 1
▁1,134 1
▁1,155 1
▁1,178,120 1
▁1,193 1
▁1,221,378 1
▁1,225,597 1
▁1,257,513 1
▁1,271 1
▁1,300,470 1
▁1,347 1
▁1,354 1
▁1,354,333 1
▁1,356 1
▁1,421,808 1
▁1,421,951 1
▁1,422,321 1
▁1,490 1
▁1,498,566 1
▁1,529 1
▁1,579,976 1
▁1,611,702 1
▁1,694,045 1
▁1,700,000 1
▁1,733 1
▁1,734 1
▁1,742 1
▁1,795,000 1
▁1,823 1
▁1,825 1
▁1,865,000 1
▁1,887 1
▁1,962 1
▁1,987 1
▁1.00 1
▁10,042 1
▁10,052,569 1
▁10,094,449 1
▁10,11 1
▁10,171 1
▁10,608,298 1
▁10,825 1
▁10,968 1
▁10- 1
▁10-11 1
▁10.06.2011- 1
▁10.07.20015 1
▁100,677 1
▁100-150 1
▁102.28 1
▁103,000,000 1
▁103,889 1
▁104,172,501 1
▁104.00 1
▁105,072 1
▁109,691,297 1
▁11,119 1
▁11,143 1
▁11,353,224 1
▁11,512 1
▁11-2758268 1
▁11. 1
▁11.04.2014 1
▁11.09.2011 1
▁11.09.2015 1
▁11.12.2012 1
▁11.2011.06.25 1
▁11.34 1
▁1110532 1
▁112-903770 1
▁113-147693 1
▁113.91 1
▁116 1
▁117 1
▁117,597 1
▁119 1
▁12,000 1
▁12,635,220 1
▁12,820 1
▁12.04.1956 1
▁12.2011.08.03 1
▁12.52 1
▁120,000 1
▁120,313,587 1
▁121,360 1
▁121.5 1
▁1219 1
▁1219.51 1
▁124,395 1
▁13,299 1
▁13,363,261 1
▁13,584,552 1
▁13,720 1
▁13,903 1
▁13,972 1
▁13.00 1
▁13.04.2014 1
▁13.09.2011- 1
▁13.09.2014 1
▁13.10.2011 1
▁13.2011.10.27 1
▁131,324 1
▁134 1
▁1370 1
▁1384543 1
▁14,036 1
▁14,175 1
▁14,741 1
▁14-25 1
▁14.09.2001 1
▁14.09.2011- 1
▁14.09.2014 1
▁14.2 1
▁14.2007 1
▁14.88 1
▁1400 1
▁141,625 1
▁143 1
▁145,076,708 1
▁145,089 1
▁146,473,933 1
▁147 1
▁147,407 1
▁1470.8 1
▁147693 1
▁1482625 1
▁1496 1
▁15,055 1
▁15,130,395 1
▁15,178,378 1
▁15,677,585 1
▁15,704,110 1
▁15,805,019.73 1
▁15-26 1
▁15.09.2011- 1
▁15.11.2011 1
▁15.38 1
▁150,383,000.00 1
▁150,432 1
▁150,547,914 1
▁150,924 1
▁1529439 1
▁153,766 1
▁155,272 1
▁157,378 1
▁157,398 1
▁1582054 1
▁1583.6 1
▁1589 1
▁159 1
▁16,187,435.03 1
▁16,316,700 1
▁16,473 1
▁16,493 1
▁16,734 1
▁16,768 1
▁16- 1
▁16.09.2012 1
▁16.10.2015 1
▁16.64 1
▁163 1
▁163,266 1
▁164 1
▁164,315 1
▁1648 1
▁166 1
▁167,222 1
▁169,828 1
▁17,098 1
▁17,245,710 1
▁17.10.2011 1
▁17.12.2011- 1
▁17.8 1
▁171,182,085 1
▁171,994,557 1
▁172 1
▁173,100 1
▁175,020 1
▁176.6 1
▁1766 1
▁177 1
▁18,279 1
▁18,280 1
▁18,645 1
▁18-29 1
▁18-30 1
▁18.01.2015 1
▁18.07 1
▁18.08 1
▁18.08.2009 1
▁18.09.2011 1
▁18.1 1
▁18.10.2011- 1
▁18.2 1
▁18.50 1
▁181 1
▁182,653,578 1
▁183 1
▁1877 1
▁188,907 1
▁188.4 1
▁1887 1
▁19,015 1
▁19,149 1
▁19,769,754 1
▁19.07 1
▁19.09.2011 1
▁19.10.2000 1
▁19.10.2015 1
▁19.77 1
▁191,085 1
▁191,881,945 1
▁1924 1
▁193,757,482,076 1
▁194 1
▁1956.04.12 1
▁1956.10.01 1
▁1959.06.08 1
▁1980.04.01 1
▁2,017 1
▁2,017,213 1
▁2,029 1
▁2,072 1
▁2,100 1
▁2,173 1
▁2,197,237 1
▁2,208 1
▁2,227 1
▁2,233 1
▁2,267 1
▁2,280,911 1
▁2,357 1
▁2,385 1
▁2,412 1
▁2,424 1
▁2,428 1
▁2,450 1
▁2,461,016 1
▁2,524,044 1
▁2,535,321,038 1
▁2,575 1
▁2,584,412 1
▁2,597,260 1
▁2,600 1
▁2,605,558 1
▁2,673,910 1
▁2,729 1
▁2,751 1
▁2,754 1
▁2,880 1
▁2,938 1
▁2,942 1
▁2.2.5 1
▁2.2004 1
▁2.2008 1
▁20,437,428 1
▁20,449 1
▁20,889,023 1
▁20- 1
▁20-22 1
▁20.06.2011 1
▁20.07.2014 1
▁20.12.2011 1
▁200,000,000 1
▁200.00 1
▁2000.10.19 1
▁20000 1
▁2001.09.14 1
▁2003.12.31 1
▁2006-2016 1
▁2009-2013 1
▁2009.08.18 1
▁2009.11.30 1
▁2010- 1
▁2010-2011 1
▁2010.08.30 1
▁2011.01.27 1
▁2011.04.07 1
▁2011.04.21 1
▁2011.04.24 1
▁2011.05.10 1
▁2011.06.07 1
▁2011.06.09 1
▁2011.06.10 1
▁2011.06.20 1
▁2011.06.28 1
▁2011.07.18 1
▁2011.07.19 1
▁2011.07.25 1
▁2011.08.01 1
▁2011.08.04 1
▁2011.08.08 1
▁2011.08.18 1
▁2011.09.07 1
▁2011.09.11 1
▁2011.09.13 1
▁2011.09.14 1
▁2011.09.15 1
▁2011.09.18 1
▁2011.09.19 1
▁2011.09.26 1
▁2011.10.03 1
▁2011.10.04 1
▁2011.10.06 1
▁2011.10.13 1
▁2011.10.17 1
▁2011.10.18 1
▁2011.10.24 1
▁2011.11.15 1
▁2011.11.19 1
▁2011.11.24 1
▁2011.12.20 1
▁2012-2013 1
▁2012.03.21 1
▁2012.04.26 1
▁2012.05.02 1
▁2012.05.27 1
▁2012.08.22 1
▁2012.09.16 1
▁2012.09.30 1
▁2012.10.25 1
▁2012063 1
▁2013.01.07 1
▁2013.06.03 1
▁2013.12.02 1
▁2013.12.09 1
▁2014-03-06 1
▁2014-2016 1
▁2014.02.04 1
▁2014.03.06 1
▁2014.04.11 1
▁2014.04.13 1
▁2014.05.03 1
▁2014.05.04 1
▁2014.05.23 1
▁2014.05.31 1
▁2014.06.01 1
▁2014.06.20 1
▁2014.06.21 1
▁2014.06.22 1
▁2014.06.29 1
▁2014.07.20 1
▁2014.07.24 1
▁2014.07.26 1
▁2014.07.28 1
▁2014.08.04 1
▁2014.08.08 1
▁2014.08.14 1
▁2014.08.21 1
▁2014.08.23 1
▁2014.09.13 1
▁2014.09.14 1
▁2014.09.25 1
▁2014.09.26 1
▁2014.10.04 1
▁2014.10.05 1
▁2014.10.24 1
▁2014.11.08 1
▁2014.11.09 1
▁2014.11.27 1
▁2014.12.26 1
▁2015,08 1
▁2015,45 1
▁2015,46 1
▁2015-2017 1
▁2015.01.18 1
▁2015.04.24 1
▁2015.05.31 1
▁2015.07.10 1
▁2015.07.21 1
▁2015.08.03 1
▁2015.08.27 1
▁2015.08.28 1
▁2015.09.09 1
▁2015.09.21 1
▁2015.10.08 1
▁2015.10.16 1
▁2015.10.19 1
▁2015.10.26 1
▁2015.10.29 1
▁2015.12.03 1
▁2016.06.08 1
▁2019.09.11 1
▁208,706 1
▁21,359 1
▁21,678 1
▁21.03.2012 1
▁21.04.2011 1
▁21.06.2014 1
▁21.07.2015 1
▁21.08.2014 1
▁21.09.2011 1
▁21.09.2015 1
▁2100 1
▁212,969 1
▁213 1
▁2142540 1
▁215 1
▁215,521 1
▁218.03 1
▁22,079 1
▁22,23 1
▁22,375,918 1
▁22,844,365 1
▁22,882,912 1
▁22,953 1
▁22.06.2014 1
▁22.08.2012 1
▁220,463 1
▁222 1
▁2220121 1
▁222282 1
▁2222825 1
▁2223134 1
▁224 1
▁225,000 1
▁225,075 1
▁2254834 1
▁226,938 1
▁2263101 1
▁227 1
▁2287318 1
▁2297046 1
▁23,152 1
▁23,184 1
▁23.05.2014 1
▁23.08.2014 1
▁230,870 1
▁2300 1
▁2300166 1
▁2300171 1
▁232,687 1
▁233 1
▁2357 1
▁237 1
▁24,545,155 1
▁24,792 1
▁24.04.2011 1
▁24.04.2015 1
▁24.08.2014 1
▁24.10.2011 1
▁24.10.2014 1
▁24.11.2011 1
▁24.2 1
▁240,000 1
▁240- 1
▁240-012 1
▁243 1
▁243,620,863 1
▁244,792 1
▁2451995 1
▁247,380,646 1
▁25,000 1
▁25,000,000 1
▁25,050 1
▁25,225 1
▁25,594,378 1
▁25-2263101 1
▁25-3771245 1
▁25-3850522 1
▁25-3895768 1
▁25.07 1
▁25.09.2014 1
▁25.10.2012 1
▁250,024 1
▁252 1
▁252,069,822 1
▁25566,50 1
▁257,824 1
▁26,393,112 1
▁26,847,0523.31 1
▁26,922,820 1
▁26-3266746 1
▁26.04.2012 1
▁26.06.2011 1
▁26.07.2014 1
▁26.09.2011 1
▁26.09.2014 1
▁26.12.2014 1
▁260,530,465 1
▁261 1
▁262,167 1
▁264,126 1
▁266 1
▁267 1
▁268 1
▁27,28 1
▁27,350 1
▁27,499 1
▁27,896,206 1
▁27-3278700 1
▁27-3283008 1
▁27.05.2012 1
▁27.07.2014 1
▁27.10.2011 1
▁27.11.2011 1
▁27.11.2014 1
▁270 1
▁271 1
▁2758268 1
▁28,000 1
▁28,366 1
▁28,520 1
▁28,813,494 1
▁28.08.2015 1
▁2862801 1
▁2871821 1
▁2871821-30 1
▁2872001 1
▁2876586 1
▁2882112 1
▁2887068 1
▁29,000 1
▁29,177 1
▁29,421 1
▁29.08.2015 1
▁290,987,052 1
▁2901856 1
▁292,317 1
▁299 1
▁299.22 1
▁3,010 1
▁3,011 1
▁3,050 1
▁3,112,050 1
▁3,121,000 1
▁3,129,246 1
▁3,146 1
▁3,191 1
▁3,245 1
▁3,250,450,000 1
▁3,4 1
▁3,556,270 1
▁3,580 1
▁3,584,000 1
▁3,597 1
▁3,617,571 1
▁3,636,112 1
▁3,648 1
▁3,780,253 1
▁3,820 1
▁3,879 1
▁3,916 1
▁3,921,268 1
▁3,964,847 1
▁3.1.1. 1
▁3.1.2. 1
▁3.1.3 1
▁3.1.3.2012 1
▁3.1.4 1
▁3.1.4. 1
▁3.2011.12.31 1
▁3.30 1
▁3.5. 1
▁3.6. 1
▁30,039 1
▁30,071 1
▁30,540 1
▁30,632 1
▁30-11-2009 1
▁30.09.2012 1
▁30.10.2015 1
▁3004216 1
▁3007347 1
▁3040289 1
▁3066764 1
▁3092476 1
▁31,362,104,000 1
▁31,469 1
▁31-12-2014 1
▁31-4912342 1
▁31.05.2014 1
▁31.05.2015 1
▁31.12.2003 1
▁310.15 1
▁314 1
▁314,360 1
▁318 1
▁32,113 1
▁32-2254834 1
▁32-5683326 1
▁323 1
▁324,612 1
▁3266746 1
▁3278700 1
▁3283008 1
▁32976.00 1
▁33,393 1
▁33,695 1
▁33-2297046 1
▁33-3822126 1
▁330 1
▁330,625.50 1
▁333 1
▁3333606 1
▁3342411 1
▁3365305 1
▁3382500.00 1
▁3383288 1
▁34-3342411 1
▁34-3743051 1
▁340,628 1
▁3401120 1
▁3405548 1
▁3415289 1
▁342 1
▁344 1
▁345,063 1
▁345,848,018 1
▁3455293 1
▁3455398 1
▁3468861 1
▁348,842 1
▁3485002 1
▁3485123 1
▁349 1
▁3491608 1
▁3492990 1
▁3504960 1
▁3524282 1
▁3532277 1
▁3556023 1
▁3556051 1
▁3558980 1
▁356 1
▁3567287 1
▁3567968 1
▁3573428 1
▁3578407 1
▁358 1
▁3582383 1
▁3591467 1
▁359782 1
▁36,358,000 1
▁36,415 1
▁36,566,608 1
▁36,621,000 1
▁36-3365305 1
▁361 1
▁362 1
▁3639251 1
▁3668674 1
▁3682309 1
▁3682930 1
▁3685411 1
▁37,149 1
▁37-3763413 1
▁37-3873128 1
▁37-3875336 1
▁37-3970120 1
▁37-3980215 1
▁37-398054 1
▁37-3986690 1
▁37-3988526 1
▁37-5878885 1
▁37-7918815 1
▁370 1
▁374 1
▁374.89 1
▁3743051 1
▁3747592 1
▁3763413 1
▁3771245 1
▁3789620 1
▁38,021 1
▁38,104 1
▁38-3383288 1
▁380 1
▁3820380 1
▁3820402 1
▁3821380 1
▁3822126 1
▁3823255 1
▁3829191 1
▁3837924 1
▁3850522 1
▁3873128 1
▁3875336 1
▁388 1
▁3881761 1
▁3888023 1
▁3889525 1
▁389,879 1
▁3895768 1
▁39,167 1
▁39,435 1
▁3906584 1
▁3908416 1
▁3956537 1
▁39571.20 1
▁396,104.00 1
▁396,816 1
▁3970120 1
▁3980215 1
▁398054 1
▁3986690 1
▁3988526 1
▁3992676 1
▁3992887 1
▁4,156,196 1
▁4,226 1
▁4,316,590 1
▁4,365,469 1
▁4,590 1
▁4,596,547 1
▁4,597 1
▁4,721 1
▁4,793 1
▁4,823,846 1
▁4,831,985 1
▁4,990 1
▁4-2006 1
▁4.08 1
▁4.2013 1
▁4.3. 1
▁4.6 1
▁4.7 1
▁40,051 1
▁40,918,417 1
▁40,998 1
▁40.60 1
▁400.00 1
▁401 1
▁401,856 1
▁402 1
▁409 1
▁41,608.60 1
▁41-3040289 1
▁41-3401120 1
▁41-3405548 1
▁41-3415289 1
▁41-3491608 1
▁41-3492990 1
▁41-5675781 1
▁415 1
▁417 1
▁422 1
▁424.06 1
▁4247003 1
▁428 1
▁429 1
▁4332339 1
▁437,806 1
▁438 1
▁4393370 1
▁44,579 1
▁44,680 1
▁44,876,863 1
▁440 1
▁4408412 1
▁4438559 1
▁445 1
▁4468624 1
▁4475595 1
▁44781 1
▁447819 1
▁4480141 1
▁4484594 1
▁4489717 1
▁45,034.05 1
▁45,777 1
▁45,778 1
▁45,847 1
▁45-3455293 1
▁45-3455398 1
▁456,382 1
▁458 1
▁4590 1
▁46.2 1
▁463 1
▁466 1
▁47,074 1
▁47,076 1
▁47,599,048 1
▁47-3485002 1
▁47-3485123 1
▁47-4906134 1
▁474 1
▁474,466 1
▁4743912 1
▁475 1
▁475,353 1
▁48,000 1
▁48,602,070 1
▁48,752 1
▁48,879 1
▁48.0 1
▁482 1
▁483 1
▁487.63 1
▁488 1
▁49,410 1
▁4906134 1
▁491 1
▁491,073,707 1
▁4912342 1
▁4912611 1
▁492 1
▁493 1
▁494 1
▁496 1
▁499 1
▁5,008 1
▁5,033,574 1
▁5,075 1
▁5,149,861 1
▁5,221 1
▁5,300 1
▁5,585,755 1
▁5,755,597 1
▁5,849,894 1
▁5,857,424.06 1
▁5.2010 1
▁5.2011 1
▁500,000 1
▁5000.00 1
▁501 1
▁502 1
▁502,659 1
▁504 1
▁506 1
▁506,116 1
▁508593 1
▁509 1
▁513 1
▁515 1
▁517.25 1
▁52,129 1
▁52-3524282 1
▁52-3532277 1
▁520 1
▁521 1
▁524 1
▁525.00 1
▁5261746 1
▁5276 1
▁5276.1 1
▁5278688 1
▁530 1
▁5351269 1
▁540 1
▁543.08 1
▁5433864 1
▁55-355602 1
▁55-3556051 1
▁55-3558980 1
▁55-3567287 1
▁55-3591467 1
▁55-4912611 1
▁550 1
▁552 1
▁556 1
▁557 1
▁558 1
▁559,140 1
▁56,672 1
▁560 1
▁5604475 1
▁5624 1
▁5624.3 1
▁5675781 1
▁5683326 1
▁569 1
▁57,693,497 1
▁57,990,812 1
▁57-3573428 1
▁57-3578407 1
▁57-3582383 1
▁573.40 1
▁574,047,509 1
▁5749635 1
▁575 1
▁576 1
▁576.25 1
▁578 1
▁586 1
▁5878885 1
▁5883453 1
▁589 1
▁59,498 1
▁59,751,687 1
▁590,901 1
▁591 1
▁5923478 1
▁594 1
▁596 1
▁5977956 1
▁5992385 1
▁6,000 1
▁6,016 1
▁6,173 1
▁6,181,409 1
▁6,248,686 1
▁6,250 1
▁6,376 1
▁6,410,036 1
▁6,472 1
▁6,585 1
▁6,900 1
▁6.10 1
▁6.10. 1
▁6.1995 1
▁6.2005 1
▁6.2010 1
▁6.4 1
▁6.4. 1
▁6.5 1
▁6.5. 1
▁6.6 1
▁6.6. 1
▁60,067 1
▁60,159,113.91 1
▁60,186 1
▁60,290 1
▁60,788 1
▁601 1
▁601,500 1
▁6014 1
▁6014.3 1
▁602,716 1
▁603,498 1
▁605 1
▁6072947 1
▁6074940 1
▁608.60 1
▁611 1
▁612 1
▁613 1
▁616 1
▁617 1
▁6190549 1
▁62,024 1
▁62,336 1
▁620 1
▁6203198 1
▁621 1
▁623 1
▁6257352 1
▁627 1
▁628 1
▁63,010 1
▁63,169 1
▁63,550,000.00 1
▁63,879 1
▁63-3639251 1
▁632 1
▁6328148 1
▁635 1
▁6369925 1
▁64,103,615 1
▁6402515 1
▁6448344 1
▁65,050 1
▁65,525 1
▁65,824 1
▁65,984,338 1
▁651 1
▁652 1
▁652,750 1
▁653 1
▁6558707 1
▁6563233 1
▁6567823 1
▁66,098,140 1
▁66-2287318 1
▁66-3004216 1
▁66-3007347 1
▁66-3668674 1
▁66-3682309 1
▁66-3682930 1
▁66-3685411 1
▁666 1
▁666,731 1
▁67.0 1
▁671 1
▁675 1
▁675536 1
▁676.43 1
▁678 1
▁68,150 1
▁68,208,560 1
▁68,470,615 1
▁686 1
▁69,783 1
▁69,859,212 1
▁690 1
▁6900 1
▁691 1
▁692 1
▁694,361,096 1
▁695 1
▁7,077 1
▁7,135 1
▁7,154 1
▁7,300,000 1
▁7,318 1
▁7,485 1
▁7,500 1
▁7,597 1
▁7,733 1
▁7,760,000 1
▁7,929,693 1
▁7,957,298 1
▁7,990,488 1
▁7. 1
▁7.01.2011 1
▁70,801 1
▁706 1
▁71,458 1
▁71-1110532 1
▁71-1384543 1
▁71-1482625 1
▁71-1529439 1
▁71-2142540 1
▁71-2451995 1
▁71-4247003 1
▁71-4408412 1
▁71-4438559 1
▁71-4468624 1
▁71-4475595 1
▁71-4480141 1
▁71-4484594 1
▁71-4489717 1
▁71-5604475 1
▁71-5883453 1
▁71-5977956 1
▁71-6074940 1
▁71-6328148 1
▁71-6369925 1
▁71-6402515 1
▁71-6558707 1
▁71-6563233 1
▁71-6567823 1
▁71-7294356 1
▁71-7513341 1
▁71-7989626 1
▁71-8004708 1
▁71-8010350 1
▁71-8011319 1
▁71-8024245 1
▁71-8025762 1
▁71-8036128 1
▁71-8036152 1
▁71-8050938 1
▁71-8051101 1
▁71-8051107 1
▁71-8059165 1
▁71-8071703 1
▁71-8072457 1
▁71-8074586 1
▁71-8079706 1
▁71-8079713 1
▁71-8082093 1
▁71-8107389 1
▁71-8129130 1
▁71-8145158 1
▁71-8149402 1
▁71-8167661 1
▁71-8177360 1
▁71-8243889 1
▁71-8245066 1
▁71-8250851 1
▁71-8259727 1
▁71-8326546 1
▁71-8363145 1
▁71-8406252 1
▁71-8577195 1
▁71-8607073 1
▁71-8681611 1
▁71-8966349 1
▁71-9003785 1
▁71-9028628 1
▁71-9424614 1
▁71-9449715 1
▁71-9769508 1
▁71.8 1
▁710 1
▁716-833201 1
▁719 1
▁72-2901856 1
▁72-3504960 1
▁72-3567968 1
▁72-3747592 1
▁72-3837924 1
▁72-3956537 1
▁72-4332339 1
▁72-4393370 1
▁72-4743912 1
▁72-5278688 1
▁72-5433864 1
▁72-8638194 1
▁72-9199673 1
▁72-9979025 1
▁72.8 1
▁720 1
▁721 1
▁7283 1
▁7283.7 1
▁7285703 1
▁729 1
▁7294356 1
▁73,979 1
▁73.64 1
▁731 1
▁733 1
▁74,907 1
▁741 1
▁742,834 1
▁744,166 1
▁746 1
▁747 1
▁75,606 1
▁75-5261746 1
▁7500 1
▁7513341 1
▁752 1
▁75606 1
▁758 1
▁760 1
▁768 1
▁769 1
▁77-1582054 1
▁77-2012063 1
▁77-3066764 1
▁77-5351269 1
▁77-5749635 1
▁77-5923478 1
▁77-5992385 1
▁77-6072947 1
▁77-6190549 1
▁77-6203198 1
▁77-6257352 1
▁77-6448344 1
▁77-7285703 1
▁77-9359850 1
▁77-9550986 1
▁77-9902672 1
▁773-675536 1
▁7733 1
▁777-855973 1
▁778 1
▁78,383 1
▁78,446 1
▁78-3468861 1
▁780 1
▁782 1
▁785 1
▁785.00 1
▁788 1
▁79,682,692 1
▁7918815 1
▁793 1
▁795 1
▁797 1
▁7989626 1
▁8,019,349 1
▁8,262 1
▁8,280 1
▁8,347,144 1
▁8,429,950 1
▁8,673 1
▁8,747,573 1
▁8,766 1
▁8,814,388 1
▁8,951,959 1
▁8. 1
▁8.2. 1
▁8.2007 1
▁80,000 1
▁8004708 1
▁801 1
▁8010350 1
▁8011319 1
▁802 1
▁8024245 1
▁8025762 1
▁8036128 1
▁8036152 1
▁8050938 1
▁8051101 1
▁8051107 1
▁8059165 1
▁806 1
▁8071703 1
▁8072457 1
▁8074586 1
▁8079706 1
▁8079713 1
▁8082093 1
▁81-3820380 1
▁81-3820402 1
▁81-3821380 1
▁81-3823255 1
▁81-3829191 1
▁81-3881761 1
▁81-3889525 1
▁81-3992676 1
▁81-3992887 1
▁810 1
▁8107389 1
▁812 1
▁8129130 1
▁813 1
▁814 1
▁8145158 1
▁8149402 1
▁8167661 1
▁8177360 1
▁8243889 1
▁8245066 1
▁8250851 1
▁8259727 1
▁828 1
▁83,323 1
▁831 1
▁8326546 1
▁833 1
▁833201 1
▁834 1
▁835.55 1
▁8363145 1
▁84,402 1
▁8406252 1
▁842 1
▁844,622 1
▁846 1
▁849 1
▁855973 1
▁856 1
▁8577195 1
▁859 1
▁86,833,000.00 1
▁8607073 1
▁861 1
▁862 1
▁862.52 1
▁8638194 1
▁865 1
▁8681611 1
▁87,675 1
▁87,810 1
▁87.81 1
▁870 1
▁876.76 1
▁877,623 1
▁881 1
▁882 1
▁89,246 1
▁894 1
▁896 1
▁8966349 1
▁9,248,310.15 1
▁9,338 1
▁9,353 1
▁9,407 1
▁9,549 1
▁9,573,366 1
▁9,645 1
▁9,776,515 1
▁9-20 1
▁9. 1
▁9.1 1
▁9.11.2014 1
▁90.35 1
▁9003785 1
▁901 1
▁9028628 1
▁903 1
▁903770 1
▁906 1
▁91-3092476 1
▁91-3789620 1
▁91-3906584 1
▁91-3908416 1
▁910 1
▁911 1
▁914 1
▁916 1
▁9199673 1
▁92,208 1
▁921 1
▁922,194 1
▁924 1
▁925 1
▁926 1
▁926,057 1
▁93,344,983 1
▁93,465 1
▁933 1
▁935 1
▁935,037 1
▁9359850 1
▁936 1
▁936,590 1
▁937 1
▁937,913 1
▁94,508 1
▁94-11-2872001 1
▁94-11-2872024 1
▁94-11-2876586 1
▁94-11-2882112 1
▁940 1
▁940,489 1
▁9411-2300166 1
▁9411-2300171 1
▁9411-3888023 1
▁942 1
▁9424614 1
▁9449715 1
▁945 1
▁95,410 1
▁950 1
▁953 1
▁9550986 1
▁957 1
▁96 1
▁96,820 1
▁960 1
▁962 1
▁964 1
▁965 1
▁968 1
▁972 1
▁973 1
▁976 1
▁9769508 1
▁978 1
▁979 1
▁984 1
▁985 1
▁99,161,671 1
▁99,231,591 1
▁9902672 1
▁9979025 1
▁998,400 1
▁AB 1
▁ADB 1
▁Aftershave 1
▁BIMSTEC 1
▁BMES 1
▁BTU 1
▁Btk 1
▁CFI 1
▁CHOGM 1
▁CISIR 1
▁CKE 1
▁CML 1
▁COMSATS 1
▁COPA 1
▁CU 1
▁Civil 1
▁DNA 1
▁David 1
▁Dracaena 1
▁ETL 1
▁ETS 1
▁FD 1
▁FPS 1
▁FTS 1
▁Flowers 1
▁GC 1
▁GLP 1
▁H 1
▁HACCP 1
▁HC 1
▁HSBC 1
▁HTS 1
▁Harrison 1
▁IA 1
▁ICCROMN 1
▁ICOMOS 1
▁IML 1
▁IP 1
▁IPG 1
▁ISBN 1
▁ISC 1
▁JAP 1
▁K 1
▁Lanka 1
▁MBD 1
▁MFAP 1
▁MGIF 1
▁ML 1
▁MS 1
▁MTS 1
▁N 1
▁NCI 1
▁NHSP 1
▁NSB 1
▁OCH 1
▁PAGE 1
▁PCR 1
▁PDW 1
▁PED 1
▁R 1
▁Rhett 1
▁Roubik 1
▁SAARC 1
▁SDS 1
▁SI 1
▁SMIB 1
▁STO 1
▁SUP 1
▁Sri 1
▁TS 1
▁TU 1
▁UK 1
▁UNESCO 1
▁UV 1
▁WBRSAP 1
▁WHO 1
▁Wild 1
▁XV 1
▁aalumai 1
▁ab 1
▁abeyewickreme 1
▁abeykoon 1
▁abeysekara 1
▁abeywickrama 1
▁abhimansala 1
▁abhiviruththip 1
▁abled 1
▁aboriginal 1
▁absorbing 1
▁absorbs 1
▁absorption 1
▁absurd 1
▁accelerate 1
▁accelerated 1
▁acceptability 1
▁accepting 1
▁accessibility 1
▁accessible 1
▁accidental 1
▁accommodating 1
▁accomplish 1
▁accomplishing 1
▁accountancy 1
▁accounted 1
▁accra 1
▁accreditations 1
▁acess 1
▁achchirama 1
▁achrama 1
▁acion 1
▁acknowledge 1
▁acknowledged 1
▁acnowledgement 1
▁acquainting 1
▁acrylamide 1
▁acted 1
▁activated 1
▁activists 1
▁adams 1
▁adaptor 1
▁adaraneeya 1
▁addiction 1
▁additionally 1
▁adhered 1
▁adhering 1
▁adi 1
▁adjestment 1
▁adjourned 1
▁admasters 1
▁admini 1
▁administrate 1
▁admirable 1
▁admiration 1
▁admire 1
▁admired 1
▁adobe 1
▁adopt 1
▁adopting 1
▁adoption 1
▁ads 1
▁advantage 1
▁advertisers 1
▁advise 1
▁advised 1
▁affilited 1
▁afford 1
▁aforesaid 1
▁aftershave 1
▁afterwards 1
▁agalwatta 1
▁agenda 1
▁aggregate 1
▁aggrieved 1
▁aglycic 1
▁agrabodhi 1
▁ahangama 1
▁ailing 1
▁ailments 1
▁aims 1
▁aircrafts 1
▁airforce 1
▁airing 1
▁airmac 1
▁akkara 1
▁akuramboda 1
▁alagalla 1
▁alahapperuma 1
▁alakamandawa 1
▁alawathugoda 1
▁alert 1
▁alien 1
▁allows 1
▁almighty 1
▁aloe 1
▁aloka 1
▁alongside 1
▁alphabet 1
▁alphabetical 1
▁alphabets 1
▁alsepura 1
▁alternate 1
▁alternatives 1
▁altitude 1
▁aluth 1
▁always 1
▁alwis 1
▁amantha 1
▁ambagaha 1
▁ambalangoda 1
▁ambaraluwa 1
▁ambassadors 1
▁ambatenna 1
▁ambition 1
▁ambulances 1
▁amenities 1
▁amenity 1
▁amidst 1
▁amortization 1
▁ampal 1
▁amphibians 1
▁amunugama 1
▁amusement 1
▁amuthamoli 1
▁anaconda 1
▁analysed 1
▁analyze 1
▁analyzed 1
▁andaulpotha 1
▁andurupata 1
▁anil 1
▁animations 1
▁annamalai 1
▁annonyadhara 1
▁announcements 1
▁anoja 1
▁anomaly 1
▁anpu 1
▁answerable 1
▁answered 1
▁antibiotics 1
▁anticipated 1
▁antimicrobial 1
▁antioxidants 1
▁antiques 1
▁antuhrium 1
▁anula 1
▁anura 1
▁anuradhapuraya 1
▁ap 1
▁apai 1
▁apaladeniya 1
▁apen 1
▁appearance 1
▁appearing 1
▁appendixes 1
▁appoinment 1
▁appointmented 1
▁appraisal 1
▁appraisals 1
▁appraising 1
▁appreciated 1
▁apprenticeship 1
▁approaches 1
▁appropriately 1
▁approximate 1
▁apprt 1
▁aquarium 1
▁aquariums 1
▁arachchie 1
▁arachhickattuwa 1
▁arakshana 1
▁aralaganwila 1
▁araly 1
▁aranayake 1
▁arangala 1
▁aranrery 1
▁arbitrations 1
▁arboretum 1
▁archaeologist 1
▁archchikattuwa 1
▁arching 1
▁archived 1
▁archives 1
▁arena 1
▁aria 1
▁arisen 1
▁arivoli 1
▁arm 1
▁arose 1
▁arrack 1
▁arranges 1
▁arrivals 1
▁arrived 1
▁arthur 1
▁artist 1
▁artistes 1
▁artistries 1
▁arul 1
▁arulmigu 1
▁arunella 1
▁ascertaining 1
▁asela 1
▁ash 1
▁ashtaka 1
▁asiriya 1
▁asphalt 1
▁asses 1
▁assign 1
▁assists 1
▁assiting 1
▁associate 1
▁associates 1
▁assumed 1
▁assumptions 1
▁assure 1
▁astrological 1
▁athage 1
▁athletic 1
▁athourity 1
▁aththidiya 1
▁athur 1
▁athurugiriya 1
▁athwelak 1
▁atmospheric 1
▁attaches 1
▁attack 1
▁attain 1
▁attainable 1
▁atthankadawala 1
▁attitudinal 1
▁attracting 1
▁attraction 1
▁attractions 1
▁attractiveness 1
▁attracts 1
▁attributed 1
▁auction 1
▁auctioneer 1
▁audible 1
▁audience 1
▁audiences 1
▁aurudu 1
▁auspicious 1
▁australian 1
▁austria 1
▁authentic 1
▁authenticate 1
▁authenticated 1
▁author 1
▁authorizing 1
▁auto 1
▁autobiographies 1
▁autobiography 1
▁automatic 1
▁autonomous 1
▁autonomy 1
▁auxiliary 1
▁avenues 1
▁avissawellais 1
▁avocado 1
▁avururdu 1
▁avvaiyar 1
▁await 1
▁awaited 1
▁aweek 1
▁awissawella 1
▁awvaiyar 1
▁ayuvowan 1
▁backdrop 1
▁backgrounds 1
▁backward 1
▁bacteria 1
▁badalkumbura 1
▁badly 1
▁badugama 1
▁bag 1
▁bahavan 1
▁baker 1
▁bakery 1
▁bakinigahawela 1
▁balabowa 1
▁balagolla 1
▁balapitiya 1
▁balayogi 1
▁bambalapity 1
▁bamblapitiya 1
▁bandara 1
▁bandaranayaka 1
▁bandaranayake 1
▁bandarawatta 1
▁bandula 1
▁bashu 1
▁basins 1
▁bath 1
▁bathrooms 1
▁batiicaloa 1
▁batik 1
▁batticloa 1
▁battle 1
▁bds 1
▁beach 1
▁beam 1
▁bear 1
▁beds 1
▁bee 1
▁begin 1
▁begins 1
▁begun 1
▁behavior 1
▁behind 1
▁beijing 1
▁believed 1
▁bellapitiya 1
▁belly 1
▁belonged 1
▁belt 1
▁betal 1
▁betel 1
▁betterment 1
▁beverage 1
▁beverages 1
▁bharatham 1
▁bharathiyar 1
▁bharathy 1
▁bhoth 1
▁bibila 1
▁bibile 1
▁bidder 1
▁bidding 1
▁bidunu 1
▁big 1
▁bihansith 1
▁bikkhu 1
▁bima 1
▁bimstec 1
▁bind 1
▁bindum 1
▁biochemistry 1
▁biologically 1
▁biotechnology 1
▁biscuits 1
▁bite 1
▁blacksmith 1
▁blended 1
▁blessings 1
▁blocks 1
▁blue 1
▁bmes 1
▁bmich 1
▁bo 1
▁boats 1
▁bodaragama 1
▁bodhi 1
▁bodhiya 1
▁bogoda 1
▁bolgodalake 1
▁bone 1
▁booking 1
▁bookings 1
▁boomi 1
▁boosting 1
▁bopale 1
▁bopitiya 1
▁boralu 1
▁borrowing 1
▁borrowings 1
▁bosco 1
▁bottles 1
▁bottling 1
▁boundary 1
▁bowsers 1
▁boxes 1
▁boyagane 1
▁brazil 1
▁bread 1
▁breaking 1
▁breakup 1
▁breathe 1
▁brick 1
▁bricks 1
▁bridal 1
▁briefed 1
▁brindawani 1
▁brink 1
▁brinthavani 1
▁broadcaster 1
▁broader 1
▁broadly 1
▁brown 1
▁bryophytes 1
▁btk 1
▁btu 1
▁buck 1
▁buddasravaka 1
▁buddhabhi 1
▁buddhism 1
▁buddhists 1
▁budgeting 1
▁bulbs 1
▁bulk 1
▁bull 1
▁bunka 1
▁businessmen 1
▁busses 1
▁buvaneswary 1
▁cab 1
▁cabs 1
▁cadet 1
▁cafe 1
▁café 1
▁cages 1
▁calculation 1
▁cam 1
▁campus 1
▁canadian 1
▁canned 1
▁canopies 1
▁canteen 1
▁capacities 1
▁capita 1
▁captive 1
▁carbon 1
▁carder 1
▁cardres 1
▁carnet 1
▁carnivore 1
▁carol 1
▁carpente 1
▁carpentry 1
▁carpets 1
▁carriageways 1
▁carries 1
▁cartoons 1
▁cassttee 1
▁cast 1
▁caste 1
▁cat 1
▁catbs 1
▁catered 1
▁caters 1
▁catholic 1
▁cattles 1
▁cd 1
▁cds 1
▁cea 1
▁cecb 1
▁celebrating 1
▁celvary 1
▁cenre 1
▁centering 1
▁certifies 1
▁certify 1
▁cess 1
▁cey 1
▁ceylinco 1
▁cfi 1
▁cg 1
▁chair 1
▁chamila 1
▁championship 1
▁chancellor 1
▁chandana 1
▁chandarasiri 1
▁chandra 1
▁chanel 1
▁changing 1
▁chankanai 1
▁channa 1
▁chargers 1
▁charts 1
▁chat 1
▁cheating 1
▁checks 1
▁chemists 1
▁chithra 1
▁chithrameny 1
▁chogm 1
▁chosen 1
▁chromosomes 1
▁chronic 1
▁chronicle 1
▁cinemas 1
▁cinnamon 1
▁circumstances 1
▁cisir 1
▁cited 1
▁citizen 1
▁civet 1
▁civic 1
▁cke 1
▁claiming 1
▁claims 1
▁clarke 1
▁classical 1
▁classics 1
▁classis 1
▁clause 1
▁clauses 1
▁client 1
▁clifford 1
▁closer 1
▁closure 1
▁cloud 1
▁cml 1
▁cobe 1
▁coca 1
▁coccuria 1
▁coconuts 1
▁codes 1
▁coinciding 1
▁collaborate 1
▁collapsed 1
▁collate 1
▁collateral 1
▁collector 1
▁colonial 1
▁colony 1
▁column 1
▁combination 1
▁combine 1
▁combined 1
▁combining 1
▁combustion 1
▁comfortable 1
▁comity 1
▁commander 1
▁commemorated 1
▁commences 1
▁commenting 1
▁commercially 1
▁commercials 1
▁commissioning 1
▁commitments 1
▁communicate 1
▁comol 1
▁comomorate 1
▁competency 1
▁compile 1
▁completing 1
▁complies 1
▁complimentary 1
▁complying 1
▁composer 1
▁compounds 1
▁compromising 1
▁compulsory 1
▁comsats 1
▁concentrating 1
▁concerns 1
▁concisely 1
▁conclusions 1
▁concurrence 1
▁conduced 1
▁conducive 1
▁conductive 1
▁conductors 1
▁confident 1
▁confirming 1
▁congestion 1
▁consequence 1
▁conservational 1
▁considers 1
▁consistence 1
▁consistently 1
▁conspirators 1
▁constraints 1
▁consult 1
▁consultancies 1
▁consultants 1
▁consultations 1
▁consumers 1
▁consumption 1
▁contained 1
▁continual 1
▁continually 1
▁continuation 1
▁contracted 1
▁controversy 1
▁convenient 1
▁conversations 1
▁convert 1
▁converter 1
▁converting 1
▁cool 1
▁copied 1
▁corn 1
▁corpo 1
▁corporal 1
▁corps 1
▁correcting 1
▁correspondence 1
▁correspondents 1
▁costing 1
▁counterpart 1
▁counties 1
▁couples 1
▁courteous 1
▁cover 1
▁cr 1
▁crane 1
▁creations 1
▁creatively 1
▁creativities 1
▁crediting 1
▁cremation 1
▁crew 1
▁critically 1
▁crown 1
▁cruel 1
▁crutches 1
▁cs 1
▁ctb 1
▁cu 1
▁cultivate 1
▁curtail 1
▁cutoff 1
▁cycles 1
▁cycling 1
▁daduru 1
▁dairy 1
▁dalugama 1
▁dalukkane 1
▁damage 1
▁damaged 1
▁damages 1
▁damana 1
▁dambadeniya 1
▁damma 1
▁dankotuwa 1
▁danture 1
▁darisanam 1
▁daru 1
▁daspethiya 1
▁database 1
▁databases 1
▁david 1
▁dawase 1
▁dayarathne 1
▁dayaratne 1
▁ddg 1
▁dealers 1
▁dealings 1
▁dealt 1
▁dean 1
▁deans 1
▁debeters 1
▁decentralized 1
▁decide 1
▁declare 1
▁decline 1
▁declines 1
▁decongesting 1
▁decreasing 1
▁deducting 1
▁deegalla 1
▁deep 1
▁deepavalee 1
▁deepavali 1
▁deepawali 1
▁deepest 1
▁deepika 1
▁deeply 1
▁defaulted 1
▁defaults 1
▁defending 1
▁deferred 1
▁defictics 1
▁definitions 1
▁degradation 1
▁degrees 1
▁dehiattakandiya 1
▁dehiovita 1
▁deiyandara 1
▁dela 1
▁delayed 1
▁delgoda 1
▁deliberately 1
▁delthota 1
▁deltota 1
▁demise 1
▁demonstrating 1
▁demurrage 1
▁denied 1
▁denipitiya 1
▁denny 1
▁depend 1
▁depended 1
▁depict 1
▁depicting 1
▁depicts 1
▁deplorable 1
▁deposited 1
▁depot 1
▁depots 1
▁depreciated 1
▁deprived 1
▁deputies 1
▁deraniyagala 1
▁derive 1
▁dermatological 1
▁describes 1
▁deserted 1
▁desired 1
▁destination 1
▁destroy 1
▁detect 1
▁detected 1
▁deteriorated 1
▁deutsche 1
▁devalaye 1
▁devalued 1
▁devaraja 1
▁develope 1
▁devices 1
▁devinuwara 1
▁devising 1
▁devp 1
▁dew 1
▁dhara 1
▁dharmachariyar 1
▁dharmaratna 1
▁dharmasekara 1
▁dharnachariyars 1
▁dhurkka 1
▁di 1
▁diagram 1
▁diesel 1
▁differ 1
▁diganthe 1
▁dignitaries 1
▁dilhani 1
▁dilith 1
▁dimbulagala 1
▁dina 1
▁diplomas 1
▁diplomatic 1
▁directedto 1
▁directorates 1
▁diri 1
▁diriyata 1
▁disadvantaged 1
▁disaggregated 1
▁disciplines 1
▁discissions 1
▁disclosures 1
▁discount 1
▁discouraged 1
▁discovered 1
▁dishonored 1
▁disk 1
▁disks 1
▁dislocation 1
▁dislocations 1
▁disparities 1
▁dispatched 1
▁dispensers 1
▁dispersion 1
▁disposables 1
▁dispute 1
▁disputes 1
▁disrict 1
▁disseminating 1
▁dissemination 1
▁distill 1
▁distrest 1
▁districtvice 1
▁diulwewa 1
▁diva 1
▁diver 1
▁diverging 1
▁divers 1
▁diversified 1
▁divides 1
▁divine 1
▁divulgane 1
▁diwara 1
▁diyani 1
▁diyatalawa 1
▁diyawaragama 1
▁dma 1
▁dna 1
▁doctorate 1
▁documentations 1
▁dolapihilla 1
▁doluwa 1
▁donatoin 1
▁dooli 1
▁door 1
▁dos 1
▁doses 1
▁doubt 1
▁doubtful 1
▁downs 1
▁dracaena 1
▁drafts 1
▁draftsman 1
▁drain 1
▁drains 1
▁drastically 1
▁draughts 1
▁dreams 1
▁dredging 1
▁dressing 1
▁dried 1
▁drink 1
▁drinking 1
▁drinks 1
▁driven 1
▁drivers 1
▁droping 1
▁drought 1
▁drug 1
▁drummers 1
▁dual 1
▁dubbing 1
▁dudaru 1
▁dudecyl 1
▁dues 1
▁duli 1
▁dunupothagama 1
▁duplicated 1
▁duplication 1
▁durations 1
▁dushmanthi 1
▁dvd 1
▁dvds 1
▁dyeing 1
▁dynamic 1
▁ear 1
▁ease 1
▁eastem 1
▁easter 1
▁easy 1
▁eat 1
▁eats 1
▁ecological 1
▁economics 1
▁economis 1
▁ecosystem 1
▁ecotourism 1
▁editorial 1
▁educated 1
▁effecting 1
▁eggs 1
▁egodakanda 1
▁ehala 1
▁ehelepola 1
▁eighty 1
▁ekamuthugama 1
▁ekanayake 1
▁elaborate 1
▁elaignarkalukku 1
▁elecricity 1
▁elected 1
▁electric 1
▁electrophoresis 1
▁element 1
▁eligibility 1
▁eliminated 1
▁eliminating 1
▁elimination 1
▁elkaduwa 1
▁elle 1
▁elpitiya 1
▁embassy 1
▁embilipitiya 1
▁emblems 1
▁embodying 1
▁embraced 1
▁emerged 1
▁emergence 1
▁emergencies 1
▁emitting 1
▁employ 1
▁emu 1
▁en 1
▁enabaling 1
▁encashment 1
▁encloses 1
▁encompass 1
▁encounter 1
▁encouraged 1
▁encylopedia 1
▁endearingly 1
▁endeavor 1
▁endeavour 1
▁endorsement 1
▁eng 1
▁engages 1
▁enjoying 1
▁enoc 1
▁entertained 1
▁entertaining 1
▁entities 1
▁entry 1
▁enumerators 1
▁environ 1
▁environmentmin 1
▁enzymatic 1
▁enzyme 1
▁enzymes 1
▁epamulla 1
▁epf 1
▁episodes 1
▁equilibrium 1
▁equip 1
▁equivalent 1
▁equivalents 1
▁eradicating 1
▁eraiyarul 1
▁eramuduliyadda 1
▁erring 1
▁erroneously 1
▁erupted 1
▁erupting 1
▁escalating 1
▁escalation 1
▁escalations 1
▁escap 1
▁esthetics 1
▁estimation 1
▁ethnicity 1
▁ets 1
▁etv 1
▁evacuation 1
▁evaluate 1
▁evening 1
▁everywhere 1
▁evident 1
▁exact 1
▁examples 1
▁excelled 1
▁exchanges 1
▁excluding 1
▁exclusively 1
▁exhaustive 1
▁exhibits 1
▁expanded 1
▁expect 1
▁expences 1
▁expended 1
▁expending 1
▁expensive 1
▁expert 1
▁expertised 1
▁explain 1
▁explanations 1
▁exported 1
▁exporting 1
▁expose 1
▁exposing 1
▁exsisting 1
▁exterior 1
▁externally 1
▁extinction 1
▁extra 1
▁extracted 1
▁extremely 1
▁facilitates 1
▁fall 1
▁fallen 1
▁falls 1
▁familiarize 1
▁fans 1
▁farmer 1
▁fast 1
▁faster 1
▁fasting 1
▁fastings 1
▁favorable 1
▁fd 1
▁feature 1
▁featuring 1
▁fed 1
▁federal 1
▁feed 1
▁feedback 1
▁felicitate 1
▁fell 1
▁fellow 1
▁fellowship 1
▁females 1
▁fences 1
▁fense 1
▁fermented 1
▁fiancé 1
▁fiber 1
▁fibre 1
▁fight 1
▁figure 1
▁filming 1
▁finalise 1
▁finalists 1
▁finances 1
▁finish 1
▁firms 1
▁fishes 1
▁fix 1
▁flage 1
▁flagship 1
▁flagsip 1
▁flavoured 1
▁flood 1
▁floricultural 1
▁floristic 1
▁flour 1
▁flow 1
▁flying 1
▁flyover 1
▁flyovers 1
▁focuses 1
▁fodder 1
▁folders 1
▁foods 1
▁forecast 1
▁foreigners 1
▁forensic 1
▁forests 1
▁foreword 1
▁forgot 1
▁forigen 1
▁formalized 1
▁formed 1
▁formula 1
▁formulations 1
▁forthcoming 1
▁forts 1
▁forum 1
▁forwarding 1
▁fossils 1
▁foun 1
▁foxes 1
▁fps 1
▁framed 1
▁fraudulently 1
▁freight 1
▁frequency 1
▁fried 1
▁friendliness 1
▁froster 1
▁ftp 1
▁fts 1
▁fuction 1
▁fujairah 1
▁fuji 1
▁fulfiling 1
▁fulfilment 1
▁fulfils 1
▁fun 1
▁futher 1
▁gainful 1
▁gajma 1
▁galdeniya 1
▁galen 1
▁galigamuwa 1
▁gallage 1
▁gallant 1
▁galvanizing 1
▁gam 1
▁game 1
▁gamma 1
▁gammanaya 1
▁gamunu 1
▁ganahena 1
▁gandhi 1
▁ganewatte 1
▁gangaihal 1
▁gangaramaya 1
▁gangodawila 1
▁gap 1
▁gaps 1
▁garage 1
▁garages 1
▁gateway 1
▁gatha 1
▁gather 1
▁gathered 1
▁gave 1
▁gaya 1
▁gazetted 1
▁gc 1
▁geared 1
▁gearing 1
▁gedara 1
▁gel 1
▁gene 1
▁generation 1
▁genetic 1
▁geography 1
▁gerbera 1
▁ghana 1
▁gifted 1
▁gifts 1
▁ginihota 1
▁giraffe 1
▁girandhurukotte 1
▁giribava 1
▁girihada 1
▁giriulla 1
▁gives 1
▁gladiolus 1
▁glory 1
▁glp 1
▁gluco 1
▁glue 1
▁gnasinghe 1
▁godahena 1
▁godakanda 1
▁goes 1
▁gold 1
▁golden 1
▁golf 1
▁gomarankadawela 1
▁gonapinuwala 1
▁gonapola 1
▁gotabaya 1
▁governors 1
▁gpar 1
▁gr 1
▁grad 1
▁graded 1
▁grading 1
▁granite 1
▁grapite 1
▁grassland 1
▁grassroot 1
▁gratuities 1
▁grave 1
▁graves 1
▁greatest 1
▁greatly 1
▁greens 1
▁greetings 1
▁grete 1
▁grew 1
▁grey 1
▁grinding 1
▁grocery 1
▁gross 1
▁gs 1
▁guarantees 1
▁gudi 1
▁gunatilak 1
▁gunawardene 1
▁gunawardhane 1
▁gurubabila 1
▁gurukulam 1
▁gusi 1
▁guwavn 1
▁habit 1
▁habitat 1
▁haburugala 1
▁haccp 1
▁hadabima 1
▁haithpiyasa 1
▁haldummulla 1
▁halfway 1
▁haloluwa 1
▁haltota 1
▁halts 1
▁hamuda 1
▁hamuwa 1
▁handa 1
▁handbook 1
▁handcraft 1
▁handling 1
▁handrail 1
▁hanging 1
▁hanguranketa 1
▁hangurankethe 1
▁hansika 1
▁hanthana 1
▁hapan 1
▁happened 1
▁happens 1
▁hapugoda 1
▁haputale 1
▁haputhale 1
▁harasiyagama 1
▁haraskada 1
▁harassment 1
▁harbour 1
▁hardships 1
▁hardware 1
▁harf 1
▁harispattuwa 1
▁haritha 1
▁harming 1
▁harrison 1
▁hasen 1
▁hathak 1
▁hatharaliyadda 1
▁hc 1
▁hcfc 1
▁hdfc 1
▁headlines 1
▁healthcare 1
▁healthier 1
▁healthily 1
▁heart 1
▁heartly 1
▁hearts 1
▁hebarium 1
▁heights 1
▁helpful 1
▁henanigala 1
▁henceforth 1
▁hereafter 1
▁heritages 1
▁heroic 1
▁hetharaliyadda 1
▁hettiarachchi 1
▁hevisi 1
▁heyare 1
▁hidden 1
▁hider 1
▁hierarchical 1
▁hierarchy 1
▁higest 1
▁highlight 1
▁highlighting 1
▁highlights 1
▁hikkaduwa 1
▁himalayan 1
▁hindi 1
▁hingulakanda 1
▁hingurakgoda 1
▁hiransa 1
▁historic 1
▁historically 1
▁hits 1
▁hoc 1
▁holcim 1
▁holder 1
▁holy 1
▁holyday 1
▁homeopathic 1
▁honorable 1
▁honour 1
▁horawpathana 1
▁hori 1
▁horizontal 1
▁horse 1
▁hortorn 1
▁hosting 1
▁hot 1
▁hr 1
▁hritha 1
▁hsbc 1
▁hts 1
▁humane 1
▁humanity 1
▁hundred 1
▁hundreds 1
▁huseniy 1
▁hydraulic 1
▁hydrochloroflu 1
▁hydrology 1
▁hydrolysis 1
▁ia 1
▁iaea 1
▁iccromn 1
▁icomos 1
▁id 1
▁iddawela 1
▁idea 1
▁identical 1
▁idled 1
▁illiteracy 1
▁illukowita 1
▁imaduwa 1
▁iml 1
▁immaterial 1
▁immense 1
▁immensely 1
▁imminent 1
▁immortal 1
▁immovable 1
▁impairment 1
▁implements 1
▁impllementing 1
▁importer 1
▁importers 1
▁imports 1
▁impoverished 1
▁imprestnlsi 1
▁improperly 1
▁inaction 1
▁inactive 1
▁inadequate 1
▁inappropriate 1
▁incidents 1
▁inclined 1
▁inclusion 1
▁incomparable 1
▁incompatibility 1
▁incompatible 1
▁inconsistent 1
▁inconvenienced 1
▁increasingly 1
▁increment 1
▁indeed 1
▁independently 1
▁index 1
▁indicate 1
▁indicative 1
▁indira 1
▁indonesian 1
▁indru 1
▁induruwa 1
▁inequalities 1
▁inevitable 1
▁infections 1
▁inflationary 1
▁inflow 1
▁informative 1
▁informer 1
▁ing 1
▁ingredients 1
▁inherent 1
▁inner 1
▁inovative 1
▁inputs 1
▁inquiries 1
▁insects 1
▁insfastructor 1
▁inside 1
▁insightful 1
▁inst 1
▁installing 1
▁instantaneously 1
▁instrumental 1
▁int 1
▁integrating 1
▁intensive 1
▁intent 1
▁intention 1
▁interact 1
▁interacting 1
▁interactive 1
▁interdict 1
▁interlock 1
▁interlocking 1
▁intermediate 1
▁internship 1
▁interruption 1
▁intertwined 1
▁intervene 1
▁intervening 1
▁intimating 1
▁introductory 1
▁intuitions 1
▁inventories 1
▁invertebrates 1
▁invest 1
▁inviting 1
▁ip 1
▁ipankthiv 1
▁ipg 1
▁ippadikku 1
▁ir 1
▁ira 1
▁iron 1
▁irradiation 1
▁irregular 1
▁irrespective 1
▁irresponsible 1
▁isbn 1
▁isc 1
▁isiwara 1
▁islands 1
▁issuses 1
▁isthuthi 1
▁isthuthigama 1
▁isuzu 1
▁ivan 1
▁jaikkalam 1
▁jambugahapitiya 1
▁janeiro 1
▁januar 1
▁jap 1
▁jawatta 1
▁jayabahu 1
▁jayalath 1
▁jayamangala 1
▁jayantha 1
▁jayaralapura 1
▁jayasekera 1
▁jayasooriya 1
▁jayasundara 1
▁jayathilake 1
▁jayaviru 1
▁jayaward 1
▁jayawardana 1
▁jeeps 1
▁jelly 1
▁jetty 1
▁jeunesse 1
▁jewell 1
▁jewelry 1
▁jica 1
▁jimmy 1
▁jinadasa 1
▁jinendrasinghe 1
▁johnson 1
▁join 1
▁joined 1
▁jointly 1
▁journal 1
▁journals 1
▁jr 1
▁jubilee 1
▁judging 1
▁juices 1
▁jungle 1
▁jungles 1
▁junior 1
▁kaalai 1
▁kaali 1
▁kaamarajar 1
▁kaburupitiya 1
▁kachcheri 1
▁kadagatha 1
▁kadana 1
▁kadum 1
▁kaithady 1
▁kaiyedu 1
▁kalabhushana 1
▁kalai 1
▁kalani 1
▁kalawellawa 1
▁kaleliya 1
▁kaluaggala 1
▁kaluarachchi 1
▁kalutanthri 1
▁kamburawala 1
▁kanakaratnam 1
▁kanchana 1
▁kanda 1
▁kandakadu 1
▁kandaketiya 1
▁kandasamy 1
▁kandathum 1
▁kandegama 1
▁kanden 1
▁kanishta 1
▁kankasanthurai 1
▁kannaki 1
▁kanny 1
▁karachchi 1
▁karaitivu 1
▁karametiya 1
▁karandeniya 1
▁karangoda 1
▁karate 1
▁karathive 1
▁karativu 1
▁karawanella 1
▁karunaratne 1
▁karuwalagasweva 1
▁kasi 1
▁kathiragama 1
▁kathiresan 1
▁kathirvelautha 1
▁kaththankudi 1
▁katupotha 1
▁kaveetha 1
▁kavita 1
▁kayankerny 1
▁keen 1
▁keeper 1
▁keeragala 1
▁kelani 1
▁kerativu 1
▁kerawalapitiya 1
▁kettaththum 1
▁kg 1
▁kidapola 1
▁kidney 1
▁kilinochchiand 1
▁kiran 1
▁kiri 1
▁kiribathgoda 1
▁kirigal 1
▁kiriibbanara 1
▁kirimatiya 1
▁kirinda 1
▁kirindiwela 1
▁kirubakaran 1
▁kirulapone 1
▁kittangi 1
▁kivula 1
▁knit 1
▁know 1
▁knowledgeable 1
▁kodithuwakku 1
▁kohilagedara 1
▁kokila 1
▁kokilai 1
▁kokkeralla 1
▁kokkuwil 1
▁kolavenigama 1
▁kollonnawa 1
▁koragahawela 1
▁korale 1
▁koralegama 1
▁korean 1
▁kotehena 1
▁kotmale 1
▁kotte 1
▁kottegoda 1
▁kottukachachiya 1
▁kreeda 1
▁kudagalpola 1
▁kudawair 1
▁kudineer 1
▁kudu 1
▁kulasinghe 1
▁kumar 1
▁kumbabisekam 1
▁kunkuma 1
▁kunming 1
▁kunuragala 1
▁kurakkanhen 1
▁kurstak 1
▁kurstaki 1
▁kuruduwatta 1
▁kurulukelepara 1
▁kurund 1
▁kuruppu 1
▁kusalatha 1
▁kushani 1
▁kusumalatha 1
▁label 1
▁labelwriter 1
▁labor 1
▁labugama 1
▁laggala 1
▁lahugala 1
▁lake 1
▁lakhanda 1
▁lama 1
▁lamp 1
▁landless 1
▁landscaping 1
▁landslide 1
▁langurs 1
▁lankadeepa 1
▁lankapura 1
▁lankaputhra 1
▁largely 1
▁latitude 1
▁lay 1
▁leaching 1
▁learned 1
▁leaves 1
▁lecturers 1
▁legally 1
▁legend 1
▁legislative 1
▁leipzig 1
▁leisure 1
▁lenses 1
▁lepidopteron 1
▁lessees 1
▁lettering 1
▁leve 1
▁levied 1
▁levying 1
▁liberalization 1
▁liberating 1
▁liberty 1
▁licensee 1
▁lies 1
▁light 1
▁lime 1
▁limitation 1
▁limiting 1
▁liner 1
▁linguistics 1
▁links 1
▁lipase 1
▁liquer 1
▁listening 1
▁literacy 1
▁literal 1
▁liyanagama 1
▁lmrb 1
▁lochen 1
▁lodge 1
▁lodging 1
▁lohore 1
▁lokahettiya 1
▁longitude 1
▁looking 1
▁looks 1
▁lorikeets 1
▁lorries 1
▁lorry 1
▁losing 1
▁lotion 1
▁lotus 1
▁loudspeakers 1
▁loving 1
▁lowers 1
▁lunawa 1
▁lunch 1
▁lunugamvehera 1
▁lunuwatta 1
▁lyrics 1
▁maama 1
▁maanikka 1
▁machinary 1
▁macho 1
▁macro 1
▁madala 1
▁madampe 1
▁madapatha 1
▁madhumali 1
▁madhya 1
▁madiwela 1
▁madukanda 1
▁maduluoya 1
▁maduragoda 1
▁maduru 1
▁maduwa 1
▁madyama 1
▁magnificence 1
▁mahadeva 1
▁mahahena 1
▁mahamedura 1
▁mahamodara 1
▁mahanamahewa 1
▁mahaoya 1
▁maharamaya 1
▁maharathmal 1
▁mahattaya 1
▁mahatthaya 1
▁mahaweva 1
▁mahendra 1
▁mailapitiya 1
▁maithirugama 1
▁maiyyawa 1
▁makaranda 1
▁makkalukku 1
▁makumbura 1
▁malabe 1
▁malana 1
▁male 1
▁males 1
▁malima 1
▁malimbada 1
▁malt 1
▁mamunuwa 1
▁man 1
▁manampitiya 1
▁manasika 1
▁mandala 1
▁mandapaya 1
▁mangalya 1
▁mani 1
▁maningamuwa 1
▁manipay 1
▁manmade 1
▁manmunai 1
▁mannil 1
▁manoj 1
▁manori 1
▁manufact 1
▁manufacturer 1
▁manvasenai 1
▁maradankadawala 1
▁maramba 1
▁marasinghe 1
▁marched 1
▁marginalization 1
▁markets 1
▁marriage 1
▁marshy 1
▁marthupitiya 1
▁martina 1
▁mashcriniyas 1
▁mason 1
▁maspotha 1
▁massage 1
▁massive 1
▁masters 1
▁mathugama 1
▁mats 1
▁matthaka 1
▁maturity 1
▁mavatha 1
▁mawarala 1
▁maydai 1
▁mazlei 1
▁mbc 1
▁mbd 1
▁mbps 1
▁me 1
▁meals 1
▁measured 1
▁meda 1
▁medadumbara 1
▁medagama 1
▁medal 1
▁medamahanuwara 1
▁medawachchiya 1
▁medhalnkara 1
▁mediacla 1
▁median 1
▁mediate 1
▁medicated 1
▁medil 1
▁medirigiriya 1
▁medura 1
▁meegahakivula 1
▁meegalawa 1
▁meerahawawatta 1
▁mellawalana 1
▁membrane 1
▁memorandum 1
▁memory 1
▁men 1
▁menace 1
▁mendis 1
▁ment 1
▁mentality 1
▁merbok 1
▁merchandise 1
▁merry 1
▁metal 1
▁meters 1
▁meticulously 1
▁metric 1
▁mfap 1
▁mgif 1
▁microorganisms 1
▁microsoft 1
▁mihintalaya 1
▁mihintale 1
▁mileage 1
▁miles 1
▁mill 1
▁millaniya 1
▁milometer 1
▁minerals 1
▁minimal 1
▁minimization 1
▁minipahan 1
▁minipe 1
▁minisun 1
▁minneriya 1
▁minus 1
▁minuwangoda 1
▁miracle 1
▁mirijawila 1
▁miruthanka 1
▁misellaneous 1
▁misleading 1
▁miss 1
▁missed 1
▁mitigate 1
▁mitigating 1
▁mitigation 1
▁mixture 1
▁miyasi 1
▁ml 1
▁mobil 1
▁mobilising 1
▁mobilize 1
▁mode 1
▁modes 1
▁modification 1
▁modified 1
▁mohootha 1
▁mohotti 1
▁molligoda 1
▁mondays 1
▁moneragala 1
▁monkey 1
▁monks 1
▁monopoly 1
▁montane 1
▁monumental 1
▁moragane 1
▁moratorium 1
▁morawewa 1
▁moreover 1
▁mortgage 1
▁mortgaging 1
▁mosquitoes 1
▁moss 1
▁mostly 1
▁mothers 1
▁motive 1
▁motorcycles 1
▁motors 1
▁mount 1
▁movable 1
▁move 1
▁moved 1
▁movements 1
▁mower 1
▁mrugan 1
▁mts 1
▁mudannayake 1
▁mudun 1
▁mullaithivu 1
▁mullathive 1
▁multilingualism 1
▁munamale 1
▁mundalama 1
▁municiple 1
▁murugan 1
▁muscles 1
▁museums 1
▁mushroom 1
▁musicians 1
▁muththa 1
▁muthuhara 1
▁muthuhet 1
▁muthuma 1
▁muthurajawela 1
▁mutually 1
▁naagapoos 1
▁naaledugalil 1
▁naarayanan 1
▁naboda 1
▁nadeesha 1
▁nadunana 1
▁nagalinga 1
▁nagaraya 1
▁nagarigam 1
▁nageshwara 1
▁nagolla 1
▁nagollagamuwa 1
▁naguleswaram 1
▁naguma 1
▁nalin 1
▁nalla 1
▁nalladar 1
▁nallakkannu 1
▁naming 1
▁nandana 1
▁nanthi 1
▁narahenpita 1
▁narampanawa 1
▁narcotic 1
▁nasflor 1
▁nat 1
▁naththandiya 1
▁nationally 1
▁nations 1
▁native 1
▁natya 1
▁navath 1
▁navathkuli 1
▁navatkuli 1
▁navinna 1
▁nawa 1
▁nawajanapada 1
▁nawakadadora 1
▁nawam 1
▁nawatkuli 1
▁nci 1
▁nearby 1
▁needless 1
▁neethik 1
▁negotiating 1
▁negotiations 1
▁neighbourhood 1
▁neither 1
▁nellandaiyamman 1
▁nelli 1
▁nelum 1
▁nemedagala 1
▁netherlands 1
▁nets 1
▁networks 1
▁newsletter 1
▁newsletters 1
▁nhk 1
▁nhsp 1
▁night 1
▁nikama 1
▁nikaweratiya 1
▁nikaya 1
▁nikethana 1
▁niladari 1
▁nilet 1
▁nilufa 1
▁nimali 1
▁nimayum 1
▁nineteen 1
▁ninth 1
▁nirsathvayo 1
▁nithya 1
▁nithyanathan 1
▁nivithigala 1
▁nivitigala 1
▁niyagama 1
▁niyamuwano 1
▁nle 1
▁nnnual 1
▁nochchiyagam 1
▁nochchiyagama 1
▁nokki 1
▁nonclosure 1
▁nonconformity 1
▁nonexistence 1
▁nor 1
▁norochchole 1
▁norrocholai 1
▁norwegian 1
▁notable 1
▁noteworthy 1
▁nourishing 1
▁novel 1
▁nrm 1
▁nt 1
▁nugadola 1
▁numbered 1
▁numerous 1
▁nupe 1
▁nursery 1
▁nurserymen 1
▁nuts 1
▁nuwata 1
▁obata 1
▁objectivity 1
▁obs 1
▁observe 1
▁observing 1
▁obsolete 1
▁obstructions 1
▁obvious 1
▁occasional 1
▁occupied 1
▁occupy 1
▁occur 1
▁occurrence 1
▁occurring 1
▁occurs 1
▁ocean 1
▁och 1
▁ochphase 1
▁offers 1
▁often 1
▁ohiya 1
▁oic 1
▁oils 1
▁okwala 1
▁oldest 1
▁oliefera 1
▁omission 1
▁omp 1
▁ones 1
▁onsite 1
▁ontract 1
▁oottady 1
▁opd 1
▁opens 1
▁operate 1
▁opposed 1
▁optimistic 1
▁options 1
▁organisations 1
▁organogram 1
▁orientation 1
▁oriented 1
▁ornemental 1
▁orphan 1
▁orr 1
▁oru 1
▁outcome 1
▁outcomes 1
▁outdated 1
▁outlet 1
▁output 1
▁outreach 1
▁outsource 1
▁overdrafts 1
▁overhead 1
▁overpaid 1
▁overstaffing 1
▁overstatements 1
▁owed 1
▁owners 1
▁pa 1
▁pabbatharamaya 1
▁pacific 1
▁packets 1
▁padagala 1
▁padavi 1
▁padavigama 1
▁paddle 1
▁padma 1
▁padukka 1
▁painful 1
▁pakistani 1
▁palace 1
▁palagala 1
▁palamuthu 1
▁palatha 1
▁palaviya 1
▁palawaththa 1
▁palee 1
▁palindanuwara 1
▁pall 1
▁pallakedduwa 1
▁pallepola 1
▁palmadulla 1
▁palmyra 1
▁palynology 1
▁pamunugama 1
▁pamunuwatta 1
▁pan 1
▁panagoda 1
▁panama 1
▁panampattu 1
▁panchangam 1
▁panels 1
▁panikal 1
▁pannala 1
▁pannasai 1
▁pannila 1
▁papedi 1
▁par 1
▁paragaharawa 1
▁paragraphs 1
▁parahettiyagama 1
▁parankipaddai 1
▁parasitology 1
▁parental 1
▁parisarayai 1
▁parliment 1
▁partners 1
▁partnerships 1
▁pasku 1
▁passangers 1
▁passengers 1
▁passive 1
▁passports 1
▁password 1
▁pastures 1
▁pasyala 1
▁patali 1
▁patent 1
▁patents 1
▁pathegama 1
▁pathirana 1
▁pathma 1
▁pathmalaya 1
▁pathogens 1
▁paththara 1
▁paththira 1
▁patriots 1
▁pattern 1
▁pattipola 1
▁pavement 1
▁payablles 1
▁payagala 1
▁pcr 1
▁pdw 1
▁peacebuilding 1
▁pedestrian 1
▁pedpu 1
▁peer 1
▁pehasaraniya 1
▁pelahela 1
▁pelandagoda 1
▁pelican 1
▁pelmadulla 1
▁penalties 1
▁peninsula 1
▁peperation 1
▁peranigama 1
▁perathuweli 1
▁percentages 1
▁perfected 1
▁perfectly 1
▁performs 1
▁perfumes 1
▁peripheral 1
▁permits 1
▁personalities 1
▁personality 1
▁personalized 1
▁personally 1
▁personals 1
▁perspectives 1
▁perth 1
▁perused 1
▁pest 1
▁petrol 1
▁pf 1
▁phasing 1
▁philharmonic 1
▁phony 1
▁phosphate 1
▁phrase 1
▁physics 1
▁phytochemical 1
▁piad 1
▁pibidee 1
▁pidurutalagala 1
▁pilgrim 1
▁pilithuru 1
▁pillaiyaar 1
▁pillaiyar 1
▁pilliyar 1
▁pinned 1
▁piracy 1
▁piri 1
▁pitakanda 1
▁pitawala 1
▁piyadasa 1
▁piyal 1
▁piyum 1
▁plane 1
▁planes 1
▁planningmnlsi 1
▁planns 1
▁planters 1
▁plateau 1
▁platform 1
▁plays 1
▁plc 1
▁pleasant 1
▁pleased 1
▁pleasure 1
▁pledge 1
▁plus 1
▁pm 1
▁pmas 1
▁pms 1
▁pmu 1
▁pnachangam 1
▁points 1
▁pojjata 1
▁pokunuvita 1
▁pokuru 1
▁polduwa 1
▁polgasowita 1
▁polpitigama 1
▁polymerase 1
▁polythene 1
▁pond 1
▁pony 1
▁poompuhar 1
▁poonagary 1
▁poondulooya 1
▁popularisation 1
▁popularised 1
▁popularize 1
▁portable 1
▁porter 1
▁portland 1
▁poruwadanda 1
▁poses 1
▁posses 1
▁postaccountant 1
▁posted 1
▁posters 1
▁pothupitiya 1
▁pottu 1
▁powdered 1
▁prabath 1
▁practically 1
▁practicals 1
▁practiced 1
▁pradarshanaya 1
▁pradesheeya 1
▁prageeth 1
▁prasad 1
▁prassannagama 1
▁prathibha 1
▁prayers 1
▁prda 1
▁preaching 1
▁predicting 1
▁pregnant 1
▁prejasala 1
▁premadasa 1
▁premani 1
▁prepayments 1
▁preperation 1
▁preserved 1
▁presided 1
▁pressure 1
▁prestige 1
▁prevailing 1
▁preview 1
▁previously 1
▁prgrammes 1
▁price 1
▁primrose 1
▁principals 1
▁printers 1
▁printinng 1
▁priorities 1
▁prioritize 1
▁privilege 1
▁priyadharshani 1
▁priyalal 1
▁priyantha 1
▁problematic 1
▁proceed 1
▁proceeded 1
▁proceeds 1
▁processes 1
▁procured 1
▁produces 1
▁professionally 1
▁profiled 1
▁profitability 1
▁prog 1
▁programeme 1
▁programmeis 1
▁progressing 1
▁progrmme 1
▁projected 1
▁projector 1
▁prominent 1
▁promotive 1
▁proof 1
▁proportions 1
▁proposal 1
▁propose 1
▁prospective 1
▁prosperous 1
▁protein 1
▁protus 1
▁proud 1
▁prove 1
▁pseiococcus 1
▁psychology 1
▁pubic 1
▁pudam 1
▁pudumaippen 1
▁puhulwella 1
▁pulasthi 1
▁pulathisi 1
▁pulmoddai 1
▁pump 1
▁pumphouse 1
▁pumps 1
▁punagari 1
▁punchi 1
▁puntias 1
▁punya 1
▁puppetry 1
▁purchases 1
▁pure 1
▁purifying 1
▁pursuant 1
▁pussellawa 1
▁put 1
▁puththam 1
▁puthu 1
▁putting 1
▁putttalam 1
▁putu 1
▁pylori 1
▁pyroli 1
▁quarry 1
▁questionnaire 1
▁questionnaires 1
▁quiet 1
▁quota 1
▁quotations 1
▁rabbedigala 1
▁races 1
▁radhika 1
▁raga 1
▁ragagiriya 1
▁ragala 1
▁raids 1
▁railway 1
▁rainy 1
▁raja 1
▁rajamalwatte 1
▁rajamulwatta 1
▁rajanganaya 1
▁rajapakse 1
▁rajaweediya 1
▁rakna 1
▁ramakrishna 1
▁ramakrishnarin 1
▁ramanya 1
▁ramawickrama 1
▁ramayanam 1
▁rambakenna 1
▁rambawe 1
▁rambe 1
▁rambwa 1
▁rammuthugala 1
▁rammutugama 1
▁ramya 1
▁ranakeli 1
▁rananiru 1
▁ranavitu 1
▁ranawaka 1
▁rapidly 1
▁rapport 1
▁rarely 1
▁rasa 1
▁rasaputhra 1
▁rasi 1
▁rasnayahkepura 1
▁rath 1
▁rathmalgoda 1
▁rathnayaka 1
▁raththota 1
▁ratings 1
▁rations 1
▁ratios 1
▁ratnayake 1
▁rattota 1
▁raveendra 1
▁ravindra 1
▁razavi 1
▁reached 1
▁reaching 1
▁reactivate 1
▁readable 1
▁reader 1
▁reaffirming 1
▁realizable 1
▁realization 1
▁reallocation 1
▁really 1
▁reasearches 1
▁reassigned 1
▁receiver 1
▁recently 1
▁rechecking 1
▁recognizing 1
▁recollecting 1
▁reconcile 1
▁recordable 1
▁recourse 1
▁recourses 1
▁recovering 1
▁recreations 1
▁recruiting 1
▁recurrence 1
▁redeemaliyadda 1
▁redundant 1
▁ref 1
▁reflect 1
▁reflected 1
▁reforming 1
▁reformulation 1
▁refreshment 1
▁refundable 1
▁refurbish 1
▁regaining 1
▁regarded 1
▁regenerate 1
▁regiment 1
▁regionally 1
▁registrar 1
▁registrations 1
▁regularity 1
▁regularized 1
▁regulating 1
▁rehabilitative 1
▁reimbursable 1
▁reintroducing 1
▁reject 1
▁rejecting 1
▁rejection 1
▁relatively 1
▁relay 1
▁relegious 1
▁reliance 1
▁relied 1
▁rely 1
▁remedies 1
▁remembarance 1
▁remember 1
▁remind 1
▁remittances 1
▁remitting 1
▁removal 1
▁rending 1
▁renews 1
▁renovating 1
▁renovations 1
▁renting 1
▁renuka 1
▁reorganization 1
▁repayment 1
▁repeatedly 1
▁repellence 1
▁reperesenting 1
▁replacement 1
▁replied 1
▁repos 1
▁represent 1
▁representation 1
▁representations 1
▁reprint 1
▁reptile 1
▁republican 1
▁republish 1
▁reputed 1
▁requisite 1
▁rereferred 1
▁rescue 1
▁researched 1
▁researcher 1
▁reserves 1
▁reshuffling 1
▁residing 1
▁resolves 1
▁resourced 1
▁respecting 1
▁responding 1
▁restaurant 1
▁restaurants 1
▁restoration 1
▁restore 1
▁restricted 1
▁rests 1
▁retaining 1
▁retardation 1
▁retd 1
▁retire 1
▁retirements 1
▁returns 1
▁revenues 1
▁reviewed 1
▁revision 1
▁revisions 1
▁revival 1
▁reviving 1
▁rewarded 1
▁rewon 1
▁reyak 1
▁rhett 1
▁rhinoceros 1
▁rhythm 1
▁richardson 1
▁ridee 1
▁ridi 1
▁rikillagaskada 1
▁ring 1
▁rival 1
▁rivers 1
▁rividina 1
▁rivira 1
▁rntc 1
▁roadway 1
▁rock 1
▁rohan 1
▁rohana 1
▁roles 1
▁roods 1
▁roof 1
▁rooms 1
▁rose 1
▁roses 1
▁roshan 1
▁rotherham 1
▁rough 1
▁routine 1
▁rubik 1
▁rukul 1
▁rule 1
▁runs 1
▁rupavahiniya 1
▁rupawahini 1
▁sabragamuwa 1
▁saccharomyces 1
▁sacred 1
▁sacrifices 1
▁saddharma 1
▁sadurangam 1
▁safeguarded 1
▁safely 1
▁saffron 1
▁sagt 1
▁sahal 1
▁sahasak 1
▁saibava 1
▁saiv 1
▁saivaneedi 1
▁sajith 1
▁salad 1
▁salalihini 1
▁salient 1
▁saliya 1
▁sama 1
▁samantha 1
▁samarasekara 1
▁samarasinha 1
▁samarusara 1
▁samayak 1
▁samayal 1
▁samayam 1
▁sambur 1
▁samithi 1
▁sampath 1
▁sampatha 1
▁sampathpaya 1
▁sample 1
▁sanali 1
▁sands 1
▁sandurangam 1
▁sangarajapura 1
▁sanjaya 1
▁santhusa 1
▁sanuga 1
▁sanuja 1
▁saptha 1
▁saraswathy 1
▁sarath 1
▁sarpavisha 1
▁sarvodaya 1
▁sasad 1
▁sat 1
▁satff 1
▁sathara 1
▁sathosa 1
▁sattam 1
▁sattrukalsinghe 1
▁savariya 1
▁saved 1
▁saviyak 1
▁say 1
▁saying 1
▁scan 1
▁scarcity 1
▁schedules 1
▁schemes 1
▁scholaship 1
▁scientifically 1
▁screed 1
▁screening 1
▁script 1
▁scrublands 1
▁sds 1
▁search 1
▁seated 1
▁secatariat 1
▁seconded 1
▁secratarits 1
▁sectional 1
▁sectorial 1
▁secured 1
▁seed 1
▁seegiriya 1
▁seek 1
▁seeks 1
▁seen 1
▁segment 1
▁selenica 1
▁sell 1
▁sellers 1
▁selvakk 1
▁semester 1
▁senarath 1
▁senehasa 1
▁senehasakla 1
▁senoir 1
▁sensitizing 1
▁sentences 1
▁serunuwara 1
▁seruwawila 1
▁seruwila 1
▁servants 1
▁servicex 1
▁sethsiripaya 1
▁setups 1
▁seva 1
▁sevakka 1
▁seventy 1
▁severely 1
▁shalika 1
▁shantha 1
▁shanthalokagama 1
▁shape 1
▁shaped 1
▁shares 1
▁sharone 1
▁shehan 1
▁shesthiram 1
▁shilpa 1
▁shirley 1
▁shoe 1
▁sholarship 1
▁shoot 1
▁shop 1
▁shops 1
▁shortages 1
▁shortcomings 1
▁shorten 1
▁shoulders 1
▁showrooms 1
▁shrine 1
▁si 1
▁siblings 1
▁siddha 1
▁sidelines 1
▁significantly 1
▁signifying 1
▁signis 1
▁sihina 1
▁silumina 1
▁similarities 1
▁simplified 1
▁sinahala 1
▁sincere 1
▁singers 1
▁singing 1
▁sinhal 1
▁sinking 1
▁siri 1
▁siriduwa 1
▁sirilaka 1
▁sirimal 1
▁sirimanna 1
▁sirisena 1
▁sisindra 1
▁siththiv 1
▁sittings 1
▁sivagami 1
▁sivasakthi 1
▁sivasatkun 1
▁sivaththamil 1
▁siwudesa 1
▁siyabalagoda 1
▁siyambalanduwe 1
▁siyapathvila 1
▁skilled 1
▁slightly 1
▁slot 1
▁slpa 1
▁slsas 1
▁slts 1
▁sluggishness 1
▁smithsonian 1
▁snake 1
▁snr 1
▁soap 1
▁socialize 1
▁socialized 1
▁sodium 1
▁soil 1
▁soiliyas 1
▁solar 1
▁solidarity 1
▁solomon 1
▁solved 1
▁somachandra 1
▁somadasa 1
▁sonna 1
▁sooriyagahawela 1
▁sooriyakanda 1
▁sor 1
▁sorry 1
▁sort 1
▁sorts 1
▁souvenir 1
▁soyamu 1
▁sp 1
▁spaces 1
▁specialists 1
▁specialized 1
▁specialty 1
▁specification 1
▁specimen 1
▁spectators 1
▁speech 1
▁speeches 1
▁speeds 1
▁spirit 1
▁split 1
▁spolia 1
▁sponsoring 1
▁sporting 1
▁sprat 1
▁sprawling 1
▁spray 1
▁spread 1
▁spreaded 1
▁spreading 1
▁square 1
▁srilanka 1
▁srilankan 1
▁srimal 1
▁sriman 1
▁sripalee 1
▁sstatistics 1
▁stable 1
▁stacking 1
▁stadium 1
▁stain 1
▁stains 1
▁stairway 1
▁stakeholder 1
▁stamps 1
▁stand 1
▁stands 1
▁starts 1
▁stationeries 1
▁statute 1
▁stems 1
▁stepped 1
▁sthya 1
▁stimulating 1
▁sto 1
▁stobilanthes 1
▁stop 1
▁stopped 1
▁storeman 1
▁storing 1
▁storks 1
▁story 1
▁strata 1
▁strategy 1
▁streamlined 1
▁streamlining 1
▁strengthened 1
▁strenuous 1
▁strialg 1
▁strict 1
▁strictly 1
▁strive 1
▁structural 1
▁structuring 1
▁subcontinent 1
▁subharathi 1
▁subhoothi 1
▁subhoothipura 1
▁submissions 1
▁subramaniya 1
▁subsidiary 1
▁subsidies 1
▁subsidized 1
▁substantial 1
▁successor 1
▁sudantha 1
▁sudarsanarama 1
▁sudasuna 1
▁suddenly 1
▁suduwelipotha 1
▁sugathadaasa 1
▁suggested 1
▁suhani 1
▁suitability 1
▁sulphate 1
▁sulphur 1
▁suminda 1
▁summaries 1
▁summer 1
▁summoned 1
▁summory 1
▁sunanda 1
▁sundays 1
▁sup 1
▁supdt 1
▁superior 1
▁supervisory 1
▁supipi 1
▁supiri 1
▁supplimentary 1
▁supposed 1
▁supuwatha 1
▁surakum 1
▁suramya 1
▁suranee 1
▁surani 1
▁suranimala 1
▁suraweera 1
▁surcharge 1
▁surety 1
▁suriyaarachchi 1
▁suriyabandara 1
▁surpassed 1
▁surpluses 1
▁surrounding 1
▁suruthy 1
▁surveyors 1
▁suspects 1
▁sustainability 1
▁sustainably 1
▁sustaining 1
▁suthar 1
▁sutharshnarama 1
▁suvioner 1
▁suvoiner 1
▁swami 1
▁swaminathan 1
▁sweden 1
▁swedish 1
▁sweet 1
▁symbiotic 1
▁symposium 1
▁syrup 1
▁systematically 1
▁tabling 1
▁tabloids 1
▁tabulated 1
▁tagging 1
▁takes 1
▁talaimannar 1
▁talented 1
▁tami 1
▁tamils 1
▁tangalle 1
▁tangible 1
▁tank 1
▁tanks 1
▁tap 1
▁tape 1
▁taruwa 1
▁tasked 1
▁tasseled 1
▁taste 1
▁taxonomic 1
▁teams 1
▁teaser 1
▁technician 1
▁tecs 1
▁tel 1
▁telbeddawattha 1
▁teledram 1
▁telephones 1
▁telepromptor 1
▁teles 1
▁televising 1
▁tendency 1
▁tennekumbura 1
▁termination 1
▁tern 1
▁territory 1
▁th 1
▁thala 1
▁thalams 1
▁thaldena 1
▁thalpotha 1
▁thamankaduwa 1
▁thambuthegama 1
▁thanakolawatte 1
▁thangalle 1
▁thanked 1
▁thankful 1
▁thankfulness 1
▁thanking 1
▁thannamunai 1
▁thanthirimale 1
▁thanuja 1
▁tharaka 1
▁tharidini 1
▁tharuka 1
▁thavalama 1
▁thawgala 1
▁theater 1
▁thelijjawila 1
▁thellipalai 1
▁theoretical 1
▁therefor 1
▁therein 1
▁theru 1
▁thick 1
▁thihaagoda 1
▁thimilai 1
▁things 1
▁thinking 1
▁thirappne 1
▁thirumurugan 1
▁thirunagar 1
▁thiruththanikai 1
▁thissamaharama 1
▁thissera 1
▁thoththiram 1
▁thotupolakande 1
▁threethal 1
▁thrift 1
▁thrunodaya 1
▁thunthara 1
▁thuriengensis 1
▁thursdays 1
▁tidiness 1
▁tile 1
▁timbirigasyaya 1
▁tireless 1
▁tires 1
▁tissamaharama 1
▁tissapura 1
▁tissawewa 1
▁tissera 1
▁tissue 1
▁tokens 1
▁tokyo 1
▁tomorrow 1
▁tons 1
▁topics 1
▁torrington 1
▁totalling 1
▁touch 1
▁tourists 1
▁towns 1
▁township 1
▁tracer 1
▁trademark 1
▁trailer 1
▁trans 1
▁transfered 1
▁transform 1
▁transforming 1
▁translated 1
▁translating 1
▁transparent 1
▁transporting 1
▁traveler 1
▁travelled 1
▁traverses 1
▁traversing 1
▁treating 1
▁treatments 1
▁trials 1
▁triangle 1
▁tribunals 1
▁trikondiadimadu 1
▁trikondiyamadu 1
▁trimcomalee 1
▁trip 1
▁tropic 1
▁tropical 1
▁trouble 1
▁trucks 1
▁trustee 1
▁trustees 1
▁ts 1
▁tu 1
▁tune 1
▁tunnel 1
▁tunnels 1
▁turning 1
▁twined 1
▁types 1
▁typist 1
▁tyres 1
▁ubhayawansa 1
▁uchchimuni 1
▁udahenagama 1
▁udamauara 1
▁udatenna 1
▁udawela 1
▁udayanga 1
▁udhaya 1
▁ududumbara 1
▁uhana 1
▁ulagavalam 1
▁ulaha 1
▁umbrella 1
▁unaffected 1
▁unawatuna 1
▁underage 1
▁understand 1
▁understatements 1
▁undertake 1
▁underutilis 1
▁underutilised 1
▁undervaluation 1
▁underwent 1
▁undeveloped 1
▁undoubtedly 1
▁unedited 1
▁unesco 1
▁unexpected 1
▁unfailingly 1
▁unfermented 1
▁unhealthy 1
▁uniforms 1
▁unions 1
▁uniqueness 1
▁unprecedented 1
▁unreconciled 1
▁untill 1
▁unu 1
▁unveiled 1
▁upholding 1
▁uploaded 1
▁uploading 1
▁ups 1
▁upuli 1
▁upward 1
▁uraniya 1
▁urgently 1
▁usd 1
▁uses 1
▁usually 1
▁uswetakeiyawa 1
▁uswewa 1
▁uththararamaya 1
▁uthurupavva 1
▁utilizing 1
▁uttamapuja 1
▁uv 1
▁vaakkukal 1
▁vaddahs 1
▁vadduvagal 1
▁vaduna 1
▁valarchchi 1
▁valem 1
▁valipadduth 1
▁vallai 1
▁vally 1
▁valuation 1
▁van 1
▁vanaguru 1
▁vanakkam 1
▁vanathawilluwa 1
▁vandana 1
▁vanga 1
▁vannam 1
▁vaporizer 1
▁varied 1
▁varuna 1
▁vasandam 1
▁vast 1
▁vasthra 1
▁vavunia 1
▁vayamba 1
▁vcds 1
▁vcrs 1
▁vedikava 1
▁vedikawa 1
▁veera 1
▁veeraiyadi 1
▁veerappan 1
▁velai 1
▁veliwita 1
▁venithagama 1
▁ventilation 1
▁verbatim 1
▁verdict 1
▁verify 1
▁version 1
▁versions 1
▁vessel 1
▁vessels 1
▁viability 1
▁viable 1
▁viaduct 1
▁vicinity 1
▁victory 1
▁vidatha 1
▁vidiyalai 1
▁vidiyum 1
▁vidum 1
▁viewed 1
▁viewing 1
▁views 1
▁vigneshwara 1
▁viharakanda 1
▁vijjakaraya 1
▁vilaiyaattu 1
▁vilayattu 1
▁villagers 1
▁vinayagamoorthy 1
▁vinivida 1
▁vinod 1
▁violin 1
▁vip 1
▁virtuous 1
▁visaka 1
▁visithuru 1
▁visuals 1
▁visumpaya 1
▁vital 1
▁vithanage 1
▁vitol 1
▁vivekak 1
▁vivekanada 1
▁vivekanadar 1
▁vivekananda 1
▁viyana 1
▁vocal 1
▁volatile 1
▁volleball 1
▁volleyball 1
▁volunteer 1
▁volunteerism 1
▁voted 1
▁vouched 1
▁vouchers 1
▁vu 1
▁vying 1
▁wadduwa 1
▁wadewatta 1
▁wakwella 1
▁walahapitiya 1
▁walalawita 1
▁walapone 1
▁walawe 1
▁walawwatta 1
▁walking 1
▁walliwala 1
▁walpane 1
▁wana 1
▁wanaman 1
▁want 1
▁wanting 1
▁wardanaramaya 1
▁warden 1
▁warehouse 1
▁wargraves 1
▁wariyapola 1
▁warranted 1
▁waruna 1
▁washing 1
▁washington 1
▁wasteful 1
▁watcher 1
▁watershed 1
▁watha 1
▁waththe 1
▁wathupitiwala 1
▁watta 1
▁wattala 1
▁waw 1
▁wawa 1
▁wbrsap 1
▁weak 1
▁weaknesses 1
▁weber 1
▁wedida 1
▁weekend 1
▁weekends 1
▁weeks 1
▁weerambugedara 1
▁weeravila 1
▁wejewardana 1
▁welawaya 1
▁welcoming 1
▁welder 1
▁welikanda 1
▁weliweriya 1
▁wendala 1
▁went 1
▁weta 1
▁weththewa 1
▁wetthewa 1
▁weuda 1
▁wevaldeniya 1
▁wevurukannala 1
▁wheat 1
▁whenever 1
▁whichin 1
▁white 1
▁wholeheartedly 1
▁wholly 1
▁widened 1
▁wijemanne 1
▁wijerathna 1
▁wijesooriya 1
▁wijesundar 1
▁wijesundara 1
▁wijewardana 1
▁wilgamuwa 1
▁wilson 1
▁wimalarathna 1
▁wimalaweera 1
▁winding 1
▁wings 1
▁wished 1
▁wishudharamaya 1
▁witharana 1
▁withdrawals 1
▁withdrawn 1
▁withholding 1
▁wiyana 1
▁wood 1
▁word 1
▁worshipping 1
▁worthwhile 1
▁wound 1
▁xd 1
▁xv 1
▁yakabedda 1
▁yali 1
▁yama 1
▁yapa 1
▁yathirai 1
▁yatihalagala 1
▁yatiyanthota 1
▁yavvanaya 1
▁yaya 1
▁yellow 1
▁yen 1
▁yodha 1
▁younger 1
▁zero 1
▁zones 1
▁zoology 1
▁~ 1
▁අං 1
▁අංකන 1
▁අංකිත 1
▁අංගයන 1
▁අංශයකින 1
▁අංශයනවලින 1
▁අකාරයේ 1
▁අකාරාදියක 1
▁අකුරටම 1
▁අකුරම 1
▁අගනුවර 1
▁අගනුවරින 1
▁අගයකින 1
▁අගයට 1
▁අගයද 1
▁අගයේ 1
▁අගරු 1
▁අගොස 1
▁අගෝ 1
▁අඟපසඟ 1
▁අඟුරු 1
▁අටසිය 1
▁අඩ 1
▁අඩවියක 1
▁අඩවියකට 1
▁අඩවියට 1
▁අඩුකමින 1
▁අඩුපාඩුකම 1
▁අඩුපාඩුවක 1
▁අඩුවි 1
▁අඩුවීමෙන 1
▁අඩුවෙනි 1
▁අතරතුරේ 1
▁අතරම 1
▁අතරමගදී 1
▁අතරමඟ 1
▁අතරර 1
▁අතරවාරයේ 1
▁අතරැඳි 1
▁අතරෙහි 1
▁අතහැර 1
▁අතිශයින 1
▁අතුරා 1
▁අතුරුගිරිය 1
▁අදායම 1
▁අදාළවූ 1
▁අදියරගත 1
▁අදියරයන 1
▁අදියරෙහි 1
▁අදියරේ 1
▁අධයනය 1
▁අධිකරණමය 1
▁අධිකරණවල 1
▁අධිතන 1
▁අධිතෝලන 1
▁අධිභාර 1
▁අධිරාජ 1
▁අධිෂ 1
▁අධීවේගී 1
▁අනනුකුලතා 1
▁අනනුකූල 1
▁අනවසරයෙන 1
▁අනාගතයක 1
▁අනාගතයේදී 1
▁අනාථ 1
▁අනිටු 1
▁අනියුක 1
▁අනිල 1
▁අනුකමිටුවක 1
▁අනුකෑල 1
▁අනුකුලතා 1
▁අනුකූලතාව 1
▁අනුගතවෙමින 1
▁අනුගම 1
▁අනුචිත 1
▁අනුදැනුම 1
▁අනුපාත 1
▁අනුපාතයන 1
▁අනුපාතිකයකට 1
▁අනුපාතිකයට 1
▁අනුපාතිකයටම 1
▁අනුපිළිවලින 1
▁අනුපිළිවෙළින 1
▁අනුබලයක 1
▁අනුමාන 1
▁අනුමැතියට 1
▁අනුමැතියෙන 1
▁අනුරූපව 1
▁අනුරූපීව 1
▁අනුල 1
▁අනේකවිධ 1
▁අනෝජා 1
▁අඳුරුපට 1
▁අපචාර 1
▁අපණයන 1
▁අපනය 1
▁අපනයනයේ 1
▁අපලාදෙනිය 1
▁අපසන 1
▁අපහරණ 1
▁අපහසුතාවකට 1
▁අපහසුතාවන 1
▁අපහසුතාවය 1
▁අපහසුතාවයට 1
▁අපහසුතාවලින 1
▁අපහසුතාවෙන 1
▁අපහසුව 1
▁අපහැදිළිතාවන 1
▁අපියි 1
▁අපෙන 1
▁අබේකෝන 1
▁අබේසේකර 1
▁අභායාචනය 1
▁අභාවයට 1
▁අභාවයෙන 1
▁අභාෂා 1
▁අභිප 1
▁අභිබවමින 1
▁අභිබවා 1
▁අභිමංසල 1
▁අභියස 1
▁අභියාචනයෙන 1
▁අභියෝගවල 1
▁අභියෝගාත 1
▁අභිලාශය 1
▁අභිලේඛන 1
▁අභිවිරුත 1
▁අමත 1
▁අමතකද 1
▁අමතමින 1
▁අමරණීයත 1
▁අමුණුගම 1
▁අමුතුවෙන 1
▁අමූල 1
▁අඹගහ 1
▁අඹතැන 1
▁අයටත 1
▁අයතන 1
▁අයථා 1
▁අයභාරය 1
▁අයවන 1
▁අයවැයක 1
▁අයවැයකරණය 1
▁අයවැයෙහි 1
▁අයවිමට 1
▁අයවීම 1
▁අයවීමේ 1
▁අයැදුම 1
▁අයිතමය 1
▁අයිති 1
▁අයිරා 1
▁අයිරාවක 1
▁අයිරාවෙහි 1
▁අයිරාවේ 1
▁අයිවන 1
▁අයුරකින 1
▁අයුරු 1
▁අයෙකුට 1
▁අරංගල 1
▁අරක 1
▁අරණවලට 1
▁අරණවලින 1
▁අරනරි 1
▁අරනායක 1
▁අරභයා 1
▁අරමුණකට 1
▁අරමුණකි 1
▁අරමුණීන 1
▁අරමුණුකාරී 1
▁අරමුදලෙන 1
▁අරමුදලෙහි 1
▁අරඹා 1
▁අරලගන 1
▁අරාලි 1
▁අරිවොලි 1
▁අරුණ 1
▁අරුණැල 1
▁අලංකරණය 1
▁අලගල 1
▁අලවතුගොඩ 1
▁අලහප 1
▁අලාභයෙන 1
▁අලාභයේ 1
▁අලිගැටපේර 1
▁අලෙවිකරණ 1
▁අවංකව 1
▁අවකාශ 1
▁අවකාශයක 1
▁අවග 1
▁අවදානමක 1
▁අවදි 1
▁අවධානයකට 1
▁අවධානයකින 1
▁අවධියේ 1
▁අවධියේදී 1
▁අවනත 1
▁අවමය 1
▁අවමිලට 1
▁අවර 1
▁අවශේෂ 1
▁අවසථා 1
▁අවසරපත 1
▁අවසානයට 1
▁අවහිරතා 1
▁අවහිරයක 1
▁අවාසි 1
▁අවැසි 1
▁අවිරෝධීව 1
▁අවිවාහකයෙකු 1
▁අවු 1
▁අවේණික 1
▁අවේනික 1
▁අශ 1
▁අශෝධිත 1
▁අෂ 1
▁අසන 1
▁අසමසම 1
▁අසල 1
▁අසාදන 1
▁අසාධාරණයක 1
▁අසිරිය 1
▁අසීරුතාවකට 1
▁අසීරුතාවයට 1
▁අසූවක 1
▁අසූහතක 1
▁අසේල 1
▁අසේලපුර 1
▁අහංගම 1
▁අහුරමින 1
▁අළු 1
▁ආකන 1
▁ආකාරයක 1
▁ආකාරයෙන 1
▁ආකෘතියක 1
▁ආකෘතියට 1
▁ආගන 1
▁ආගමට 1
▁ආගමිකයන 1
▁ආචාරශීලීව 1
▁ආඩම 1
▁ආතයනය 1
▁ආදරණීය 1
▁ආදායමද 1
▁ආදායමින 1
▁ආදායමෙනි 1
▁ආදාහන 1
▁ආදියෙහි 1
▁ආදේශක 1
▁ආධාරය 1
▁ආධාරයක 1
▁ආධාරවල 1
▁ආධාරවලින 1
▁ආධුනිකයන 1
▁ආනමඩුව 1
▁ආනයනකරුවන 1
▁ආනයනයන 1
▁ආනයනික 1
▁ආපන 1
▁ආපනශාලා 1
▁ආපනාශාලා 1
▁ආබාධයන 1
▁ආබාධිතව 1
▁ආම 1
▁ආයතනද 1
▁ආයතනයකම 1
▁ආයතනයෙන 1
▁ආයතනවලටත 1
▁ආයතනීය 1
▁ආයතවලින 1
▁ආයෝජකයකු 1
▁ආයෝජකයින 1
▁ආයෝජකයෙකු 1
▁ආයෝජනයන 1
▁ආයෝජනයේදී 1
▁ආයෝජනවල 1
▁ආරාවුලේ 1
▁ආලකමන 1
▁ආලයම 1
▁ආලුමෛ 1
▁ආලේප 1
▁ආලෝකා 1
▁ආවර 1
▁ආවරණයක 1
▁ආවරණයට 1
▁ආවරණයන 1
▁ආවේනික 1
▁ආශිර 1
▁ආසාදිත 1
▁ආසියාවේ 1
▁ආසිරියර 1
▁ආහාරවලින 1
▁ඇක 1
▁ඇගයීමකින 1
▁ඇගයීමේ 1
▁ඇගැයීමට 1
▁ඇඟලුම 1
▁ඇටෙන 1
▁ඇඩැප 1
▁ඇතත 1
▁ඇතාගේ 1
▁ඇතිකර 1
▁ඇතිකරලීම 1
▁ඇතිකිරීමත 1
▁ඇතිකිරීමේ 1
▁ඇතිරීම 1
▁ඇතිරීමෙන 1
▁ඇතිවීමේ 1
▁ඇතිවුවහොත 1
▁ඇතිවේ 1
▁ඇතුන 1
▁ඇතුරුම 1
▁ඇතුලු 1
▁ඇතුළුවීමට 1
▁ඇද 1
▁ඇදහැළෙන 1
▁ඇදිම 1
▁ඇනකොණ 1
▁ඇඳීම 1
▁ඇපකැප 1
▁ඇබ 1
▁ඇමති 1
▁ඇමතිතුමා 1
▁ඇමතිවරුන 1
▁ඇමුණුමේ 1
▁ඇමෙරිකානු 1
▁ඇඹරුම 1
▁ඇරඹිණ 1
▁ඇරඹී 1
▁ඇරඹීම 1
▁ඇරඹීමට 1
▁ඇරඹුණු 1
▁ඇරයුම 1
▁ඇලපාත 1
▁ඇලවීම 1
▁ඇලහැර 1
▁ඇලුම 1
▁ඇවැසි 1
▁ඇවෑ 1
▁ඇසතමේන 1
▁ඇසුරූ 1
▁ඇසෙන 1
▁ඇහැලේපොළ 1
▁ඇළපාත 1
▁ඇළහැර 1
▁ඉංජි 1
▁ඉංජිනියරින 1
▁ඉංජිනේරුමය 1
▁ඉංජිනේරුවන 1
▁ඉංජිනේරුවරයකු 1
▁ඉගෙන 1
▁ඉගෙනගනු 1
▁ඉටුකරදීම 1
▁ඉටුකරලීමට 1
▁ඉටුවනවා 1
▁ඉතිරිකිරිමේ 1
▁ඉතිරියක 1
▁ඉතිරිවීම 1
▁ඉතිහාස 1
▁ඉතිහාසයේ 1
▁ඉද 1
▁ඉදරිපත 1
▁ඉදිකරීම 1
▁ඉදිකිරිමක 1
▁ඉදිකිරිමේ 1
▁ඉදිකොට 1
▁ඉදිපත 1
▁ඉදිරියටත 1
▁ඉදිරියේදි 1
▁ඉදිවමින 1
▁ඉදිවීම 1
▁ඉදිවෙනමින 1
▁ඉදිවෙමින 1
▁ඉදුරුව 1
▁ඉඳිකරමින 1
▁ඉප 1
▁ඉපන 1
▁ඉපයීමේ 1
▁ඉපැයූ 1
▁ඉමදුව 1
▁ඉරා 1
▁ඉරිඟු 1
▁ඉරිදාවකම 1
▁ඉරෛඅරුල 1
▁ඉලුක 1
▁ඉලෙඥර 1
▁ඉසඩ 1
▁ඉසින 1
▁ඉසිවර 1
▁ඉසුසු 1
▁ඉහළින 1
▁ඊලත 1
▁උකසට 1
▁උකහා 1
▁උග 1
▁උගත 1
▁උගහටයි 1
▁උඩ 1
▁උඩතැන 1
▁උඩමයුර 1
▁උඩවෙල 1
▁උඩහේන 1
▁උඩු 1
▁උඩුදුම 1
▁උඩුනුවර 1
▁උණවටුන 1
▁උණු 1
▁උතුරේ 1
▁උදය 1
▁උදයංග 1
▁උදාකර 1
▁උදාවේ 1
▁උදාහරණ 1
▁උන 1
▁උපඅංශ 1
▁උපකරණවල 1
▁උපකල 1
▁උපකාරයක 1
▁උපකාරයන 1
▁උපකුලපති 1
▁උපකුලපතිතුමාගේ 1
▁උපකුලපතිවරයා 1
▁උපදවන 1
▁උපදෙසක 1
▁උපදේශ 1
▁උපදේශකත 1
▁උපදේශකයකු 1
▁උපදේශකයන 1
▁උපදේශකවරයකුට 1
▁උපදේශකවරුන 1
▁උපදේශනය 1
▁උපදේශයක 1
▁උපපර 1
▁උපයයි 1
▁උපයාගත 1
▁උපයෝගීතා 1
▁උපයෝගීවන 1
▁උපයෝජනයෙන 1
▁උපරිමය 1
▁උපරිමයකට 1
▁උපලබ 1
▁උපලේඛනය 1
▁උපවාසය 1
▁උපාධිධාරියකු 1
▁උපාධිධාරී 1
▁උපාධීන 1
▁උපුටා 1
▁උපුලී 1
▁උබයවංශ 1
▁උභයජීවීන 1
▁උර 1
▁උරනිය 1
▁උරුමකම 1
▁උරුලෑවා 1
▁උලගවලම 1
▁උලහ 1
▁උලෙළක 1
▁උලෙළෙහි 1
▁උවටැන 1
▁උවර 1
▁උසාවිවල 1
▁උසින 1
▁උසුලනු 1
▁උහන 1
▁උළෙල 1
▁උළෙලේදී 1
▁ඌට 1
▁ඌණ 1
▁ඌනතාවය 1
▁ඌනතාවයේ 1
▁ඍජු 1
▁ඍජුවම 1
▁ඍණාත 1
▁එකකි 1
▁එකග 1
▁එකඟතාවයකට 1
▁එකඟතාවයකින 1
▁එකඟව 1
▁එකතුවක 1
▁එකතුවේ 1
▁එකදු 1
▁එකමුතුකම 1
▁එකමුතුගම 1
▁එකිනෙක 1
▁එකිනෙකා 1
▁එකොළහක 1
▁එකොළොහකින 1
▁එගොඩකන 1
▁එත 1
▁එතරම 1
▁එදා 1
▁එදින 1
▁එදිනට 1
▁එදිනෙදා 1
▁එදිනෙදි 1
▁එනමුත 1
▁එනොක 1
▁එප 1
▁එපරිදි 1
▁එපාමුල 1
▁එමඟින 1
▁එමු 1
▁එයාපෝර 1
▁එයාමැක 1
▁එරමුදුලියද 1
▁එවා 1
▁එවිම 1
▁එවිමට 1
▁එවිය 1
▁එවෝඩ 1
▁එසේනම 1
▁එළඹී 1
▁එළඹීමේ 1
▁එළඹුණු 1
▁එළැඹ 1
▁එළිකිරීම 1
▁ඒකකයකි 1
▁ඒකකයෙහි 1
▁ඒකපුද 1
▁ඒකාකාරී 1
▁ඒකාකාරීව 1
▁ඒකාධිකාර 1
▁ඒකීය 1
▁ඒජින 1
▁ඒඩ 1
▁ඒමක 1
▁ඒවාය 1
▁ඒවායෙන 1
▁ඒසියා 1
▁ඒළිය 1
▁ඔපිස 1
▁ඔබට 1
▁ඔමෙගා 1
▁ඔමේග 1
▁ඔයාමඩුවෙහි 1
▁ඔයාමඩුවේ 1
▁ඔරු 1
▁ඔලයිෆරා 1
▁ඔවුනගේ 1
▁ඔවුනොවුන 1
▁ඔවුහු 1
▁ඔසවා 1
▁ඔසු 1
▁ඔහිය 1
▁ඔෆ 1
▁ඕක 1
▁ඕඩියෝ 1
▁ඕතර 1
▁ඕස 1
▁ඖෂ 1
▁කටත 1
▁කටයතු 1
▁කටයුතුද 1
▁කටයුතුය 1
▁කටයුුතු 1
▁කටුකුරැන 1
▁කටුපොත 1
▁කඩඉම 1
▁කඩදාසියක 1
▁කඩහතවැව 1
▁කඩුගස 1
▁කණිෂ 1
▁කතාංග 1
▁කතාව 1
▁කතාවලට 1
▁කතාවෙන 1
▁කතිකාවතක 1
▁කතෝලික 1
▁කථානායක 1
▁කථානායකතුමන 1
▁කථානායකවරයා 1
▁කදන 1
▁කදිරේශන 1
▁කදු 1
▁කදෛ 1
▁කනගරත 1
▁කනයි 1
▁කනස 1
▁කනිෂ 1
▁කනේ 1
▁කඳන 1
▁කඳවුරක 1
▁කඳවුරෙහි 1
▁කඳු 1
▁කපන 1
▁කපාහැරීම 1
▁කමද 1
▁කමිටුවෙහි 1
▁කඹුරාවල 1
▁කයකට 1
▁කයිතඩි 1
▁කරච 1
▁කරණයක 1
▁කරතාව 1
▁කරතාවට 1
▁කරතාවයකට 1
▁කරදීම 1
▁කරදීමට 1
▁කරදීමේ 1
▁කරමැටිය 1
▁කරමු 1
▁කරයක 1
▁කරලමු 1
▁කරලීමේ 1
▁කරවන 1
▁කරවනැල 1
▁කරවමින 1
▁කරවල 1
▁කරවාගත 1
▁කරවිමට 1
▁කරවීමට 1
▁කරාටේ 1
▁කරීම 1
▁කරුගේ 1
▁කරුණාරත 1
▁කරුණුවල 1
▁කරුවලගස 1
▁කරුවෙකුට 1
▁කරූ 1
▁කරෙයිතිව 1
▁කරෙයිපත 1
▁කරේතිව 1
▁කලන 1
▁කලයි 1
▁කලවැල 1
▁කලහැකි 1
▁කලාකරුවා 1
▁කලාපයක 1
▁කලාපයට 1
▁කලාපයෙහි 1
▁කලාභූෂණ 1
▁කලාම 1
▁කලාවක 1
▁කලාවන 1
▁කලාවේ 1
▁කලුඅග 1
▁කලුක 1
▁කලෙයිකලන 1
▁කලෛ 1
▁කවනු 1
▁කවය 1
▁කවරදාටත 1
▁කවලට 1
▁කවලත 1
▁කෂාය 1
▁කෂායක 1
▁කසළ 1
▁කළත 1
▁කළද 1
▁කළමණාකාර 1
▁කළමනාකර 1
▁කළමනාකරණයක 1
▁කළමනාකරණයකින 1
▁කළමනාකරණයෙහි 1
▁කළමනාකරණයේදී 1
▁කළමනාකරුට 1
▁කළමනාකාර 1
▁කළමනාකාරිනිය 1
▁කළමනාරණය 1
▁කළා 1
▁කළුආරච 1
▁කළුතන 1
▁කාංචන 1
▁කාච 1
▁කාටූන 1
▁කාණු 1
▁කාත 1
▁කානෙට 1
▁කාපට 1
▁කාබන 1
▁කාමරයක 1
▁කාමරයේදී 1
▁කාමරාජර 1
▁කායන 1
▁කාරකසභාව 1
▁කාරණයට 1
▁කාරණයේ 1
▁කාරතිවු 1
▁කාලයකින 1
▁කාලවකවානු 1
▁කාලසීමාවක 1
▁කාලෝචිත 1
▁කාශය 1
▁කාසි 1
▁කාළ 1
▁කාළය 1
▁කාළයක 1
▁කාළසීමාව 1
▁කැඩෙට 1
▁කැනපි 1
▁කැනේඩියානු 1
▁කැඳ 1
▁කැඳවන 1
▁කැඳවිමකින 1
▁කැඳවිමට 1
▁කැපවී 1
▁කැපීම 1
▁කැපු 1
▁කැපූ 1
▁කැපේ 1
▁කැබිනට 1
▁කැබිනටේ 1
▁කැමරාවන 1
▁කැරොල 1
▁කැල 1
▁කැලෑ 1
▁කැවීමේ 1
▁කැවූ 1
▁කැසට 1
▁කැළණීය 1
▁කැළය 1
▁කෑන 1
▁කෑමෙන 1
▁කෑරගල 1
▁කිඩ 1
▁කිපද 1
▁කියවිමේ 1
▁කියවීම 1
▁කියවීමට 1
▁කියවීමේ 1
▁කියැවෙන 1
▁කිරණ 1
▁කිරණමධ 1
▁කිරාන 1
▁කිරිගල 1
▁කිරිදිවැල 1
▁කිරින 1
▁කිරිපිටි 1
▁කිරිබත 1
▁කිරිබන 1
▁කිරිමකින 1
▁කිරිමැටියා 1
▁කිරිමේන 1
▁කිරීමයට 1
▁කිරීමෙනුත 1
▁කිරුබාකරන 1
▁කිරුලපන 1
▁කිලෝග 1
▁කිව 1
▁කිවුල 1
▁කිසිවකු 1
▁කිසිසේත 1
▁කිහිප 1
▁කිහිපයකින 1
▁කිහිලිකරු 1
▁කීට 1
▁කීපයක 1
▁කීපයකට 1
▁කීර 1
▁කුංකුම 1
▁කුංමිං 1
▁කුටියේ 1
▁කුඩාගල 1
▁කුඩාවෛරන 1
▁කුඩි 1
▁කුඩු 1
▁කුත 1
▁කුදීනර 1
▁කුන 1
▁කුමන 1
▁කුමාරතුංග 1
▁කුඹුර 1
▁කුර 1
▁කුරක 1
▁කුරුදුවත 1
▁කුරුඳු 1
▁කුරුප 1
▁කුරුලු 1
▁කුරුළුකැලේ 1
▁කුලතුංග 1
▁කුලය 1
▁කුලසිංහහ 1
▁කුවිතාන 1
▁කුවිල 1
▁කුවෙට 1
▁කුෂානි 1
▁කුසලතාවන 1
▁කුසලතාවෙන 1
▁කුසුමලතා 1
▁කුහල 1
▁කුළියට 1
▁කුළුණු 1
▁කූඩු 1
▁කූල 1
▁කෘතඥතාව 1
▁කෘතවේදිත 1
▁කෘති 1
▁කෘතිකාංග 1
▁කෘතියක 1
▁කෘතියට 1
▁කෘමිනාශක 1
▁කෘෂිවිද 1
▁කෘෘරතර 1
▁කෙටිකාල 1
▁කෙදි 1
▁කෙමෙන 1
▁කෙයාර 1
▁කෙරතිව 1
▁කෙරවලපිටිය 1
▁කෙරැණු 1
▁කෙරිණී 1
▁කෙරී 1
▁කෙරුණේ 1
▁කෙරෙයි 1
▁කෙසේද 1
▁කෙසේවෙතත 1
▁කේට 1
▁කේතය 1
▁කේරතීවු 1
▁කොක 1
▁කොකරැල 1
▁කොකා 1
▁කොකුරියා 1
▁කොටගෙන 1
▁කොටපොල 1
▁කොටපොළ 1
▁කොටසේ 1
▁කොටහේන 1
▁කොටි 1
▁කොටේටුකච 1
▁කොඩිය 1
▁කොබේබෑකඩුව 1
▁කොම 1
▁කොමිසන 1
▁කොරළේ 1
▁කොරියා 1
▁කොරියාවේ 1
▁කොල 1
▁කොලවෙනිගම 1
▁කොලොන 1
▁කොහිලගෙදර 1
▁කොළඔ 1
▁කොළඹට 1
▁කොළඹදී 1
▁කෝකිල 1
▁කෝකිලායි 1
▁කෝපායි 1
▁කෝපුරම 1
▁කෝබේ 1
▁කෝමාරිකා 1
▁කෝරළේ 1
▁කෝලා 1
▁කෝෂ 1
▁කෞතුක 1
▁ඛේදජනක 1
▁ගංගා 1
▁ගංගාරාම 1
▁ගංගොඩවිල 1
▁ගඡේමා 1
▁ගජධීර 1
▁ගජාලය 1
▁ගජාලයේ 1
▁ගණකාධිකරණ 1
▁ගණකාධිකරණයේ 1
▁ගණකාධිකාරින 1
▁ගණකාධිකාරීවරයකු 1
▁ගණනක 1
▁ගණනාවකට 1
▁ගණනින 1
▁ගණනෙහි 1
▁ගණපූරණය 1
▁ගතකර 1
▁ගතකිරීමේ 1
▁ගතම 1
▁ගතයත 1
▁ගතහැක 1
▁ගති 1
▁ගනහේන 1
▁ගනිමි 1
▁ගනුදෙනුකරුවා 1
▁ගනුදෙනුවලදී 1
▁ගනේ 1
▁ගඵලය 1
▁ගඵලයට 1
▁ගබඩාකරු 1
▁ගබඩාවෙන 1
▁ගමනය 1
▁ගමනාගම 1
▁ගමනාගමනයට 1
▁ගමනාන 1
▁ගයට 1
▁ගයයි 1
▁ගරාජය 1
▁ගරාජයට 1
▁ගරුත 1
▁ගරුබුහුමන 1
▁ගලයකු 1
▁ගලයකුට 1
▁ගලායාම 1
▁ගලිගමුව 1
▁ගලෙන 1
▁ගලේවල 1
▁ගලේවෙල 1
▁ගවයන 1
▁ගවේෂණාත 1
▁ගහණවල 1
▁ගාථා 1
▁ගාන 1
▁ගාම 1
▁ගායනා 1
▁ගායිකාවන 1
▁ගැටලුකාරී 1
▁ගැටලුව 1
▁ගැටලුවට 1
▁ගැටළුව 1
▁ගැටළුවලට 1
▁ගැටළුවලදී 1
▁ගැණුම 1
▁ගැතියන 1
▁ගැදරින 1
▁ගැනිණ 1
▁ගැනිණි 1
▁ගැනීමකින 1
▁ගැනීමයි 1
▁ගැනුණි 1
▁ගැනුම 1
▁ගැනෙන 1
▁ගැනේ 1
▁ගැබිණි 1
▁ගැමා 1
▁ගැමුණු 1
▁ගැඹුරු 1
▁ගැයීමේ 1
▁ගැලරි 1
▁ගැලීම 1
▁ගැස 1
▁ගැසීම 1
▁ගැළපිම 1
▁ගි 1
▁ගිකභාවය 1
▁ගිණුමෙහි 1
▁ගිණූම 1
▁ගිනිහොට 1
▁ගිම 1
▁ගිමන 1
▁ගියේ 1
▁ගියේය 1
▁ගිරවා 1
▁ගිරාඳුරැකෝට 1
▁ගිරිඋල 1
▁ගිරිබැව 1
▁ගිරිහද 1
▁ගිලන 1
▁ගිලිහී 1
▁ගිවිස 1
▁ගිවිසුමකින 1
▁ගිහි 1
▁ගීකරණ 1
▁ගීකරණයක 1
▁ගුඩි 1
▁ගුණත 1
▁ගුණනාදර 1
▁ගුණය 1
▁ගුණයෙන 1
▁ගුණාංගවලින 1
▁ගුරුකුලම 1
▁ගුරුබබිල 1
▁ගුසී 1
▁ගෘහභාණ 1
▁ගෘහය 1
▁ගෙදර 1
▁ගෙවත 1
▁ගෙවාගෙන 1
▁ගෙවිමටත 1
▁ගෙවිමේ 1
▁ගෙවිමේදී 1
▁ගෙවීමක 1
▁ගෙවීමේදී 1
▁ගේම 1
▁ගොඩකන 1
▁ගොඩගමින 1
▁ගොඩගසන 1
▁ගොඩනංවන 1
▁ගොඩනංවා 1
▁ගොඩනැංවීමට 1
▁ගොඩනැගී 1
▁ගොඩනැගීමේදී 1
▁ගොඩනැඟීම 1
▁ගොඩහේන 1
▁ගොනුවලට 1
▁ගොල 1
▁ගොවිපොළෙන 1
▁ගොවීන 1
▁ගොහුරු 1
▁ගෝඨාභය 1
▁ගෝණපොළ 1
▁ගෝනාපීනුවල 1
▁ගෝනුන 1
▁ගෝපදේශකයක 1
▁ගෝපුරම 1
▁ගෝමරණ 1
▁ගෞරවයක 1
▁ඝණ 1
▁ඝතම 1
▁ඝව 1
▁ඝානාහි 1
▁චංචල 1
▁චත 1
▁චමිල 1
▁චයකරුවන 1
▁චයකාරවරයන 1
▁චරිත 1
▁චරිතාප 1
▁චලන 1
▁චලම 1
▁චාන 1
▁චාර 1
▁චාරිකාවක 1
▁චාරිත 1
▁චැට 1
▁චිමුනි 1
▁චියට 1
▁චී 1
▁චේතනාවට 1
▁චේදනය 1
▁චේන 1
▁චෝලහි 1
▁චෝලේ 1
▁ඡායරූප 1
▁ඡායා 1
▁ඡාල 1
▁ඡාවක 1
▁ඡේදයන 1
▁ඡේදවලින 1
▁ජට 1
▁ජනතාවගෙන 1
▁ජනතාවයි 1
▁ජනපද 1
▁ජනපදයේ 1
▁ජනයාගේ 1
▁ජනරජ 1
▁ජනාදරයට 1
▁ජනාධිපතිතුමන 1
▁ජනාධිපතිවරයා 1
▁ජනාවාස 1
▁ජනැයිරෝ 1
▁ජයමංගල 1
▁ජයරත 1
▁ජයරළපුර 1
▁ජයවිරු 1
▁ජයසුන 1
▁ජයා 1
▁ජයිකා 1
▁ජලජීවී 1
▁ජලසම 1
▁ජලාධාර 1
▁ජලාපවාහන 1
▁ජලාශ 1
▁ජාකාරයා 1
▁ජාතිය 1
▁ජාන 1
▁ජානමය 1
▁ජාලකරණ 1
▁ජාලකරණය 1
▁ජාලයට 1
▁ජාලයේ 1
▁ජාවත 1
▁ජාවන 1
▁ජාසිංහ 1
▁ජැටිය 1
▁ජිත 1
▁ජිනදාස 1
▁ජිනේන 1
▁ජිනේරු 1
▁ජිනේසිස 1
▁ජිම 1
▁ජිරාෆ 1
▁ජීප 1
▁ජීවයක 1
▁ජීවිතක 1
▁ජුනෙසේ 1
▁ජුවෙල 1
▁ජූරියේ 1
▁ජෙයික 1
▁ජෙල 1
▁ජෙලි 1
▁ජෛවී 1
▁ජොන 1
▁ඤ 1
▁ඥාන 1
▁ඥානය 1
▁ඥානසිංහ 1
▁ටක 1
▁ටගොඩ 1
▁ටතා 1
▁ටදුම 1
▁ටනැෂනල 1
▁ටනෙටේ 1
▁ටමකින 1
▁ටයරය 1
▁ටයිල 1
▁ටයිසින 1
▁ටයේ 1
▁ටරන 1
▁ටලයක 1
▁ටලයට 1
▁ටාචාරය 1
▁ටාන 1
▁ටාවෙන 1
▁ටැංකිය 1
▁ටැක 1
▁ටැබේලොයිඩ 1
▁ටිආරච 1
▁ටිකටේපත 1
▁ටිනා 1
▁ටිපොල 1
▁ටියුන 1
▁ටීචර 1
▁ටීරියාව 1
▁ටුවාගල 1
▁ටෙක 1
▁ටෙලිකොම 1
▁ටෙලිනාට 1
▁ටෙලිප 1
▁ටේටේ 1
▁ටේප 1
▁ටේස 1
▁ටොතපිලන 1
▁ටොන 1
▁ටොරින 1
▁ටෝකියෝ 1
▁ටෝරි 1
▁ටෝරුව 1
▁ඨක 1
▁ඨය 1
▁ඨාධිකරණය 1
▁ඨානය 1
▁ඨාපනය 1
▁ඨාශයේ 1
▁ඨාසය 1
▁ඨාසයක 1
▁ඩදුම 1
▁ඩපය 1
▁ඩපයක 1
▁ඩබල 1
▁ඩබේ 1
▁ඩබේලිවේ 1
▁ඩයන 1
▁ඩයි 1
▁ඩයේ 1
▁ඩරු 1
▁ඩලයෙන 1
▁ඩලවලට 1
▁ඩළුඔය 1
▁ඩා 1
▁ඩායමට 1
▁ඩායමේ 1
▁ඩාරනායක 1
▁ඩාරවත 1
▁ඩැනි 1
▁ඩින 1
▁ඩියාඩිමඩු 1
▁ඩිවලොප 1
▁ඩිවිෂන 1
▁ඩිස 1
▁ඩීඑම 1
▁ඩීසල 1
▁ඩුකාරවරුන 1
▁ඩුඩේකයිල 1
▁ඩුවෙන 1
▁ඩෘ 1
▁ඩේ 1
▁ඩේවිඩ 1
▁ඩො 1
▁ඩොකියුමෙන 1
▁ණකර 1
▁ණපුර 1
▁ණයක 1
▁ණයකරුවන 1
▁ණයනය 1
▁ණයමුදල 1
▁ණයවලින 1
▁ණයෙහි 1
▁ණයේ 1
▁ණරින 1
▁තකට 1
▁තකාලයකින 1
▁තකාලයේ 1
▁තකින 1
▁තතු 1
▁තදබදයට 1
▁තදින 1
▁තනතුරට 1
▁තනතුරුවල 1
▁තනතුරෙහි 1
▁තනමල 1
▁තනයක 1
▁තනවා 1
▁තනාකොලවත 1
▁තනු 1
▁තනුජා 1
▁තබාගන 1
▁තබාගනිමින 1
▁තමය 1
▁තමාචාරය 1
▁තමානය 1
▁තමානි 1
▁තඹුත 1
▁තයකි 1
▁තයට 1
▁තයෙන 1
▁තරකරුවන 1
▁තරගයකට 1
▁තරගවල 1
▁තරගාවලියට 1
▁තරඟකාරී 1
▁තරඟය 1
▁තරණයේදී 1
▁තරණි 1
▁තරන 1
▁තරප 1
▁තරමක 1
▁තරයක 1
▁තරයෙන 1
▁තරවලින 1
▁තරාරාමය 1
▁තරිදිනී 1
▁තරිඳු 1
▁තරිසනම 1
▁තරු 1
▁තරුණයන 1
▁තරුණෝදය 1
▁තරුව 1
▁තලදෙණිය 1
▁තලය 1
▁තලයට 1
▁තලේමන 1
▁තවගල 1
▁තවම 1
▁තවලට 1
▁තවලම 1
▁තවාදය 1
▁තසරදන 1
▁තහනම 1
▁තාකරණ 1
▁තාන 1
▁තානු 1
▁තාපනය 1
▁තාමය 1
▁තාය 1
▁තායතනයක 1
▁තායතනයකින 1
▁තායතනයෙන 1
▁තාර 1
▁තාරුකා 1
▁තාලම 1
▁තාලෝකගම 1
▁තාවෝ 1
▁තැටිවල 1
▁තැනිතලාව 1
▁තැනූ 1
▁තැබීමටත 1
▁තැබීමේ 1
▁තැබුවේය 1
▁තැබෙනු 1
▁තෑඅටක 1
▁තෑනවයකි 1
▁තික 1
▁තිකරණ 1
▁තිකලාව 1
▁තිකාර 1
▁තිකාරමක 1
▁තිඩිය 1
▁තිදෙනා 1
▁තිප 1
▁තිබිණ 1
▁තිබියදී 1
▁තිබුණද 1
▁තිබුන 1
▁තිබේද 1
▁තිබේදැයි 1
▁තිමිලයි 1
▁තිඹිරිගස 1
▁තියාස 1
▁තියෙන 1
▁තිරප 1
▁තිරම 1
▁තිරමේනි 1
▁තිරයට 1
▁තිරස 1
▁තිරිඟු 1
▁තිරිමලේ 1
▁තිරු 1
▁තිරුකේදීශ 1
▁තිරුතනිගෛ 1
▁තිරුනගර 1
▁තිරුපීඨයේ 1
▁තිරුවැන 1
▁තිලකරත 1
▁තිලකවති 1
▁තිවාරම 1
▁තිවේ 1
▁තිසා 1
▁තීකරණයට 1
▁තීයවේදියකු 1
▁තීරණයේ 1
▁තීරුවේ 1
▁තුක 1
▁තුකරු 1
▁තුඩු 1
▁තුඩුව 1
▁තුඩුවන 1
▁තුති 1
▁තුතිගම 1
▁තුපිටිය 1
▁තුමාරිඅම 1
▁තුමිය 1
▁තුර 1
▁තුරන 1
▁තුරිඅරච 1
▁තුරුම 1
▁තුරුලතා 1
▁තුවන 1
▁තුවෙහි 1
▁තුස 1
▁තුළදි 1
▁තුළපෙර 1
▁තුළිනි 1
▁තූතිවන 1
▁තෘ 1
▁තෘණබිම 1
▁තෘවරුන 1
▁තෙමසක 1
▁තෙමු 1
▁තෙලිජ 1
▁තෙවසරක 1
▁තෙවැනි 1
▁තෙහි 1
▁තේගම 1
▁තේමාව 1
▁තේර 1
▁තේරුණු 1
▁තේවතු 1
▁තෛයන 1
▁තොගය 1
▁තොටද 1
▁තොටින 1
▁තොටුපළ 1
▁තොටුපොල 1
▁තොණිගල 1
▁තොබර 1
▁තොරතුරුද 1
▁තොරතුරුවල 1
▁තොරවූ 1
▁තොරා 1
▁තෝත 1
▁තෝනිගල 1
▁තෝරාගැනීමේදී 1
▁තෝරාගෙන 1
▁තෝරුම 1
▁ථකාරී 1
▁ථයට 1
▁ථවත 1
▁ථාට 1
▁ථාදායකය 1
▁ථානගත 1
▁ථානයකි 1
▁ථානයට 1
▁ථානයේදී 1
▁ථානුකූල 1
▁ථාපනයේ 1
▁ථාපිතව 1
▁ථාරූඪ 1
▁ථාවෝචිතව 1
▁ථි 1
▁ථිකමය 1
▁ථිකයේ 1
▁ථිලකය 1
▁දංකොටුව 1
▁දකාඩු 1
▁දකැටිය 1
▁දකිමු 1
▁දකී 1
▁දකුණින 1
▁දකෝෂය 1
▁දකෝෂයක 1
▁දකෝෂයන 1
▁දගම 1
▁දගාමි 1
▁දඩුවලට 1
▁දනා 1
▁දනුවර 1
▁දනෛ 1
▁දමට 1
▁දමින 1
▁දඹදෙනිය 1
▁දයන 1
▁දයාවෙන 1
▁දයි 1
▁දයෙි 1
▁දරයක 1
▁දරයි 1
▁දරුවෝ 1
▁දලම 1
▁දලුක 1
▁දවෙල 1
▁දශක 1
▁දසැම 1
▁දහන 1
▁දහයක 1
▁දහයකි 1
▁දහස 1
▁දහහතරක 1
▁දහහතරෙහි 1
▁දළුගම 1
▁දළුපොත 1
▁දානපතීන 1
▁දානමය 1
▁දානය 1
▁දාමයට 1
▁දායකවන 1
▁දායකවීම 1
▁දාව 1
▁දාවනි 1
▁දාහතර 1
▁දැකගත 1
▁දැඩිසේ 1
▁දැනගැනීම 1
▁දැනීමේ 1
▁දැනුමක 1
▁දැමිම 1
▁දැමීමට 1
▁දැමූ 1
▁දැරණියගල 1
▁දැරීමේ 1
▁දැරූ 1
▁දැවැන 1
▁දිකොඩි 1
▁දිගු 1
▁දිනකදී 1
▁දිනයක 1
▁දිනයේදී 1
▁දිනැතිඅංක 1
▁දිනූ 1
▁දිමට 1
▁දිඹුලාගල 1
▁දියණියකි 1
▁දියතලාව 1
▁දියන 1
▁දියවරගම 1
▁දියානු 1
▁දියුණුකර 1
▁දියුණුව 1
▁දියුණුවක 1
▁දියේ 1
▁දිරයේ 1
▁දිරා 1
▁දිරිමත 1
▁දිරියට 1
▁දිල 1
▁දිලිත 1
▁දිවයිනටම 1
▁දිවයිනෙහි 1
▁දිවියන 1
▁දිශාගත 1
▁දිශානති 1
▁දිශාව 1
▁දිළිදුකමින 1
▁දීගල 1
▁දීපවාලි 1
▁දීපවාලී 1
▁දීපාවලී 1
▁දීපිකා 1
▁දීමකින 1
▁දීමනාවල 1
▁දීමයි 1
▁දීමේදී 1
▁දුණි 1
▁දුණුපොතගම 1
▁දුනි 1
▁දුනීසියානු 1
▁දුරකතනයෙන 1
▁දුල 1
▁දුවෙන 1
▁දූන 1
▁දූපතකි 1
▁දූපතේ 1
▁දූරදර 1
▁දූරස 1
▁දූලි 1
▁දූලී 1
▁දූව 1
▁දූෂක 1
▁දූෂණයෙහි 1
▁දෘඩාංග 1
▁දෙ 1
▁දෙඅංශය 1
▁දෙකට 1
▁දෙණිය 1
▁දෙණියේ 1
▁දෙති 1
▁දෙදිනක 1
▁දෙදිනයන 1
▁දෙදෙනකු 1
▁දෙදෙනාට 1
▁දෙනාටත 1
▁දෙනිපිටිය 1
▁දෙනිය 1
▁දෙනියාය 1
▁දෙනෙකුගේම 1
▁දෙනෙකුහට 1
▁දෙපසට 1
▁දෙබස 1
▁දෙයියන 1
▁දෙවනවර 1
▁දෙවනු 1
▁දෙවර 1
▁දෙවරක 1
▁දෙවැනිවර 1
▁දෙවිනුවර 1
▁දෙහිඔවිට 1
▁දේපලක 1
▁දේපළවලට 1
▁දේපළෙහි 1
▁දේවරාජා 1
▁දේවල 1
▁දේවාල 1
▁දේවි 1
▁දේශකයන 1
▁දේශකයින 1
▁දේශකර 1
▁දේශකරයි 1
▁දේශගුණය 1
▁දේශනයක 1
▁දේශනාව 1
▁දේශප 1
▁දේශයක 1
▁දේශවල 1
▁දේශාංශ 1
▁දේශිය 1
▁දේසිකරුවන 1
▁දේසිය 1
▁දේසී 1
▁දේහය 1
▁දෛනිකව 1
▁දොර 1
▁දොලපිහිල 1
▁දොළහකි 1
▁දොළුව 1
▁දෝර 1
▁දෝෂය 1
▁ධකරු 1
▁ධතාවක 1
▁ධතාවත 1
▁ධතාවයක 1
▁ධතිගත 1
▁ධතියේ 1
▁ධනයකි 1
▁ධනයද 1
▁ධනයෙහි 1
▁ධනවලින 1
▁ධනායනය 1
▁ධනාරාමය 1
▁ධනිත 1
▁ධමනය 1
▁ධාතු 1
▁ධාභිවන 1
▁ධාර 1
▁ධාරාමය 1
▁ධාරිතාවය 1
▁ධික 1
▁ධිදායකභාවය 1
▁ධින 1
▁ධිය 1
▁ධියට 1
▁ධිස 1
▁ධීකරණයන 1
▁ධුරයේ 1
▁ධූර 1
▁ධූරාවලියේ 1
▁නංවමින 1
▁නංවයි 1
▁නංවාගෙන 1
▁නක 1
▁නකි 1
▁නකු 1
▁නගන 1
▁නගම 1
▁නගරාසන 1
▁නගි 1
▁නගුලේෂ 1
▁නගොල 1
▁නඩුව 1
▁නඩුවක 1
▁නඩුවලින 1
▁නඩුවේ 1
▁නතා 1
▁නතිය 1
▁නදර 1
▁නදීෂා 1
▁නමදගල 1
▁නමයි 1
▁නයන 1
▁නයේදි 1
▁නරඹා 1
▁නලයක 1
▁නලින 1
▁නවඅරණක 1
▁නවකඩ 1
▁නවම 1
▁නවමු 1
▁නවයම 1
▁නවලට 1
▁නවවන 1
▁නවාතැන 1
▁නවෝත 1
▁නාගපූසනි 1
▁නාගේෂ 1
▁නාගොල 1
▁නාටක 1
▁නාත 1
▁නාන 1
▁නාඳුනන 1
▁නාමකරණය 1
▁නාමපුවරු 1
▁නාමලෛයි 1
▁නාමුනයි 1
▁නායකතුමන 1
▁නායකපුර 1
▁නායකයාගේ 1
▁නායකයින 1
▁නාරායනන 1
▁නාරාහේන 1
▁නාලිංග 1
▁නාලිකා 1
▁නාලිකාවවන 1
▁නාලේඩුගලිල 1
▁නාව 1
▁නාවලිය 1
▁නාවින 1
▁නාවු 1
▁නාස 1
▁නාහරිහම 1
▁නැංවීමේ 1
▁නැඟුම 1
▁නැතත 1
▁නැතැයි 1
▁නැඹුරුතාවය 1
▁නැයි 1
▁නැරඹීම 1
▁නැරඹූ 1
▁නැව 1
▁නැවතුම 1
▁නැවැත 1
▁නැවුම 1
▁නෑබඩ 1
▁නිකවැරටිය 1
▁නිකායෙහි 1
▁නිකේතනය 1
▁නිගමනය 1
▁නිජබිම 1
▁නිදන 1
▁නිදහසේ 1
▁නිධාන 1
▁නින 1
[...]
