▁් 1333246
▁. 749719
▁, 345193
; 240618
▁& 240286
▁? 227286
apos 207236
▁න 177354
▁you 157513
▁- 139882
▁i 132843
▁! 113849
▁the 111916
▁to 87065
▁... 79140
s 76696
▁මම 70727
▁a 68537
▁it 65304
▁ඔයා 56260
▁නේ 51550
▁that 48722
t 48364
▁and 46047
▁මට 45859
▁කරන 44691
▁is 42127
▁of 40933
▁what 38605
▁we 38575
▁නෑ 36655
▁me 36614
▁in 36469
▁ඒක 35273
quot 33387
▁this 32932
▁එක 32104
▁.. 31468
▁ද 30475
▁මේ 30348
▁he 30318
▁ඉන 28787
▁your 27917
▁අපි 27808
▁නෙ 27630
▁my 26737
▁on 26037
▁are 25587
▁ඔයාට 25566
▁for 25437
▁වෙන 25161
▁කියලා 25039
▁යන 24697
▁∙ 24296
re 23827
▁නම 23735
▁have 23557
▁do 23201
▁no 23042
▁ඒ 23011
m 22824
▁not 22041
▁don 21309
▁කියන 20891
▁ම 20807
▁can 20611
▁ක 20461
▁be 20295
▁මගේ 19950
▁හරි 19913
▁know 19762
▁ස 19106
▁was 19061
▁දන 18948
▁with 18145
▁here 18135
▁එයා 17536
▁all 17530
▁get 17337
▁but 17252
▁there 16895
▁just 16860
▁they 16759
▁go 16230
▁ට 16112
▁so 15686
▁ප 15656
▁him 14995
▁දැන 14921
ll 14718
▁ගැන 14645
▁නැහැ 14441
▁if 14259
▁ගන 14044
- 14014
▁මං 14000
▁come 13976
▁out 13869
▁නවා 13748
▁right 13451
▁like 13428
▁එන 13077
▁now 12959
▁ඔව 12776
▁මේක 12647
▁up 12625
▁will 12610
▁දෙන 12484
▁she 12460
▁one 12212
▁about 11879
▁how 11539
▁මොකද 11454
. 11161
▁තියෙන 11071
▁වගේ 10989
▁at 10970
▁අපිට 10952
▁her 10756
▁මොකක 10664
▁got 10513
▁why 10327
▁එපා 10299
▁ඒත 10174
▁ඇත 10140
▁ව 10006
ve 9920
▁who 9858
▁ඔයාගේ 9844
▁let 9703
▁ත 9600
▁okay 9502
▁want 9457
▁පුළුවන 9429
▁did 9418
▁බලන 9323
▁දෙයක 9295
▁තමයි 9279
▁කිව 9245
▁from 9222
▁yeah 9158
▁his 8954
▁us 8639
▁as 8548
▁think 8548
▁ඕන 8521
▁back 8502
▁see 8473
▁හිතන 8405
▁oh 8397
▁where 8200
▁ඇයි 8081
▁good 8028
▁going 7930
▁them 7871
▁තා 7813
▁වෙලා 7761
▁ඕනේ 7750
▁well 7747
▁මාව 7703
▁gonna 7670
▁එකක 7558
▁take 7539
▁an 7380
▁තියෙනවා 7375
▁hey 7345
▁when 7321
▁ඔහු 7244
▁need 7236
▁time 7177
▁වෙනවා 7175
▁කරනවා 7160
▁our 6996
▁කොහොමද 6996
▁එහෙම 6985
▁look 6966
▁tell 6941
▁yes 6941
▁කියල 6802
▁පස 6643
▁කතා 6536
▁man 6454
▁ගත 6442
▁ඔබ 6412
▁ඇති 6395
▁been 6373
▁were 6329
▁then 6266
▁would 6252
▁කෙනෙක 6251
▁ඔවුන 6225
▁නැත 6169
▁අපේ 6156
▁or 6146
▁තාත 6112
▁සර 6102
▁has 6098
▁ගේ 6071
▁ඔයාව 6065
▁එයාට 5991
▁ය 5906
▁down 5819
▁බෑ 5818
▁පුලුවන 5765
▁ඔයාගෙ 5727
▁sir 5624
▁some 5563
▁දේ 5556
▁say 5504
▁විශ 5476
▁please 5450
▁සහ 5394
▁තේ 5378
▁ගොඩක 5360
▁had 5340
d 5295
▁way 5287
▁am 5284
▁something 5241
▁සම 5210
▁didn 5181
▁only 5179
▁වල 5140
▁by 5117
▁වා 5109
▁ල 5098
▁හොඳයි 5063
▁ඇය 5040
▁could 5001
▁make 4950
ක 4892
▁ඉතින 4883
▁people 4814
▁අම 4795
▁හැම 4779
▁too 4760
▁never 4701
▁මෙතන 4696
▁කරලා 4673
▁සන 4659
▁more 4601
▁උන 4561
▁වන 4554
▁should 4552
▁sorry 4544
▁වැඩ 4540
▁මා 4532
▁කවුද 4498
▁give 4478
▁මොනවද 4461
▁over 4453
▁නිසා 4451
▁මිනිස 4442
▁really 4430
▁නේද 4394
▁අර 4381
▁තටම 4357
▁යනවා 4346
▁help 4343
▁කලින 4322
▁සු 4298
යි 4290
▁අල 4288
▁බ 4265
▁doing 4227
▁එයාව 4224
▁because 4202
▁find 4193
▁ලා 4175
▁තව 4156
▁love 4139
▁ඉක 4092
▁රශ 4071
▁off 4065
▁said 4051
▁අත 4051
▁වලට 4025
▁නෙවෙයි 4023
▁උදව 4004
▁සමාවෙන 4000
▁stop 3978
▁two 3976
▁: 3953
▁any 3947
▁ආරක 3938
▁these 3902
▁අන 3892
▁නැති 3887
▁දැක 3875
▁සේ 3866
▁නවත 3855
▁even 3824
▁වගේම 3823
▁චර 3756
▁little 3752
▁අද 3713
▁අහන 3706
▁ඩ 3701
▁ලි 3682
▁වේ 3682
▁එකට 3662
▁ආපහු 3642
▁නවද 3641
▁විතරයි 3631
▁thing 3626
▁thank 3624
▁දේවල 3610
▁very 3607
▁ඒකට 3605
▁life 3587
▁මොන 3575
▁ඔක 3554
▁ග 3517
▁mean 3492
▁♪ 3475
▁කාර 3474
▁නද 3465
▁god 3451
▁වාස 3451
▁නැ 3436
▁ටිකක 3431
▁උත 3430
▁into 3422
▁ඔය 3421
▁එහෙනම 3411
▁වෙනුවෙන 3393
▁මගෙ 3379
▁වඩා 3378
▁යමු 3371
▁ඕනෙ 3357
▁ගිහින 3340
▁තියන 3324
▁anything 3301
▁නා 3294
▁their 3254
▁wait 3254
▁first 3245
▁mr 3245
▁මන 3245
▁sure 3244
▁call 3221
▁much 3215
ද 3211
▁උඹ 3206
▁keep 3200
▁හොඳ 3185
▁still 3169
ත 3158
▁පැත 3141
▁කට 3113
▁එයාගේ 3111
▁මහත 3111
▁නැද 3106
▁එයාලා 3104
▁කිසිම 3089
▁ධ 3080
▁before 3075
▁බන 3075
▁දාන 3064
▁name 3056
▁away 3055
ට 3054
▁තර 3038
▁after 3024
▁කොහෙද 3018
▁හම 2990
▁day 2982
▁kill 2962
▁වුනා 2954
▁නමුත 2938
▁තමා 2936
▁පෙන 2924
▁ඔබට 2921
▁කවදාවත 2915
▁work 2914
▁ඔහ 2912
▁father 2910
▁තු 2909
▁හදන 2909
▁won 2901
▁දුන 2900
▁කර 2893
▁කොල 2882
▁nothing 2876
▁again 2867
▁එනවා 2863
ing 2861
▁කෙල 2858
▁talk 2856
▁කන 2852
▁ඒවා 2826
▁than 2812
▁සල 2807
▁කලා 2797
▁home 2796
ව 2776
▁නව 2761
▁තිබ 2754
▁told 2753
▁everything 2749
▁එකේ 2732
▁ඕනා 2724
▁මෙහෙ 2718
▁වෙයි 2715
▁guys 2708
▁ගෙදර 2708
▁( 2705
▁හොදයි 2705
▁must 2703
▁තට 2701
▁හේයි 2694
▁) 2692
▁put 2683
▁dad 2675
▁last 2671
▁ටර 2671
▁බැහැ 2666
▁ගෙ 2659
▁ලන 2655
▁leave 2651
▁කරගන 2642
▁එතකොට 2638
▁ලොකු 2628
ම 2621
▁කොම 2607
▁අය 2600
▁maybe 2597
▁පොඩි 2594
▁coming 2578
▁happened 2571
▁other 2559
▁son 2557
▁කැමති 2557
▁වෙනස 2553
▁move 2533
▁දක 2530
▁long 2527
▁ර 2522
▁thought 2504
▁years 2504
▁those 2492
▁වත 2487
▁someone 2480
▁හ 2460
▁හරියට 2442
▁stay 2438
▁new 2412
▁කලේ 2408
▁ඔයාලා 2406
▁place 2397
▁එය 2396
▁guy 2394
▁සෙ 2393
▁ever 2387
▁අනේ 2384
▁වලින 2384
▁night 2383
▁පත 2377
▁world 2374
▁does 2373
▁හිටියේ 2372
▁doesn 2358
▁හොයාගන 2351
▁ඉස 2349
▁made 2348
▁done 2341
▁කා 2341
▁තියනවා 2339
▁නයි 2332
▁ගියා 2325
▁girl 2301
▁ටික 2301
▁තම 2297
▁තැන 2297
▁එයාල 2288
▁කම 2284
▁listen 2278
▁කල 2270
▁uh 2267
▁කළා 2265
▁around 2262
▁වුනේ 2259
▁අවුරුදු 2254
▁ගෙන 2252
▁hell 2249
▁brother 2236
▁තූතියි 2230
▁better 2227
▁පටන 2213
▁විදිහට 2206
▁great 2205
▁things 2201
▁ආවේ 2200
▁understand 2196
-- 2193
▁වැඩක 2167
ed 2166
▁every 2161
▁හොද 2159
▁money 2158
ය 2145
▁hello 2137
▁left 2123
▁නෙමෙයි 2117
▁always 2108
▁සිද 2107
▁තුතියි 2105
▁නියමයි 2100
▁තත 2098
▁පේන 2098
▁සුන 2095
▁car 2093
▁wrong 2087
▁fine 2086
ෙන 2083
▁ඔබේ 2083
▁හා 2078
▁එකම 2072
▁වෙ 2068
▁believe 2066
▁පොඩ 2062
▁dead 2054
▁දැනගන 2054
▁හරිද 2050
▁පිස 2044
▁තෙ 2037
▁ෂා 2037
▁came 2034
▁ඕනි 2030
▁කරපු 2024
ින 2021
▁ච 2017
▁හොඳින 2013
▁තන 2003
▁ෆ 2002
▁isn 1999
▁අවශ 1995
▁උනා 1994
▁ok 1991
▁through 1988
▁එලියට 1981
▁three 1972
▁හැමෝම 1963
▁ඔහුට 1962
▁ලස 1960
▁ගමන 1952
▁මෙන 1946
▁* 1939
▁අපිව 1939
▁කොච 1934
▁නැතුව 1932
i 1922
▁which 1920
▁ඇවිත 1919
▁විදියට 1919
▁බැරි 1914
▁today 1909
▁සෙල 1908
▁කරා 1907
▁else 1902
▁talking 1901
▁found 1898
▁mother 1893
▁may 1888
▁hear 1884
▁වර 1881
▁bad 1873
▁අරගෙන 1873
▁මතක 1873
▁මාර 1873
▁house 1872
▁පරීක 1870
▁කෙනා 1865
▁hold 1861
▁lot 1861
▁තරම 1861
▁ask 1857
▁shit 1857
▁looking 1853
යක 1846
▁බව 1846
▁feel 1843
▁එයාගෙ 1843
▁ඩක 1837
▁big 1831
▁ති 1831
▁දවස 1824
▁getting 1821
▁අරන 1819
▁wanted 1817
▁remember 1815
▁මොනාද 1815
▁enough 1814
ේ 1810
▁තවත 1808
▁තුවක 1804
▁දිහා 1797
▁මරන 1797
▁හොදින 1783
යට 1776
a 1773
▁old 1768
▁හිටියා 1768
▁many 1764
▁තේරුම 1762
ෙ 1759
▁same 1753
▁ඒකෙන 1745
▁another 1744
▁කියනවා 1729
▁trying 1726
▁ඒයි 1721
න 1720
▁ලක 1718
▁රෑ 1716
▁කමක 1715
▁boy 1709
▁එත 1704
▁nice 1701
▁without 1698
▁කැමතියි 1698
▁බය 1692
▁next 1686
▁might 1685
▁friend 1684
▁run 1681
▁රස 1681
▁show 1668
▁10 1664
▁care 1663
▁thanks 1663
▁චි 1663
▁own 1659
▁real 1659
▁ආ 1654
▁නත 1652
ගේ 1644
▁everyone 1640
▁die 1639
▁සමහරවිට 1637
▁anyone 1629
▁උනේ 1625
▁කණ 1624
▁being 1616
▁දකින 1614
▁mom 1605
▁ඇයට 1605
▁වෙඩි 1603
▁අවස 1601
▁saw 1600
▁ready 1599
▁මනට 1595
▁kind 1591
▁දි 1587
▁සමහර 1587
▁family 1584
▁try 1583
▁ටන 1580
▁එයාලට 1578
▁ඕක 1575
▁අනිත 1573
▁ලෝ 1573
▁killed 1572
▁මෙහේ 1570
▁baby 1567
▁ඊට 1561
▁gotta 1557
▁ඔහුව 1557
▁took 1550
▁නැවත 1548
▁head 1546
ී 1544
▁job 1541
▁දු 1538
▁නියම 1538
▁ඇතුලට 1537
▁ලම 1537
▁2 1531
▁බල 1526
▁yourself 1525
▁මාත 1525
▁3 1524
▁ඉල 1524
▁once 1519
▁එච 1519
▁කරුණාකරලා 1514
▁නෙමේ 1509
යේ 1508
▁seen 1507
කට 1504
▁වැඩේ 1503
▁ආවා 1501
▁bring 1500
▁hi 1500
▁lost 1500
o 1493
▁වෙලාව 1493
▁mind 1491
▁කෝ 1486
▁ජීවත 1485
▁meet 1484
▁මොනවා 1481
▁කියලද 1477
ු 1476
▁එකෙන 1474
▁දා 1473
▁විස 1472
▁එතන 1466
▁open 1464
▁ඔයාලට 1462
▁_ 1460
▁fuck 1459
▁මත 1458
▁gone 1457
▁ෂ 1453
▁wanna 1445
▁days 1442
ි 1433
▁අමතක 1425
▁ණ 1423
▁course 1421
▁problem 1421
▁ඉවරයි 1420
වත 1418
▁best 1418
▁live 1418
▁විට 1418
▁බලාගන 1415
▁නරක 1414
y 1411
ස 1408
▁ලේ 1404
in 1394
▁තමුන 1392
▁ලෙක 1387
▁දාලා 1386
▁අයින 1385
▁නයක 1384
er 1381
▁වේවි 1380
ල 1378
▁already 1377
▁දෙනවා 1377
▁හිතනවා 1377
යන 1369
ිය 1367
▁ඇස 1367
▁went 1365
▁room 1364
▁ඇයව 1364
නේ 1363
▁ජැක 1359
▁hand 1358
▁දැම 1358
▁saying 1355
▁ඔහේ 1355
යෙන 1354
▁police 1353
▁ඔහුගේ 1353
▁පර 1350
ලා 1347
▁අහ 1347
▁jack 1341
▁බර 1340
▁water 1336
▁දෙවියනේ 1336
▁morning 1335
▁watch 1334
▁පූර 1334
▁යා 1334
▁උබ 1333
▁together 1332
▁men 1331
▁both 1330
▁ඔයාල 1330
▁බොරු 1330
▁knew 1329
▁තාම 1326
▁actually 1323
▁idea 1323
▁l 1323
▁බලාගෙන 1322
▁use 1321
▁තෙන 1319
▁wasn 1314
▁හරිම 1314
▁වය 1313
▁daughter 1311
▁අදහස 1309
▁සෙන 1309
▁ago 1305
▁මක 1302
▁huh 1300
▁නන 1300
▁1 1299
▁වැඩි 1299
▁yet 1296
▁ඔන 1294
▁වෙනව 1293
▁යයි 1287
▁ඉතිං 1286
▁inside 1285
▁මල 1285
▁start 1284
ුත 1283
ගෙන 1281
▁also 1279
▁heart 1277
▁most 1277
▁ශ 1277
ගෙ 1275
▁අප 1270
▁turn 1269
▁hit 1268
▁ඌ 1266
▁දී 1266
▁අලුත 1264
▁කු 1263
▁හොයන 1258
▁පාවිච 1256
▁5 1252
▁පාර 1251
▁heard 1249
▁උඹට 1249
▁පුතා 1247
▁තියෙනවද 1244
▁used 1242
▁minutes 1240
▁few 1238
▁happy 1234
▁මෙහෙට 1233
▁තියාගන 1232
▁මැරෙන 1231
▁fucking 1230
▁කෑම 1230
▁phone 1229
▁ලොක 1218
▁called 1217
▁කෝල 1215
▁ශක 1214
▁end 1210
▁since 1210
▁eyes 1208
▁such 1208
▁ඉඩ 1207
▁නැතිව 1207
▁hard 1205
▁ඉවර 1204
▁wouldn 1203
▁සත 1202
▁හොයාගත 1198
▁නිර 1196
▁වාර 1196
▁ගහන 1192
▁face 1190
▁ඔයත 1190
▁wife 1185
▁shut 1179
▁සේරම 1179
▁alone 1178
▁sister 1175
▁friends 1174
▁බලාපොරොත 1169
▁මෙයා 1168
▁whole 1165
▁trust 1164
▁වද 1164
▁until 1162
▁4 1159
▁වැදගත 1158
▁tomorrow 1156
▁මුකුත 1153
▁five 1152
▁guess 1152
▁ඒවගේම 1151
▁දෙකක 1146
ුයි 1145
▁කරේ 1141
▁හිතුවේ 1141
▁save 1139
▁කද 1137
▁පන 1137
▁looks 1135
▁happen 1132
▁while 1131
▁එළියට 1131
▁කවුරු 1129
▁විනාශ 1129
▁soon 1128
▁විතරක 1127
▁දර 1126
▁හැමදේම 1122
▁කරල 1121
▁තැනක 1121
▁safe 1116
▁හෙලෝ 1115
▁matter 1114
▁whatever 1114
▁තද 1114
▁මේකට 1113
▁මෙහෙම 1110
▁under 1108
▁ගියේ 1108
▁නිකන 1104
ers 1103
▁gun 1103
▁මෙතනින 1102
▁ඇන 1097
▁පොරොන 1097
▁ෂක 1097
▁door 1092
▁fire 1092
ර 1091
▁gave 1091
▁විද 1091
▁වෙලාවක 1089
▁සුභ 1088
▁pretty 1085
▁play 1080
▁විතර 1080
▁haven 1079
▁කිසි 1079
▁වුණා 1077
▁knows 1076
▁ලෑස 1075
▁far 1072
▁දවසක 1071
ෝ 1070
▁&#93; 1070
▁දුර 1070
▁♫ 1069
▁&#91; 1066
▁close 1065
▁මිනිහා 1061
▁බා 1060
▁කරමු 1058
▁කරනව 1057
▁රාත 1057
▁check 1054
▁hands 1054
ly 1053
▁says 1053
▁දෙවියන 1053
ටම 1051
▁තිය 1051
▁හායි 1051
am 1045
▁ගාව 1045
▁change 1044
▁its 1043
▁part 1043
▁ආදරෙයි 1040
▁ඉදන 1040
▁තුන 1040
▁මමයි 1039
▁වැරදි 1038
▁සටන 1037
▁case 1036
▁second 1035
▁මාස 1034
▁excuse 1032
▁worry 1032
▁හරියටම 1032
▁couldn 1030
▁තමන 1028
▁තියනව 1028
▁myself 1026
▁ආදරය 1025
▁කළේ 1025
▁john 1023
▁ටිය 1019
▁මුලින 1019
▁exactly 1012
▁එකතු 1012
▁එල 1011
▁දුව 1011
▁මගෙන 1011
▁දිගටම 1010
▁alive 1008
▁අනික 1008
▁අවුලක 1008
▁හෝ 1008
▁මිනිහෙක 1007
▁working 1004
▁මොකුත 1004
▁behind 1003
යා 1002
▁wants 1002
▁කරයි 1001
▁hope 1000
▁means 1000
▁හෙට 995
▁taking 993
▁සාක 992
▁20 990
▁b 989
▁ඔහොම 988
▁අතර 987
▁s 985
▁කරනවද 985
▁පින 985
▁කරගෙන 984
▁මොකටද 983
▁පල 981
▁ගුවන 979
▁plan 978
▁මුළු 974
▁ජ 973
▁තාමත 971
▁miss 968
▁easy 967
▁hurt 966
▁yöu 966
▁dr 965
▁\ 962
▁each 962
▁sit 962
e 960
▁damn 957
▁මමත 957
▁death 956
▁person 956
▁තිබුනා 952
▁පාලනය 951
▁කාලය 950
▁truth 949
▁ඇවිල 948
▁සාමාන 948
▁kid 947
▁true 947
ප 945
▁පිට 943
▁පැය 942
ා 941
▁මිස 940
▁woman 937
▁asked 936
▁c 936
▁ඉඳන 934
▁mine 932
ුව 931
▁හිටියෙ 931
▁chance 930
▁t 930
es 925
▁නට 924
▁ලගන 924
▁විය 923
▁හොඳට 923
▁මටත 922
▁minute 921
▁thinking 921
c 920
▁city 920
▁d 920
▁වතුර 920
▁වීම 920
▁නිදහස 919
▁forget 916
▁number 916
▁කතාකරන 916
▁four 914
▁ටු 911
▁side 910
▁සට 909
▁supposed 908
▁තක 908
ගන 907
▁අවුල 907
▁කාලයක 905
▁මනුස 905
▁deal 904
▁um 902
l 901
▁පොලිස 901
▁crazy 900
▁ආවෙ 900
▁blood 898
▁late 898
▁තේරෙන 897
▁නවනේ 896
▁rest 895
▁shot 895
▁යක 895
▁උස 891
▁කිරීම 891
▁කවුරුහරි 890
▁hours 889
▁ලෙස 889
▁ගිය 888
▁අදහසක 887
▁යි 887
▁ආයෙත 886
▁දෙක 883
▁මෙච 883
▁tonight 880
▁ලැබෙන 880
▁කාන 878
▁විනාඩි 878
▁everybody 877
▁power 875
▁lord 873
හ 872
▁beautiful 872
▁උඩ 872
▁king 870
▁yours 870
▁business 869
▁බිම 869
▁රහස 869
▁aren 867
▁කොටස 867
▁මේවා 867
ග 865
▁team 865
▁නකෝ 864
▁හොයා 864
▁send 863
▁waiting 862
▁වැරැද 862
▁උදේ 861
▁welcome 860
▁කොට 859
▁සමග 859
▁body 858
▁සි 857
ාව 856
▁මෙ 856
▁යවන 854
▁set 853
▁සෑම 853
▁/ 852
▁later 851
▁තයා 851
▁word 850
▁අස 849
ියක 846
▁clear 846
▁pay 846
▁නෙක 845
▁year 844
▁චිත 841
▁fight 840
▁හින 840
▁bit 839
▁cut 839
▁වුනත 839
▁ma 838
▁6 836
▁හිත 836
▁රා 835
▁තිම 834
▁kids 833
▁ලබා 833
▁makes 832
▁whoa 831
දී 830
▁game 830
▁point 829
▁වෙලාවට 829
▁story 828
▁කාටවත 828
▁දැනගෙන 828
▁shoot 826
▁least 824
▁30 823
▁මහ 820
▁p 819
▁කව 819
▁සාහ 818
▁food 816
▁කොහොම 814
▁බොන 814
▁doctor 813
▁k 813
▁ආව 813
▁12 812
▁break 812
▁question 811
▁අ 811
▁ආයේ 811
▁ලග 811
▁7 809
▁වස 809
▁times 808
▁died 806
▁උදවු 806
දි 804
▁බේ 804
b 803
▁making 801
▁අනිවාර 801
▁වුන 801
වල 800
▁බොහොම 799
▁eat 798
▁කැප 798
▁control 797
▁telling 797
▁බේරගන 797
▁sleep 796
ඩ 795
▁ain 795
▁කළ 794
▁දැනටමත 794
▁කරදර 793
▁speak 790
▁යාළුවා 790
▁යම 789
වද 788
▁ආදරේ 788
▁em 787
▁michael 785
▁captain 784
▁o 784
▁පුද 784
al 783
▁probably 783
▁brought 782
▁nobody 780
▁different 779
▁අපට 779
▁පරිස 779
▁දොර 778
▁පුංචි 777
▁walk 776
p 774
ියට 774
▁ඔබව 774
▁ගල 774
▁දැනෙන 774
▁යුතුයි 774
▁හොඳම 772
▁හිටපු 771
an 770
ුන 769
▁m 768
▁පහර 768
▁become 767
▁15 766
▁uncle 766
▁අරගන 765
▁මනින 765
▁ළඟ 765
▁school 764
▁reason 763
▁wish 763
▁comes 762
▁උනත 761
▁ඒකයි 761
බ 760
▁red 759
▁පිටිපස 759
▁වට 759
▁මයිකල 758
▁moment 757
▁කියපු 757
▁මුල 757
▁promise 756
▁alright 755
▁high 755
▁somebody 755
▁කවුරුවත 755
▁දුවන 754
▁පාරක 754
k 753
▁between 752
▁security 752
▁පු 752
▁පුදුම 752
වන 751
▁having 750
▁එයාලව 750
ුවා 749
▁රන 749
▁රියා 749
▁තනියම 748
▁shall 747
▁අරින 747
▁තවමත 747
▁මෙම 746
▁outside 745
▁කවුරුත 745
▁සද 744
වා 743
▁met 743
▁stuff 743
▁නවතින 742
▁ලින 742
▁එකයි 739
▁100 738
▁child 737
▁හිතුවා 737
▁දැනගත 736
▁started 735
▁කියවන 734
▁ජීවිතය 734
▁scared 733
▁සූදානම 733
▁gets 732
▁stand 732
▁නතර 732
▁එහෙමයි 730
▁girls 729
▁sent 729
▁half 728
▁news 728
▁පැන 728
▁ඒකෙ 727
▁against 724
▁තල 724
▁බෝම 724
▁කොන 723
▁දින 723
ුම 722
▁අපොයි 722
▁black 721
▁dear 721
▁පරණ 721
▁හොදට 721
▁ඒව 719
▁full 718
▁ඇතුලේ 718
▁හැමදෙයක 718
ීම 717
▁උඹේ 717
▁සුබ 717
▁air 716
▁tried 716
▁අඩු 716
▁ඩායම 715
it 714
ික 714
▁කොහේද 714
▁ගෙනියන 714
▁ජීවිතේ 714
▁front 712
▁ඕහ 712
නවා 711
▁line 711
▁married 711
▁ඔහුගෙ 710
▁මයා 710
▁months 709
▁දැකලා 709
▁pick 708
on 707
▁fun 707
▁යුද 707
▁read 706
▁drink 705
▁පැනලා 704
▁මිය 704
u 702
▁human 702
▁fbi 701
▁දානවා 701
▁able 700
▁යය 700
මම 698
▁light 698
▁six 698
▁ලො 698
▁catch 697
▁රිය 697
යකට 696
▁anymore 696
▁running 696
ෙක 695
▁ඩොක 695
▁සෑහෙන 695
▁bye 694
▁පරක 693
h 691
▁almost 691
▁follow 690
▁answer 688
▁cannot 688
▁lives 688
▁හැමෝටම 688
r 687
▁island 686
▁party 686
▁මෙතනට 686
▁හුඟක 685
▁හොරකම 685
▁බලමු 684
▁fast 683
▁wow 683
▁ඇතුල 683
▁සහෝදරයා 683
▁ඔයාගෙන 682
▁touch 681
▁සැලැස 681
▁asking 680
▁lose 680
▁war 680
▁ටි 680
▁ඇල 678
▁ඉවත 678
▁කොහෙන 678
▁මෙහෙන 678
▁ah 676
▁තිබුනේ 676
▁.... 675
▁quite 675
▁මීට 675
▁කිට 674
▁බෙ 674
▁මැරිලා 674
▁ඇගේ 672
▁කේ 672
කින 671
▁ahead 671
ුවේ 669
▁important 669
▁සතුටක 668
ගත 667
▁pull 667
▁කතාව 667
▁නි 667
▁වක 666
▁වුණේ 666
▁අයට 665
▁පද 665
▁seems 664
▁ණයෙන 664
▁free 663
▁රි 663
▁වෙච 660
▁sam 659
▁taken 659
වෙන 657
▁leaving 657
▁ගැනද 657
▁රත 657
ිල 654
▁ලට 654
▁afraid 652
▁බලා 652
f 651
▁needs 651
▁week 651
▁තවම 651
▁බෙන 651
▁යනව 651
▁cool 650
▁කොහදෙ 650
▁දෙනෙක 650
ියේ 648
th 647
▁goes 647
▁කණගාටුයි 646
▁පා 646
n 645
▁50 645
▁special 645
▁වෙත 645
▁හැබැයි 645
▁කථා 644
▁ගානක 644
▁මගෝ 644
▁හැකි 644
▁cause 643
▁සනයි 643
▁ඔයයි 642
▁වූ 640
▁හුස 640
▁either 638
▁දුක 638
▁වාසයි 638
▁town 637
▁ආපු 637
▁ගේන 637
▁ඉලක 636
▁උඩට 635
▁drive 634
▁මැක 634
▁විශේෂ 633
ූ 632
▁එයි 632
▁වී 632
▁හිතෙන 632
▁boss 631
▁though 631
▁රේ 631
▁trouble 630
▁වැඩියි 630
▁අක 629
▁ආහ 629
▁තුවේ 629
▁මරලා 628
▁හේ 628
▁till 627
▁ඔයාලගේ 627
▁ජීවිත 627
▁හිර 627
▁% 626
▁බායි 626
ාන 625
▁ඩොලර 625
▁බලය 625
▁young 624
▁බැ 624
▁තොත 622
▁ථාවක 622
▁දොස 622
▁eye 620
▁ගෙවන 620
▁අංක 619
ියන 618
▁$ 618
▁8 618
▁මිනිසුන 617
▁මොනවාද 617
▁මගුලක 616
▁dude 615
▁සඳහා 615
is 613
▁දත 612
▁දෙ 612
ියි 611
ෙයි 611
▁possible 611
කම 610
▁country 610
▁drop 610
▁කෙනකේ 610
▁රාජ 610
▁husband 609
▁past 609
▁නිව 609
▁පිළිගන 608
ation 607
▁මෝඩ 607
▁හිතුවෙ 607
▁others 606
▁මොනව 606
▁ෙන 606
▁අවසන 605
▁මොනා 605
▁තමුසේ 604
▁ලව 604
▁ලු 604
▁හෙයි 604
▁anyway 603
▁කුව 603
▁මිලියන 602
මට 601
▁mistake 601
▁step 601
▁happening 600
▁office 600
ිත 599
▁වයි 599
ie 598
යෙක 598
▁feeling 598
▁යට 598
or 597
පු 597
▁entire 597
▁එ 597
▁ඕනද 597
▁මෙහාට 597
▁බුද 596
▁ළමයි 596
en 595
▁ass 595
▁dog 595
▁million 595
▁රක 595
▁කරගත 594
▁ජේන 594
▁shouldn 593
▁තිස 593
▁දෙයියනේ 593
▁plane 592
▁තියෙනව 592
▁නිකම 592
▁විශාල 592
▁couple 591
▁earth 591
▁small 591
ිස 590
▁ඇඳුම 590
▁තීරණය 590
▁company 589
▁පාට 589
ුනා 588
▁කො 588
▁train 587
▁ඕ 585
▁මස 585
▁යමක 585
▁miles 584
▁ලැබුනා 584
ො 583
▁පවුල 583
▁boys 582
▁හිටිය 582
▁hurry 581
▁ඒකේ 581
▁මග 581
▁මිත 581
▁agent 580
▁රධාන 579
▁විසින 579
▁අයියෝ 578
▁තිමත 578
▁සිටින 578
▁අළුත 577
▁daddy 576
▁තොරතුරු 576
▁දුම 576
▁පේනවා 576
නම 575
▁කිරීමට 575
▁happens 574
▁honey 574
▁සින 574
man 573
▁bitch 573
ිම 571
▁along 571
▁order 571
▁parents 571
▁ten 571
▁ඉදලා 571
▁කාල 571
▁බෙල 571
▁කියා 570
▁පැහැදිලි 570
▁stupid 569
▁යයෙන 569
▁වින 569
▁වොත 569
▁සතුටු 569
▁මිනිත 568
▁සැලසුම 568
▁g 567
▁කි 567
▁නිල 567
▁රව 567
▁හිස 567
▁යාලුවා 566
▁bar 564
▁lady 564
▁එකෙක 564
ic 563
▁සමාව 563
▁තියනවද 562
▁hang 561
▁hour 561
▁පැටියෝ 561
▁රිස 561
▁සති 561
ුවක 560
▁protect 560
▁අවුරුද 560
▁නෙවේ 560
g 559
▁moving 559
▁ගිහිල 559
ිව 557
▁e 556
▁luck 556
▁ආත 556
▁එහෙ 556
▁ඔප 556
▁පොත 556
▁විරුද 556
ියා 555
▁lie 555
▁බවට 555
▁funny 554
▁ගොඩාක 554
ar 553
▁නෙත 553
▁calling 552
▁clark 551
▁හලෝ 551
▁children 550
▁hospital 549
▁ඩර 549
▁තුව 549
▁බැල 549
▁මේකෙන 549
▁ලෝකය 549
▁හේතුව 548
▁book 547
▁ha 547
▁පෙර 546
▁චාර 545
▁තාව 545
▁දීලා 545
▁හැටියට 544
▁ෆෝන 544
▁ෂිත 543
▁හිතනවද 543
යින 542
▁බාර 542
▁වික 542
▁හැටි 542
▁hate 541
▁හදවත 541
▁චරයි 540
▁මර 540
▁ෂණ 540
▁n 539
▁system 539
▁භ 539
▁මයික 539
▁එකත 538
▁උබට 537
▁හොයාගෙන 537
නය 536
▁charlie 536
▁master 536
▁ලනේ 536
▁careful 535
le 534
▁ගෙදරට 534
▁නෑනේ 534
▁බඩු 534
▁fall 533
▁ඉතා 533
▁ලෙන 533
▁ඉඳලා 532
▁යෙන 532
▁උණ 531
▁පරික 531
ුවට 530
▁bomb 530
▁අනුව 530
▁perfect 529
▁එයාලගේ 529
▁ඉතුරු 528
▁හරහා 528
us 527
යෙ 527
▁රී 527
v 526
▁f 526
▁living 526
▁r 526
▁ඕනෙද 526
▁කොයි 526
▁sometimes 525
▁station 524
▁දිව 524
▁වෙලාවේ 524
ං 523
▁9 523
▁bed 523
▁choice 523
▁අයිති 523
▁secret 522
▁sound 522
▁ඔබගේ 522
▁කෙලින 522
▁sun 521
කර 520
▁dream 520
▁win 520
▁වනවා 520
▁marriage 519
▁තිබෙනවා 519
▁දාල 519
▁bag 518
▁එදා 518
▁ටයි 518
▁hmm 517
▁sweet 517
▁ඉගෙන 517
▁තුනක 517
▁සා 517
▁boat 516
▁වෛද 516
▁සිදු 516
▁ඊයේ 515
▁තේරෙනවා 514
▁return 513
▁කසාද 513
▁figure 512
▁ඔ 512
▁ණයක 512
▁given 511
▁මහා 511
▁ජිවත 510
at 509
යෝ 509
▁un 509
▁විකාර 509
▁calm 508
▁himself 508
▁hot 508
▁අධ 508
▁අපිත 508
▁ජෝන 506
▁රික 506
▁sounds 505
▁බිත 505
▁building 504
▁නිදාගන 504
▁හොදම 503
▁කතාවක 502
▁බලනවා 502
▁හැර 502
▁ආරම 501
▁තමුසෙ 501
▁බෝට 501
▁-- 500
▁ඩි 500
▁වාසද 499
▁00 498
▁top 498
▁wake 498
▁කකුල 498
▁ටම 498
▁ටුව 498
▁ගියොත 497
▁future 496
▁හැමදාම 496
▁කාරයෙක 495
▁කොහේ 495
▁ගොඩ 495
▁ship 494
▁කරුණාකර 494
▁පෙට 494
▁වෙනි 494
යයි 493
▁කාලේ 493
▁ගස 493
▁තැනට 493
▁මෙයාව 493
▁playing 492
st 491
▁අමාරු 491
▁පහත 491
▁මොනවහරි 491
▁ලාක 491
▁සිට 491
os 490
ච 490
ණ 490
▁land 490
▁අයියා 490
▁කෙ 490
වට 488
▁caught 488
▁clean 488
▁saved 488
▁sick 488
▁ආර 488
▁ෂාව 488
ඔයා 487
▁attack 487
▁fact 487
▁dark 486
▁නෙවයි 486
▁වුනොත 486
ate 485
▁white 485
රි 484
▁ground 484
ies 483
▁somewhere 483
▁ඌව 483
▁එව 483
▁ඔට 483
▁anybody 482
▁වැඩිය 481
ුට 480
▁weeks 480
ෙට 479
▁buy 479
▁y 479
▁කොටසක 479
▁වම 479
ජ 478
▁sense 478
▁sign 478
▁හුගක 478
▁රෑන 477
▁අමාරුයි 476
▁විල 476
▁හිතාගන 476
▁මාරු 475
▁ෂි 475
▁buddy 474
▁serious 474
▁සිත 474
▁13 473
▁ඈත 473
ිද 472
▁11 472
▁seem 472
▁රය 472
ඔව 471
▁cover 471
▁ඕනම 471
▁මැඩම 471
you 470
able 469
මයි 469
▁j 469
▁මතකද 468
▁සුද 468
▁mike 467
▁මධ 467
කරන 466
ශ 466
▁කලබල 466
▁කැමැත 466
▁තියලා 466
▁; 464
▁උපන 464
▁සියල 464
▁හර 463
as 462
▁24 462
▁මෙහි 462
▁එවන 461
▁නැගිටින 461
▁මොනවත 461
▁cell 460
▁පුර 460
▁fix 459
▁giving 459
▁එහෙමද 459
▁තවදුරටත 459
▁වගයක 459
▁explain 458
▁ඩන 458
▁information 457
▁බස 457
ියෙක 456
▁worth 456
▁අතන 456
▁මගුල 456
▁තයි 455
▁නින 455
▁වචන 455
▁සතුටුයි 455
▁සැන 455
▁bank 454
▁finally 454
▁ථාව 454
▁alex 453
▁lucky 453
▁හොඳටම 453
▁කවද 452
ha 451
▁road 451
▁words 451
▁පෙම 451
▁beat 450
▁dance 450
▁චන 450
▁තිබුණා 450
up 449
▁meeting 449
▁අවසාන 449
▁කිය 449
▁quiet 448
▁watching 448
▁මෙහෙයුම 448
▁hero 447
▁ලඟ 447
▁kitt 446
▁learn 446
w 445
▁needed 445
▁අවසර 445
▁තියාගෙන 445
▁වෙල 445
▁40 444
▁නීති 444
▁හදනවා 444
ාර 443
ිට 443
ීමක 443
▁dangerous 443
▁එනව 443
▁දැනෙනවා 443
▁නර 443
▁ 442
▁mad 442
▁ඉදිරියට 442
▁කාටද 442
▁වහන 442
▁known 441
▁පට 441
▁මුදල 440
නා 439
▁changed 439
▁මව 439
▁questions 438
ෂ 437
▁street 437
2 436
▁code 436
▁තාක 436
▁පිටත 436
▁වරෙන 436
▁anywhere 434
▁missing 434
▁seeing 433
▁රම 433
j 432
▁finish 432
හරි 431
▁piece 431
▁තිබුන 431
▁තුල 431
ated 430
ැ 430
▁feet 430
▁report 430
▁works 430
ant 429
යකින 429
▁papa 429
▁සමඟ 429
▁born 428
▁කරදරයක 428
▁ගණන 428
5 427
▁මහන 427
▁kept 426
▁mrs 426
▁murder 426
▁worked 426
▁මෙක 426
▁වශයෙන 426
▁less 425
▁ඇලෙක 425
▁උනොත 425
▁longer 424
▁wedding 424
▁කුමක 424
▁sort 423
▁එම 423
▁නො 423
et 422
ෙනවා 422
▁fish 421
▁straight 421
ia 420
▁message 420
▁අනතුරු 420
▁පසු 420
0 419
▁killing 419
▁marry 419
▁meant 419
▁ඇ 419
▁ඇයගේ 419
▁මරණය 419
law 417
▁w 417
▁එහි 417
▁තුවාල 417
▁පිලිගන 417
▁බං 417
▁යුතු 417
▁mission 416
▁ones 416
▁නිකං 416
▁fault 415
▁army 414
▁jesus 414
▁එයත 414
▁එහේ 414
▁නවනෙ 414
▁ලෝක 414
▁officer 413
▁president 412
▁වෙනකම 412
▁සතුටින 412
▁hair 411
▁handle 411
▁instead 411
▁takes 411
▁using 411
▁රට 411
▁weapon 410
▁ආයුධ 410
▁පණ 409
▁සැක 409
▁forever 408
▁lying 408
▁state 408
▁රියාත 408
▁bet 407
ාවක 406
▁= 406
▁තාවක 406
▁හැදුවේ 406
1 405
ෆ 405
▁ben 405
▁fear 405
▁fly 405
▁perhaps 405
▁වයක 405
▁pain 404
▁කරාවි 404
▁පහල 404
▁මුහුණ 404
▁සාර 404
ුද 403
▁contact 403
▁hide 403
▁blue 402
▁dinner 402
▁weren 402
▁කිරීමක 402
▁evidence 401
▁queen 401
▁re 400
▁wall 400
▁ඔයාටත 400
▁ගලික 400
▁බැරිද 400
▁මොකෝ 400
▁වනේන 400
▁ඔයාලගෙ 399
▁throw 398
▁ඉවරයක 398
▁දිය 398
▁බිල 398
▁මුන 398
▁none 397
▁කැමතිද 397
▁ඨ 397
▁හමුවෙන 397
x 396
▁birthday 396
▁force 396
▁හේතුවක 396
▁fool 395
▁seven 395
▁star 395
▁බවෙන 395
he 394
▁ran 394
▁sp 394
▁අපරාධ 394
▁කරමින 394
▁දාගන 394
▁පහලට 394
▁විදිහ 394
▁relax 393
▁slow 393
▁st 393
▁විවාහ 393
රා 392
▁coffee 392
▁law 392
▁අභ 392
▁ඔතන 392
▁නගින 392
▁මිනිහෝ 392
ඒක 391
▁felt 391
▁loved 391
▁smart 391
▁කරවන 391
▁තය 391
▁මොනාහරි 391
▁වයස 391
▁වැරදියි 391
ent 390
▁flight 390
▁seconds 390
▁turned 390
▁worried 390
▁උගන 390
▁ථ 390
ුනේ 389
▁අතේ 389
▁කින 389
▁ධව 389
▁ෂණය 389
ad 388
▁අතට 388
▁අව 388
▁gentlemen 387
▁අශ 387
▁නිසයි 387
▁මැද 387
▁මැරුවා 387
▁ලගට 387
▁හිම 387
ියෝ 386
ෙත 386
▁across 386
▁නුඹ 386
▁– 386
▁within 385
▁එතනට 385
▁බෑග 385
▁හදිසි 385
▁හැදුවා 385
il 384
මේ 384
▁h 384
▁ඇදුම 384
▁උඹව 384
▁භයානක 384
and 383
▁accident 383
▁charles 383
▁short 383
▁ඇවිදින 383
▁රතු 383
▁රැන 383
z 382
▁weird 382
▁මේකේ 382
▁යනවද 382
to 381
▁lead 381
▁ඔවු 381
▁කිවුවා 381
▁දවසේ 381
▁නිතරම 381
▁මාන 381
ාවට 380
▁single 380
▁test 380
▁ඊටපස 380
ේම 379
▁v 379
▁වීමක 379
▁වෙනවද 379
▁middle 378
▁ආච 378
▁date 377
▁idiot 377
▁respect 377
▁එහා 377
▁රෑට 377
▁තියා 376
▁හෙ 376
ළ 375
▁copy 375
▁ජින 375
▁නං 375
▁act 374
▁තෑග 374
▁තිමට 374
▁සාදරයෙන 374
▁ළමයෙක 374
▁count 373
▁picture 373
▁strong 373
▁අනතුරක 373
▁ටින 373
▁පවුලේ 373
▁සිය 373
▁හදලා 373
ාට 372
▁මාණය 372
▁මුද 372
ating 371
▁cop 371
▁gift 371
▁key 371
▁උදෑසනක 371
▁කලොත 371
▁තරුණ 371
▁මෙය 371
▁විනෝද 371
▁kate 370
▁සක 370
ටත 369
▁standing 369
▁අදින 369
▁ඒකත 369
▁රැ 369
ුවෙන 368
▁25 368
▁reach 368
▁ධයක 368
▁හෙල 368
▁honor 367
▁ඉද 367
▁ඔයාලව 367
▁වාව 367
▁south 366
▁පළමු 366
▁වගේද 366
▁හෙන 366
ීමට 365
▁blow 365
▁missed 365
▁අයිස 365
▁ගින 365
▁පහක 365
▁හැමවෙලේම 365
▁cia 364
▁government 364
▁රියක 364
▁pass 363
▁wear 363
▁දකුණු 363
▁නාස 363
▁මරනවා 363
▁ලගත 363
▁වැටෙන 363
▁සෙම 363
▁camp 362
▁north 362
▁unless 362
වයි 361
▁kidding 361
▁village 361
▁නිශ 361
▁පලවෙනි 361
ියෙන 360
▁} 360
ling 359
ුවන 359
▁16 359
▁17 359
▁box 359
▁stopped 359
▁අණ 359
▁ගමු 359
▁ගය 359
▁ඩා 359
▁පැතුම 359
▁මින 359
▁මුණ 359
▁වි 359
මක 358
ීන 358
▁claire 358
▁නමක 358
what 357
වේ 357
▁brain 357
▁kiss 357
▁near 357
▁stick 357
▁{ 357
▁විහිළුවක 357
▁එනකම 356
▁එහාට 356
▁තමුසෙට 356
▁බැන 356
▁ශබ 356
නෙ 355
යම 355
▁planet 355
▁ඩායමක 355
▁බබෝ 355
▁බෙහෙත 355
▁උබේ 354
▁කාමරේ 354
▁මෙයාට 354
▁ලී 354
▁විදිය 354
ist 353
▁absolutely 353
▁mm 353
▁ඉදිරිපත 353
▁ඔත 353
▁ගම 353
▁ගාවට 353
මින 352
▁amazing 352
▁rock 352
▁නෝනා 352
ාම 351
▁broke 351
▁dare 351
▁නවාද 351
▁මි 351
ේට 350
▁area 350
▁de 350
▁glad 350
▁gold 350
▁ඉතිරි 350
▁ණය 350
▁තිද 350
3 349
▁bear 349
▁cl 349
▁cold 349
▁situation 349
▁ඔලුව 349
▁තකට 349
▁මරණ 349
▁ලගෙන 349
▁ලෙ 349
ුල 348
▁tv 348
▁අඩුම 348
▁විවෘත 348
▁cops 347
▁forgive 347
▁share 347
▁swear 347
▁මුලු 347
▁රතික 347
▁සුදු 347
ොන 346
▁# 346
▁women 346
▁අඩි 346
▁නය 346
▁බිරිඳ 346
▁ice 345
▁mark 345
▁sitting 345
▁truck 345
▁දාගෙන 345
▁රමයක 345
▁ලෝකේ 345
▁general 344
▁position 344
▁quick 344
▁u 344
▁voice 344
▁අහලා 344
▁කළු 344
▁රණ 344
▁සංසුන 344
▁looked 343
▁magic 343
▁තැනකට 343
▁floor 342
▁නගරය 342
▁decided 341
▁ride 341
▁උද 341
▁කී 341
▁සරහට 341
▁escape 340
▁india 340
▁signal 340
▁ජෝ 340
the 339
▁deep 339
▁ladies 339
▁level 339
▁mess 339
▁target 339
▁අතාරින 339
▁අමුත 339
▁කෑල 339
▁කුරුල 339
▁නැතිනම 339
▁මයි 339
ීමේ 338
▁14 338
▁attention 338
▁evening 338
▁peace 338
▁space 338
▁නැවතත 338
▁mmm 337
▁wonder 337
▁yesterday 337
▁අරක 337
▁ආපසු 337
▁උඹලා 337
▁ලබාගන 337
▁වාසය 337
▁සුපිරි 337
om 336
වක 336
▁strange 336
▁ආයෙ 336
▁ධය 336
▁නිසාද 336
▁simple 335
▁පුරුදු 335
▁විදියක 335
▁ශන 335
▁frank 334
▁mouth 334
▁poor 334
▁ජරා 334
▁පක 334
වෙලා 333
▁hasn 333
▁worse 333
▁අතුරුදහන 333
▁ආදර 333
▁ඇහෙනවද 333
▁ථානය 333
▁පුතේ 333
▁බැලුවා 333
▁මූණ 333
▁රිද 333
▁වෛර 333
& 332
6 332
ුවෙ 332
▁quickly 332
▁sea 332
▁තහවුරු 332
▁මතකයි 332
▁ලැජ 332
▁කිවුවේ 331
▁මැරුණා 331
▁ලනවා 331
▁වගෝ 331
▁වෙනත 331
▁හරියන 331
ch 330
ity 330
▁forward 330
▁hotel 330
▁imagine 330
▁impossible 330
▁ඇතුලත 330
▁ඌට 330
▁කෑ 330
▁නල 330
▁යාවි 330
▁cross 329
▁grandpa 329
▁list 329
▁ring 329
▁හොදටම 329
▁eight 328
▁ඔහේට 328
▁කරුණාකරල 328
▁කුවක 328
▁වාහනේ 328
▁විශිෂ 328
el 327
යො 327
ාද 327
▁bloody 327
▁built 327
▁lock 327
▁track 327
▁නටන 327
▁පවා 327
▁රෝ 327
▁වනේ 327
cause 326
▁crime 326
▁faster 326
▁join 326
▁වසර 326
▁වාසනාවන 326
ions 325
ur 325
▁class 325
▁අඩංගුවට 325
▁එකා 325
▁මය 325
▁මුර 325
▁ගොල 324
▁සපත 324
▁සී 324
▁grab 323
▁whether 323
▁ඇතුලෙ 323
▁කිහිපයක 323
▁ගිනි 323
▁දුෂ 323
▁බොහෝ 323
▁වෙද 323
කොට 322
ුර 322
▁computer 322
▁tom 322
▁ඩු 322
▁දැනන 322
▁පළවෙනි 322
▁මිල 322
▁ළමයින 322
ine 321
▁ආචාර 321
▁දෙනවද 321
▁නොහැකි 321
▁මාගේ 321
▁වෙනුවට 321
▁සාව 321
▁මචං 320
▁age 319
▁angry 319
▁thinks 319
▁ආඩම 319
▁එනවද 319
▁ජන 319
▁නොකර 319
▁යැව 319
▁විදිහක 319
4 318
ive 318
ුනු 318
▁address 318
▁expect 318
▁ගැනීම 318
▁පේනවද 318
▁සෝ 318
8 317
▁busy 317
▁calls 317
▁court 317
▁prison 317
▁z 317
▁යානය 317
ලේ 316
වෙ 316
▁personal 316
▁tree 316
▁york 316
▁දරුණු 316
▁දැනට 316
▁ලැබෙනවා 316
▁completely 315
▁hundred 315
▁risk 315
▁දිග 315
▁ළමයා 315
ian 314
වර 314
▁18 314
▁proud 314
▁push 314
▁steal 314
▁super 314
▁අයව 314
▁ඊළඟ 314
▁කඩ 314
▁රු 314
▁වෙනකොට 314
ri 313
▁carry 313
▁උසස 313
▁කුඩා 313
▁මැරෙනවා 313
▁වතාවක 313
▁විනාඩියක 313
▁හිතලා 313
7 312
▁field 312
▁අතින 312
▁එයාලගෙ 312
▁පෞද 312
▁හන 312
▁හිතේ 312
00 311
ති 311
▁sarah 311
▁ටියක 311
▁difference 310
▁low 310
▁orders 310
▁අහකට 310
▁පනින 310
▁පියා 310
▁aaron 309
▁history 309
▁hunt 309
▁green 308
▁ya 308
▁නැන 308
▁වෙයිද 308
▁destroy 307
▁guns 307
▁seat 307
▁teach 307
▁ඇහුම 307
▁නකොට 307
▁පණපිටින 307
▁රසිද 307
▁විත 307
▁වෙලාවෙ 307
▁rather 306
▁ඔච 306
▁ථාන 306
▁වීමට 306
වනවා 305
වි 305
▁immediately 305
▁ටුවක 305
▁නකො 305
▁පීටර 305
▁ලෝකයේ 305
▁වීර 305
▁definitely 304
▁joe 304
▁spent 304
▁support 304
▁රයක 304
▁වෙස 304
ment 303
දෙන 303
▁ms 303
▁spend 303
▁suit 303
▁දැනුම 303
▁නු 303
▁වැඩකට 303
▁වැඩකරන 303
▁සියලු 303
▁අවධානය 302
▁රෙඩ 302
▁ලං 302
▁500 301
▁අමුතු 301
▁ඉ 301
▁ගේම 301
ුණ 300
▁early 300
▁radio 300
▁බි 300
▁මූ 300
▁රාක 300
▁වැටිලා 300
▁හතර 300
▁cash 299
▁ඇද 299
▁කගෙන 299
▁නොවේ 299
▁සාම 299
id 298
ලි 298
ෑ 298
ුණා 298
▁enemy 298
▁fell 298
▁seriously 298
▁නොත 298
▁වෙනසක 298
▁forgot 297
▁month 297
▁කෝපි 297
▁ජිම 297
▁ලේසි 297
▁වහගන 297
▁හහ 297
ුණු 296
ේන 296
ෝන 296
▁camera 296
▁match 296
▁rules 296
▁අගය 296
▁ඉර 296
▁උ 296
▁තකින 296
▁බෝ 296
▁locked 295
▁movie 295
▁paid 295
▁per 295
▁කාට 295
▁ගොඩනැගිල 295
▁තිබෙන 295
▁බදින 295
▁මො 295
▁රාම 295
▁හොල 295
▁following 294
▁normal 294
▁search 294
▁wearing 294
▁ඇහෙන 294
▁කියනව 294
▁මෝඩයෙක 294
▁යද 294
▁අනිවා 293
▁කය 293
▁කියලයි 293
▁නස 293
▁බෝල 293
▁යොමු 293
▁broken 292
▁machine 292
▁program 292
▁prove 292
▁river 292
▁කෙන 292
▁ජය 292
▁පොලිසිය 292
▁රජ 292
▁වාහන 292
led 291
ීට 291
▁fair 291
▁speed 291
▁හද 291
වම 290
ෙල 290
▁build 290
▁bus 290
▁නැව 290
▁මැර 290
▁මුණගැහෙන 290
▁සයෙක 290
▁සිටිනවා 290
▁හැරෙන 290
▁closer 289
▁dying 289
▁fighting 289
▁james 289
▁write 289
▁ඒගොල 289
▁ජිවිත 289
▁නික 289
▁පාත 289
▁මඟුලක 289
▁රැස 289
▁ඒකනම 288
▁කාරයා 288
▁ගැනීමට 288
▁මුහුදු 288
▁ලිව 288
▁වැස 288
▁හැක 288
▁හිට 288
▁— 288
ry 287
යාට 287
හා 287
ේද 287
▁enjoy 287
▁paper 287
▁එඩ 287
▁දිනන 287
▁මෙතැන 287
▁ලියන 287
ings 286
no 286
පන 286
▁heading 286
▁lab 286
▁peter 286
▁stuck 286
▁ථක 286
▁මිනිහව 286
▁මු 286
▁වේවා 286
▁සරහ 286
ra 285
ලු 285
▁accept 285
▁board 285
▁ආවරණය 285
▁බයයි 285
▁හිතෙනවා 285
9 284
ors 284
ter 284
ියෙ 284
▁doubt 284
▁evil 284
▁offer 284
▁ජා 284
▁ටිකට 284
▁නියෝජිත 284
▁යකෝ 284
▁යාලුවෙක 284
ාවන 283
ිලා 283
ෙව 283
▁ball 283
▁walking 283
▁ඊලග 283
▁ඔස 283
▁ගාන 283
▁පසුව 283
▁රේම 283
▁ෆිල 283
▁al 282
▁bird 282
▁card 282
▁jump 282
▁නොවෙන 282
▁බයක 282
▁සහතික 282
one 281
මන 281
▁charge 281
▁clothes 281
▁emergency 281
▁nine 281
▁talked 281
▁අහනවා 281
▁කීයක 281
▁කේස 281
▁කොහොමත 281
▁ටොම 281
▁තියි 281
▁පුහුණු 281
▁මේකයි 281
▁විහිළු 281
ion 280
▁music 280
▁princess 280
▁sell 280
▁උඩින 280
▁උණුසුම 280
▁එයාගෙන 280
▁කියනවද 280
▁දනෙ 280
▁දේට 280
▁මී 280
▁රයන 280
hi 279
ලට 279
▁කලාද 279
▁ගහනවා 279
▁පලයන 279
▁ලැයිස 279
▁crash 278
▁lex 278
▁race 278
▁අහගන 278
▁ඔයාම 278
▁කෝච 278
▁තේරුනා 278
▁දම 278
▁යාව 278
▁රෙන 278
▁danger 277
▁memory 277
▁mommy 277
▁service 277
▁රෝස 277
▁වුණත 277
les 276
ot 276
▁beach 276
▁කඩන 276
▁කරද 276
▁සොයා 276
▁හැරී 276
▁except 275
▁weapons 275
▁ආවොත 275
▁කාලෙ 275
▁කීපයක 275
▁ගයක 275
▁දෙය 275
▁යස 275
▁ලඟට 275
▁වාද 275
▁ෂිතයි 275
▁හමු 275
all 274
මත 274
▁command 274
▁dna 274
▁sad 274
▁sing 274
▁survive 274
▁ගනන 274
▁දැං 274
▁දෙකකට 274
නෑ 273
ාවෙන 273
▁hiding 273
▁jail 273
▁අහු 273
▁ආහාර 273
▁තූති 273
▁නගරයේ 273
▁බේර 273
▁වචනයක 273
se 272
▁cooper 272
▁minister 272
▁ඇට 272
▁උපකරණ 272
▁ගියාම 272
▁නෑනෙ 272
▁පි 272
▁බලලා 272
▁වාඩි 272
ුවත 271
▁bill 271
▁college 271
▁killer 271
▁max 271
▁soul 271
▁අයියේ 271
▁ගෑණු 271
▁ජර 271
▁දෙකයි 271
ah 270
ුස 270
▁chief 270
▁dreams 270
▁group 270
▁දේම 270
▁නැවැත 270
▁පනා 270
▁පිරිමි 270
▁යුධ 270
ish 269
▁complete 269
▁tight 269
▁whose 269
▁ගර 269
▁ජයග 269
▁co 268
▁foot 268
▁innocent 268
▁numbers 268
▁sayid 268
▁third 268
▁west 268
▁එකකට 268
▁නෙපා 268
▁පෙනුම 268
▁මචෝ 268
▁විසි 268
අ 267
යත 267
▁access 267
▁burn 267
▁everywhere 267
▁grand 267
▁harry 267
▁professor 267
▁පරිවර 267
▁මේව 267
▁යාත 267
▁david 266
▁leg 266
▁sky 266
▁ආසන 266
▁කාමර 266
▁තුති 266
▁දඩයම 266
▁මඟුල 266
op 265
සන 265
▁agree 265
▁madam 265
▁private 265
▁rs 265
▁ඊයෙ 265
▁තරහ 265
▁තේරුනාද 265
▁දුවක 265
▁බී 265
▁මෝ 265
▁යෝ 265
▁ලේන 265
▁bell 264
▁closed 264
▁during 264
▁shaw 264
▁ඕනෑම 264
▁තිබුනෙ 264
▁තූර 264
▁යටත 264
▁සමාන 264
▁certain 263
▁correct 263
▁decision 263
▁holding 263
▁jenny 263
▁surprise 263
▁ඇහැ 263
▁පොල 263
▁පොලිසියට 263
ටද 262
▁200 262
▁scene 262
▁අග 262
▁ඇතුළට 262
▁කාලෙකට 262
▁ඩේ 262
▁බට 262
▁මිනිහ 262
▁වැ 262
▁ශා 262
▁හදාගන 262
▁හි 262
ුමක 261
▁appreciate 261
▁arrest 261
▁grow 261
▁loves 261
▁suppose 261
▁whoever 261
▁එහෙට 261
▁ඔයාද 261
▁බබා 261
▁සහිත 261
▁හදපු 261
▁හයි 261
hmm 260
යේදී 260
▁blind 260
▁darling 260
▁difficult 260
▁කැමරා 260
▁මනුෂ 260
▁සුදානම 260
▁හමුදාව 260
වලා 259
▁listening 259
▁putting 259
▁van 259
▁ගක 259
▁මෝඩයා 259
▁වලා 259
▁හැකියාව 259
▁feels 258
▁stole 258
▁කටයුතු 258
▁වරද 258
▁goodbye 257
▁lovely 257
▁public 257
▁අනෙක 257
▁තේරුණා 257
▁මනටම 257
▁හීන 257
වලට 256
ුරු 256
▁smell 256
▁table 256
▁ඇදලා 256
▁කාඩ 256
▁කැල 256
▁තනි 256
▁පවත 256
▁යතුර 256
▁සියලුම 256
▁ෙවන 256
that 255
කේ 255
යිද 255
▁ගෝ 255
▁මයිල 255
▁වයට 255
▁වෙනකන 255
ුක 254
▁breathe 254
▁mama 254
▁realize 254
▁ආස 254
▁රේස 254
ass 253
um 253
▁figured 253
▁form 253
▁totally 253
▁එවා 253
▁ගෙනත 253
▁පෙනෙන 253
▁හොයනවා 253
▁helping 252
▁military 252
▁spot 252
▁ගැහුවා 252
▁ජේම 252
▁දවල 252
▁මද 252
▁වගෙ 252
▁වැඩට 252
▁හිරේ 252
ak 251
ියම 251
▁begin 251
▁project 251
▁rich 251
▁song 251
▁visit 251
▁තියක 251
▁සතුට 251
කාර 250
▁fl 250
▁hungry 250
▁jake 250
▁neither 250
▁tired 250
▁ආයුබෝවන 250
▁එකද 250
▁කිරි 250
▁තෙක 250
▁පාරෙන 250
▁මණ 250
▁මායා 250
▁වරුනි 250
ac 249
▁60 249
▁bro 249
▁crew 249
▁detective 249
▁driving 249
▁present 249
▁promised 249
▁video 249
▁wild 249
▁ඩායමේ 249
▁ධන 249
▁පරයක 249
▁මාමා 249
▁වැඩිපුර 249
ab 248
▁major 248
▁shop 248
▁storm 248
▁අරං 248
▁කැන 248
▁ටෝ 248
▁තරයක 248
▁දයක 248
▁බිරිද 248
▁විකල 248
▁වෙලාද 248
▁සිහින 248
ෙදි 247
▁choose 247
▁film 247
▁named 247
▁sl 247
▁දරුවා 247
▁නයිට 247
▁නිසැකවම 247
▁හැමතිස 247
ඩි 246
▁became 246
▁locke 246
▁owe 246
▁ටත 246
▁ධි 246
▁පැනගන 246
▁සටහන 246
▁සියළුම 246
▁arm 245
▁base 245
▁east 245
▁gang 245
▁gate 245
▁london 245
▁terrible 245
▁අතරේ 245
▁නංගි 245
▁ලකේස 245
▁වෝල 245
▁සුවක 245
▁හමුදා 245
▁goddamn 244
▁kick 244
▁problems 244
▁ඇනා 244
▁එළියේ 244
▁ටාර 244
▁බොස 244
▁රාර 244
▁රෙද 244
▁ලැබුන 244
ens 243
▁american 243
▁location 243
▁moon 243
▁pleasure 243
▁කෙනෙකුට 243
▁ජීවිතයක 243
▁ලෝන 243
▁ෂණයක 243
▁හො 243
▁හොයලා 243
▁cars 242
▁congratulations 242
▁hole 242
▁interested 242
▁jane 242
▁keys 242
▁අනුමාන 242
▁ඉහල 242
▁උප 242
▁ගැහැණු 242
▁ගෙවල 242
▁පැ 242
▁බහින 242
▁මගෙත 242
▁මේකෙ 242
▁විහිලු 242
▁වොට 242
▁ෂර 242
▁සහෝ 242
ැන 241
▁ජි 241
▁ටා 241
▁තෝ 241
▁ධිමත 241
▁මෑන 241
▁යාල 241
▁ලිස 241
▁හිනා 241
im 240
තා 240
යාගේ 240
හම 240
▁smile 240
▁thousand 240
▁නිෂ 240
▁පැනල 240
▁වටේ 240
▁වහල 240
▁barry 239
▁bullet 239
▁dick 239
▁file 239
▁tea 239
▁waste 239
▁දිල 239
▁බොත 239
▁භය 239
▁සිස 239
ous 238
ඒ 238
වී 238
▁khan 238
▁neck 238
▁temple 238
▁ඇහුවා 238
▁කියපන 238
▁කොළ 238
▁පවුලක 238
▁රාන 238
▁වැරද 238
▁හු 238
est 237
ාවේ 237
▁driver 237
▁duty 237
▁further 237
▁losing 237
▁mate 237
▁ඊ 237
▁එකඟ 237
▁ගෑනු 237
▁පහුගිය 237
▁යාළුවෙක 237
▁හදිස 237
කය 236
▁lt 236
▁starting 236
▁wonderful 236
▁තියේ 236
▁වේගයෙන 236
▁හිතාගෙන 236
▁හොර 236
ිර 235
▁ad 235
▁arms 235
▁battle 235
▁breath 235
▁self 235
▁කෑලි 235
▁කිරීමේ 235
▁කිවා 235
▁ගමේ 235
▁බලවත 235
▁භයානකයි 235
▁ලර 235
▁වීඩියෝ 235
▁සේවය 235
oo 234
තක 234
▁destroyed 234
▁holy 234
▁names 234
▁path 234
▁බඳින 234
▁බිඳ 234
▁මනස 234
▁වඩාත 234
▁වැඩසටහන 234
▁සමාගම 234
අපි 233
▁bigger 233
▁con 233
▁lana 233
▁leader 233
▁speaking 233
▁sword 233
▁ඇමතුම 233
▁උනාට 233
▁කාරයෝ 233
▁දෙවෙනි 233
▁නැහැනේ 233
▁ලැබ 233
▁ලෝකෙ 233
▁ch 232
▁guard 232
▁කුණු 232
▁ගැලපෙන 232
▁ටුවේ 232
▁දික 232
▁දෙකම 232
▁පිරිසිදු 232
▁මාමේ 232
▁මිනිහට 232
▁රාජකාරිය 232
▁ලබන 232
▁වැඩියෙන 232
▁විවේක 232
▁සිම 232
▁සුව 232
▁හැප 232
ol 231
▁decide 231
▁interesting 231
▁lied 231
▁ඇරෙන 231
▁දේශ 231
▁පියවර 231
▁වුනාට 231
▁සයිඩ 231
▁හත 231
▁හමුවීම 231
▁dress 230
▁final 230
▁jungle 230
▁passed 230
▁shh 230
▁tough 230
▁ගානේ 230
▁ජරාව 230
▁දමන 230
▁පාන 230
▁යතුරු 230
▁වීරයෙක 230
▁වේගය 230
▁සලකුණු 230
ut 229
මු 229
▁english 229
▁pack 229
▁rob 229
▁strength 229
▁travel 229
▁ආසයි 229
▁කවදා 229
▁පුරාම 229
▁වියදම 229
▁සේරා 229
▁22 228
▁lived 228
▁post 228
▁prince 228
▁walt 228
▁x 228
▁නොකරන 228
▁සංකීර 228
ets 227
less 227
ණය 227
ොත 227
▁animals 227
▁beyond 227
▁itself 227
▁pop 227
▁woods 227
▁කඩා 227
▁තං 227
▁ලොකුම 227
▁වැඩේට 227
out 226
පල 226
ීව 226
▁earlier 226
▁finished 226
▁jason 226
▁joke 226
▁nor 226
▁අංකය 226
▁එතනින 226
▁කයි 226
▁මීටර 226
▁මොක 226
als 225
ලක 225
▁department 225
▁ed 225
▁gives 225
▁helped 225
▁park 225
▁pulled 225
▁sweetheart 225
▁අයිතිය 225
▁උගේ 225
▁විකාරයක 225
▁වුනාද 225
ag 224
ig 224
ons 224
ro 224
ාල 224
▁ex 224
▁girlfriend 224
▁sight 224
▁අයි 224
▁කියයි 224
▁දෙපාර 224
▁පණිවිඩයක 224
▁වේගවත 224
▁ෂිට 224
▁සදහා 224
▁සීයා 224
▁හයියෙන 224
▁හරින 224
▁හෝව 224
▁ළඟට 224
ged 223
ness 223
▁christ 223
▁feed 223
▁martin 223
▁obviously 223
▁sleeping 223
▁ඒකද 223
▁ගැ 223
▁නරකයි 223
▁වහලා 223
▁වුනාම 223
▁සිර 223
ඳ 222
ුණේ 222
▁allow 222
▁involved 222
▁mar 222
▁medical 222
▁picked 222
▁pre 222
▁rain 222
▁record 222
▁ඔනේ 222
▁තෙල 222
▁පච 222
▁බේරෙන 222
▁රති 222
▁ලැබීම 222
▁වග 222
▁හඩ 222
යකේ 221
▁cry 221
▁liked 221
▁උල 221
▁ජනය 221
▁ජේසන 221
▁තිබිලා 221
▁පයක 221
▁බිය 221
▁බේරගත 221
▁සොල 221
▁හැමතැනම 221
ge 220
▁consider 220
▁keeping 220
▁otherwise 220
▁අපෙන 220
▁කරොත 220
▁කොහොමහරි 220
▁නාන 220
▁පෙ 220
▁බිමට 220
▁සැතපුම 220
▁boyfriend 219
▁eating 219
▁leaves 219
▁ඇර 219
▁ගරු 219
▁ජේක 219
▁පමණයි 219
▁මැජික 219
▁මිනිසා 219
▁වලදි 219
▁ශිෂ 219
▁සමින 219
එක 218
▁fresh 218
▁horse 218
▁upon 218
▁අනාගතය 218
▁කපන 218
▁ගනින 218
▁තේරුණාද 218
▁දහස 218
▁මාළු 218
▁යාළුවො 218
▁රැක 218
▁ලිය 218
▁සැරයක 218
▁හිටියොත 218
ඩා 217
ිප 217
▁crap 217
▁flash 217
▁raise 217
▁rat 217
▁roll 217
▁watson 217
▁උපදෙස 217
▁කේට 217
▁ගේට 217
▁පාස 217
▁බයවෙන 217
▁මටයි 217
▁යාවක 217
▁වේගෙන 217
mon 216
un 216
යාව 216
▁apartment 216
▁fate 216
▁hadn 216
▁huge 216
▁roger 216
▁safety 216
▁se 216
▁භාවිතා 216
▁යුත 216
▁ශනය 216
▁හැන 216
▁19 215
▁bob 215
▁ඒකා 215
▁කිසිවක 215
▁ගහලා 215
▁ගැල 215
▁ලලා 215
▁වගෙයි 215
▁හාන 215
▁හැකියි 215
▁ඔහේගේ 214
▁දට 214
▁දෙනා 214
▁නුවා 214
▁පියන 214
▁වටින 214
ard 213
ations 213
be 213
වෙනවා 213
▁heads 213
▁planning 213
▁suspect 213
▁ආවම 213
▁ඒවි 213
▁දෙමව 213
▁ලෙඩ 213
▁වරක 213
▁වේල 213
▁airport 212
▁brave 212
▁commander 212
▁knife 212
▁plans 212
▁understood 212
▁ways 212
▁wind 212
▁window 212
▁කූපර 212
▁ගිහිං 212
▁ජෙනී 212
▁දැකල 212
▁ධයි 212
▁පළ 212
▁බද 212
▁මණට 212
▁ලද 212
we 211
මි 211
▁cost 211
▁keeps 211
▁powers 211
▁remain 211
▁thief 211
▁ඉංග 211
▁කාටහරි 211
▁කැ 211
▁පොර 211
▁මඟ 211
▁මැ 211
▁හරිනේ 211
ma 210
හන 210
▁america 210
▁apart 210
▁worst 210
▁කාමරය 210
▁ගා 210
▁ගෙනාවා 210
▁ථා 210
▁දුරකථන 210
▁දෙයි 210
▁ධතිය 210
▁පහ 210
▁මදි 210
▁යේ 210
ful 209
▁bullshit 209
▁doors 209
▁due 209
▁gas 209
▁rahul 209
▁twice 209
▁උපසිරැසි 209
▁කෝප 209
▁තදින 209
▁තනවා 209
▁තරමේ 209
▁නියමෙට 209
▁බිස 209
▁ලකුණු 209
▁ලැබුණා 209
▁ලූ 209
▁වැන 209
▁සාකච 209
▁සෙක 209
▁හතරක 209
▁හිතනව 209
කරනවා 208
▁awesome 208
▁cute 208
▁grace 208
▁photo 208
▁price 208
▁rule 208
▁sake 208
▁ඕනෙම 208
▁නීතිය 208
▁මගින 208
▁මැරුවේ 208
▁යානා 208
▁රමය 208
▁රහ 208
▁සරහා 208
ary 207
▁delhi 207
▁el 207
▁favor 207
▁knowing 207
▁ooh 207
▁sub 207
▁අඩ 207
▁ආවද 207
▁කස 207
▁කොහෙත 207
▁තුළ 207
▁සහය 207
▁හෝම 207
` 206
ates 206
ay 206
ලන 206
▁above 206
▁acting 206
▁fat 206
▁le 206
▁likes 206
▁property 206
▁snow 206
▁taught 206
▁එහෙත 206
▁කරපන 206
▁ගැනයි 206
▁ධිය 206
▁නමයි 206
▁නාට 206
▁බඩ 206
▁මාධ 206
▁වනෙ 206
ෙම 205
▁continue 205
▁created 205
▁hoping 205
▁partner 205
▁terrorist 205
▁අරගත 205
▁ආක 205
▁ඉඳල 205
▁ඔළුව 205
▁දාපු 205
▁රැගෙන 205
සි 204
ැක 204
▁300 204
▁bl 204
▁common 204
▁cook 204
▁press 204
▁sold 204
▁switch 204
▁කේන 204
▁නිවැරදි 204
▁පණිවිඩය 204
▁බියර 204
▁බීම 204
▁යාපාර 204
▁වැට 204
▁විච 204
▁වෙලාවෙම 204
▁හැඟීම 204
▁asshole 203
▁double 203
▁places 203
▁sheriff 203
▁showed 203
▁site 203
▁sw 203
▁towards 203
▁vehicle 203
▁කියවෙන 203
▁තික 203
▁පයින 203
▁බොරුවක 203
▁විකුණන 203
▁ෂයි 203
▁besides 202
▁kingdom 202
▁la 202
▁po 202
▁අහල 202
▁ඉඩදෙන 202
▁ඔයගොල 202
▁කෙටි 202
▁දෙනව 202
▁පාරේ 202
▁බවක 202
▁මැන 202
▁රෙස 202
▁විදුලි 202
▁වොල 202
▁සුදුසු 202
▁හැසිරෙන 202
-4 201
▁cat 201
▁fake 201
▁letter 201
▁powerful 201
▁කැත 201
▁කුඩු 201
▁ජේ 201
▁ටක 201
▁වරදක 201
▁හෙමින 201
ance 200
han 200
ics 200
ty 200
පා 200
▁chicken 200
▁drunk 200
▁faith 200
▁justice 200
▁moved 200
▁prem 200
▁simon 200
▁ඇම 200
▁එයින 200
▁කොහෙ 200
▁දේකට 200
▁පලා 200
▁පේ 200
▁ලයිට 200
▁ලියුම 200
▁හැ 200
ber 199
කරලා 199
කා 199
▁23 199
▁flying 199
▁headed 199
▁honest 199
▁lunch 199
▁raj 199
▁spare 199
▁අයත 199
▁ආරංචියක 199
▁ඇදගෙන 199
▁නොවන 199
▁ෂේප 199
▁සතුන 199
ang 198
ps 198
කන 198
නයක 198
වීම 198
▁empty 198
▁sawyer 198
▁themselves 198
▁witness 198
▁yep 198
▁තප 198
▁දැකපු 198
▁රීය 198
▁ලැබෙයි 198
▁විෂ 198
▁වෙමු 198
▁හිටියද 198
ොක 197
▁anna 197
▁bought 197
▁ourselves 197
▁pressure 197
▁secure 197
▁skin 197
▁teacher 197
▁ඇරලා 197
▁උනාද 197
▁කෝට 197
▁ගලවන 197
▁ගෙදරින 197
▁නගර 197
▁නැග 197
▁පොලීසිය 197
▁ලැබුනේ 197
▁වෙයන 197
▁සුළු 197
දෙ 196
ාවත 196
ියාව 196
▁allowed 196
▁brothers 196
▁chitti 196
▁destiny 196
▁doc 196
▁ඔබලා 196
▁දාමු 196
▁ධයෙන 196
▁නැතිවෙලා 196
▁මෙයාගේ 196
▁රියේ 196
▁රෝග 196
▁විනාස 196
▁විශේෂයෙන 196
▁සැබෑ 196
ger 195
▁beginning 195
▁learned 195
▁turns 195
▁upset 195
▁yo 195
▁අනන 195
▁අමුතුයි 195
▁කෑමට 195
▁කෙනාට 195
▁කොහෙවත 195
▁ගෞරවය 195
▁ජිවිතේ 195
▁භාර 195
▁මානසික 195
▁රාහුල 195
ඟ 194
පත 194
ුවෙක 194
▁ends 194
▁extra 194
▁lies 194
▁quit 194
▁ඇමතුමක 194
▁කාලා 194
▁ගැනම 194
▁මාවත 194
▁රින 194
▁සදහටම 194
▁හට 194
ීය 193
▁arrived 193
▁aunt 193
▁director 193
▁fit 193
▁patient 193
▁responsible 193
▁tower 193
▁ඉඳගන 193
▁කෙනාව 193
▁ඩෙන 193
▁තහනම 193
▁පිටින 193
▁වතාවට 193
her 192
ting 192
ධ 192
වුන 192
▁clearly 192
▁corner 192
▁followed 192
▁language 192
▁loose 192
▁stolen 192
▁strike 192
▁ආකර 192
▁ආශ 192
▁ඇග 192
▁උනන 192
▁කඳු 192
▁කරත 192
▁කුයි 192
▁තරේ 192
▁තිබුණ 192
▁පී 192
▁බාගයක 192
▁බුන 192
▁මංකොල 192
▁මැස 192
▁රකාශ 192
▁හය 192
na 191
od 191
කයක 191
දිම 191
මා 191
ලෝ 191
ෙස 191
▁failed 191
▁fan 191
▁lay 191
▁monster 191
▁research 191
▁shooting 191
▁su 191
▁අවංක 191
▁අවසානය 191
▁එසේ 191
▁ඒකම 191
▁ගහ 191
▁තියනෙවා 191
▁පමණක 191
▁පව 191
▁පවතින 191
▁වතාවේ 191
▁හවුල 191
ap 190
ලය 190
ුගේ 190
▁breaking 190
▁create 190
▁energy 190
▁murdered 190
▁note 190
▁round 190
▁route 190
▁trip 190
▁weak 190
▁yöur 190
▁ඇහුනා 190
▁තීරණයක 190
▁ථානයට 190
▁නිදා 190
▁රජු 190
▁රෑම 190
▁සාජන 190
▁සැ 190
▁හඬ 190
▁හැදුවෙ 190
විද 189
▁42 189
▁focus 189
▁gotten 189
▁lake 189
▁lights 189
▁smoke 189
▁අසල 189
▁ඉම 189
▁ණයි 189
▁නරකම 189
▁බැරිවුනා 189
▁බුනා 189
▁වැල 189
▁bunch 188
▁club 188
▁experience 188
▁favorite 188
▁kevin 188
▁pal 188
▁reading 188
▁relationship 188
▁saving 188
▁thomas 188
▁training 188
▁usually 188
▁willing 188
▁අට 188
▁ටුවට 188
▁තගේ 188
▁පිටවෙන 188
▁යටතේ 188
▁රයා 188
▁වහනවා 188
▁වාසනාව 188
age 187
දා 187
ියයි 187
▁believed 187
▁birds 187
▁data 187
▁genius 187
▁ow 187
▁sergeant 187
▁sex 187
▁ඇඟිලි 187
▁ඉදගන 187
▁උතුරු 187
▁තයෝ 187
▁දෛවය 187
▁බාධා 187
▁ලමයි 187
▁සාප 187
ීස 186
▁0 186
▁according 186
▁drug 186
▁dumb 186
▁henry 186
▁humans 186
▁lawyer 186
▁original 186
▁stars 186
▁ඇවිද 186
▁ඊලඟ 186
▁එයට 186
▁කළින 186
▁ගයේ 186
▁ගෞරව 186
▁තරමට 186
▁තුවෙන 186
▁නිම 186
▁මිට 186
▁වෝ 186
bye 185
දේ 185
▁answers 185
▁condition 185
▁lift 185
▁ls 185
▁main 185
▁map 185
▁mountain 185
▁nose 185
▁ඒකි 185
▁තබා 185
▁තරඟ 185
▁දකුණට 185
▁පිය 185
▁බොබ 185
▁යාන 185
කල 184
භ 184
රක 184
▁aah 184
▁deserve 184
▁insane 184
▁whom 184
▁අහිංසක 184
▁කාමරයට 184
▁ගෙව 184
▁තේරුමක 184
▁දිනය 184
▁පිල 184
▁සමෙන 184
oc 183
ාත 183
▁aware 183
▁br 183
▁chloe 183
▁ghost 183
▁ours 183
▁realized 183
▁serve 183
▁staff 183
▁අමතන 183
▁උනාම 183
▁තැනම 183
▁බලපන 183
▁මේකත 183
▁රේන 183
▁ලබ 183
▁වයසක 183
▁විදින 183
▁සාවක 183
ir 182
ure 182
රන 182
▁belong 182
▁glass 182
▁grandma 182
▁often 182
▁roof 182
▁somehow 182
▁staying 182
▁ticket 182
▁දිනයක 182
▁පුතාට 182
▁භීත 182
▁යකඩ 182
▁සයා 182
ans 181
ංග 181
ගෝ 181
ියො 181
▁account 181
▁afternoon 181
▁block 181
▁feelings 181
▁fellow 181
▁fill 181
▁finding 181
▁judge 181
▁nonsense 181
▁pe 181
▁priya 181
▁summer 181
▁virus 181
▁ආයෙමත 181
▁කොහෙටද 181
▁ගැට 181
▁ඩෝ 181
▁තිබුණේ 181
▁දය 181
▁පිච 181
▁මහතා 181
▁ලමක 181
▁වුණ 181
▁සිල 181
▁හාදයා 181
▁හිනාවෙන 181
ier 180
yeah 180
▁church 180
▁imp 180
▁recognize 180
▁states 180
▁ගැස 180
▁තනය 180
▁තුනයි 180
▁පහළ 180
▁ලැබිලා 180
▁ලුවා 180
▁වු 180
▁සලා 180
▁හවස 180
me 179
yes 179
▁bo 179
▁chappie 179
▁engine 179
▁hearing 179
▁heavy 179
▁knock 179
▁nature 179
▁suggest 179
▁tells 179
▁type 179
▁ඇරොන 179
▁කප 179
▁කිවේ 179
▁කෙවින 179
▁තමේන 179
▁ථානයක 179
▁නියෝග 179
▁නෝ 179
▁පුතාව 179
▁සයිමන 179
රේ 178
ලින 178
▁bathroom 178
▁dropped 178
▁fred 178
▁gr 178
▁opportunity 178
▁pl 178
▁ඇහුවේ 178
▁ඒජන 178
▁ගැහෙන 178
▁ජල 178
▁ටෙක 178
▁නක 178
▁රැල 178
▁ලැස 178
▁වදවෙන 178
▁සලකන 178
▁හදා 178
▁හිරවෙලා 178
ආ 177
වනම 177
ිනවා 177
ිමක 177
▁cup 177
▁files 177
▁frodo 177
▁johnny 177
▁tr 177
▁කරාද 177
▁ගහගෙන 177
▁දූපත 177
▁ධනය 177
▁පුදුමයි 177
▁පොලීසියට 177
▁හරවන 177
,000 176
ou 176
▁action 176
▁attacked 176
▁exist 176
▁fail 176
▁forest 176
▁letting 176
▁reached 176
▁shoes 176
▁උවමනා 176
▁නටම 176
▁පාරවල 176
▁වෘත 176
▁ෂයෙක 176
▁සංඥා 176
▁සවන 176
▁සෙට 176
බර 175
ුනොත 175
▁connection 175
▁en 175
▁greatest 175
▁hat 175
▁pilot 175
▁steve 175
▁suddenly 175
▁උපරිම 175
▁කැම 175
▁ගණනක 175
▁දයි 175
▁නවතිනවා 175
▁නවනම 175
▁මායි 175
▁රධානියා 175
▁ලොන 175
▁වගේමයි 175
▁වටිනා 175
ියකට 174
▁agreed 174
▁cole 174
▁drugs 174
▁emily 174
▁games 174
▁nowhere 174
▁united 174
▁ආවට 174
▁ඒවට 174
▁කරුවන 174
▁චෙක 174
▁ජස 174
▁යෂ 174
▁ලයි 174
▁වැටුනා 174
▁විහිලුවක 174
▁වේදනාව 174
▁සමාජ 174
ොස 173
▁advice 173
▁freedom 173
▁market 173
▁warm 173
▁ඇඟ 173
▁කිසිදෙයක 173
▁තලා 173
▁දහයක 173
▁නැතිවෙන 173
▁හාර 173
▁හිටගෙන 173
▁හීනයක 173
its 172
men 172
ne 172
ගැන 172
ාවෙ 172
▁animal 172
▁ocean 172
▁pat 172
▁played 172
▁purpose 172
▁repeat 172
▁sending 172
▁spoke 172
▁warning 172
▁ගාණක 172
▁ජලය 172
▁දැකීම 172
▁දුරට 172
▁පැට 172
▁රේෂ 172
▁වලදී 172
▁වෑන 172
ial 171
ner 171
▁bother 171
▁dirty 171
▁dry 171
▁er 171
▁french 171
▁operation 171
▁proof 171
▁starts 171
▁stone 171
▁store 171
▁trap 171
▁අමන 171
▁අසමත 171
▁ටෙ 171
▁බෙලා 171
▁වෙලේම 171
▁සව 171
▁හැමවෙලාවෙම 171
are 170
em 170
ke 170
ow 170
▁apparently 170
▁books 170
▁dis 170
▁falling 170
▁hank 170
▁intelligence 170
▁science 170
▁ඈ 170
▁කොත 170
▁ගිල 170
▁දුවට 170
▁පමන 170
▁මරපු 170
▁ලිපිනය 170
▁වයින 170
▁ෂන 170
▁සතියේ 170
▁හෙව 170
ai 169
ally 169
ul 169
▁21 169
▁90 169
▁beer 169
▁breakfast 169
▁conversation 169
▁rid 169
▁spirit 169
▁teeth 169
▁unit 169
▁wrote 169
▁අහිමි 169
▁කේක 169
▁ටුයි 169
▁තමුසෙගෙ 169
▁තෝමස 169
▁නැගිට 169
▁නොවෙයි 169
▁පැමිණ 169
▁යාළුවෝ 169
▁රෙ 169
▁වචනය 169
▁වදින 169
▁වීමේ 169
වනේ 168
ීර 168
▁bridge 168
▁criminal 168
▁id 168
▁interest 168
▁pictures 168
▁rescue 168
▁shame 168
▁tony 168
▁ඉමු 168
▁එතැන 168
▁කක 168
▁කියෙව 168
▁කිවුවෙ 168
▁දුවව 168
▁යුක 168
▁ලැක 168
▁සයෝ 168
▁සැමියා 168
▁හරිගස 168
කෝ 167
ෑන 167
▁central 167
▁dollars 167
▁draw 167
▁gods 167
▁stories 167
▁ඇහුනද 167
▁උතුමාණෙනි 167
▁කැස 167
▁ගනීවි 167
▁ටීව 167
▁ඩේවිඩ 167
▁නායකයා 167
▁බලයක 167
▁යං 167
▁ලියලා 167
▁වනු 167
▁වුනු 167
av 166
ණයක 166
ීත 166
ුවද 166
ෙද 166
ේදී 166
▁art 166
▁certainly 166
▁especially 166
▁ho 166
▁holmes 166
▁surprised 166
▁weight 166
▁wondering 166
▁එළ 166
▁ඕනදෙ 166
▁චීන 166
▁තරහා 166
▁දීල 166
▁දේව 166
▁පැහැදිලියි 166
▁පිටපත 166
▁සීමාව 166
▁හැංගිලා 166
▁හැංගෙන 166
ee 165
වෙයි 165
සා 165
ාවි 165
ෝම 165
▁ar 165
▁bodies 165
▁mis 165
▁trees 165
▁veer 165
▁ඇමරිකානු 165
▁එකකින 165
▁එනකන 165
▁තාර 165
▁පිටසක 165
▁පෙනී 165
▁බරපතල 165
▁වටිනවා 165
▁ෙ 165
land 164
ler 164
ඔයාට 164
ෝට 164
▁biggest 164
▁birth 164
▁client 164
▁dogs 164
▁issue 164
▁jim 164
▁necessary 164
▁remind 164
▁request 164
▁richard 164
▁robot 164
▁upstairs 164
▁ආන 164
▁දුරකථනය 164
▁දුරටත 164
▁පාරට 164
▁මැරෙයි 164
▁මොලේ 164
▁රවෘත 164
▁වතාව 164
▁වැනි 164
▁හිරු 164
ts 163
බල 163
ඹ 163
▁beauty 163
▁blame 163
▁hatch 163
▁mum 163
▁papers 163
▁raised 163
▁sc 163
▁taste 163
▁thousands 163
▁අපේක 163
▁අහස 163
▁එලවන 163
▁ජාතික 163
▁තරු 163
▁තීන 163
▁තුර 163
▁පහළට 163
▁බැස 163
▁යෝක 163
▁රීන 163
▁ලයින 163
▁සුවඳ 163
▁හිතුනා 163
ator 162
old 162
qu 162
ුවොත 162
▁bastard 162
▁dan 162
▁drinking 162
▁fired 162
▁held 162
▁lots 162
▁mention 162
▁nearly 162
▁rose 162
▁subject 162
▁warrior 162
▁ඇහෙනවා 162
▁ඉඳගෙන 162
▁ඛාන 162
▁චෝදනා 162
▁ඩය 162
▁දෙකෙන 162
▁දෙවියනි 162
▁නැතත 162
▁නැතිවෙයි 162
▁නොම 162
▁මඩ 162
▁මෙනවිය 162
▁රොක 162
▁සිටි 162
▁සිරුර 162
▁෴ 162
-2 161
ik 161
ized 161
red 161
▁apologize 161
▁aw 161
▁center 161
▁giant 161
▁priest 161
▁අදාල 161
▁එකිනෙකා 161
▁එස 161
▁ඔහේව 161
▁කැමතිම 161
▁ගියෙ 161
▁පාලක 161
▁මූන 161
කි 160
▁band 160
▁cameras 160
▁inspector 160
▁meters 160
▁noticed 160
▁ridiculous 160
▁runs 160
▁sh 160
▁walked 160
▁whenever 160
▁written 160
▁yellow 160
▁ඔල 160
▁කත 160
▁ඩෙ 160
▁තියනේනෙ 160
▁පුදුමයක 160
▁මිනී 160
▁මොකවත 160
▁මෝඩයෝ 160
▁රහසක 160
▁හැඩ 160
ters 159
▁aside 159
▁fixed 159
▁guest 159
▁har 159
▁hired 159
▁however 159
▁journey 159
▁local 159
▁suicide 159
▁උහ 159
▁කනේ 159
▁චැපී 159
▁බලපත 159
▁මටම 159
▁රොන 159
▁වැටෙනවා 159
ade 158
ham 158
ize 158
දර 158
ිලි 158
ුවම 158
▁70 158
▁crying 158
▁duke 158
▁natural 158
▁permission 158
▁qu 158
▁ra 158
▁several 158
▁¶ 158
▁කියලවත 158
▁ගමනක 158
▁ගියාද 158
▁ජෝර 158
▁ඩික 158
▁පදවන 158
▁පය 158
▁මික 158
▁මෙහ 158
▁යයක 158
▁ලේසියෙන 158
▁ලොස 158
▁වරුන 158
▁විවාහය 158
▁සූ 158
▁හැකියාවක 158
▁හැගීම 158
▁හොරෙන 158
ars 157
son 157
යව 157
ිරි 157
▁def 157
▁details 157
▁excellent 157
▁kitchen 157
▁lo 157
▁prepare 157
▁victim 157
▁walter 157
▁කපිතාන 157
▁ගි 157
▁ජනාධිපති 157
▁මරා 157
▁මොනවාහරි 157
▁සතෙක 157
▁සනට 157
▁හිතුවද 157
ice 156
ious 156
මොකක 156
රෙන 156
ාක 156
▁bottom 156
▁inter 156
▁loss 156
▁threat 156
▁අනතුර 156
▁කනවා 156
▁කාගේ 156
▁කාව 156
▁ගෙම 156
▁තියල 156
▁දැනුනා 156
▁නවට 156
▁නාවික 156
▁නොදන 156
▁වගෝම 156
▁විදිහේ 156
▁හයක 156
ce 155
ver 155
වලින 155
▁aye 155
▁british 155
▁easily 155
▁eh 155
▁greetings 155
▁harm 155
▁heaven 155
▁liar 155
▁milk 155
▁millions 155
▁mo 155
▁sean 155
▁searching 155
▁singh 155
▁zero 155
▁ඔයාටයි 155
▁ඕනෑ 155
▁කුස 155
▁කොණ 155
▁ඩයක 155
▁බාල 155
▁මිනීමැරුම 155
▁රමාණවත 155
▁සං 155
▁සරල 155
▁සැම 155
ms 154
my 154
ොව 154
▁admit 154
▁bringing 154
▁hall 154
▁loud 154
▁non 154
▁onto 154
▁pants 154
▁shirt 154
▁size 154
▁sweetie 154
▁අසරණ 154
▁ඇක 154
▁කලාට 154
▁කෝටි 154
▁තරය 154
▁දරුවන 154
▁දුරක 154
▁නැතිවුනා 154
▁පණිවිඩ 154
▁පෝ 154
▁මචන 154
▁රෝන 154
▁වාසයක 154
▁හිතුව 154
ins 153
හැ 153
ෝර 153
▁annie 153
▁easier 153
▁enter 153
▁finger 153
▁hidden 153
▁matters 153
▁painting 153
▁sand 153
▁sees 153
▁stage 153
▁අකමැති 153
▁ආරංචි 153
▁ඉගැන 153
▁ඔයාත 153
▁ඩී 153
▁තියේවි 153
▁බැට 153
▁යනකොට 153
▁රතිචාර 153
▁රොබෝ 153
▁වෙලාවකට 153
ches 152
ud 152
රික 152
ෙකට 152
▁hunting 152
▁memories 152
▁tiny 152
▁walls 152
▁අතරින 152
▁අයගේ 152
▁ඇහුන 152
▁කපලා 152
▁චිය 152
▁තේරෙනවද 152
▁ථනා 152
▁නිලධාරියෙක 152
▁යෝජනා 152
▁ලත 152
▁හැදිලා 152
ිහ 151
▁45 151
▁opened 151
▁අඳින 151
▁ඊලඟට 151
▁ඔනෙ 151
▁ඔයාවත 151
▁ගනී 151
▁තගන 151
▁නපුරු 151
▁පුළුවනි 151
▁බිද 151
▁මුම 151
▁යාලයට 151
▁රවට 151
▁ලාස 151
▁ලෑන 151
▁විදියටම 151
▁විමර 151
▁හංගන 151
au 150
බා 150
වුනා 150
ොර 150
▁ethan 150
▁iron 150
▁junior 150
▁legs 150
▁pet 150
▁received 150
▁ryan 150
▁study 150
▁twenty 150
▁අඩුවෙන 150
▁එද 150
▁එනකොට 150
▁කුලියට 150
▁පහු 150
▁පාසල 150
▁මහාචාර 150
▁මැරුනා 150
▁මූලික 150
▁යානයේ 150
▁වාම 150
▁ශිල 150
▁හිතට 150
end 149
ගා 149
රියා 149
▁barely 149
▁battery 149
▁bottle 149
▁brings 149
▁famous 149
▁freak 149
▁herself 149
▁large 149
▁monkey 149
▁rohan 149
▁ඕවා 149
▁කවදද 149
▁කළොත 149
▁ගැනත 149
▁ඝ 149
▁ඡන 149
▁තෝර 149
▁පටිගත 149
▁පලමු 149
▁පවුලෙ 149
▁මැරුණ 149
▁රිතාන 149
▁ලානා 149
▁වතා 149
▁ෂාවට 149
▁සැර 149
ya 148
ගෙයි 148
ීමෙන 148
▁ab 148
▁assume 148
▁button 148
▁color 148
▁dragon 148
▁guards 148
▁oil 148
▁turning 148
▁අතුරුදන 148
▁අනුකම 148
▁එහෙනං 148
▁ඒවගේ 148
▁ඔහෙට 148
▁ගියාට 148
▁තුවා 148
▁නාද 148
▁නෙවි 148
▁නොව 148
▁පරම 148
▁පුත 148
▁මේකද 148
▁සැකයක 148
▁සේවා 148
▁හෙලවෙන 148
ain 147
ically 147
ta 147
යේදි 147
▁26 147
▁appears 147
▁cave 147
▁covered 147
▁daniel 147
▁device 147
▁disappear 147
▁mary 147
▁mask 147
▁national 147
▁points 147
▁recently 147
▁silly 147
▁trapped 147
▁අවි 147
▁ඉහළ 147
▁උයන 147
▁ඔයාගෝ 147
▁කොටම 147
▁දැඩි 147
▁දැනටම 147
▁දිගේ 147
▁පුච 147
▁පුරා 147
▁බිව 147
▁මරල 147
▁යහ 147
▁රීම 147
▁රීසි 147
▁සැලකිල 147
ite 146
ue 146
year 146
වීමක 146
▁azhar 146
▁billy 146
▁cr 146
▁dev 146
▁directly 146
▁flowers 146
▁hurley 146
▁jay 146
▁sherlock 146
▁surveillance 146
▁trigger 146
▁wing 146
▁අමතර 146
▁එරික 146
▁තියාගත 146
▁දීම 146
▁නඩු 146
▁පොදු 146
▁බටහිර 146
▁රටේ 146
▁වංචා 146
▁සහයක 146
▁සහා 146
▁හාහ 146
▁හැමෝවම 146
ging 145
ical 145
▁arrested 145
▁dig 145
▁distance 145
▁escaped 145
▁excited 145
▁flat 145
▁grandfather 145
▁notice 145
▁pregnant 145
▁records 145
▁responsibility 145
▁screw 145
▁sha 145
▁tail 145
▁truly 145
▁අහගෙන 145
▁ඇබ 145
▁එරෙහිව 145
▁ඔහුත 145
▁කැට 145
▁චාල 145
▁තේර 145
▁තොර 145
▁ථානයේ 145
▁දානව 145
▁දේවි 145
▁පියාඹන 145
▁මගේම 145
▁රොබ 145
▁ලගින 145
▁වාඩිවෙන 145
▁වැද 145
ip 144
එයා 144
ජන 144
ානේ 144
▁checked 144
▁clock 144
▁fairy 144
▁heat 144
▁license 144
▁meaning 144
▁mumbai 144
▁possibly 144
▁scott 144
▁tie 144
▁wherever 144
▁අඩන 144
▁අධිරාජ 144
▁ඕව 144
▁කේත 144
▁ගොන 144
▁ලෝයි 144
▁ශාප 144
ane 143
ched 143
ments 143
මෙ 143
▁climb 143
▁pieces 143
▁plant 143
▁useless 143
▁zoe 143
▁ඇතුළු 143
▁එලියේ 143
▁කීවේ 143
▁ගෙනාවේ 143
▁ගෞරවයක 143
▁ජොනී 143
▁තෙත 143
▁බෙක 143
▁මළ 143
▁මොහොතක 143
▁වගකීම 143
▁සතියක 143
▁සහෝදර 143
go 142
of 142
තන 142
රම 142
ලයි 142
වෙනි 142
▁apple 142
▁disappeared 142
▁doug 142
▁indian 142
▁june 142
▁spread 142
▁staring 142
▁survived 142
▁ඇයත 142
▁එයයි 142
▁කඩේ 142
▁කුල 142
▁ජනතාව 142
▁තියෙයි 142
▁දොරවල 142
▁පසුගිය 142
▁මතකය 142
▁රජය 142
▁රමාද 142
▁ලියක 142
▁සුර 142
aw 141
ore 141
é 141
හේ 141
ැල 141
ෝව 141
▁ana 141
▁colonel 141
▁contract 141
▁credit 141
▁familiar 141
▁filled 141
▁jin 141
▁laugh 141
▁steps 141
▁කමෝන 141
▁කැමරාව 141
▁ගලයෙක 141
▁ජීවිතයේ 141
▁දරුවෙක 141
▁දැ 141
▁නැටුම 141
▁පුතෙක 141
▁බයවෙලා 141
▁බිලී 141
▁මතකයන 141
▁මොහොත 141
▁ලූතර 141
▁වයේ 141
▁විදිහටම 141
▁සෙත 141
▁හානියක 141
▁හිල 141
▁හෙලිකොප 141
▁හේතු 141
ile 140
oh 140
කාරයා 140
▁add 140
▁chef 140
▁damage 140
▁ears 140
▁george 140
▁raju 140
▁release 140
▁secrets 140
▁shake 140
▁soldier 140
▁source 140
▁stranger 140
▁victims 140
▁අපගේ 140
▁අසනීප 140
▁ආරාධනා 140
▁ඉගෙනගන 140
▁කරනකොට 140
▁කරනු 140
▁කීයද 140
▁ජෙනරල 140
▁තියෙද 140
▁දුරින 140
▁නුඹේ 140
▁පැවැත 140
▁මාටින 140
▁ලැන 140
▁ලෑෂ 140
▁වනේනෙ 140
▁සංස 140
▁හොරෙක 140
ley 139
off 139
▁belongs 139
▁chain 139
▁dies 139
▁eddie 139
▁gl 139
▁inform 139
▁investigation 139
▁jai 139
▁mac 139
▁majesty 139
▁ne 139
▁soldiers 139
▁swim 139
▁total 139
▁trick 139
▁අඳුරු 139
▁ආලෝකය 139
▁ඇතිවෙන 139
▁ඒකනේ 139
▁කඩුව 139
▁දඬුවම 139
▁දිස 139
▁නැගෙනහිර 139
▁පොතක 139
▁බින 139
▁මරණයට 139
▁යාලුවෝ 139
▁රෙක 139
▁ලැහැස 139
ill 138
io 138
time 138
ton 138
තින 138
▁bite 138
▁breathing 138
▁capable 138
▁dom 138
▁fox 138
▁knight 138
▁prepared 138
▁robert 138
▁settle 138
▁shock 138
▁whoo 138
▁අනතුරේ 138
▁අළු 138
▁ඇමති 138
▁එහනෙම 138
▁ගනුදෙනු 138
▁දෙපාරක 138
▁පිළිබඳ 138
▁මරු 138
▁රිචඩ 138
▁වහගෙන 138
▁ෂකයෙක 138
රයක 137
ැද 137
ොම 137
▁bhai 137
▁bur 137
▁dam 137
▁enemies 137
▁fucked 137
▁hanging 137
▁revenge 137
▁showing 137
▁simply 137
▁tape 137
▁traffic 137
▁අරිනවා 137
▁කෙළ 137
▁ජොබ 137
▁තයේ 137
▁තෝරගන 137
▁පැහැදිලිවම 137
▁බො 137
▁මැරිල 137
▁රයි 137
▁රහාර 137
▁සකස 137
ering 136
li 136
ong 136
දීම 136
නි 136
ිකා 136
▁below 136
▁di 136
▁folks 136
▁handsome 136
▁outta 136
▁paying 136
▁ram 136
▁soft 136
▁winter 136
▁එවුන 136
▁ඔෆිස 136
▁දෙවැනි 136
▁පැයක 136
▁රපට 136
▁රේඩියෝ 136
▁වසන 136
▁වාන 136
▁විප 136
▁වෙට 136
▁සියළු 136
if 135
ster 135
ves 135
ඇ 135
තාව 135
▁80 135
▁africa 135
▁bat 135
▁beg 135
▁castle 135
▁comp 135
▁desert 135
▁gu 135
▁higher 135
▁led 135
▁lover 135
▁pocket 135
▁view 135
▁අහුවෙන 135
▁කරුවෙක 135
▁කාමරේට 135
▁කැඩිලා 135
▁කැලේ 135
▁කෝලේ 135
▁ගාඩ 135
▁ජාන 135
▁ටොන 135
▁නාකි 135
▁බරයි 135
▁රංශ 135
▁රජයේ 135
▁රයේ 135
▁රොස 135
▁සතුරන 135
▁සාරා 135
▁හල 135
▁ෆොටෝ 135
just 134
▁ajay 134
▁armed 134
▁beans 134
▁christmas 134
▁convince 134
▁discuss 134
▁forgotten 134
▁gray 134
▁indeed 134
▁joy 134
▁mon 134
▁nervous 134
▁nuclear 134
▁shows 134
▁spell 134
▁stayed 134
▁universe 134
▁~ 134
▁ඉඳ 134
▁එවිට 134
▁කසාදෙ 134
▁තයක 134
▁තාට 134
▁දණ 134
▁දායි 134
▁නගරයට 134
▁මෙතෙන 134
▁මේස 134
▁මොකෙක 134
▁ලොකුයි 134
▁වහාම 134
▁වළ 134
▁ෂාවක 134
▁ෂික 134
▁ෂියක 134
▁සනීප 134
▁සාධාරණ 134
▁හැදෙන 134
pl 133
හි 133
ියනේ 133
ුවෙලා 133
ෝල 133
▁agents 133
▁anger 133
▁brilliant 133
▁buried 133
▁cards 133
▁cares 133
▁cheers 133
▁chinese 133
▁complicated 133
▁exact 133
▁finds 133
▁incident 133
▁ins 133
▁lets 133
▁mal 133
▁par 133
▁punch 133
▁season 133
▁tracking 133
▁අති 133
▁අධික 133
▁අනුගමනය 133
▁අරමුණ 133
▁ඇඩ 133
▁ඇයගෙ 133
▁ඉටු 133
▁ඔයාටම 133
▁කහ 133
▁කියමු 133
▁ඝාතනය 133
▁තුනකට 133
▁නිදි 133
▁නිවස 133
▁නෝර 133
▁බීලා 133
▁මුත 133
▁වමට 133
▁සියදිවි 133
▁හමුවෙමු 133
ck 132
gh 132
hes 132
ඩු 132
ණි 132
▁brand 132
▁cousin 132
▁curse 132
▁deliver 132
▁event 132
▁forced 132
▁fuel 132
▁kidnapped 132
▁nation 132
▁ro 132
▁russian 132
▁scare 132
▁sin 132
▁ve 132
▁කාමරයක 132
▁කාරණය 132
▁ඩාර 132
▁තියෙනවාද 132
▁දව 132
▁දෙවල 132
▁නමින 132
▁යහපත 132
▁ලිගෙ 132
▁සිටියා 132
▁සුම 132
▁හෑන 132
▁හොය 132
la 131
විට 131
ුවනේ 131
ේවි 131
▁blew 131
▁chose 131
▁cow 131
▁kent 131
▁nick 131
▁oliver 131
▁port 131
▁rep 131
▁singham 131
▁surely 131
▁tunnel 131
▁victor 131
▁අතරමං 131
▁ඇප 131
▁ඉවසන 131
▁කාවද 131
▁කීවා 131
▁කුමන 131
▁ගිණුම 131
▁චා 131
▁තරං 131
▁තුරු 131
▁ධෛර 131
▁නනවා 131
▁නුබ 131
▁බයික 131
▁යත 131
▁රවේශ 131
▁ලැ 131
▁ලිපි 131
▁විදුලිය 131
▁සාස 131
▁සීතල 131
ැම 130
ියව 130
▁among 130
▁bike 130
▁carefully 130
▁chat 130
▁direct 130
▁fallen 130
▁fort 130
▁hugo 130
▁mile 130
▁monroe 130
▁process 130
▁shadow 130
▁sn 130
▁tall 130
▁tickets 130
▁එඩී 130
▁ඔලිවර 130
▁කාවවත 130
▁ටමේ 130
▁තයට 130
▁තිබුණෙ 130
▁තිර 130
▁තොප 130
▁දෙවන 130
▁නෙවෙයිද 130
▁ඵ 130
▁මාල 130
▁මිනිසෙක 130
▁ලාගෙන 130
▁ලැබේවි 130
ping 129
ඉ 129
කරු 129
බන 129
මය 129
ුවෝ 129
ොල 129
▁avoid 129
▁che 129
▁crack 129
▁defense 129
▁fought 129
▁laughing 129
▁lower 129
▁nah 129
▁percent 129
▁pray 129
▁progress 129
▁returned 129
▁rush 129
▁spy 129
▁units 129
▁value 129
▁ආයුධය 129
▁ඉතාමත 129
▁උබව 129
▁කලිසම 129
▁කලු 129
▁කළාද 129
▁ජු 129
▁තරග 129
▁තොරතුරක 129
▁නිවාස 129
▁නෙවත 129
▁පීට 129
▁මණින 129
▁මලා 129
▁රපටි 129
▁රැයක 129
▁රේමන 129
▁රෝයි 129
▁විවේකයක 129
▁සැරේ 129
▁සියක 129
▁හඳුන 129
▁හයියක 129
▁හැද 129
de 128
our 128
per 128
res 128
කාරයෝ 128
ටයි 128
මොකද 128
සර 128
හල 128
▁aryan 128
▁aunty 128
▁bella 128
▁carrying 128
▁del 128
▁ended 128
▁expected 128
▁faces 128
▁freeze 128
▁guilty 128
▁happiness 128
▁launch 128
▁marks 128
▁mu 128
▁personally 128
▁plenty 128
▁plus 128
▁sana 128
▁ඇඳ 128
▁ඇපල 128
▁ඊටත 128
▁උබලා 128
▁එකග 128
▁කාලයේ 128
▁ගලයා 128
▁ගුඩ 128
▁දුරස 128
▁නකම 128
▁නියෝජිතයෙක 128
▁බාන 128
▁බොරුවට 128
▁මේකනම 128
▁රූ 128
▁විදියේ 128
▁සිංහම 128
▁සුරකින 128
▁හියුගෝ 128
ob 127
▁911 127
▁alert 127
▁deck 127
▁den 127
▁direction 127
▁helicopter 127
▁hurts 127
▁juliet 127
▁knowledge 127
▁lines 127
▁owner 127
▁planned 127
▁pulling 127
▁remove 127
▁rocks 127
▁wire 127
▁ගියපු 127
▁ටියම 127
▁තාවන 127
▁තීරණ 127
▁දවසට 127
▁දෙව 127
▁පැල 127
▁මේජර 127
▁යමුද 127
▁සිජන 127
ey 126
ick 126
ified 126
හැකි 126
හෙන 126
ිං 126
▁..... 126
▁32 126
▁balls 126
▁bee 126
▁gandalf 126
▁interview 126
▁parking 126
▁sacrifice 126
▁seemed 126
▁solve 126
▁split 126
▁surface 126
▁technology 126
▁tommy 126
▁trade 126
▁transfer 126
▁weather 126
▁ඇඳුමක 126
▁කාරණාව 126
▁ටල 126
▁දිගු 126
▁නායක 126
▁පවුලට 126
▁පැරණි 126
▁බෙරී 126
▁යානයක 126
▁රතිකාර 126
▁ලොව 126
▁වැදිලා 126
▁සිතියම 126
ition 125
කලා 125
ගැනීම 125
බි 125
ානම 125
ැස 125
ොට 125
▁cases 125
▁darkness 125
▁doctors 125
▁dressed 125
▁palace 125
▁stock 125
▁treat 125
▁velayudham 125
▁wet 125
▁william 125
▁අපරාධයක 125
▁අයගෙන 125
▁ඉදිරියේ 125
▁කාමරයේ 125
▁ඩල 125
▁ඩෙල 125
▁තගෙ 125
▁තෝරගත 125
▁දේපල 125
▁නඩුව 125
▁නැවතුම 125
▁මිසයිල 125
▁මොහොතේ 125
▁යකා 125
▁යනු 125
▁යාම 125
▁වොයර 125
▁සුප 125
▁සො 125
▁හානි 125
ana 124
so 124
this 124
ඔ 124
ීවි 124
▁babe 124
▁bobby 124
▁bucks 124
▁chair 124
▁fully 124
▁grown 124
▁hitting 124
▁ind 124
▁miracle 124
▁moves 124
▁paris 124
▁paul 124
▁pen 124
▁penny 124
▁tears 124
▁අනාගත 124
▁අවලංගු 124
▁ආයුධයක 124
▁කරනවාද 124
▁කරුනාකරලා 124
▁කවුන 124
▁කවුරුන 124
▁කියනවනම 124
▁කොහාටද 124
▁ගඳ 124
▁ජනයක 124
▁ජාතියේ 124
▁දීපු 124
▁පැමිණෙන 124
▁පිරිසක 124
▁මයක 124
▁මෙයාල 124
▁යටින 124
▁රථ 124
▁රල 124
▁ලේසියි 124
▁සංඛ 124
▁සුවා 124
▁ළග 124
by 123
co 123
ism 123
කරුවන 123
ාවල 123
ිමු 123
▁angel 123
▁charlotte 123
▁concerned 123
▁keen 123
▁medicine 123
▁motherfucker 123
▁ray 123
▁sal 123
▁suck 123
▁taylor 123
▁thoughts 123
▁අපෝ 123
▁අවංකවම 123
▁ඇනී 123
▁ගිවිසුම 123
▁දකිනවා 123
▁නැවතිලා 123
▁පරද 123
▁පෙළ 123
▁බැංකු 123
▁මරණවා 123
▁මරයි 123
▁රැජිණ 123
▁රිෂ 123
▁රීඩා 123
▁වටිනාකම 123
▁වැරදියට 123
▁වීරයා 123
▁සලස 123
▁සැත 123
ake 122
ාගෙන 122
▁asleep 122
▁chest 122
▁confused 122
▁equipment 122
▁expecting 122
▁grid 122
▁logan 122
▁pam 122
▁prime 122
▁range 122
▁ruined 122
▁ආදරයක 122
▁ඊලගට 122
▁කිහිපයකට 122
▁ගැබ 122
▁තාප 122
▁තුමා 122
▁දහ 122
▁දෙමු 122
▁පසුපස 122
▁පුවත 122
▁යාලයේ 122
▁ලෝකයට 122
▁වැදුනා 122
▁ශරීර 122
▁සියේ 122
▁සීසර 122
▁සූර 122
ered 121
ise 121
ඕ 121
ගස 121
යද 121
වුනේ 121
▁appear 121
▁bright 121
▁career 121
▁checking 121
▁chi 121
▁christian 121
▁dust 121
▁metal 121
▁mid 121
▁nope 121
▁online 121
▁picking 121
▁rise 121
▁shots 121
▁stark 121
▁trained 121
▁wise 121
▁අතීතය 121
▁උඹලට 121
▁ඔතනින 121
▁ඩායමට 121
▁ඩිස 121
▁දඩුවම 121
▁දීප 121
▁දෙවියෝ 121
▁ධාන 121
▁නාම 121
▁නොවී 121
▁පුව 121
▁පො 121
▁පෝල 121
▁බම 121
▁බිලියන 121
▁මාණ 121
▁මුඛ 121
▁රීස 121
▁රේක 121
▁ලබාගත 121
▁වුණොත 121
▁වේලායුධම 121
▁සමීප 121
▁සලකුණක 121
▁ළ 121
get 120
ks 120
ටන 120
▁bless 120
▁courage 120
▁cream 120
▁designed 120
▁egg 120
▁eventually 120
▁flower 120
▁former 120
▁fuckin 120
▁gear 120
▁lucy 120
▁mood 120
▁norm 120
▁officers 120
▁previously 120
▁roy 120
▁sa 120
▁seal 120
▁එකෙ 120
▁කරුනාකරල 120
▁ටයින 120
▁තරමක 120
▁තිමේදි 120
▁දකට 120
▁දරාගන 120
▁දීපන 120
▁දෙකකින 120
▁නිකුත 120
▁පාටයි 120
▁පිරිලා 120
▁මෙයාගෙ 120
▁මෙයාලා 120
▁වලක 120
▁ශනයක 120
▁සැහැල 120
▁හිතපු 120
-1 119
ide 119
ose 119
ඇයි 119
ඉන 119
උ 119
ුවො 119
ෙයක 119
▁exit 119
▁facility 119
▁footage 119
▁inc 119
▁incredible 119
▁janet 119
▁pr 119
▁speech 119
▁wash 119
▁අඩුයි 119
▁ඊස 119
▁එකනේ 119
▁කරාට 119
▁කේතය 119
▁ගිම 119
▁ටැක 119
▁ටේලර 119
▁ඩලය 119
▁ඩොන 119
▁ධර 119
▁නීත 119
▁පූජා 119
▁භාගයක 119
▁මුහුද 119
▁යෙ 119
▁යෝර 119
▁ලබාදෙන 119
▁විතරද 119
▁වෙතට 119
▁ශණ 119
▁ෂෝන 119
▁සිරාවටම 119
▁සීයේ 119
▁හිතා 119
▁හොඳද 119
dy 118
ff 118
head 118
iv 118
ted 118
ys 118
ගේම 118
▁ac 118
▁amount 118
▁ban 118
▁devil 118
▁health 118
▁highly 118
▁including 118
▁likely 118
▁media 118
▁opening 118
▁prisoner 118
▁rachel 118
▁san 118
▁slowly 118
▁smells 118
▁zoom 118
▁ඔලුවට 118
▁කැඩ 118
▁කීප 118
▁ගඟ 118
▁ගණුදෙනු 118
▁ගො 118
▁ගොස 118
▁චරද 118
▁ණයයි 118
▁තාන 118
▁දාගත 118
▁නිවැරදියි 118
▁පහසු 118
▁පුලූවන 118
▁බලං 118
▁බැලුවේ 118
▁මමම 118
▁යාලය 118
▁රිප 118
▁ලමයින 118
▁ලෝගන 118
▁ෂණික 118
▁ෂිතව 118
▁සබ 118
▁සහෝදරිය 118
▁සාදයක 118
▁සැප 118
▁සිගරට 118
▁හැඟීමක 118
▁හිටියත 118
කරගන 117
ුප 117
▁afford 117
▁bleeding 117
▁committed 117
▁desk 117
▁grew 117
▁identity 117
▁nia 117
▁nights 117
▁option 117
▁oxygen 117
▁pretend 117
▁reports 117
▁seenu 117
▁shower 117
▁sooner 117
▁stealing 117
▁stronger 117
▁wine 117
▁අංශ 117
▁අසාමාන 117
▁ආදරණීය 117
▁ඇහ 117
▁ඊළඟට 117
▁ඔහුගෙන 117
▁කුමාර 117
▁ගනියි 117
▁ගහගන 117
▁ගානකට 117
▁ගුල 117
▁ජරාවක 117
▁ජැනට 117
▁දරුවෝ 117
▁දෙස 117
▁පිත 117
▁පේනව 117
▁මංගල 117
▁මකයි 117
▁යයෙක 117
▁රහණය 117
▁රහාරයක 117
▁සොයාගන 117
▁හමුව 117
ities 116
ures 116
කරුවෙක 116
ලද 116
ියකින 116
ියස 116
ොයි 116
▁35 116
▁aladin 116
▁assistant 116
▁attend 116
▁cap 116
▁erik 116
▁female 116
▁hardly 116
▁honestly 116
▁leads 116
▁mill 116
▁negative 116
▁pa 116
▁snake 116
▁th 116
▁unfortunately 116
▁victory 116
▁wound 116
▁අජේ 116
▁ඉඩක 116
▁උං 116
▁කුට 116
▁ගෑස 116
▁චරක 116
▁දුප 116
▁දෙමාපියන 116
▁නොහැක 116
▁පරිගණක 116
▁පැහැරගෙන 116
▁යනකම 116
▁රීඩ 116
▁ලිට 116
▁වනෙවා 116
▁වලයි 116
▁සටනක 116
▁හරියයි 116
▁ෙත 116
ats 115
ina 115
way 115
දන 115
▁alien 115
▁attempt 115
▁bow 115
▁cab 115
▁cake 115
▁confirmed 115
▁crown 115
▁dancing 115
▁male 115
▁member 115
▁pete 115
▁prefer 115
▁properly 115
▁ralph 115
▁reality 115
▁reddington 115
▁satellite 115
▁tank 115
▁tech 115
▁wallet 115
▁warn 115
▁watched 115
▁උමං 115
▁ඒකක 115
▁ඕනිද 115
▁ඕනේද 115
▁කවදාහරි 115
▁ගණුදෙනුවක 115
▁ගිලන 115
▁ගොදුරු 115
▁ජනප 115
▁පති 115
▁පාද 115
▁බබ 115
▁මේඩ 115
▁යවකාශ 115
▁රාණ 115
▁ලගේ 115
▁ලමයෙක 115
▁විලියම 115
▁හදල 115
ash 114
ath 114
පං 114
රිස 114
ේදි 114
▁400 114
▁coast 114
▁ear 114
▁farm 114
▁hook 114
▁hundreds 114
▁lf 114
▁nypd 114
▁stopping 114
▁talks 114
▁vishal 114
▁අංකල 114
▁ඇඳගෙන 114
▁ඒවගෝම 114
▁කියලත 114
▁ගැහුවේ 114
▁චාන 114
▁චෙන 114
▁ජෙ 114
▁තරා 114
▁තුලින 114
▁තේරුනේ 114
▁නිදාගත 114
▁නිරීක 114
▁පාලන 114
▁පිරි 114
▁පිරිස 114
▁පීනන 114
▁පෙති 114
▁බේරා 114
▁රග 114
▁රූම 114
▁ලාර 114
▁වෙමින 114
▁සේප 114
ast 113
එ 113
බී 113
▁48 113
▁babies 113
▁federal 113
▁fs 113
▁grade 113
▁hail 113
▁parts 113
▁pool 113
▁selling 113
▁thirty 113
▁uniform 113
▁vote 113
▁whitney 113
▁අයේ 113
▁අවදානම 113
▁අසාර 113
▁අහුවුනා 113
▁ඇඟිල 113
▁කාත 113
▁ගිණි 113
▁තියේද 113
▁පරාද 113
▁පරිදි 113
▁රයිව 113
▁ලියේ 113
▁ලේස 113
▁ලෝකයක 113
▁වගකීමක 113
▁වැටුන 113
▁වෙනකල 113
▁ශුද 113
▁සංගීත 113
ess 112
ised 112
ris 112
ug 112
දින 112
යිට 112
ිමින 112
▁although 112
▁andrew 112
▁backup 112
▁based 112
▁blast 112
▁celebrate 112
▁changes 112
▁exchange 112
▁golden 112
▁howard 112
▁illegal 112
▁nurse 112
▁nuts 112
▁q 112
▁reasons 112
▁sat 112
▁streets 112
▁theory 112
▁ආදරවන 112
▁එලියෙ 112
▁කණගාටු 112
▁කරු 112
▁කෙරෙන 112
▁ගැනීමේ 112
▁ගෙයක 112
▁ගෝල 112
▁චරම 112
▁දවසෙ 112
▁දිත 112
▁දුවේ 112
▁නනේ 112
▁පටි 112
▁පදනම 112
▁පාරෙ 112
▁පිහිට 112
▁භූත 112
▁මචේචර 112
▁වෙලේ 112
▁ශාක 112
▁ශිත 112
▁සමා 112
▁සිප 112
▁හදුන 112
▁හුරු 112
ach 111
let 111
nd 111
එන 111
කාරයෙක 111
ුවකට 111
▁1000 111
▁alarm 111
▁beating 111
▁bond 111
▁cart 111
▁counter 111
▁drinks 111
▁eagle 111
▁fischer 111
▁mirror 111
▁moments 111
▁moriarty 111
▁mountains 111
▁paint 111
▁precious 111
▁rare 111
▁royal 111
▁spring 111
▁throat 111
▁tour 111
▁und 111
▁weekend 111
▁ආශිර 111
▁ඉව 111
▁එහෙමනම 111
▁කාලෙක 111
▁කෑමක 111
▁කෙර 111
▁ගහල 111
▁චෙස 111
▁ජංගම 111
▁තාගේ 111
▁නෙම 111
▁පමණ 111
▁පැද 111
▁පැහැර 111
▁බොබී 111
▁මිලදී 111
▁රේචල 111
▁වාහනය 111
▁ශාන 111
▁ශික 111
▁සංගීතය 111
▁සමත 111
▁සිං 111
▁සිහි 111
▁හිටියනම 111
ටි 110
යෙදි 110
රු 110
ුළ 110
▁arthur 110
▁closing 110
▁collect 110
▁council 110
▁fo 110
▁introduce 110
▁lincoln 110
▁members 110
▁movies 110
▁positive 110
▁practice 110
▁protection 110
▁regret 110
▁sec 110
▁threw 110
▁wood 110
▁yourselves 110
▁ආණ 110
▁උදේට 110
▁ජොන 110
▁ටෙඩ 110
▁තනියෙන 110
▁තමුසෙව 110
▁තිමේදී 110
▁තූරයක 110
▁තේරෙනව 110
▁දෑ 110
▁පවසන 110
▁මිසක 110
▁යාළුවන 110
▁රමාණයක 110
▁රිදෙනවා 110
▁රොම 110
▁ලැබුණ 110
▁ෂෝ 110
▁සැපයුම 110
▁හුවමාරු 110
ama 109
ied 109
ited 109
ny 109
te 109
ගය 109
ටෙ 109
පර 109
▁ant 109
▁mud 109
▁official 109
▁pink 109
▁pro 109
▁sharp 109
▁sol 109
▁tear 109
▁tests 109
▁trusted 109
▁අපිටත 109
▁උතුමාණනි 109
▁එකෝ 109
▁එලිය 109
▁කලාම 109
▁ගණනය 109
▁තියනෙ 109
▁තියෙනවනම 109
▁ධාවන 109
▁නනම 109
▁නොහැකියි 109
▁පරාජය 109
▁පැහැදිලිව 109
▁බලාගත 109
▁බවයි 109
▁භාණ 109
▁මොනතරම 109
▁සමාගමේ 109
▁සිනා 109
▁සොයාගත 109
ants 108
hip 108
king 108
ning 108
ub 108
ියර 108
ුලක 108
ෝද 108
ෝස 108
▁andy 108
▁bones 108
▁caesar 108
▁carl 108
▁coward 108
▁depends 108
▁earn 108
▁falls 108
▁groom 108
▁guts 108
▁jobs 108
▁manager 108
▁noise 108
▁page 108
▁poison 108
▁tracks 108
▁vault 108
▁writing 108
▁අබ 108
▁අවන 108
▁අවේ 108
▁ඇවිදගෙන 108
▁ඕකට 108
▁කලෝ 108
▁කිසිදු 108
▁ටෝන 108
▁දලා 108
▁පුපුරවන 108
▁පුස 108
▁බාත 108
▁බෙදා 108
▁ලීම 108
▁වතිය 108
▁වහ 108
▁විනිශ 108
▁හදවතේ 108
▁හමුදාවේ 108
ire 107
oy 107
ust 107
ඇත 107
මං 107
මෙන 107
ිවල 107
▁27 107
▁28 107
▁becoming 107
▁cassie 107
▁entered 107
▁harder 107
▁hug 107
▁load 107
▁mister 107
▁older 107
▁res 107
▁restaurant 107
▁rome 107
▁square 107
▁status 107
▁අඬන 107
▁අතරතුර 107
▁ඉඩම 107
▁ඉදගෙන 107
▁ඔබෙ 107
▁ඕනවට 107
▁කරවනවා 107
▁කාගෙන 107
▁ගෙනල 107
▁චය 107
▁ජුලියට 107
▁ටෝනි 107
▁තිෙයන 107
▁නලා 107
▁පුරාවටම 107
▁පූ 107
▁පොලිසියේ 107
▁වේවිද 107
▁සංග 107
▁සංඥාව 107
▁සීනු 107
▁හැසිරීම 107
ell 106
ery 106
ld 106
og 106
ped 106
ren 106
කමක 106
වාගෙන 106
▁available 106
▁ba 106
▁blade 106
▁brown 106
▁bury 106
▁cancer 106
▁confirm 106
▁connected 106
▁design 106
▁detail 106
▁eric 106
▁families 106
▁funeral 106
▁goa 106
▁hearts 106
▁issues 106
▁karthik 106
▁kicked 106
▁landing 106
▁lesson 106
▁liz 106
▁murderer 106
▁ordered 106
▁package 106
▁pit 106
▁rough 106
▁tiger 106
▁uday 106
▁vision 106
▁අයිතියක 106
▁ඇහුවෙ 106
▁ඕනනම 106
▁කනගාටුයි 106
▁චාලි 106
▁ජීවතුන 106
▁ථිර 106
▁නගරයක 106
▁නිලධාරියා 106
▁පදක 106
▁පැටවුන 106
▁පැයකට 106
▁පුරුද 106
▁බෑන 106
▁මගන 106
▁මිනිහගේ 106
▁යයා 106
▁රැජින 106
▁වගකියන 106
▁සතියකට 106
▁හැමෝගෙම 106
chff 105
දෙි 105
ලම 105
▁advantage 105
▁alice 105
▁ancient 105
▁app 105
▁beast 105
▁bone 105
▁boom 105
▁bu 105
▁burned 105
▁candy 105
▁changing 105
▁cur 105
▁dawn 105
▁extremely 105
▁forces 105
▁kinda 105
▁model 105
▁rec 105
▁section 105
▁shy 105
▁student 105
▁texas 105
▁අංශක 105
▁අවහිර 105
▁ඉදල 105
▁ඉඳීවි 105
▁උඹල 105
▁ඒවාට 105
▁ඔබත 105
▁කාරය 105
▁කිහිප 105
▁කොස 105
▁කොහ 105
▁ජී 105
▁ටියට 105
▁නෝනාවරුනි 105
▁පරන 105
▁බදු 105
▁බවුනා 105
▁වාසු 105
▁විර 105
▁සමාවනේන 105
▁සරහින 105
▁සිටිය 105
cha 104
how 104
ory 104
කයෙක 104
කරල 104
ගම 104
යිනේ 104
ලයක 104
ියල 104
ියානු 104
ෙකින 104
▁ag 104
▁bullets 104
▁claim 104
▁comfortable 104
▁fr 104
▁ill 104
▁li 104
▁nina 104
▁remembered 104
▁remote 104
▁ruin 104
▁scofield 104
▁screwed 104
▁tattoo 104
▁tri 104
▁vasu 104
▁wayne 104
▁අනුග 104
▁අභියෝග 104
▁ආදරෙන 104
▁ඈතට 104
▁ඉතාම 104
▁ඉතිහාසය 104
▁ඉරණම 104
▁උගුලක 104
▁උෂ 104
▁එතෙන 104
▁කුකුල 104
▁ගද 104
▁ගලිකව 104
▁ගියත 104
▁ගෙයි 104
▁ජීව 104
▁දියමන 104
▁දෙසට 104
▁පෙල 104
▁බැංකුව 104
▁මිශ 104
▁මෙතනම 104
▁යයන 104
▁යාග 104
▁රසායන 104
▁වාතය 104
▁සාමය 104
▁හමුදාවක 104
▁හුරතල 104
bs 103
itt 103
ome 103
හර 103
ිකයන 103
▁border 103
▁da 103
▁desmond 103
▁entirely 103
▁fortune 103
▁growing 103
▁kills 103
▁managed 103
▁photos 103
▁remains 103
▁someday 103
▁systems 103
▁taxi 103
▁tied 103
▁warned 103
▁අතහරින 103
▁අතෑරලා 103
▁අවදි 103
▁කෑවා 103
▁කීර 103
▁ගණ 103
▁ගමට 103
▁චූ 103
▁තරංග 103
▁තැනින 103
▁දයකෝ 103
▁නැනේ 103
▁නිය 103
▁පාඩුවේ 103
▁පිටතට 103
▁පිටුපස 103
▁බඩගින 103
▁බුක 103
▁මාට 103
▁මාම 103
▁මෙහෙයුමක 103
▁රූප 103
▁රෝහල 103
▁ලෙයාර 103
▁වාදනය 103
▁ෂයා 103
▁සතා 103
▁සපයන 103
▁සිහිය 103
▁සුරාජ 103
back 102
ex 102
his 102
ංක 102
පි 102
ලෙන 102
සම 102
ුකාර 102
ුනි 102
▁americans 102
▁arctic 102
▁bags 102
▁bound 102
▁chick 102
▁chosen 102
▁delivery 102
▁false 102
▁lam 102
▁maya 102
▁mentioned 102
▁metropolis 102
▁mi 102
▁pardon 102
▁phones 102
▁piss 102
▁shift 102
▁sm 102
▁species 102
▁trail 102
▁අවසානයේ 102
▁ඇදගන 102
▁ඇලිස 102
▁එකපාරක 102
▁එකේදි 102
▁කියලාද 102
▁චිප 102
▁ජීන 102
▁ටොමී 102
▁තුලට 102
▁දුවනවා 102
▁නිකී 102
▁නිදාගෙන 102
▁පාසලේ 102
▁පුරවන 102
▁පෙක 102
▁මගුලේ 102
▁මවා 102
▁මිද 102
▁රදර 102
▁රාජු 102
▁ෂෙරිෆ 102
▁සලකා 102
▁සැල 102
▁හරී 102
▁හාද 102
da 101
ිකයි 101
▁billion 101
▁bombs 101
▁character 101
▁degrees 101
▁demon 101
▁fantastic 101
▁friendship 101
▁garage 101
▁gps 101
▁ip 101
▁min 101
▁proper 101
▁silver 101
▁style 101
▁ugly 101
▁ඉහලට 101
▁ඕෙන 101
▁කලත 101
▁කෑගහන 101
▁කියවනවා 101
▁කියාවි 101
▁කෙට 101
▁කෝලෙ 101
▁ඡා 101
▁ජීවිතයට 101
▁ඩග 101
▁ඩින 101
▁තරඟය 101
▁දේසි 101
▁නාඩ 101
▁පදින 101
▁බනින 101
▁බොල 101
▁භක 101
▁භාෂාව 101
▁මහෙෙ 101
▁යුතුය 101
▁ලුවේ 101
▁විධියට 101
▁ෆයිල 101
ack 100
az 100
ines 100
int 100
ured 100
කයන 100
තික 100
විල 100
සේ 100
ියනි 100
ුනෙ 100
▁bi 100
▁crowd 100
▁gay 100
▁int 100
▁jacob 100
▁lips 100
▁manage 100
▁med 100
▁odd 100
▁pig 100
▁rights 100
▁scary 100
▁shannon 100
▁sim 100
▁susan 100
▁sweat 100
▁teddy 100
▁touched 100
▁trace 100
▁wasting 100
▁youth 100
▁අනකේ 100
▁අපව 100
▁අමාරුවෙන 100
▁අවට 100
▁එහෙදි 100
▁ඔයට 100
▁කබඩි 100
▁කියද 100
▁ගහපන 100
▁ගොඩනැගිලි 100
▁චරිත 100
▁ටී 100
▁තබන 100
▁තියට 100
▁දවසම 100
▁පීඩනය 100
▁බැරිවෙයි 100
▁මුස 100
▁රාජකීය 100
▁රාව 100
▁ලාන 100
▁වනේනේ 100
▁විම 100
▁වේදනාවක 100
▁ශීත 100
▁සනවා 100
▁හොඳක 100
but 99
clock 99
do 99
ence 99
hed 99
lin 99
ort 99
රය 99
ිකයෙක 99
▁approach 99
▁butter 99
▁chase 99
▁chicago 99
▁circle 99
▁competition 99
▁creature 99
▁daily 99
▁du 99
▁elizabeth 99
▁engagement 99
▁example 99
▁homes 99
▁impressive 99
▁literally 99
▁loan 99
▁pee 99
▁proceed 99
▁provide 99
▁served 99
▁shoulder 99
▁torture 99
▁unique 99
▁waited 99
▁wheel 99
▁wolf 99
▁අතක 99
▁අතරෙ 99
▁ඌන 99
▁එකතුවෙලා 99
▁කඳවුර 99
▁කමාන 99
▁කයක 99
▁කරුණු 99
▁කෝම 99
▁ගෝන 99
▁ජිවිතය 99
▁ජෙම 99
▁ණත 99
▁දද 99
▁දියත 99
▁දියුණු 99
▁දොරෙන 99
▁නග 99
▁නැගිටිනවා 99
▁නිආ 99
▁නිකමට 99
▁නේනැ 99
▁පවතිනවා 99
▁බැද 99
▁බේරිලා 99
▁මොනවගේ 99
▁යාජ 99
▁යාමට 99
▁රුපියල 99
▁රොබට 99
▁ෂකයින 99
▁සිඩ 99
▁හෙමීට 99
▁හොදද 99
ages 98
app 98
che 98
chffffff 98
ists 98
ටර 98
ඩන 98
විය 98
ෑම 98
ිකර 98
ුවල 98
▁borrow 98
▁bull 98
▁chip 98
▁cleared 98
▁convinced 98
▁drill 98
▁fingers 98
▁joined 98
▁lakhs 98
▁legal 98
▁meal 98
▁pair 98
▁perfectly 98
▁pintu 98
▁silent 98
▁stood 98
▁supply 98
▁te 98
▁terms 98
▁text 98
▁tip 98
▁victoria 98
▁wells 98
▁zone 98
▁අනිවාරෙන 98
▁අහපු 98
▁ආදරයි 98
▁කිරිම 98
▁කූ 98
▁ගැඹුරු 98
▁ගුරුත 98
▁ජාත 98
▁දනේන 98
▁දිනේ 98
▁දිවි 98
▁ධියක 98
▁නිද 98
▁නිදන 98
▁නීනා 98
▁පුපුරන 98
▁මගෙයි 98
▁මැරුන 98
▁මූල 98
▁රමාණය 98
▁රො 98
▁ලෙයර 98
▁ලෝකෙට 98
▁වයර 98
▁වුවමනා 98
▁සුක 98
ci 97
house 97
ven 97
ගැනීමක 97
තාවය 97
ථ 97
රල 97
▁aim 97
▁basically 97
▁beloved 97
▁burning 97
▁concern 97
▁custody 97
▁dylan 97
▁explosion 97
▁fifty 97
▁fishing 97
▁friday 97
▁fruit 97
▁grass 97
▁horrible 97
▁international 97
▁iris 97
▁jacket 97
▁loser 97
▁protecting 97
▁results 97
▁signed 97
▁ver 97
▁ඊළගට 97
▁එමිලි 97
▁එමෙන 97
▁කිස 97
▁චෞද 97
▁ජනපද 97
▁නගරේ 97
▁පිර 97
▁පිළිතුරු 97
▁පිළිබඳව 97
▁බලපෑම 97
▁බවෙලා 97
▁බුනේ 97
▁බේරාගන 97
▁යොදාගන 97
▁රිකා 97
▁ලැබුණු 97
▁ලීස 97
▁සමානයි 97
▁හැමවිටම 97
aring 96
bo 96
ible 96
med 96
ok 96
ray 96
එල 96
කාරී 96
හෙ 96
ේස 96
▁abandoned 96
▁alpha 96
▁becomes 96
▁belt 96
▁chowllye 96
▁coincidence 96
▁crimes 96
▁dec 96
▁desire 96
▁effect 96
▁eggs 96
▁garden 96
▁greater 96
▁ideas 96
▁ja 96
▁lands 96
▁lieutenant 96
▁mail 96
▁meat 96
▁obvious 96
▁ordinary 96
▁particular 96
▁protocol 96
▁pure 96
▁steady 96
▁useful 96
▁අහම 96
▁එකකුත 96
▁එකතුව 96
▁එකිනෙකාට 96
▁එලිස 96
▁ඔයාලත 96
▁කපා 96
▁කිවුව 96
▁කොක 96
▁ගැලපෙනවා 96
▁ඡායාරූප 96
▁ටිකයි 96
▁ඩෲ 96
▁තොරව 96
▁දෙනාම 96
▁දොරට 96
▁ධවෙන 96
▁නැවක 96
▁නිවසට 96
▁නිවේදනය 96
▁නෝන 96
▁මටනම 96
▁මතු 96
▁යමන 96
▁යාලුවනේ 96
▁යූ 96
▁රාස 96
▁වයන 96
▁වෙනම 96
▁ශරීරය 96
▁හැකිද 96
ini 95
ius 95
pt 95
ress 95
sa 95
they 95
ving 95
දැන 95
හේයි 95
ියත 95
ුරක 95
▁arrow 95
▁bay 95
▁boring 95
▁china 95
▁crores 95
▁curious 95
▁expert 95
▁flag 95
▁gru 95
▁guests 95
▁josh 95
▁kit 95
▁lane 95
▁mor 95
▁passing 95
▁regular 95
▁shi 95
▁signs 95
▁sisters 95
▁spider 95
▁suffer 95
▁task 95
▁ted 95
▁අංකයක 95
▁ඇරල 95
▁ඔබතුමා 95
▁කඩවසම 95
▁කීපයකට 95
▁කෙස 95
▁ගණුදෙනුව 95
▁ගලක 95
▁ගොනු 95
▁ජාල 95
▁තානාපති 95
▁තිබුණු 95
▁නිදහසේ 95
▁නොස 95
▁පාපන 95
▁පැහැරගත 95
▁පියෙක 95
▁බාරගන 95
▁බැඳ 95
▁භන 95
▁මෙතෙක 95
▁යයිද 95
▁යවනවා 95
▁රෙග 95
▁ලපු 95
▁වතුරට 95
▁විඩ 95
▁විදිහකට 95
▁වුඩ 95
▁ෂනය 95
▁සමරන 95
▁සහගත 95
▁සාද 95
▁හාස 95
▁හිතල 95
aps 94
atic 94
q 94
ying 94
▁bride 94
▁coat 94
▁cons 94
▁foreign 94
▁guru 94
▁jem 94
▁karen 94
▁pan 94
▁phil 94
▁pin 94
▁presence 94
▁scream 94
▁shark 94
▁shed 94
▁smallville 94
▁sons 94
▁stops 94
▁waters 94
▁wings 94
▁එහෙමත 94
▁කතන 94
▁කුවේ 94
▁ටේ 94
▁ඩිලන 94
▁ඩේව 94
▁තරන 94
▁තුවෙ 94
▁පෑන 94
▁බැලුවොත 94
▁මැල 94
▁මිනිහකේ 94
▁මෝටර 94
▁ලැබුවා 94
▁ලුතිනන 94
▁වලටත 94
▁වැසියන 94
▁වෙබ 94
▁සියි 94
▁සොරකම 94
▁හූ 94
▁ෆර 94
ave 93
har 93
ib 93
iss 93
ost 93
නු 93
වගන 93
වපු 93
ාස 93
ේක 93
▁64 93
▁began 93
▁betray 93
▁brian 93
▁chances 93
▁current 93
▁dave 93
▁decent 93
▁desperate 93
▁dirt 93
▁engaged 93
▁factory 93
▁gather 93
▁grave 93
▁guide 93
▁identify 93
▁impressed 93
▁los 93
▁messages 93
▁nandu 93
▁rate 93
▁separate 93
▁simran 93
▁social 93
▁solution 93
▁sugar 93
▁wishes 93
▁අදාළ 93
▁උතුමාණන 93
▁ඒකිව 93
▁ඔලුවේ 93
▁කුලී 93
▁කොහේවත 93
▁ගබඩා 93
▁ගේනවා 93
▁තොල 93
▁නෙන 93
▁නොදැන 93
▁පැහැදිළි 93
▁පිහියක 93
▁පුහුණුව 93
▁බඩගිනි 93
▁බලු 93
▁බේස 93
▁මේරි 93
▁මොට 93
▁රජතුමා 93
▁ලඟින 93
▁වගේනේ 93
▁වැරදීමක 93
▁විඳින 93
ail 92
art 92
hey 92
ind 92
ium 92
sy 92
කයා 92
යනේ 92
වනෙ 92
සක 92
ූර 92
▁75 92
▁ambulance 92
▁col 92
▁corn 92
▁counting 92
▁crashed 92
▁dealing 92
▁expensive 92
▁express 92
▁letters 92
▁minds 92
▁opinion 92
▁perimeter 92
▁quest 92
▁rem 92
▁seek 92
▁squad 92
▁stairs 92
▁sudden 92
▁surrender 92
▁tongue 92
▁violence 92
▁whale 92
▁younger 92
▁අංශය 92
▁අඳුන 92
▁ඉගෙනගත 92
▁ඉපදුනේ 92
▁එයාලත 92
▁ඔර 92
▁කං 92
▁ගනුදෙනුව 92
▁ජාවක 92
▁තනම 92
▁දවසකට 92
▁දුපත 92
▁නංගිව 92
▁නිවාඩු 92
▁පොළ 92
▁බලල 92
▁බොක 92
▁මලක 92
▁යානයට 92
▁රසවත 92
▁රිදවන 92
▁වාහනයක 92
▁සැකයි 92
▁සෞඛ 92
▁හැකියාවන 92
▁හොරා 92
ably 91
fe 91
ians 91
ky 91
ගැනීමට 91
තේ 91
යනවා 91
ිකාව 91
ිච 91
ිමේ 91
ූන 91
▁150 91
▁bedroom 91
▁century 91
▁chasing 91
▁classified 91
▁clever 91
▁conference 91
▁dome 91
▁failure 91
▁hum 91
▁hurting 91
▁ir 91
▁nash 91
▁potential 91
▁receive 91
▁robbery 91
▁singing 91
▁slip 91
▁unable 91
▁unc 91
▁උණා 91
▁ඔරලෝසුව 91
▁ඔහෙ 91
▁ඕනලු 91
▁කෑන 91
▁ගෙනියනවා 91
▁ජීවිතේට 91
▁දැනුවත 91
▁දිලා 91
▁දූපතට 91
▁දෝ 91
▁පරිපූර 91
▁පහයි 91
▁පෝට 91
▁බවෙමු 91
▁බේරුවා 91
▁මයො 91
▁මානව 91
▁මැඩ 91
▁මෙතැනින 91
▁මෙහෙයවන 91
▁රයෝජනවත 91
▁රැකියාව 91
▁වාඩිවෙලා 91
▁වාසියක 91
▁ශණය 91
▁සිග 91
▁හදාගත 91
▁හමුදාවට 91
ka 90
ගමු 90
තුර 90
යිනෙ 90
▁brains 90
▁cells 90
▁chop 90
▁chopper 90
▁devi 90
▁dump 90
▁entrance 90
▁fore 90
▁gene 90
▁jo 90
▁leading 90
▁machines 90
▁mexico 90
▁murders 90
▁offered 90
▁panic 90
▁print 90
▁professional 90
▁rel 90
▁result 90
▁shape 90
▁society 90
▁underground 90
▁usual 90
▁අතහැර 90
▁අවදානමක 90
▁ඉහලින 90
▁කඩාගෙන 90
▁කතාකර 90
▁කරයිද 90
▁කැක 90
▁කැමැති 90
▁ගෙදරක 90
▁දිවුරනවා 90
▁නගරෙ 90
▁නාව 90
▁නිස 90
▁පිළ 90
▁පොහොසත 90
▁බනේ 90
▁බොනවා 90
▁මාරයි 90
▁මුහුන 90
▁රයිම 90
▁වරු 90
▁වැලි 90
▁වේදනා 90
▁ශර 90
▁සවය 90
▁හරක 90
▁හැමදේටම 90
20 89
br 89
els 89
izing 89
ැට 89
ැති 89
ුග 89
ේෂ 89
▁10,000 89
▁1206 89
▁43 89
▁99 89
▁agency 89
▁ate 89
▁awake 89
▁boo 89
▁challenge 89
▁chocolate 89
▁commit 89
▁creatures 89
▁defend 89
▁dozen 89
▁drag 89
▁drone 89
▁engineer 89
▁goodness 89
▁insurance 89
▁ll 89
▁mobile 89
▁mummy 89
▁profile 89
▁reward 89
▁ri 89
▁str 89
▁success 89
▁ty 89
▁woke 89
▁අවසානයි 89
▁ඉදිරි 89
▁ඊතන 89
▁එයාලගෙන 89
▁එහ 89
▁කැමතී 89
▁කැලෑ 89
▁කුණාටුව 89
▁කොටු 89
▁කොලේජ 89
▁ටිකකට 89
▁ටිකකින 89
▁ඩිත 89
▁තමුසෙලා 89
▁ථය 89
▁දැනෙනව 89
▁දෙයකට 89
▁දෙයියන 89
▁නැට 89
▁නිත 89
▁නිලධාරීන 89
▁පනය 89
▁පිපිර 89
▁පොතේ 89
▁බයගුල 89
▁බයෙන 89
▁භූ 89
▁මමද 89
▁මුරණ 89
▁මොවුන 89
▁මෝර 89
▁යාලුවන 89
▁යාළුවනේ 89
▁යොදා 89
▁රහසිගත 89
▁ලාගන 89
▁වයංක 89
▁වායු 89
▁වාරය 89
▁වැඩෙන 89
▁සතුටෙන 89
▁සීල 89
-7 88
line 88
ung 88
ze 88
ඒත 88
ියකේ 88
▁ability 88
▁arrange 88
▁arrive 88
▁attitude 88
▁badly 88
▁cha 88
▁chaudhary 88
▁cleaning 88
▁community 88
▁dont 88
▁flesh 88
▁gri 88
▁hop 88
▁hunter 88
▁idiots 88
▁lately 88
▁levels 88
▁medal 88
▁mia 88
▁monsters 88
▁oz 88
▁palmer 88
▁reg 88
▁rip 88
▁roman 88
▁shelter 88
▁sooraj 88
▁stab 88
▁stomach 88
▁winner 88
▁witch 88
▁අධි 88
▁අනුමත 88
▁ඉදිරියෙන 88
▁ගලා 88
▁ගැහැනු 88
▁චෑන 88
▁චිකාගෝ 88
▁තටමද 88
▁තිබේ 88
▁දේශප 88
▁පාපොච 88
▁පිටි 88
▁පියාසර 88
▁බක 88
▁බැහැලා 88
▁මේකා 88
▁මොළ 88
▁යමින 88
▁යයේ 88
▁රියාවක 88
▁වෙහෙස 88
▁සිදුවීම 88
▁සිවිල 88
▁සීමා 88
▁ෆේන 88
don 87
ges 87
ාගන 87
ැයි 87
▁36 87
▁artist 87
▁betrayed 87
▁bravo 87
▁cabin 87
▁caused 87
▁chill 87
▁considered 87
▁decisions 87
▁discovered 87
▁emperor 87
▁ev 87
▁football 87
▁inf 87
▁invited 87
▁jasmine 87
▁joking 87
▁lizzy 87
▁mall 87
▁mystery 87
▁naughty 87
▁ohh 87
▁raft 87
▁screen 87
▁setting 87
▁sneak 87
▁stays 87
▁survival 87
▁trial 87
▁අච 87
▁අපෙ 87
▁ඇහුණා 87
▁උපකරණයක 87
▁උඹත 87
▁ඔයාගෙම 87
▁කවර 87
▁ගලවලා 87
▁ගෙනිච 87
▁ගෝවා 87
▁ටූ 87
▁දිර 87
▁ධතා 87
▁නැතිවෙනවා 87
▁නෙට 87
▁පරි 87
▁පහරක 87
▁පාල 87
▁පැමිණිලි 87
▁පැවත 87
▁පියවරක 87
▁පොලිසියෙන 87
▁බැඳලා 87
▁බු 87
▁බොට 87
▁භයක 87
▁මූව 87
▁යමං 87
▁යෙද 87
▁රසන 87
▁රැවුල 87
▁විරහිත 87
▁විසඳ 87
▁වේග 87
▁හිනාව 87
▁ෆින 87
ala 86
ank 86
ble 86
hand 86
wood 86
ගර 86
බව 86
ලව 86
▁anjali 86
▁approaching 86
▁buying 86
▁cent 86
▁childhood 86
▁dea 86
▁deputy 86
▁elevator 86
▁england 86
▁goin 86
▁grant 86
▁guessing 86
▁hon 86
▁image 86
▁internet 86
▁jam 86
▁jealous 86
▁laura 86
▁louis 86
▁luthor 86
▁midnight 86
▁scar 86
▁senior 86
▁silence 86
▁stacks 86
▁statement 86
▁tw 86
▁අජ 86
▁අදුරු 86
▁අනවශ 86
▁එංගලන 86
▁ඔබෙන 86
▁කගනෙ 86
▁කාලෙකින 86
▁ගාස 86
▁චීස 86
▁ඩිම 86
▁තිෙයනවා 86
▁දුවගේ 86
▁නවාතැන 86
▁නොමිලේ 86
▁පුපුර 86
▁බබෙක 86
▁බලයන 86
▁බලෙන 86
▁බැරිනම 86
▁මිසිස 86
▁මෝඩයි 86
▁යබහුල 86
▁රකින 86
▁රමණය 86
▁රුසියානු 86
▁රෙදි 86
▁ලෝහ 86
▁වාසනාවක 86
▁වෙඩිතියන 86
▁වෛරස 86
▁ෂය 86
▁සඳහන 86
▁සමහරු 86
▁සයි 86
▁සුභපැතුම 86
▁හරිය 86
▁හස 86
▁හැච 86
▁හැරිලා 86
-6 85
hat 85
okay 85
own 85
ගල 85
ඩෝ 85
නේන 85
පස 85
ෙමින 85
ොද 85
▁ash 85
▁bust 85
▁cam 85
▁cast 85
▁cheese 85
▁clue 85
▁combat 85
▁criminals 85
▁digging 85
▁edge 85
▁escort 85
▁fancy 85
▁guarantee 85
▁jean 85
▁kabaddi 85
▁link 85
▁margaret 85
▁naked 85
▁os 85
▁ought 85
▁released 85
▁riding 85
▁row 85
▁skills 85
▁students 85
▁sunday 85
▁treasure 85
▁unusual 85
▁ඇගිලි 85
▁ඇතිවෙලා 85
▁ඇහැර 85
▁උණු 85
▁කියක 85
▁ගනුදෙනුවක 85
▁චුට 85
▁ජෙන 85
▁ටීවී 85
▁තුවට 85
▁දොරක 85
▁නවානේ 85
▁පැමින 85
▁බහිනවා 85
▁බෙදාගන 85
▁මොහු 85
▁ලිම 85
▁වචනේ 85
▁සිව 85
▁සුපර 85
▁හතක 85
▁හමුවෙලා 85
▁හිරේට 85
▁ෙවලා 85
-9 84
50 84
ances 84
five 84
අපිට 84
ගනෙ 84
ගි 84
තම 84
බෝ 84
මර 84
▁@ 84
▁amanda 84
▁amy 84
▁assure 84
▁behavior 84
▁cage 84
▁cisco 84
▁comm 84
▁connie 84
▁fed 84
▁ge 84
▁hits 84
▁ignore 84
▁irene 84
▁laid 84
▁nasa 84
▁nest 84
▁respond 84
▁safely 84
▁safer 84
▁university 84
▁valley 84
▁washington 84
▁අවසානයක 84
▁ආධාර 84
▁ඉවරද 84
▁උපක 84
▁උම 84
▁ඕයි 84
▁ගහක 84
▁චෝ 84
▁ජෝයි 84
▁තවාදියෙක 84
▁දිගින 84
▁දුකයි 84
▁දුපතේ 84
▁දෙවි 84
▁නියමිත 84
▁ඳ 84
▁පහරදෙන 84
▁පාඩම 84
▁පාඩමක 84
▁බහ 84
▁බැදලා 84
▁මැරුව 84
▁රෝහලට 84
▁විසන 84
▁සය 84
▁හයෙි 84
▁හැදුව 84
ative 83
like 83
mer 83
ows 83
right 83
වරු 83
වීමට 83
ාගත 83
ාවකට 83
▁2000 83
▁anytime 83
▁awful 83
▁char 83
▁charges 83
▁circumstances 83
▁collector 83
▁colony 83
▁demons 83
▁doin 83
▁honour 83
▁hostage 83
▁ke 83
▁mass 83
▁missile 83
▁mistakes 83
▁network 83
▁ramona 83
▁resources 83
▁spoken 83
▁threatened 83
▁touching 83
▁tricks 83
▁warrant 83
▁wh 83
▁wide 83
▁අතුරු 83
▁අදුර 83
▁අපායට 83
▁අලි 83
▁ආවරණ 83
▁උගෙ 83
▁එකපාරටම 83
▁ඔබයි 83
▁කතාකලා 83
▁කරනවට 83
▁කලක 83
▁කාරණයක 83
▁කෙහෙල 83
▁ගානෙ 83
▁ගැනීමක 83
▁ටුවෙන 83
▁තරහින 83
▁තොට 83
▁දාහක 83
▁දෙකට 83
▁නැවේ 83
▁නිවන 83
▁පාක 83
▁පැනගත 83
▁මනමාල 83
▁මිතුරන 83
▁මෙලෝ 83
▁රෝහලේ 83
▁වේඩ 83
▁සමන 83
▁සීන 83
▁සේනා 83
▁හරියේ 83
▁හොට 83
-3 82
huh 82
iest 82
kar 82
වීමේ 82
ැත 82
ිකව 82
ිකාර 82
ිගේ 82
ුනත 82
▁49 82
▁5000 82
▁bail 82
▁ber 82
▁bruce 82
▁core 82
▁county 82
▁delay 82
▁effort 82
▁extraordinary 82
▁hack 82
▁hu 82
▁latest 82
▁mars 82
▁moose 82
▁mostly 82
▁museum 82
▁normally 82
▁object 82
▁performance 82
▁sara 82
▁scientist 82
▁ser 82
▁standard 82
▁surgery 82
▁tax 82
▁throwing 82
▁union 82
▁vacation 82
▁wade 82
▁අංශයේ 82
▁අඩුව 82
▁අමාරුවක 82
▁අවා 82
▁අසිපත 82
▁ආයිත 82
▁ඇතුළත 82
▁ඒගැන 82
▁ඔළුවට 82
▁කාරයො 82
▁කැරන 82
▁කියනදේ 82
▁කුමරිය 82
▁ගහපු 82
▁ගෙවනවා 82
▁දඩයක 82
▁දාම 82
▁දැනුනේ 82
▁දියාවේ 82
▁නළ 82
▁පරිත 82
▁පැක 82
▁බලද 82
▁මොස 82
▁රැව 82
▁රේල 82
▁ලෙහාට 82
▁වුණාම 82
▁ශයිඩ 82
▁ෂයෝ 82
▁සමගින 82
▁සාමන 82
▁සීයක 82
▁සුළුයි 82
▁සෙනෙට 82
▁හැඟ 82
▁හිටපන 82
▁හිතමු 82
aged 81
ators 81
ened 81
min 81
sh 81
vers 81
කාරය 81
ගහන 81
ඩම 81
බලන 81
මේක 81
විත 81
විලා 81
ළු 81
ුකම 81
ොප 81
▁believes 81
▁bunny 81
▁conditions 81
▁downstairs 81
▁drove 81
▁firm 81
▁grandmother 81
▁mayor 81
▁miller 81
▁monkeys 81
▁perform 81
▁physical 81
▁prey 81
▁reverse 81
▁romantic 81
▁rope 81
▁secretary 81
▁shouting 81
▁suri 81
▁talent 81
▁tim 81
▁toilet 81
▁treated 81
▁අධිකරණ 81
▁අයිය 81
▁ආකාරය 81
▁ආතල 81
▁ආරංචිය 81
▁ඇතිද 81
▁උදෑසන 81
▁උපකරණය 81
▁එතරම 81
▁ඔබන 81
▁කටු 81
▁කීන 81
▁කීයටද 81
▁චොකලට 81
▁ටවුන 81
▁ටෙස 81
▁නුවේ 81
▁නෙමී 81
▁පැටියා 81
▁බාබ 81
▁භෞතික 81
▁මගුලයි 81
▁මගුලෙ 81
▁මේල 81
▁මොල 81
▁යාඥයෙක 81
▁රණය 81
▁රපටියක 81
▁රමෝනා 81
▁රෝහී 81
▁ලුවිස 81
▁වැඩිම 81
▁වෙරළ 81
▁ශල 81
▁ශැනොන 81
▁සංක 81
▁සතු 81
▁සිදුව 81
▁සුවද 81
▁සේවකයෙක 81
▁හඳ 81
▁හිතුවට 81
▁හෝටල 81
▁ළමය 81
▁ෆේ 81
ace 80
gs 80
ho 80
ify 80
iting 80
ord 80
ph 80
que 80
well 80
will 80
කරා 80
ගයක 80
තුරු 80
නක 80
පාර 80
පෙන 80
මගේ 80
රව 80
වාද 80
වින 80
හස 80
ිනේ 80
▁815 80
▁ahh 80
▁ananya 80
▁banks 80
▁beck 80
▁bug 80
▁caves 80
▁chennai 80
▁citizens 80
▁disgusting 80
▁dive 80
▁eaten 80
▁gentleman 80
▁hari 80
▁jumped 80
▁lamp 80
▁loaded 80
▁loyal 80
▁navy 80
▁nora 80
▁odds 80
▁plate 80
▁pooja 80
▁pot 80
▁pushing 80
▁quarter 80
▁quietly 80
▁role 80
▁schedule 80
▁seth 80
▁tag 80
▁tattoos 80
▁val 80
▁vincent 80
▁ආයෙම 80
▁ඇතුලෙන 80
▁ඉවස 80
▁උරුම 80
▁ඔනි 80
▁කටහඩ 80
▁කසාදේ 80
▁කියව 80
▁ගෙනාව 80
▁ජූන 80
▁ටිකත 80
▁දාපන 80
▁දේශපාලන 80
▁නිතර 80
▁පැටියෙක 80
▁පැතිර 80
▁පිම 80
▁පූජක 80
▁බුල 80
▁බුව 80
▁මාලු 80
▁මෙල 80
▁යවරයෙක 80
▁යාලුවො 80
▁රාජා 80
▁රොඩ 80
▁ලිගේ 80
▁විකුනන 80
▁සංඥාවක 80
▁සමාගමක 80
▁සහජ 80
▁හැට 80
▁හෘද 80
▁ෙහාදයි 80
-5 79
ani 79
here 79
ids 79
lo 79
not 79
ran 79
uc 79
ඔහ 79
පිට 79
පිය 79
යර 79
වස 79
ීක 79
ුනද 79
ුරන 79
ුවකින 79
▁29 79
▁aarush 79
▁angeles 79
▁appointment 79
▁beneath 79
▁butt 79
▁cobb 79
▁cock 79
▁dorothy 79
▁ep 79
▁garbage 79
▁heroes 79
▁hm 79
▁jones 79
▁marcus 79
▁murph 79
▁passport 79
▁pattern 79
▁personnel 79
▁player 79
▁product 79
▁removed 79
▁rupees 79
▁score 79
▁services 79
▁speaks 79
▁thin 79
▁tyler 79
▁ugh 79
▁visual 79
▁අපහු 79
▁ආගන 79
▁ඇගෙ 79
▁ඇලන 79
▁එකඟයි 79
▁එළවන 79
▁එළිය 79
▁කරුණාවන 79
▁ජයිකාන 79
▁දරුණුයි 79
▁දැනෙනවද 79
▁දිහාට 79
▁දුරකතන 79
▁නාඩි 79
▁නොක 79
▁පාලම 79
▁පැටියො 79
▁පිටුවහල 79
▁පුල 79
▁බොහෝම 79
▁භාවිත 79
▁මසුන 79
▁මැරුණු 79
▁මැරුනේ 79
▁මොඩ 79
▁රෝම 79
▁ලෙහා 79
▁වුනානම 79
▁ෂකයා 79
▁ෂේත 79
▁සිදුවන 79
▁සිනමා 79
▁සිපගන 79
▁හැඳුනුම 79
-0 78
15 78
ax 78
chi 78
gr 78
ji 78
ming 78
work 78
ගනේ 78
මොන 78
හට 78
ාරි 78
ිවි 78
ුනට 78
ෘ 78
▁1549 78
▁agreement 78
▁ap 78
▁balance 78
▁bureau 78
▁communication 78
▁dar 78
▁disease 78
▁embassy 78
▁habit 78
▁helps 78
▁horn 78
▁horses 78
▁infected 78
▁jaikant 78
▁jedi 78
▁justin 78
▁krish 78
▁offering 78
▁percy 78
▁pri 78
▁prop 78
▁screaming 78
▁shield 78
▁stephen 78
▁suits 78
▁summit 78
▁surrounded 78
▁survivors 78
▁swing 78
▁trunk 78
▁watney 78
▁wave 78
▁winning 78
▁wounded 78
▁අතාරිනවා 78
▁ඇහුවොත 78
▁උතුම 78
▁එකටම 78
▁එකනම 78
▁කාගෙ 78
▁කාම 78
▁කියවලා 78
▁කුමර 78
▁ගයා 78
▁ටාෆ 78
▁ඩුව 78
▁නගෙන 78
▁නොසලකා 78
▁පහසුවෙන 78
▁පැටල 78
▁පැහැරගන 78
▁යවලා 78
▁යාපාරයක 78
▁රිඩ 78
▁රිදෙන 78
▁ලිංගික 78
▁ලිලා 78
▁ලේක 78
▁ලොයිඩ 78
▁වයා 78
▁වාසි 78
▁වෙළඳ 78
▁සරලයි 78
▁හදවතට 78
▁ළම 78
.5 77
ale 77
ign 77
ites 77
ots 77
uck 77
ඛ 77
ඥ 77
ලෙ 77
වෙල 77
ුවෙනවා 77
▁47 77
▁accepted 77
▁basement 77
▁beaten 77
▁boone 77
▁breach 77
▁chris 77
▁crossed 77
▁des 77
▁destruction 77
▁emp 77
▁empire 77
▁festival 77
▁gates 77
▁ghosts 77
▁goddess 77
▁healthy 77
▁highness 77
▁invisible 77
▁invite 77
▁johnson 77
▁kurt 77
▁largest 77
▁lauda 77
▁loving 77
▁mehra 77
▁monday 77
▁motor 77
▁nar 77
▁pizza 77
▁puts 77
▁saturday 77
▁scan 77
▁sed 77
▁slap 77
▁suffering 77
▁ta 77
▁treatment 77
▁valuable 77
▁violent 77
▁අකුරු 77
▁අවධානයෙන 77
▁ආම 77
▁ආවරණයක 77
▁ඇවිදිනවා 77
▁එකේදී 77
▁එහායින 77
▁ඒවගෙන 77
▁ඔහොමම 77
▁කටවහගන 77
▁කතාකරනවා 77
▁කරෝ 77
▁කාලි 77
▁කුළුණ 77
▁චාරිත 77
▁තනේ 77
▁තරුව 77
▁තුනකින 77
▁දමා 77
▁දුවා 77
▁දෙයින 77
▁නැගලා 77
▁නිළ 77
▁පාටියක 77
▁පිරිම 77
▁මාංචු 77
▁මාසයක 77
▁මැදිහත 77
▁මියගියා 77
▁මියා 77
▁මොරියාටි 77
▁යොදවන 77
▁රදේශය 77
▁රැඩ 77
▁රිජ 77
▁ලඟා 77
▁ලුසී 77
▁වධ 77
▁වැටිල 77
▁වැඩසටහනක 77
▁වෙනවට 77
▁සිහ 77
▁හපන 77
▁ෙකෙනක 77
ater 76
bl 76
ea 76
fully 76
gu 76
ned 76
ower 76
රිලා 76
ැර 76
ුඩ 76
ෝක 76
▁1,000 76
▁alcohol 76
▁answering 76
▁att 76
▁bri 76
▁carter 76
▁cheat 76
▁considering 76
▁everyday 76
▁glasses 76
▁impact 76
▁injured 76
▁instructions 76
▁intel 76
▁intend 76
▁kings 76
▁lack 76
▁lion 76
▁lisa 76
▁lonely 76
▁material 76
▁pathetic 76
▁rancho 76
▁returning 76
▁software 76
▁soup 76
▁stress 76
▁sydney 76
▁technically 76
▁thieves 76
▁transport 76
▁understanding 76
▁woo 76
▁අඩියක 76
▁අනින 76
▁අමාර 76
▁අවම 76
▁අසම 76
▁එවනවා 76
▁එෙහම 76
▁ඕෆ 76
▁කඩලා 76
▁කාලකන 76
▁කොතරම 76
▁ගිවිස 76
▁ජීවිතේම 76
▁ජෙස 76
▁ඩූක 76
▁තිබිල 76
▁නාමය 76
▁පිටු 76
▁පිළිගත 76
▁මනෝ 76
▁මැරුවෙ 76
▁මෙහෙමයි 76
▁මොකා 76
▁මොහොතකට 76
▁මොළේ 76
▁යේෂණ 76
▁රටට 76
▁රථය 76
▁රෙඩින 76
▁රෝද 76
▁ලවුඩා 76
▁ලැබුනද 76
▁වතාවෙ 76
▁විසඳන 76
▁සොයන 76
▁හැමදාටම 76
▁හැමදාමත 76
▁හෙලන 76
▁හොදක 76
▁හොරු 76
con 75
pp 75
use 75
ඔහු 75
කො 75
ඩියා 75
මාව 75
වාගන 75
හක 75
හු 75
ළක 75
ානය 75
ීයයි 75
ුනක 75
ුලු 75
ුළු 75
▁actions 75
▁begging 75
▁chang 75
▁cheap 75
▁despite 75
▁documents 75
▁donkey 75
▁drama 75
▁freaking 75
▁gar 75
▁gen 75
▁gravity 75
▁helen 75
▁highest 75
▁limit 75
▁neighborhood 75
▁nicholas 75
▁patience 75
▁pissed 75
▁radha 75
▁review 75
▁rude 75
▁sk 75
▁slept 75
▁tent 75
▁unknown 75
▁unt 75
▁wizard 75
▁yaar 75
▁අවුලෙන 75
▁ආපස 75
▁ඇතිව 75
▁ඇදුමක 75
▁එහෙන 75
▁එහෙමම 75
▁ඒකකය 75
▁කරනවනම 75
▁කවදහරි 75
▁කියලනේ 75
▁කුම 75
▁කෙනාගේ 75
▁ගැනවත 75
▁චක 75
▁ටෙන 75
▁ටොප 75
▁ටෝර 75
▁ඩොරති 75
▁තනිවම 75
▁නැතිද 75
▁පතක 75
▁පතන 75
▁පිටුපසින 75
▁පියෝ 75
▁බොම 75
▁මැරුම 75
▁මිනි 75
▁මියගිය 75
▁මුහුණු 75
▁මොත 75
▁යාඥා 75
▁රබල 75
▁රැකියා 75
▁රුධිර 75
▁ලෝරා 75
▁ලෝරි 75
▁වගන 75
▁වයෙක 75
▁වෙමි 75
▁වෙයින 75
▁වොන 75
▁සහායක 75
▁සිතියමක 75
▁සුරක 75
▁හතරයි 75
▁හදවතින 75
▁ෙවනවා 75
apping 74
day 74
ight 74
mo 74
over 74
there 74
ute 74
ගැනීමේ 74
ගින 74
රී 74
හෝ 74
ැව 74
ියද 74
ුවයි 74
ුවලට 74
ෙවන 74
▁ashamed 74
▁attacks 74
▁authorities 74
▁bait 74
▁bang 74
▁blowing 74
▁chamber 74
▁complex 74
▁database 74
▁erica 74
▁existence 74
▁grateful 74
▁hostages 74
▁houses 74
▁jeremy 74
▁kn 74
▁lee 74
▁lightning 74
▁pills 74
▁prayers 74
▁pretending 74
▁random 74
▁renu 74
▁shell 74
▁slave 74
▁steel 74
▁thunder 74
▁wi 74
▁ආදරයෙන 74
▁ඇහුනේ 74
▁ඉත 74
▁ඔයාලගෙන 74
▁ඕගොල 74
▁කැසිනෝ 74
▁ගුරු 74
▁චරිතය 74
▁ජිවිතයක 74
▁ටීවන 74
▁තෝරාගත 74
▁දිහාවට 74
▁නවක 74
▁නැගිටලා 74
▁නෑනා 74
▁නුඹට 74
▁පාටි 74
▁පාව 74
▁පැටියේ 74
▁පිහිය 74
▁පොට 74
▁බත 74
▁බාග 74
▁භා 74
▁මරණයේ 74
▁මැරීන 74
▁මොකාද 74
▁යටට 74
▁රචණ 74
▁රදේශයේ 74
▁ලාභ 74
▁ලුහුබඳින 74
▁වටෙන 74
▁වසරේ 74
▁වහපන 74
▁වැඩියා 74
▁සංචාරය 74
▁සෝදිසි 74
▁හප 74
▁හමුවක 74
▁හාවඩ 74
12 73
fl 73
ises 73
oss 73
ti 73
uring 73
your 73
උන 73
ගට 73
ගෙම 73
බේ 73
ළි 73
ිකම 73
ියෙදි 73
▁61 73
▁ashes 73
▁avatar 73
▁background 73
▁beats 73
▁burrows 73
▁cargo 73
▁channel 73
▁clan 73
▁cure 73
▁dealer 73
▁division 73
▁divorce 73
▁dropping 73
▁fools 73
▁fourth 73
▁humanity 73
▁kapoor 73
▁learning 73
▁lj 73
▁pleased 73
▁pounds 73
▁rag 73
▁raymond 73
▁ronnie 73
▁sail 73
▁sanjay 73
▁sentence 73
▁sink 73
▁sober 73
▁strangers 73
▁tar 73
▁tor 73
▁twins 73
▁undercover 73
▁wins 73
▁අටක 73
▁අරුශ 73
▁අහුවෙලා 73
▁ඇඟේ 73
▁ඇඳට 73
▁ඉට 73
▁කදු 73
▁කාරයන 73
▁කික 73
▁කිල 73
▁කෙසේ 73
▁කෙළින 73
▁කොප 73
▁ඛන 73
▁ගානට 73
▁ගැණු 73
▁ඝන 73
▁ජාවාරම 73
▁ජිව 73
▁තයො 73
▁තරගය 73
▁තරුවක 73
▁තෑගි 73
▁ථානගත 73
▁දකුණ 73
▁ධතියක 73
▁නෙමේද 73
▁නොමැති 73
▁පතනවා 73
▁පසුම 73
▁පැමිණි 73
▁පොක 73
▁බලනව 73
▁බලප 73
▁මඟුලේ 73
▁මාග 73
▁රැකගන 73
▁ලියකියවිලි 73
▁වයසට 73
▁වාසනාවට 73
▁වැඩිව 73
▁වැසි 73
▁විසදන 73
▁වේන 73
▁සගෙන 73
▁හොස 73
▁ළමයෝ 73
ali 72
ends 72
ft 72
tr 72
unt 72
ගාව 72
ෂා 72
ිකයා 72
ිෂ 72
▁active 72
▁affair 72
▁authority 72
▁bald 72
▁begun 72
▁cheating 72
▁degree 72
▁diamonds 72
▁elder 72
▁gosh 72
▁hill 72
▁legend 72
▁lloyd 72
▁mer 72
▁notes 72
▁politics 72
▁rescued 72
▁rogue 72
▁shoe 72
▁specific 72
▁swimming 72
▁tap 72
▁teams 72
▁term 72
▁tick 72
▁toast 72
▁vegas 72
▁wal 72
▁එබ 72
▁එවලා 72
▁ගැහ 72
▁ජේකබ 72
▁ටයර 72
▁ඩම 72
▁තහම 72
▁තුවාලයක 72
▁දියන 72
▁දුකක 72
▁පෝසත 72
▁බැටරි 72
▁මැරිච 72
▁මැලි 72
▁මේවගේ 72
▁මොනවටද 72
▁යාලුව 72
▁රසිකයෙක 72
▁ලැප 72
▁ලිත 72
▁විනෝදයක 72
▁වුණාට 72
▁ශිව 72
▁ෂම 72
▁සමහරවෙලාවට 72
▁සිතන 72
▁සීනි 72
▁සොරි 72
▁හැරල 72
▁හී 72
▁ෆේබියස 72
ov 71
ගමන 71
ෙර 71
▁amongst 71
▁baseball 71
▁broad 71
▁casino 71
▁cooking 71
▁defeat 71
▁ellis 71
▁fever 71
▁fin 71
▁gain 71
▁heal 71
▁heh 71
▁highway 71
▁mental 71
▁messed 71
▁mob 71
▁niki 71
▁owen 71
▁passengers 71
▁patch 71
▁protected 71
▁recall 71
▁revolution 71
▁rig 71
▁robots 71
▁series 71
▁sighs 71
▁similar 71
▁souls 71
▁stake 71
▁sully 71
▁supplies 71
▁sweets 71
▁sync 71
▁teaching 71
▁traitor 71
▁uns 71
▁අයෙක 71
▁අවධානම 71
▁අවුස 71
▁අහපන 71
▁ඉදියි 71
▁ඕස 71
▁කරාම 71
▁කිලෝ 71
▁කෙලී 71
▁ගොදුර 71
▁චාරණය 71
▁ජෙනරාල 71
▁ටිග 71
▁තැ 71
▁දයකෙ 71
▁දැනෙයි 71
▁දිනුම 71
▁දූපතේ 71
▁දෙයයි 71
▁නකන 71
▁නැගී 71
▁නීමෝ 71
▁පඩි 71
▁පැති 71
▁පැමිණිල 71
▁පුන 71
▁බැහැර 71
▁මායාවක 71
▁මිනිය 71
▁මුහුදට 71
▁යාගාර 71
▁රහිත 71
▁රැම 71
▁ලික 71
▁ලුයිස 71
▁ලෝකයම 71
▁ලෝකෙම 71
▁විසද 71
▁වේගාස 71
▁වොෂින 71
▁ෂණයට 71
▁සහෝදරය 71
▁සැලකිලිමත 71
▁සැහෙන 71
▁සීය 71
▁හාරන 71
▁හැරෙනවා 71
▁හෝල 71
ained 70
air 70
bed 70
ending 70
ffff 70
field 70
hen 70
kin 70
ls 70
ries 70
පට 70
යකෝ 70
වරයෙක 70
ියටම 70
ිරීම 70
ෙනි 70
ෙයන 70
▁asks 70
▁assassin 70
▁bilbo 70
▁blown 70
▁booth 70
▁bread 70
▁cal 70
▁carly 70
▁carrie 70
▁click 70
▁commissioner 70
▁dating 70
▁ego 70
▁emotional 70
▁engines 70
▁entry 70
▁foolish 70
▁friendly 70
▁gal 70
▁gifts 70
▁harold 70
▁interrupt 70
▁jet 70
▁liam 70
▁linda 70
▁marudheera 70
▁merry 70
▁mighty 70
▁mil 70
▁multiple 70
▁mustn 70
▁nasty 70
▁nightmare 70
▁noble 70
▁officially 70
▁password 70
▁patients 70
▁patrol 70
▁period 70
▁plays 70
▁rent 70
▁republic 70
▁roads 70
▁robbed 70
▁rod 70
▁toward 70
▁troops 70
▁web 70
▁whore 70
▁අවබෝධ 70
▁ඇදන 70
▁ඇලිසන 70
▁උදවුවක 70
▁එරිකා 70
▁එළියෙ 70
▁කටෙ 70
▁කාරණ 70
▁කාලෙම 70
▁කැරක 70
▁කෙනයි 70
▁කොපමණ 70
▁කොලින 70
▁කෝවිල 70
▁ගිබ 70
▁ටස 70
▁ඩොග 70
▁දරා 70
▁දිම 70
▁නහය 70
▁නායු 70
▁පාදන 70
▁බැටරිය 70
▁මගහැර 70
▁මජ 70
▁රගපාන 70
▁ලමයා 70
▁ලෝඩ 70
▁වටේට 70
▁වලස 70
▁වුණු 70
▁වෙක 70
▁ෂකයන 70
▁සමට 70
▁සහයෝගය 70
▁සුල 70
▁සූදානමින 70
▁සෛල 70
▁සොහොන 70
▁හමුවුනා 70
▁ළමයව 70
ari 69
board 69
ils 69
ix 69
ones 69
pe 69
අන 69
ජී 69
තිය 69
දෙනෙක 69
පුවා 69
ාග 69
ිවලට 69
ෙය 69
▁33 69
▁activity 69
▁actor 69
▁ann 69
▁assignment 69
▁breaks 69
▁cigarette 69
▁drew 69
▁easter 69
▁emotions 69
▁ent 69
▁entering 69
▁function 69
▁inv 69
▁kelly 69
▁knees 69
▁laws 69
▁leak 69
▁library 69
▁march 69
▁nemo 69
▁organization 69
▁prevent 69
▁pushed 69
▁rango 69
▁refuse 69
▁sample 69
▁sealed 69
▁sexy 69
▁successful 69
▁urgent 69
▁vip 69
▁අගුළු 69
▁අතරට 69
▁අනතුරුදායක 69
▁අවසරය 69
▁ආයතනය 69
▁ඊජිප 69
▁ඊළග 69
▁උසයි 69
▁එකතුවෙන 69
▁ඔබලාට 69
▁ඔයානම 69
▁ඔයිට 69
▁කුමාරයා 69
▁ගනිමු 69
▁ගෑන 69
▁ජැකට 69
▁ජෙරී 69
▁ටේප 69
▁ටො 69
▁ඩැනියල 69
▁ඩෙස 69
▁තොපි 69
▁දහයයි 69
▁දැල 69
▁දීර 69
▁නඩුවක 69
▁නොකියා 69
▁පහන 69
▁පාහර 69
▁පැමිණීම 69
▁පෙනුමක 69
▁බලනවද 69
▁බාධකය 69
▁බැලුවෙ 69
▁බේත 69
▁මනී 69
▁මුළුමනින 69
▁මූණට 69
▁මේවට 69
▁මොකට 69
▁මොනහරි 69
▁ලබනවා 69
▁වඩ 69
▁වනෙුවනේ 69
▁වයෙි 69
▁විකුණ 69
▁විදේශ 69
▁වීදුරු 69
▁වුවත 69
▁සග 69
▁සහයකයා 69
▁හොයල 69
▁හොයාගමු 69
▁∞ 69
ching 68
cl 68
com 68
ink 68
ored 68
ott 68
ram 68
room 68
where 68
එපා 68
කරගෙන 68
ඩී 68
නං 68
පොල 68
ිකාවක 68
ිනි 68
ීයි 68
ීල 68
ුබ 68
ුමා 68
ුවනම 68
▁31 68
▁armor 68
▁bablu 68
▁bal 68
▁bath 68
▁begins 68
▁capture 68
▁chess 68
▁choices 68
▁cities 68
▁comin 68
▁conf 68
▁contain 68
▁enjoying 68
▁exciting 68
▁fans 68
▁favour 68
▁fund 68
▁genetic 68
▁gregson 68
▁grey 68
▁gut 68
▁hannah 68
▁happily 68
▁heir 68
▁hur 68
▁imm 68
▁labs 68
▁liquor 68
▁mat 68
▁noah 68
▁options 68
▁placed 68
▁pride 68
▁shashi 68
▁ships 68
▁stri 68
▁struggle 68
▁suspects 68
▁taha 68
▁tracy 68
▁trans 68
▁tuesday 68
▁twelve 68
▁අතහැරලා 68
▁අතුල 68
▁අපහසු 68
▁අවාසනාවට 68
▁අහසේ 68
▁ඉපද 68
▁උතුරට 68
▁උදා 68
▁උපාය 68
▁එතනදි 68
▁එවැනි 68
▁කලිනුත 68
▁කළාට 68
▁කිවුවොත 68
▁කුඩ 68
▁කොකා 68
▁ගතකරන 68
▁ගනනක 68
▁ගැලවෙන 68
▁තනිවෙලා 68
▁තුනේ 68
▁දාස 68
▁නහ 68
▁පැටලෙන 68
▁පිටට 68
▁බැක 68
▁බෙද 68
▁මුහ 68
▁යර 68
▁යාර 68
▁රඟපාන 68
▁රැකියාවක 68
▁ලියම 68
▁වයෙන 68
▁ෂුවර 68
▁සභ 68
▁හරස 68
▁හිතයි 68
▁ෆිට 68
.2 67
act 67
lt 67
ond 67
ses 67
va 67
why 67
කාරයො 67
ගාර 67
ගිය 67
වලු 67
ියාවේ 67
▁007 67
▁abort 67
▁actual 67
▁adventure 67
▁aliens 67
▁behave 67
▁bernard 67
▁captured 67
▁connect 67
▁cor 67
▁crush 67
▁cursed 67
▁cutting 67
▁danny 67
▁delivered 67
▁earned 67
▁exercise 67
▁experiment 67
▁gardner 67
▁host 67
▁keeper 67
▁maintain 67
▁mut 67
▁narsing 67
▁norman 67
▁react 67
▁recent 67
▁reed 67
▁ref 67
▁retreat 67
▁rolling 67
▁scratch 67
▁shore 67
▁shown 67
▁sides 67
▁stubborn 67
▁suspicious 67
▁tamil 67
▁toy 67
▁vampire 67
▁visiting 67
▁wipe 67
▁yup 67
▁අඩිය 67
▁ආයතන 67
▁ආසම 67
▁ඇතිනේ 67
▁ඉතිහාසයේ 67
▁උපත 67
▁උර 67
▁ඔයානේ 67
▁ඔෆ 67
▁ඕවර 67
▁කටහඬ 67
▁කපිතන 67
▁කෙසේද 67
▁කොයිතරම 67
▁ගතියක 67
▁ගරාජ 67
▁ගලන 67
▁ගූ 67
▁ගෙවීම 67
▁ටිස 67
▁ටීෆන 67
▁ටෝරියා 67
▁තරමටම 67
▁තිත 67
▁දිනාගන 67
▁දුවෙක 67
▁නකේ 67
▁නිවුන 67
▁නිවේදන 67
▁නී 67
▁නුම 67
▁නොගත 67
▁නෝට 67
▁නෝවා 67
▁පිරික 67
▁පොන 67
▁බැලුවම 67
▁බෝතල 67
▁භූමිය 67
▁මකර 67
▁මමනම 67
▁මිනීමරුවෙක 67
▁මුගේ 67
▁මෙහේට 67
▁රමණ 67
▁රෝක 67
▁ලේකම 67
▁විදිහෙ 67
▁වුවා 67
▁වෙනුවනේ 67
▁වෙලත 67
▁සංදර 67
▁සාන 67
▁සුදුසුයි 67
▁හරිනම 67
▁හැනා 67
▁හිතවත 67
▁හුගාක 67
▁ළඟින 67
▁ළමා 67
ades 66
ency 66
ents 66
era 66
ising 66
ita 66
mail 66
ney 66
ric 66
ring 66
side 66
ush 66
ලී 66
ුගෙ 66
ුනාම 66
ෙනව 66
▁37 66
▁ajju 66
▁av 66
▁batman 66
▁benefit 66
▁blocks 66
▁cancel 66
▁compound 66
▁disappointed 66
▁fetch 66
▁fleet 66
▁franklin 66
▁incoming 66
▁kinds 66
▁kubo 66
▁lockdown 66
▁mag 66
▁marine 66
▁medic 66
▁mode 66
▁opposite 66
▁phoebe 66
▁policy 66
▁repair 66
▁reyes 66
▁spotted 66
▁stations 66
▁struck 66
▁timing 66
▁virgin 66
▁wasted 66
▁wrap 66
▁yard 66
▁අපේම 66
▁ආවත 66
▁ආවහම 66
▁ඇදල 66
▁ඇමරිකාවේ 66
▁ඉබ 66
▁ඉවතට 66
▁උනානම 66
▁එනිසා 66
▁කතාවට 66
▁කරමුද 66
▁කෙනක 66
▁ගෑණ 66
▁ගී 66
▁ගෝත 66
▁චිට 66
▁ජාතියක 66
▁ඩියුක 66
▁ණයට 66
▁තුමනි 66
▁තෙම 66
▁දනය 66
▁දෙකේ 66
▁දෙවනි 66
▁නායකයෙක 66
▁නිවාඩුවක 66
▁නිසාම 66
▁පලි 66
▁පහකට 66
▁පහසුකම 66
▁පිරිමියෙක 66
▁පොරක 66
▁පොලීසියෙන 66
▁මාසේ 66
▁මීයෙක 66
▁මීර 66
▁මෙයාලට 66
▁මෙයාලව 66
▁යෝධ 66
▁රජුගේ 66
▁රථයක 66
▁රසකැවිලි 66
▁ලගෙ 66
▁ලියා 66
▁වටහා 66
▁වාමියා 66
▁විකිණ 66
▁විසික 66
▁සතියෙ 66
▁සිතුවිලි 66
▁සිරුරු 66
▁සීමාවක 66
▁හදවතක 66
▁හිමිකම 66
▁හුඟාක 66
▁හෝටලේ 66
▁ළමයට 66
▁ෆෙඩරල 66
▁ෙක 66
apped 65
for 65
ith 65
mm 65
ners 65
ops 65
rap 65
ංශ 65
කාල 65
චාර 65
පාට 65
යටත 65
වරයා 65
වුම 65
සට 65
ිමට 65
ූට 65
ේශ 65
▁600 65
▁arranged 65
▁asset 65
▁australia 65
▁bel 65
▁civil 65
▁currently 65
▁cy 65
▁delicious 65
▁drones 65
▁events 65
▁exp 65
▁fitz 65
▁flies 65
▁frozen 65
▁gil 65
▁glory 65
▁holes 65
▁hood 65
▁iraq 65
▁judgment 65
▁juice 65
▁karl 65
▁kat 65
▁kidnap 65
▁ladyship 65
▁landed 65
▁lifetime 65
▁limits 65
▁math 65
▁maximus 65
▁messing 65
▁monitor 65
▁pie 65
▁refused 65
▁rivers 65
▁rizvan 65
▁rounds 65
▁servant 65
▁shankar 65
▁shortly 65
▁stands 65
▁strip 65
▁sucks 65
▁thrown 65
▁toretto 65
▁valentine 65
▁weller 65
▁අණදෙන 65
▁ඇරලවන 65
▁උපකල 65
▁එපැයි 65
▁ඒයා 65
▁ඔතනම 65
▁ඔරලොසුව 65
▁කැමතිනම 65
▁කිප 65
▁කියාගන 65
▁කිරීමෙන 65
▁ගෑ 65
▁ගුහාව 65
▁චම 65
▁චාලට 65
▁චිකිත 65
▁ජලීස 65
▁ටැන 65
▁ඩයි 65
▁දස 65
▁දිනුවා 65
▁දෙනෙකුට 65
▁දොරටු 65
▁නමට 65
▁නයෙන 65
▁නවම 65
▁නෙයි 65
▁නොදෙන 65
▁පයිප 65
▁පුදුමාකාර 65
▁පූජ 65
▁බූ 65
▁මාක 65
▁මැසේජ 65
▁මෝස 65
▁රිකට 65
▁රෝහ 65
▁ලල 65
▁ලැබුණේ 65
▁වටිනාකමක 65
▁වනාන 65
▁වසා 65
▁වැරදිලා 65
▁විවර 65
▁වෙලර 65
▁සභාපති 65
▁සමහරක 65
▁සික 65
▁සිමස 65
▁සූසන 65
▁ළගට 65
, 64
000 64
ark 64
ender 64
ga 64
good 64
hh 64
ished 64
lly 64
ont 64
senpai 64
ved 64
who 64
අයි 64
කටත 64
ගී 64
ණිය 64
රිල 64
ිවෙන 64
ුණොත 64
ුනම 64
ුරේ 64
ොඩ 64
▁+ 64
▁250 64
▁advance 64
▁allen 64
▁bars 64
▁bean 64
▁bears 64
▁carried 64
▁chaos 64
▁deny 64
▁edward 64
▁eggsy 64
▁frame 64
▁han 64
▁hans 64
▁heck 64
▁heroin 64
▁hers 64
▁ig 64
▁images 64
▁immediate 64
▁joan 64
▁nephew 64
▁partners 64
▁ph 64
▁py 64
▁response 64
▁rub 64
▁separated 64
▁shrek 64
▁sid 64
▁slipped 64
▁stretch 64
▁symbol 64
▁terror 64
▁threatening 64
▁transferred 64
▁unlike 64
▁varda 64
▁warden 64
▁whistle 64
▁අනතුරට 64
▁අඳුර 64
▁අරයා 64
▁එයාටත 64
▁ඔහේගෙ 64
▁කලෙක 64
▁කැසී 64
▁කිසිවෙක 64
▁කුන 64
▁කුර 64
▁ගාල 64
▁ඩොස 64
▁තිරණය 64
▁තුක 64
▁තුනට 64
▁දරන 64
▁දැනුයි 64
▁නගරයෙන 64
▁නායකත 64
▁නැඟිටින 64
▁පාලනයක 64
▁පැහැ 64
▁පෑ 64
▁පූස 64
▁බැරිව 64
▁බොරුව 64
▁භාව 64
▁මතකයක 64
▁මහල 64
▁මාද 64
▁මුදලක 64
▁යව 64
▁යශ 64
▁රඟ 64
▁රහාරය 64
▁රාජකාරි 64
▁රේට 64
▁රොකට 64
▁රොජර 64
▁ලවා 64
▁ලාගත 64
▁ලිද 64
▁ලියපු 64
▁වරයෙක 64
▁විදියකට 64
▁විලවුන 64
▁වෙලාවල 64
▁ශිට 64
▁ෂිය 64
▁සංචාර 64
▁සැලසුමක 64
▁හදාගෙන 64
▁හඳුනා 64
▁ෙකාෙහාමද 64
.00 63
cher 63
come 63
cr 63
gers 63
ily 63
nt 63
oke 63
rated 63
sp 63
sw 63
with 63
ංච 63
කරපු 63
ගු 63
ඩර 63
ණු 63
යාම 63
යී 63
රණ 63
වු 63
ිටි 63
ිවී 63
ෙහි 63
▁30,000 63
▁aboard 63
▁achieve 63
▁bha 63
▁brace 63
▁chancellor 63
▁coach 63
▁continues 63
▁cowboy 63
▁demand 63
▁der 63
▁deserves 63
▁equal 63
▁firing 63
▁height 63
▁hid 63
▁holiday 63
▁lad 63
▁lat 63
▁lau 63
▁log 63
▁meantime 63
▁mercy 63
▁meteor 63
▁mod 63
▁pant 63
▁passion 63
▁population 63
▁puppy 63
▁raid 63
▁rascal 63
▁rev 63
▁rings 63
▁rot 63
▁sar 63
▁scent 63
▁scout 63
▁seats 63
▁shadows 63
▁spark 63
▁ste 63
▁targets 63
▁tend 63
▁unbelievable 63
▁ur 63
▁villain 63
▁walks 63
▁අඟවන 63
▁අතීත 63
▁අපියි 63
▁අයගෙ 63
▁අයිතිකාරයා 63
▁අරමුදල 63
▁අවාසනාවන 63
▁ආය 63
▁ඇරියා 63
▁ඉපදෙන 63
▁කඳ 63
▁කපූර 63
▁කබා 63
▁කාළ 63
▁ඝාතන 63
▁චියක 63
▁චී 63
▁ජේසුනේ 63
▁තඩි 63
▁තයෙක 63
▁තරගයක 63
▁තො 63
▁දඩ 63
▁ධකම 63
▁ධති 63
▁නංගිට 63
▁නමෙේ 63
▁නොමැත 63
▁නොවුන 63
▁පනපිටින 63
▁පප 63
▁පරාජිතයෙක 63
▁බටර 63
▁බැග 63
▁බැරී 63
▁බෑනා 63
▁බේරන 63
▁මයට 63
▁මාකස 63
▁මැරයෙක 63
▁මිලර 63
▁මුදුන 63
▁මූට 63
▁මොර 63
▁යනවලා 63
▁යාලු 63
▁රතිඵල 63
▁රදේශ 63
▁රෝඩ 63
▁ලයිසන 63
▁ලියුමක 63
▁ලීමක 63
▁ලුහු 63
▁ලොකුවට 63
▁වැලන 63
▁වේලා 63
▁ශාව 63
▁සඳ 63
▁සහිතයි 63
▁සිතුවිල 63
▁හැංග 63
▁හැබෑ 63
▁හිටියට 63
▁ෙකාෙහද 63
bi 62
can 62
hal 62
ich 62
istic 62
mp 62
චර 62
මද 62
යාර 62
යික 62
රාජ 62
වකෝ 62
හොත 62
ළා 62
ාණ 62
ානෙ 62
▁01 62
▁auto 62
▁baggins 62
▁behalf 62
▁boots 62
▁champagne 62
▁damu 62
▁deer 62
▁disc 62
▁doss 62
▁echo 62
▁elephants 62
▁exposed 62
▁gam 62
▁hal 62
▁harris 62
▁helmet 62
▁hire 62
▁hung 62
▁jan 62
▁kar 62
▁lena 62
▁mason 62
▁milverton 62
▁modern 62
▁motion 62
▁mysterious 62
▁na 62
▁naina 62
▁om 62
▁pipe 62
▁planted 62
▁possibility 62
▁pussy 62
▁raven 62
▁reaction 62
▁required 62
▁rice 62
▁rocket 62
▁senator 62
▁smoking 62
▁solved 62
▁spending 62
▁stones 62
▁swan 62
▁swords 62
▁tablet 62
▁transmission 62
▁turtle 62
▁zamani 62
▁අනාථ 62
▁අවධානමක 62
▁ආකාරයට 62
▁ඇරන 62
▁උවමනාවක 62
▁එනකල 62
▁කඩදාසි 62
▁කරහන 62
▁කලුවර 62
▁කෙනකේට 62
▁කෝඩ 62
▁ගියානම 62
▁ගු 62
▁ජාලයක 62
▁ජෝජ 62
▁ටිකෙන 62
▁ඨයි 62
▁තවාදී 62
▁දිගා 62
▁දුකින 62
▁දුවලා 62
▁නඩ 62
▁නැතිකරගන 62
▁නැතිවුන 62
▁නිලධාර 62
▁නිවසේ 62
▁පාරටම 62
▁පිලි 62
▁පුරාවට 62
▁බඳ 62
▁බවුනේ 62
▁බෙර 62
▁බේන 62
▁භායි 62
▁මකව 62
▁මමී 62
▁මරණයෙන 62
▁මැරුණේ 62
▁මූලස 62
▁මේසේ 62
▁මොනම 62
▁යාඥ 62
▁යාපෘතිය 62
▁යු 62
▁රථම 62
▁රයෝජන 62
▁රාජධානිය 62
▁රීක 62
▁රේසි 62
▁ලැබුනෙ 62
▁ලැරී 62
▁ලෙඩක 62
▁වරයා 62
▁විකා 62
▁විහිද 62
▁වෙළද 62
▁වෝව 62
▁සතුව 62
▁සහිතව 62
▁සාමාජිකයෙක 62
▁සියෙන 62
▁සීතලයි 62
▁හැමේම 62
▁හිරිහැර 62
30 61
chan 61
ek 61
ination 61
ove 61
ron 61
tering 61
අම 61
ගැස 61
වාදී 61
වාර 61
ුනාද 61
▁197 61
▁amen 61
▁brief 61
▁cho 61
▁circus 61
▁concentrate 61
▁cond 61
▁engineering 61
▁fifth 61
▁fights 61
▁films 61
▁fu 61
▁gym 61
▁informed 61
▁jackie 61
▁jerry 61
▁mount 61
▁movement 61
▁operating 61
▁parrish 61
▁popular 61
▁pump 61
▁rabbit 61
▁ravi 61
▁related 61
▁smooth 61
▁studying 61
▁television 61
▁thirsty 61
▁ton 61
▁tooth 61
▁trash 61
▁weakness 61
▁zombie 61
▁උඔ 61
▁ඕනිම 61
▁කරනකම 61
▁කාලයකට 61
▁කැඳ 61
▁කුබෝ 61
▁කොටසේ 61
▁ගයෙන 61
▁චයක 61
▁ජෙෆ 61
▁ටමක 61
▁ටියන 61
▁ඩියා 61
▁තවාදීන 61
▁තැනකින 61
▁තිව 61
▁තේඩියස 61
▁දාවි 61
▁දැනුන 61
▁දොරටුව 61
▁නියමුවා 61
▁පැරිස 61
▁පිපිරීම 61
▁පෘථිවිය 61
▁මිනීමරුවා 61
▁රයිලි 61
▁රොනී 61
▁රෝව 61
▁රෝහන 61
▁ලභ 61
▁ලාල 61
▁ලේයර 61
▁වරුණි 61
▁වළක 61
▁වැඩකරනවා 61
▁වුල 61
▁වෙරල 61
▁සනේ 61
▁සමර 61
▁සහතිකයි 61
▁හදුනා 61
▁හමුදාවෙ 61
▁හැගීමක 61
▁හැතැප 61
▁හැදුවොත 61
▁හැරිස 61
▁හොයනව 61
▁ළමයකේ 61
aa 60
ading 60
ards 60
ball 60
bit 60
ced 60
dle 60
ert 60
ford 60
hy 60
ju 60
ora 60
she 60
stone 60
ulate 60
und 60
කරුවා 60
වුනු 60
▁55 60
▁ali 60
▁assault 60
▁attorney 60
▁beard 60
▁brush 60
▁chautala 60
▁comfort 60
▁companion 60
▁compromised 60
▁costume 60
▁cricket 60
▁dial 60
▁document 60
▁drives 60
▁effective 60
▁embrace 60
▁evacuate 60
▁graiman 60
▁hanna 60
▁hoped 60
▁hostile 60
▁inner 60
▁jackson 60
▁khanna 60
▁kim 60
▁knocked 60
▁mc 60
▁mel 60
▁mistaken 60
▁neighbor 60
▁offense 60
▁ofthe 60
▁packed 60
▁pia 60
▁pointing 60
▁political 60
▁praise 60
▁prize 60
▁prov 60
▁psych 60
▁quinton 60
▁reactor 60
▁rear 60
▁rourke 60
▁smarter 60
▁solid 60
▁spit 60
▁superhero 60
▁thea 60
▁threats 60
▁underwear 60
▁vast 60
▁wil 60
▁wolves 60
▁yards 60
▁අංජලී 60
▁අගවන 60
▁අධිපති 60
▁අමාත 60
▁අහංකාර 60
▁අහක 60
▁ආපිට 60
▁ඇගිල 60
▁ඇමත 60
▁උරහිස 60
▁එසේම 60
▁ඒවත 60
▁ඔටුන 60
▁ඔයගේ 60
▁ඕකෙන 60
▁කටයුත 60
▁කපනවා 60
▁කරුණ 60
▁කරෙ 60
▁කාලයට 60
▁කිම 60
▁කුණාටුවක 60
▁කූඩුව 60
▁කෙනාම 60
▁කොර 60
▁කෝන 60
▁ගෙනාපු 60
▁චියට 60
▁ජාතිය 60
▁ටුවෙ 60
▁ටේන 60
▁ඩොම 60
▁ඩෝරි 60
▁තීර 60
▁ථකත 60
▁ථාපනය 60
▁දියා 60
▁දුග 60
▁දෙදෙනා 60
▁නගරාධිපති 60
▁නඟින 60
▁නසා 60
▁නාමයෙන 60
▁නොගන 60
▁පවර 60
▁පාදනය 60
▁පාහරයා 60
▁පික 60
▁පිහියෙන 60
▁පොම 60
▁මුහුදේ 60
▁යානුකූල 60
▁රාධා 60
▁රැඳී 60
▁රිට 60
▁රියාව 60
▁රූස 60
▁රේණු 60
▁ලදී 60
▁ලැබුනොත 60
▁ලොර 60
▁විවිධ 60
▁විශේෂයි 60
▁වෘක 60
▁සංජේ 60
▁සංවිධානය 60
▁සලකුණ 60
▁සිකුරාදා 60
▁සිදුවෙන 60
▁සියුම 60
▁සිරාවට 60
▁සිහිනය 60
▁සෝයී 60
▁ළං 60
▁ෆි 60
-8 59
af 59
ena 59
fire 59
hoo 59
ino 59
ki 59
ni 59
ology 59
oned 59
ual 59
uk 59
ull 59
ups 59
wing 59
කරණ 59
ටනම 59
තාවක 59
තුමා 59
වරුන 59
සිය 59
ිසා 59
ුලේ 59
ූප 59
ෘත 59
▁ak 59
▁ast 59
▁bas 59
▁beings 59
▁blessed 59
▁confess 59
▁coordinates 59
▁cre 59
▁cruel 59
▁daylight 59
▁describe 59
▁disaster 59
▁dist 59
▁dorian 59
▁elders 59
▁employees 59
▁facts 59
▁flood 59
▁flow 59
▁frost 59
▁goal 59
▁goodnight 59
▁hopefully 59
▁internal 59
▁invented 59
▁jennifer 59
▁kal 59
▁kissed 59
▁laptop 59
▁mole 59
▁moscow 59
▁necklace 59
▁net 59
▁nut 59
▁orphan 59
▁pad 59
▁patriots 59
▁plastic 59
▁preparing 59
▁punished 59
▁require 59
▁rifle 59
▁russians 59
▁serving 59
▁shocked 59
▁subway 59
▁terrorists 59
▁thi 59
▁twist 59
▁waves 59
▁whi 59
▁අනුමැතිය 59
▁අභිරහස 59
▁අවලම 59
▁අවු 59
▁ආප 59
▁ඇරත 59
▁ඇලඩින 59
▁ඉගන 59
▁එයාද 59
▁ඕනෙනම 59
▁කඳුළු 59
▁කපල 59
▁කලෙින 59
▁කාරෙක 59
▁කෙක 59
▁කොපි 59
▁ගෑනි 59
▁ගෘ 59
▁ගෙනාවෙ 59
▁චරටම 59
▁ඡ 59
▁ටෙල 59
▁තින 59
▁දානවද 59
▁දියාවට 59
▁නපුර 59
▁නිදියන 59
▁නෝමන 59
▁පැයකින 59
▁පිලිප 59
▁පේනවනේ 59
▁බඩුවක 59
▁බැංකුවේ 59
▁බේරාගත 59
▁මහජන 59
▁මැරුවොත 59
▁මිනිහෙකුට 59
▁මිලට 59
▁මෘදු 59
▁මෙෙහ 59
▁මෝල 59
▁යකෙක 59
▁යතාව 59
▁යයට 59
▁යාපාරය 59
▁රතිපත 59
▁රඳ 59
▁රවුම 59
▁රවුමක 59
▁රොප 59
▁ලිසී 59
▁වලල 59
▁වැය 59
▁විටම 59
▁වෙනකං 59
▁වො 59
▁සළකුණු 59
▁සැග 59
▁සිදුවෙනවා 59
▁සිහිනයක 59
▁සුදුසුකම 59
▁සුරි 59
▁සුලී 59
▁සොම 59
▁හැමද 59
▁හැරලා 59
▁හිටි 59
▁ෙවයි 59
acy 58
cks 58
face 58
iah 58
ives 58
lan 58
par 58
tell 58
uff 58
ville 58
උඹ 58
ඔබ 58
කාරි 58
ගියා 58
ඝ 58
දුන 58
දෙනවා 58
ඳින 58
ඳු 58
සී 58
ානු 58
ාවකින 58
ිකල 58
ුරට 58
▁2008 58
▁34 58
▁academy 58
▁amit 58
▁anti 58
▁beam 58
▁caleb 58
▁carlos 58
▁cas 58
▁charged 58
▁companies 58
▁confidence 58
▁costs 58
▁diary 58
▁dispatch 58
▁dwarf 58
▁electricity 58
▁epic 58
▁evan 58
▁fashion 58
▁grandson 58
▁granny 58
▁homework 58
▁knee 58
▁krishna 58
▁kyle 58
▁maker 58
▁nap 58
▁nearby 58
▁photograph 58
▁procedure 58
▁proposal 58
▁rats 58
▁repl 58
▁replace 58
▁reporter 58
▁resort 58
▁sanjana 58
▁santa 58
▁seed 58
▁selvi 58
▁shooter 58
▁smiling 58
▁smith 58
▁spirits 58
▁studied 58
▁tak 58
▁thick 58
▁trevor 58
▁tur 58
▁update 58
▁ut 58
▁vic 58
▁අනර 58
▁අඳුරන 58
▁අරගනෙ 58
▁ඇලඩීන 58
▁ඇහැක 58
▁උතුර 58
▁එමෙට 58
▁ඛ 58
▁ගතිය 58
▁චරිතයක 58
▁ජෙට 58
▁තයන 58
▁තිබුනත 58
▁තුකයා 58
▁තෝරා 58
▁දවෙන 58
▁දායක 58
▁දැකගන 58
▁දිරා 58
▁දිවා 58
▁දූ 58
▁දේකින 58
▁ධතියට 58
▁නැගිටපන 58
▁පයිඩර 58
▁පසුබිම 58
▁පිරුණු 58
▁පුරාවෘත 58
▁බබාව 58
▁බැලුව 58
▁බෑනේ 58
▁බූම 58
▁බෙමු 58
▁මැරිලද 58
▁මීරා 58
▁මේසන 58
▁මේසෙ 58
▁රහලෝක 58
▁රියදුරු 58
▁ලියට 58
▁ලේඛන 58
▁වගෝද 58
▁වටපිට 58
▁වයිට 58
▁විතරමයි 58
▁විඳ 58
▁විශේෂිත 58
▁ශාලාව 58
▁සටහනක 58
▁සනම 58
▁සැකකරු 58
▁සියට 58
▁සේරටම 58
▁හිටගන 58
▁හිරගෙදර 58
▁හීනෙන 58
▁ෆා 58
aking 57
bag 57
ca 57
ces 57
ding 57
eter 57
hm 57
ility 57
ope 57
ret 57
එකක 57
දාන 57
යල 57
යිල 57
රකම 57
වාස 57
ිකයෝ 57
ිකරන 57
ිවන 57
ුවකේ 57
▁anthony 57
▁assist 57
▁bid 57
▁bon 57
▁bor 57
▁clearance 57
▁disk 57
▁dreaming 57
▁duck 57
▁election 57
▁electric 57
▁europe 57
▁explanation 57
▁freddy 57
▁fur 57
▁hudson 57
▁hy 57
▁ifyou 57
▁instinct 57
▁katniss 57
▁ken 57
▁larry 57
▁mechanic 57
▁mix 57
▁nsa 57
▁oath 57
▁passes 57
▁passports 57
▁payment 57
▁pity 57
▁plain 57
▁polar 57
▁prints 57
▁privacy 57
▁rooms 57
▁rv 57
▁selfish 57
▁sets 57
▁si 57
▁smiles 57
▁sometime 57
▁spoil 57
▁squ 57
▁sticks 57
▁sting 57
▁suffered 57
▁sy 57
▁temperature 57
▁wiped 57
▁wreck 57
▁අකමැතියි 57
▁අපත 57
▁අයිරීන 57
▁අලුතෙන 57
▁ඇණ 57
▁ඇතුව 57
▁ඇඳේ 57
▁ඉතිහාස 57
▁උපාධිය 57
▁එවපු 57
▁ඔලිම 57
▁කරදරේ 57
▁කසාදෙට 57
▁කායි 57
▁කැමරාවක 57
▁කැරැල 57
▁කියහන 57
▁කිර 57
▁කීදෙනෙක 57
▁කොතනද 57
▁කෝෆීල 57
▁ගුටි 57
▁ගුස 57
▁ගෙවලා 57
▁චෝටාලා 57
▁තනිව 57
▁තමුසෙගේ 57
▁තරඟයක 57
▁තරහෙන 57
▁ථාවර 57
▁දල 57
▁නාමෙට 57
▁නිමැවුම 57
▁නියෝගයක 57
▁නොකියන 57
▁පරදින 57
▁පැමිණියා 57
▁බලනකොට 57
▁බේරුනා 57
▁මිනිහො 57
▁මෙහෙදි 57
▁යමය 57
▁යාලයෙන 57
▁රපටිය 57
▁රයට 57
▁රවාහනය 57
▁රිදී 57
▁ලැබිල 57
▁ලුම 57
▁ලුව 57
▁වාක 57
▁වාගෙන 57
▁වාමි 57
▁වාරේ 57
▁වුණාද 57
▁සදහන 57
▁සහගතයි 57
▁සිංදු 57
▁හයකට 57
▁හැරි 57
▁හැසිර 57
▁හිතනවාද 57
▁හිතුවොත 57
▁හෝරස 57
▁ෆෝ 57
▁ෙබන 57
ada 56
amp 56
cing 56
der 56
ene 56
job 56
kins 56
oth 56
rate 56
rest 56
uri 56
අර 56
කාරයන 56
ජනක 56
ඤ 56
ඩේ 56
තර 56
නයට 56
පැ 56
හැම 56
ාලා 56
ිකන 56
ියනවා 56
ුරා 56
ෙි 56
ෝප 56
▁added 56
▁alexander 56
▁alison 56
▁anakin 56
▁baba 56
▁barnes 56
▁bea 56
▁bend 56
▁bills 56
▁boot 56
▁cecil 56
▁champion 56
▁chan 56
▁courtney 56
▁creator 56
▁customer 56
▁differently 56
▁effects 56
▁elephant 56
▁employee 56
▁ensure 56
▁explosives 56
▁ford 56
▁fulfill 56
▁gaurav 56
▁generation 56
▁governor 56
▁hive 56
▁im 56
▁legacy 56
▁loyalty 56
▁mani 56
▁matches 56
▁meta 56
▁mic 56
▁miranda 56
▁naomi 56
▁nat 56
▁organ 56
▁parent 56
▁particularly 56
▁plants 56
▁principal 56
▁prisoners 56
▁psycho 56
▁punishment 56
▁resist 56
▁reveal 56
▁rising 56
▁sanju 56
▁senate 56
▁serial 56
▁shan 56
▁someplace 56
▁spin 56
▁title 56
▁triple 56
▁vampires 56
▁vehicles 56
▁ward 56
▁wilson 56
▁witnesses 56
▁අඩුමගානේ 56
▁අඬ 56
▁ආයි 56
▁ආසාදනය 56
▁ඉතන 56
▁ඉලෙක 56
▁උගුල 56
▁උච 56
▁එහෙමනේ 56
▁කරප 56
▁කාරණේ 56
▁කාවහරි 56
▁ගති 56
▁ගව 56
▁ගාණ 56
▁ගුරුවරයෙක 56
▁ගුහා 56
▁ඥාති 56
▁ඩෑන 56
▁තාද 56
▁තාවකාලික 56
▁තිබුනු 56
▁තිබුනොත 56
▁තිමේ 56
▁තී 56
▁තේරෙනවනේ 56
▁තෝරාගන 56
▁දිගට 56
▁දිනේවා 56
▁දියාව 56
▁දේවු 56
▁දෝෂ 56
▁නගන 56
▁නපු 56
▁නිලධාරී 56
▁පනයක 56
▁පනෙ 56
▁පැමිණෙනවා 56
▁බයි 56
▁බෙනට 56
▁බෝතලයක 56
▁භාග 56
▁මකබෑ 56
▁මණටම 56
▁මාරක 56
▁මෙතනදි 56
▁මෙතරම 56
▁මේසය 56
▁යථාර 56
▁රජයට 56
▁රජා 56
▁රද 56
▁රහය 56
▁රිත 56
▁රිම 56
▁රියාවලිය 56
▁රෝගියෙක 56
▁රෝගීන 56
▁ලියාපදිංචි 56
▁වයසේ 56
▁විනාසයි 56
▁විහින 56
▁වූවා 56
▁ශතවර 56
▁සහෝදරයෙක 56
▁සැලක 56
▁හදනවද 56
▁හමුවන 56
▁හයිඩ 56
▁හැමොම 56
▁හුඟ 56
ara 55
ately 55
boy 55
ep 55
ew 55
ides 55
ined 55
ked 55
omb 55
rop 55
uh 55
zy 55
තුම 55
රෝ 55
වගෙන 55
වේදී 55
හිට 55
ාරක 55
ිනම 55
ුලා 55
▁...... 55
▁198 55
▁800 55
▁accounts 55
▁adjust 55
▁alley 55
▁apologise 55
▁assistance 55
▁bargain 55
▁bees 55
▁bruno 55
▁bud 55
▁burnt 55
▁chemical 55
▁closest 55
▁corrected 55
▁creating 55
▁earl 55
▁engage 55
▁exists 55
▁extreme 55
▁facing 55
▁fingerprints 55
▁greene 55
▁insist 55
▁insult 55
▁intention 55
▁jeez 55
▁joseph 55
▁julia 55
▁kin 55
▁locate 55
▁ly 55
▁mandira 55
▁meds 55
▁nimah 55
▁players 55
▁possess 55
▁rad 55
▁relative 55
▁reported 55
▁requires 55
▁retired 55
▁sale 55
▁sandy 55
▁sari 55
▁shout 55
▁solo 55
▁ties 55
▁toss 55
▁uses 55
▁vasee 55
▁wckd 55
▁widmore 55
▁windows 55
▁අනතුරකින 55
▁අයිතියි 55
▁අරහේ 55
▁අරුන 55
▁අවවාද 55
▁ආයුද 55
▁ඇටකටු 55
▁ඇබී 55
▁ඇරපන 55
▁ඉෂ 55
▁උනුසුම 55
▁උපදේශ 55
▁එකකුයි 55
▁එප 55
▁එයාම 55
▁එහමයි 55
▁ඕනෙලු 55
▁කටක 55
▁කතාකරලා 55
▁කදිමයි 55
▁කනෙකෝ 55
▁කමට 55
▁කළාම 55
▁කාටර 55
▁කානම 55
▁කිසියම 55
▁ගයන 55
▁ගොඩබිම 55
▁ජනාධිපතිතුමා 55
▁ජිල 55
▁ජො 55
▁තමුසෙල 55
▁තරහක 55
▁තියයි 55
▁තේරීමක 55
▁දියක 55
▁දීමට 55
▁දුටු 55
▁දෙදෙනෙක 55
▁නගිනවා 55
▁නාක 55
▁නීතිඥ 55
▁නොදී 55
▁නොයන 55
▁නොවූ 55
▁පාටිය 55
▁පැණි 55
▁පිළිකුල 55
▁පොප 55
▁බිග 55
▁බිහ 55
▁මෙතැනට 55
▁මෙයත 55
▁මෝදී 55
▁යයයි 55
▁යොදාගත 55
▁රයෝ 55
▁රසයි 55
▁රැවට 55
▁රීඩාවක 55
▁රෙඩි 55
▁ලබාදුන 55
▁ලාම 55
▁වනෙස 55
▁වලද 55
▁වවිද 55
▁වාසකරන 55
▁විදුහල 55
▁ෂාකරන 55
▁ෂෙල 55
▁සංවේදී 55
▁සමය 55
▁සමු 55
▁සවුත 55
▁සීනුව 55
▁සුත 55
▁සුලු 55
11 54
ati 54
bur 54
hole 54
ola 54
standing 54
two 54
umb 54
val 54
කිරීම 54
තාවයක 54
දු 54
පී 54
බිම 54
යාගෙන 54
යිස 54
වේවි 54
හිත 54
ිනා 54
▁41 54
▁5,000 54
▁accused 54
▁activated 54
▁advanced 54
▁aircraft 54
▁answered 54
▁argue 54
▁assuming 54
▁autobots 54
▁baahubali 54
▁benjamin 54
▁bold 54
▁buck 54
▁california 54
▁citizen 54
▁comment 54
▁commission 54
▁compass 54
▁consequences 54
▁culture 54
▁debt 54
▁dim 54
▁district 54
▁ease 54
▁eloped 54
▁facebook 54
▁fel 54
▁fella 54
▁fiona 54
▁fitzie 54
▁fixing 54
▁forty 54
▁france 54
▁fraud 54
▁generator 54
▁jerk 54
▁jonathan 54
▁ka 54
▁liberty 54
▁majnu 54
▁massive 54
▁measure 54
▁mun 54
▁nardo 54
▁neha 54
▁pill 54
▁planes 54
▁profit 54
▁rakesh 54
▁reddy 54
▁ritual 54
▁searched 54
▁sebastian 54
▁shaft 54
▁shrink 54
▁skull 54
▁threaten 54
▁traveling 54
▁tung 54
▁vice 54
▁vodka 54
▁අපහසුයි 54
▁අපූරු 54
▁ඇණවුම 54
▁ඇතුළේ 54
▁ඇහැට 54
▁ඇහුණද 54
▁ඉවරවෙන 54
▁උදාහරණයක 54
▁උඹගේ 54
▁ඌරු 54
▁ඔයාලාට 54
▁කැබ 54
▁කොහෙහරි 54
▁කොහොමවත 54
▁ගියහම 54
▁ගොත 54
▁චින 54
▁ජැකී 54
▁ඤ 54
▁ටිම 54
▁ටුවා 54
▁ඩැනියෙල 54
▁තපන 54
▁තමද 54
▁තියනේනේ 54
▁තියපු 54
▁තෝරන 54
▁දානිෂ 54
▁දෑවක 54
▁දිනනවා 54
▁නරකක 54
▁නැවතුනා 54
▁නැවුම 54
▁නිහඩ 54
▁පැරිෂ 54
▁පීන 54
▁පීසා 54
▁පුරුදුයි 54
▁පුහුණ 54
▁පූල 54
▁බවුණා 54
▁බැලුවද 54
▁බොර 54
▁බොරුකාරයෙක 54
▁මැරේවි 54
▁යාච 54
▁රදායික 54
▁රවාහන 54
▁රිල 54
▁රීත 54
▁ලයොර 54
▁වයං 54
▁වැටුප 54
▁විකිරණ 54
▁විනාශය 54
▁විනෝදයි 54
▁විලා 54
▁වෙඩිත 54
▁වෙඩිල 54
▁වෛරසය 54
▁ශෝක 54
▁සංවිධාන 54
▁සමාෙවන 54
▁සවි 54
▁සාදය 54
▁සීට 54
▁සීයට 54
▁සේවක 54
▁හංගලා 54
▁හයිද 54
▁හයිය 54
▁හැස 54
▁හිතෙනව 54
▁හුග 54
▁හුදෙක 54
▁ළමයිනේ 54
▁ෙහාද 54
fish 53
ided 53
ime 53
orn 53
ound 53
ru 53
ulation 53
අත 53
කරයි 53
ජර 53
යුතු 53
රිය 53
වෙද 53
ාජ 53
ිවෙලා 53
ුවර 53
ූත 53
▁52 53
▁72 53
▁alicia 53
▁bare 53
▁basic 53
▁blah 53
▁boston 53
▁boxes 53
▁ceo 53
▁cheque 53
▁claims 53
▁clients 53
▁cloud 53
▁coma 53
▁confusion 53
▁construction 53
▁crisis 53
▁deaf 53
▁developed 53
▁downtown 53
▁dragons 53
▁education 53
▁elementary 53
▁ending 53
▁feeding 53
▁fil 53
▁flu 53
▁gall 53
▁german 53
▁haw 53
▁hel 53
▁influence 53
▁leaders 53
▁leaf 53
▁liesel 53
▁lily 53
▁maria 53
▁marshal 53
▁missiles 53
▁mouse 53
▁nana 53
▁nothin 53
▁oceanic 53
▁ogre 53
▁ops 53
▁parties 53
▁pi 53
▁pm 53
▁positions 53
▁purse 53
▁radiation 53
▁rao 53
▁recovered 53
▁relatives 53
▁routine 53
▁rum 53
▁sch 53
▁sen 53
▁settled 53
▁sheep 53
▁shelby 53
▁spanish 53
▁steven 53
▁succeed 53
▁sur 53
▁sweep 53
▁tu 53
▁vaseegaran 53
▁washed 53
▁අඟ 53
▁අඟහරු 53
▁අදිනවා 53
▁අයටත 53
▁අරමුණක 53
▁අහෝ 53
▁ආගම 53
▁ආදායම 53
▁ඇගට 53
▁ඇනකින 53
▁ඈන 53
▁ඉදපන 53
▁ඉඳලම 53
▁ඉපදුන 53
▁ඊර 53
▁උතුමානනි 53
▁උදේම 53
▁උපකාර 53
▁උපද 53
▁එකපාර 53
▁එනගමන 53
▁එමගින 53
▁එයාත 53
▁ඔයාවයි 53
▁කථාකරන 53
▁කයිල 53
▁කරලද 53
▁කළබල 53
▁කෑමකට 53
▁කියනකොට 53
▁කෙනාද 53
▁ගණනාවක 53
▁ගායනා 53
▁ගොඩනැග 53
▁ගොවිපල 53
▁ජමින 53
▁ජූනියර 53
▁ජෙනිෆර 53
▁ටයිම 53
▁ටයිලර 53
▁ටරයක 53
▁ටව 53
▁ඩැන 53
▁තටාක 53
▁දමනවා 53
▁දෙපැත 53
▁නයට 53
▁නැහැයි 53
▁නියත 53
▁පම 53
▁පිටපතක 53
▁පීඩ 53
▁පෘථිවියෙ 53
▁බනෙ 53
▁බලයෙන 53
▁මතයි 53
▁මැරෙනව 53
▁මැෂින 53
▁මෙහෙදී 53
▁යාගන 53
▁රවය 53
▁රිකාව 53
▁ලැබෙනව 53
▁ලීසා 53
▁ලීසෙල 53
▁වතුරෙන 53
▁වභාවික 53
▁වලත 53
▁වීන 53
▁වීමෙන 53
▁වෙඩික 53
▁වෙලාවකම 53
▁වෛදය 53
▁වොඩ 53
▁ශෝව 53
▁ෂොට 53
▁සතුරා 53
▁සිටියේ 53
▁සුළඟ 53
▁හොඳමයි 53
.1 52
bb 52
ct 52
fi 52
gen 52
had 52
hu 52
iled 52
ired 52
ister 52
itch 52
ouse 52
thi 52
unk 52
කොහොමද 52
ටා 52
ඩියක 52
ණියක 52
දිත 52
යස 52
රයි 52
රිත 52
ලාව 52
හාන 52
ාප 52
ායි 52
ියගේ 52
ෛ 52
▁20,000 52
▁39 52
▁af 52
▁alliance 52
▁angle 52
▁apply 52
▁arrival 52
▁badge 52
▁bin 52
▁blank 52
▁blu 52
▁bol 52
▁cancelled 52
▁cared 52
▁communicate 52
▁damaged 52
▁dum 52
▁embarrassed 52
▁exam 52
▁exc 52
▁fence 52
▁fifteen 52
▁fountain 52
▁francis 52
▁gorgeous 52
▁gusteau 52
▁halfway 52
▁hated 52
▁honeymoon 52
▁hyderabad 52
▁increase 52
▁individual 52
▁intercept 52
▁items 52
▁iwill 52
▁jeff 52
▁jimmy 52
▁kai 52
▁kidnapping 52
▁league 52
▁liquid 52
▁lit 52
▁melt 52
▁mockingjay 52
▁november 52
▁paperwork 52
▁pawn 52
▁peach 52
▁pirate 52
▁plague 52
▁possession 52
▁potter 52
▁preity 52
▁prom 52
▁propose 52
▁rage 52
▁reminds 52
▁reputation 52
▁riley 52
▁sandwich 52
▁shiva 52
▁shopping 52
▁signature 52
▁studio 52
▁suspended 52
▁tasty 52
▁torch 52
▁tribe 52
▁underneath 52
▁unstable 52
▁wanting 52
▁worlds 52
▁අමාරුව 52
▁අවනත 52
▁අහිංසකයි 52
▁ඇඟට 52
▁ඇයගෙන 52
▁ඈතින 52
▁ඉදිද 52
▁ඉරි 52
▁එකේද 52
▁එයාලාට 52
▁කාටත 52
▁කාලීන 52
▁ගලවා 52
▁ගැටළුවක 52
▁ගිටාර 52
▁චාරු 52
▁චියේ 52
▁ජිවිතයේ 52
▁ඩෙක 52
▁ථකයි 52
▁දහය 52
▁දුසිම 52
▁දෘෂ 52
▁දේශපාලනය 52
▁ධනාත 52
▁ධාවනය 52
▁ධියේ 52
▁නහර 52
▁නිදහසට 52
▁නිපද 52
▁නීතියක 52
▁පයි 52
▁පරිගණකය 52
▁පළිගන 52
▁පාඤ 52
▁පාප 52
▁පිටවීම 52
▁පොලව 52
▁බලපෑමක 52
▁බුණා 52
▁බෝඩ 52
▁මරුවා 52
▁මායාකාර 52
▁මාවම 52
▁මැදිරිය 52
▁මිනීමැරුමක 52
▁මුලා 52
▁මෙහෙය 52
▁යනේ 52
▁යාපාරික 52
▁යුතුව 52
▁රං 52
▁රතිචාරයක 52
▁රයිවර 52
▁රාජකාරියක 52
▁රුධිරය 52
▁රොට 52
▁ලමට 52
▁වගෙම 52
▁වචනෙ 52
▁වදයක 52
▁වරදින 52
▁වලටයි 52
▁වහනව 52
▁විකාශය 52
▁වුනෙ 52
▁වෙනවාද 52
▁වෙලාවයි 52
▁සිංදුව 52
▁සිංහ 52
▁සිකෝ 52
▁සෙනසුරාදා 52
▁හතරකට 52
▁හැතැක 52
▁හිමි 52
▁හොදේ 52
▁ෙහාදින 52
.3 51
aj 51
ational 51
book 51
ear 51
gy 51
more 51
otic 51
war 51
එහෙම 51
ටමයි 51
තාත 51
දෙයක 51
බු 51
ලයට 51
ලාට 51
වැනි 51
වූ 51
ිති 51
ියාවට 51
ිශ 51
ුදු 51
▁000 51
▁apologies 51
▁beacon 51
▁bent 51
▁blocked 51
▁capitol 51
▁cdc 51
▁charm 51
▁chun 51
▁compliment 51
▁cos 51
▁crane 51
▁deeper 51
▁disturb 51
▁dj 51
▁dory 51
▁drown 51
▁dun 51
▁ender 51
▁evacuation 51
▁fellas 51
▁formula 51
▁grief 51
▁gross 51
▁handed 51
▁hates 51
▁hindi 51
▁imagination 51
▁irish 51
▁ju 51
▁kidney 51
▁lear 51
▁moron 51
▁mug 51
▁muscle 51
▁nell 51
▁newspaper 51
▁operations 51
▁painful 51
▁plat 51
▁poisoned 51
▁pol 51
▁pond 51
▁prophecy 51
▁ranger 51
▁rebecca 51
▁recorded 51
▁recover 51
▁revealed 51
▁riya 51
▁russia 51
▁sharing 51
▁sil 51
▁skill 51
▁songs 51
▁ssc 51
▁tale 51
▁talented 51
▁tele 51
▁tension 51
▁throne 51
▁trusting 51
▁viktor 51
▁wore 51
▁yelling 51
▁අඟල 51
▁අනාවරණය 51
▁අපරාධකාරයෙක 51
▁අවංකව 51
▁උපායක 51
▁එකපාරම 51
▁එයාගෙම 51
▁එයාර 51
▁ඔබලාගේ 51
▁ඔයාගෙයි 51
▁ඔහෙලා 51
▁කටෝ 51
▁කතාවේ 51
▁කතෘ 51
▁කදවුර 51
▁කරපුවා 51
▁කැමර 51
▁කූඩ 51
▁කෙරෙහි 51
▁කොහේහරි 51
▁ගහනව 51
▁ගැළපෙන 51
▁ගිවිසුමක 51
▁ගෙනාවද 51
▁චියර 51
▁චූටි 51
▁ජීවින 51
▁ටිකෝ 51
▁ඩස 51
▁ඩොනල 51
▁තවාද 51
▁තැපැල 51
▁තේරීම 51
▁දකුනු 51
▁දෙට 51
▁දෙනු 51
▁නමත 51
▁නායි 51
▁නාල 51
▁නිවර 51
▁නෙමෙයිද 51
▁නෙවෙයිනේ 51
▁පතින 51
▁පථය 51
▁පලිගන 51
▁පාඩුවෙ 51
▁පාලකය 51
▁බයේ 51
▁බලධාරීන 51
▁බලපං 51
▁බවත 51
▁බාධාවක 51
▁බීල 51
▁බෝර 51
▁භට 51
▁මනමාලයා 51
▁මාච 51
▁මුදා 51
▁මෙටා 51
▁මේන 51
▁මොකකටද 51
▁යතාවය 51
▁යාගයක 51
▁යෙහ 51
▁රටක 51
▁රාහක 51
▁රැහැන 51
▁රියාමාර 51
▁රිව 51
▁රීති 51
▁රොනන 51
▁රෝල 51
▁ලිෆ 51
▁ලේෂ 51
▁වතුරේ 51
▁වඳ 51
▁වලහෙක 51
▁වාගේ 51
▁වාසිය 51
▁වැඩිදියුණු 51
▁වැඩිහිටියන 51
▁විනාශයක 51
▁විශාලම 51
▁සවයට 51
▁සිනහව 51
▁සිසිල 51
▁සීම 51
▁සීර 51
▁සුවෙන 51
▁සේරු 51
▁සේව 51
▁සොයාගෙන 51
▁හිතුනේ 51
▁හෙමිට 51
▁හොයමින 51
▁හෝදන 51
▁ෆොක 51
▁ෙනවේ 51
acing 50
ase 50
bing 50
down 50
hour 50
lers 50
ologist 50
ony 50
uss 50
කයේ 50
කවුද 50
ඩින 50
රිම 50
ිතයි 50
ිසි 50
ුවව 50
ුවහම 50
ුෂ 50
ෙවා 50
▁abuse 50
▁addict 50
▁adult 50
▁ages 50
▁approval 50
▁average 50
▁berlin 50
▁boar 50
▁bore 50
▁buildings 50
▁campaign 50
▁cape 50
▁cheated 50
▁codes 50
▁compared 50
▁corpse 50
▁doll 50
▁emmet 50
▁enjoyed 50
▁fart 50
▁fe 50
▁filthy 50
▁forth 50
▁generous 50
▁gibson 50
▁golf 50
▁goons 50
▁guilt 50
▁helpless 50
▁hoo 50
▁imagined 50
▁invitation 50
▁isabel 50
▁islands 50
▁jill 50
▁junk 50
▁kalpana 50
▁knights 50
▁laughter 50
▁lust 50
▁mayday 50
▁meera 50
▁mini 50
▁mit 50
▁molly 50
▁monsieur 50
▁officials 50
▁orange 50
▁peel 50
▁poly 50
▁posted 50
▁quality 50
▁radar 50
▁raja 50
▁rape 50
▁ringing 50
▁root 50
▁runway 50
▁saint 50
▁samples 50
▁scoundrel 50
▁sire 50
▁supp 50
▁therapy 50
▁thread 50
▁toys 50
▁transform 50
▁uncomfortable 50
▁unf 50
▁unite 50
▁vital 50
▁wears 50
▁අතිශයින 50
▁අවදානය 50
▁ආහාරයට 50
▁ඇගෙන 50
▁ඇතුළුව 50
▁උග 50
▁උබල 50
▁එමලි 50
▁ඒකිට 50
▁ඔසවන 50
▁කඩේට 50
▁කතාකලේ 50
▁කදිම 50
▁කැබින 50
▁කියමනක 50
▁කූඩු 50
▁කොලේ 50
▁ගෑණි 50
▁ගුණයක 50
▁ගුර 50
▁ගොඩබ 50
▁ඝට 50
▁ජාති 50
▁ජූනි 50
▁ටවත 50
▁ටියව 50
▁ටුවර 50
▁ඩැරන 50
▁ඩුවක 50
▁ඩො 50
▁ඩොල 50
▁ඩෝරියන 50
▁තටු 50
▁තරමෙ 50
▁තවශයෙන 50
▁දමලා 50
▁දරුව 50
▁දෂ 50
▁දාර 50
▁දෑස 50
▁දුකෙන 50
▁දුට 50
▁දුවයි 50
▁ධත 50
▁ධවල 50
▁නරකද 50
▁නියමු 50
▁නිවසක 50
▁නිළධාරියෙක 50
▁පානය 50
▁පිටවෙලා 50
▁පිරිතාල 50
▁පෘථිවියේ 50
▁පෙනුනේ 50
▁බඩවැල 50
▁බාබා 50
▁බෑවුම 50
▁බිමින 50
▁බිරිඳට 50
▁බූරුවා 50
▁මතුපිට 50
▁මානය 50
▁මැදින 50
▁මීනම 50
▁මුණගැහ 50
▁යාකූල 50
▁යායාම 50
▁යාළ 50
▁යාළුව 50
▁යොදන 50
▁රජයෙන 50
▁රාහකයා 50
▁රියට 50
▁ලඟදි 50
▁ලඟයි 50
▁ලුවෙන 50
▁විකෘති 50
▁විග 50
▁විභාග 50
▁වෙනවනම 50
▁සහභාගී 50
▁හුර 50
▁හොටෙල 50
▁ෆයින 50
.30 49
akes 49
any 49
ett 49
hing 49
ker 49
know 49
ock 49
ook 49
oon 49
oop 49
pa 49
row 49
shi 49
ula 49
ump 49
vin 49
vy 49
ඉතින 49
කයෝ 49
තය 49
නැහැ 49
බෑ 49
මුද 49
යගේ 49
වරක 49
වෙච 49
හත 49
හය 49
ැහැ 49
ිවත 49
ීප 49
ුකලා 49
▁65 49
▁advised 49
▁aid 49
▁alan 49
▁amelia 49
▁ammo 49
▁babu 49
▁bleed 49
▁blows 49
▁bowl 49
▁bunk 49
▁capital 49
▁ceremony 49
▁contains 49
▁corruption 49
▁crossing 49
▁cub 49
▁delta 49
▁description 49
▁dragged 49
▁efforts 49
▁eko 49
▁evos 49
▁fabious 49
▁faraday 49
▁feds 49
▁focused 49
▁foster 49
▁global 49
▁globodyne 49
▁guitar 49
▁impress 49
▁investigate 49
▁joining 49
▁kaulder 49
▁kenny 49
▁leito 49
▁located 49
▁lucia 49
▁machiraju 49
▁manifest 49
▁mankind 49
▁mcallister 49
▁misunder 49
▁mixed 49
▁modi 49
▁mort 49
▁mot 49
▁nail 49
▁neur 49
▁northern 49
▁op 49
▁opens 49
▁operate 49
▁parked 49
▁parole 49
▁phase 49
▁pres 49
▁punish 49
▁rac 49
▁reaching 49
▁responding 49
▁ronan 49
▁salary 49
▁sensitive 49
▁shares 49
▁sharks 49
▁simmons 49
▁smaller 49
▁soil 49
▁starving 49
▁strategy 49
▁terrific 49
▁thy 49
▁towel 49
▁tries 49
▁tub 49
▁unconscious 49
▁unfortunate 49
▁usa 49
▁wallace 49
▁wheels 49
▁wig 49
▁winds 49
▁witches 49
▁wrist 49
▁අංග 49
▁අතඅරින 49
▁අනාගතයක 49
▁අපහාස 49
▁අපා 49
▁අමාරුවේ 49
▁අයිතිවාසිකම 49
▁අරූ 49
▁අවසානයේදී 49
▁ආකාර 49
▁ආතර 49
▁ආල 49
▁ඌගේ 49
▁එකකේ 49
▁එකාව 49
▁එකිනෙකාව 49
▁ඒනිසා 49
▁කනට 49
▁කඳවුරට 49
▁කබාය 49
▁කලාතුරකින 49
▁කලෙ 49
▁කළත 49
▁කාරණා 49
▁කාළය 49
▁කාළයක 49
▁කැඩුවා 49
▁කැපිටල 49
▁කැරී 49
▁කියපං 49
▁කිරිමට 49
▁කෙරෙව 49
▁කේලබ 49
▁ගබඩාව 49
▁ගැම 49
▁ජයි 49
▁ජාතියෙ 49
▁ඩකට 49
▁තනතුර 49
▁තනිකඩ 49
▁තනිකරම 49
▁තිබුනද 49
▁තියෙනවනේ 49
▁තෙර 49
▁ථනය 49
▁දරාගෙන 49
▁දවසකම 49
▁දියණිය 49
▁දෙනයි 49
▁දෙවියෙක 49
▁දේවා 49
▁දොරේ 49
▁ධතාවය 49
▁නගරෙට 49
▁නාඩෝ 49
▁නැවට 49
▁නියමුවෙක 49
▁නියා 49
▁නොමැතිව 49
▁පකිස 49
▁පැටලිලා 49
▁පැටව 49
▁පුජ 49
▁පුවේ 49
▁පුහුණුවක 49
▁බඩගිනියි 49
▁බැරිවුණා 49
▁බැහි 49
▁බූත 49
▁බෙදන 49
▁බොනවද 49
▁බෲස 49
▁භාවය 49
▁මැරුවද 49
▁මෙවැනි 49
▁යනකන 49
▁යවශ 49
▁යානාව 49
▁යුදෙව 49
▁රජෙක 49
▁රසාද 49
▁රසායනික 49
▁රෝගය 49
▁ලිප 49
▁ලියනවා 49
▁වටා 49
▁වනම 49
▁වයිද 49
▁විරෝධ 49
▁විවාහයට 49
▁වීට 49
▁වෙනිදා 49
▁ශශී 49
▁සංකල 49
▁සතුරු 49
▁සැටලයිට 49
▁සියා 49
▁හදනව 49
▁හැමකෙනෙක 49
▁හිරි 49
▁හිරෙන 49
16 48
ashed 48
ening 48
ica 48
ient 48
iling 48
ishing 48
itions 48
lessly 48
lic 48
load 48
mb 48
ories 48
other 48
pen 48
rd 48
rel 48
za 48
කං 48
ජනය 48
දම 48
යමු 48
හායි 48
ුණෙ 48
ුරුම 48
ෙනෙක 48
ේනම 48
▁100,000 48
▁38 48
▁abandon 48
▁acid 48
▁andre 48
▁anniversary 48
▁april 48
▁armour 48
▁beera 48
▁belly 48
▁bettina 48
▁branch 48
▁caitlin 48
▁champak 48
▁chased 48
▁chester 48
▁classic 48
▁combination 48
▁complaint 48
▁conspiracy 48
▁coop 48
▁damned 48
▁daughters 48
▁deaths 48
▁defect 48
▁diana 48
▁disp 48
▁drawing 48
▁duggal 48
▁eager 48
▁egypt 48
▁eve 48
▁fee 48
▁finest 48
▁flame 48
▁flew 48
▁flynn 48
▁forgiveness 48
▁gotcha 48
▁grabbed 48
▁ham 48
▁horsemen 48
▁impression 48
▁intelligent 48
▁joey 48
▁locker 48
▁marty 48
▁mp 48
▁nikki 48
▁pk 48
▁prick 48
▁priority 48
▁pyramid 48
▁rajat 48
▁realise 48
▁registered 48
▁requested 48
▁resistance 48
▁ret 48
▁retirement 48
▁rosa 48
▁sector 48
▁seeker 48
▁sher 48
▁swallow 48
▁temporary 48
▁thats 48
▁theirs 48
▁tinker 48
▁tracked 48
▁vi 48
▁vol 48
▁warriors 48
▁wisdom 48
▁worthy 48
▁zip 48
▁අඳුරගන 48
▁අමතරව 48
▁අහවල 48
▁ඇතුලු 48
▁ඇමරිකන 48
▁ඇමරිකාව 48
▁ඇමරිකාවට 48
▁ඇහුණ 48
▁උපරිමයෙන 48
▁උපාධි 48
▁උඹලගේ 48
▁එනිස 48
▁එවර 48
▁ඕකේ 48
▁කරනවනේ 48
▁කලකිර 48
▁කාද 48
▁කෑදර 48
▁කියපුවා 48
▁කියුබ 48
▁කිහිපයකින 48
▁කීපදෙනෙක 48
▁කේඩ 48
▁කොනී 48
▁ගමනේ 48
▁ගයට 48
▁ගානකින 48
▁ජේසුස 48
▁ජොනතන 48
▁ඤා 48
▁ටාක 48
▁ඩැඩී 48
▁ඩෙවන 48
▁ණෙ 48
▁තැනකම 48
▁තීය 48
▁තීරනය 48
▁තුත 48
▁ථන 48
▁දවසෙම 48
▁දාදුවෙක 48
▁දොළ 48
▁නාර 48
▁නියමයිනේ 48
▁නියෝගය 48
▁නීතියට 48
▁නොකරපු 48
▁පයර 48
▁පිපුරුම 48
▁පිළිස 48
▁පෙත 48
▁පොඩියි 48
▁බොහෝවිට 48
▁භාජනය 48
▁භාරගන 48
▁භූම 48
▁මකට 48
▁මැණික 48
▁මිලියනයක 48
▁මුණගැස 48
▁මූණක 48
▁මූණු 48
▁මූලාශ 48
▁ඹ 48
▁යකර 48
▁යනවනම 48
▁යාවශ 48
▁රමානයක 48
▁රැදී 48
▁රුහරි 48
▁ලකුණක 48
▁ලනව 48
▁ලාච 48
▁ලොම 48
▁වදිනවා 48
▁වභාව 48
▁වානේ 48
▁විධායක 48
▁වෙර 48
▁ශාලාවේ 48
▁සටනට 48
▁සවයක 48
▁සහනයක 48
▁සිටී 48
▁සේවාදායක 48
▁හමුදාවෙන 48
▁හැරුනා 48
▁හුහ 48
▁හොලවන 48
▁ෆීබී 48
ado 47
ape 47
ev 47
has 47
hs 47
human 47
iff 47
mes 47
osed 47
point 47
stop 47
take 47
thank 47
vi 47
කරගත 47
කරණය 47
ඬ 47
නාව 47
පාත 47
යාගන 47
වය 47
ශය 47
හයි 47
ාගේ 47
ියිද 47
ෙණ 47
ෙහ 47
ේර 47
▁120 47
▁2009 47
▁apology 47
▁assholes 47
▁assumed 47
▁attract 47
▁bass 47
▁becca 47
▁beside 47
▁blink 47
▁brooklyn 47
▁cctv 47
▁chatter 47
▁cheek 47
▁cliff 47
▁complain 47
▁concept 47
▁covering 47
▁critical 47
▁daanish 47
▁dia 47
▁disrespect 47
▁divorced 47
▁drivers 47
▁dug 47
▁dynamite 47
▁formal 47
▁frightened 47
▁frog 47
▁gig 47
▁glitch 47
▁holloway 47
▁hollywood 47
▁hor 47
▁ideal 47
▁identified 47
▁item 47
▁iv 47
▁jew 47
▁jewelry 47
▁keefe 47
▁knocking 47
▁length 47
▁minor 47
▁mothers 47
▁ob 47
▁occurred 47
▁peanut 47
▁pleasant 47
▁porn 47
▁quot 47
▁ressler 47
▁sales 47
▁scrap 47
▁shen 47
▁ske 47
▁snap 47
▁soap 47
▁sonar 47
▁sources 47
▁spray 47
▁stat 47
▁telephone 47
▁territory 47
▁tested 47
▁throughout 47
▁tunnels 47
▁version 47
▁අගුල 47
▁අදහන 47
▁අමිත 47
▁අයන 47
▁අයෙත 47
▁අලින 47
▁අෙප 47
▁ආඟන 47
▁ආභරණ 47
▁ඇතිතරම 47
▁ඇහුව 47
▁ඉප 47
▁උණේ 47
▁උතුරේ 47
▁උපරිමය 47
▁ඒකමයි 47
▁ඔලු 47
▁කටින 47
▁කඩයක 47
▁කබායක 47
▁කවත 47
▁කවි 47
▁කැළ 47
▁කෙළවර 47
▁කොහෙදිද 47
▁ගණිත 47
▁චිලා 47
▁චුම 47
▁ජනතාවට 47
▁ජේසුනි 47
▁ටයිල 47
▁ටැග 47
▁තරණය 47
▁තරුණයි 47
▁තූතිවන 47
▁දනවා 47
▁දරත 47
▁දූෂණය 47
▁දෙකටම 47
▁නිහඬ 47
▁නොකළ 47
▁නොතිබ 47
▁නොනැවතී 47
▁පටිය 47
▁පතුල 47
▁පදාර 47
▁පරණයි 47
▁පරයකට 47
▁පරාදයි 47
▁පරෙස 47
▁පහකින 47
▁පාටියට 47
▁පාවක 47
▁පාසලට 47
▁පොටර 47
▁බලකාය 47
▁බාගදා 47
▁බිදින 47
▁මගපෙන 47
▁මගහරින 47
▁මැරුනොත 47
▁මිහ 47
▁මොකකින 47
▁යාප 47
▁යාවේ 47
▁රහක 47
▁රියතම 47
▁රියාකාරී 47
▁රොනික 47
▁ලිපිගොනු 47
▁ලුහුබැඳ 47
▁ලෝකෙන 47
▁වයසයි 47
▁වලි 47
▁වැටුනේ 47
▁විශාලයි 47
▁විසිර 47
▁ශාපය 47
▁ශේ 47
▁ෂකයෝ 47
▁සංජනා 47
▁සටර 47
▁සමාගමට 47
▁සහතිකවම 47
▁සැඟ 47
▁සැළසුම 47
▁සෙබලෙක 47
▁හපොයි 47
▁හරියාවි 47
▁හලක 47
▁හාදු 47
▁හැමදෙනාම 47
▁හැමදේකටම 47
▁හිටින 47
▁හේත 47
▁හෝද 47
▁ළඟා 47
▁ෆේස 47
cy 46
hers 46
iz 46
oms 46
ood 46
pped 46
rer 46
see 46
sing 46
tered 46
ward 46
ඔයාගේ 46
ගාන 46
ටවත 46
දිය 46
දිලා 46
යෙි 46
හැර 46
ෟ 46
▁196 46
▁98 46
▁adopted 46
▁ambassador 46
▁attached 46
▁audience 46
▁believing 46
▁bind 46
▁bombay 46
▁branson 46
▁breeze 46
▁bribe 46
▁cd 46
▁chap 46
▁civilians 46
▁cleaned 46
▁confident 46
▁cough 46
▁declared 46
▁deploy 46
▁det 46
▁development 46
▁dharma 46
▁dod 46
▁doyle 46
▁ennis 46
▁environment 46
▁fame 46
▁fooled 46
▁gettin 46
▁groups 46
▁hobby 46
▁hopes 46
▁hunger 46
▁imperial 46
▁initiative 46
▁intense 46
▁joint 46
▁jon 46
▁jorge 46
▁lea 46
▁listened 46
▁madness 46
▁mand 46
▁menu 46
▁nerve 46
▁nicely 46
▁noon 46
▁owns 46
▁parker 46
▁platform 46
▁plot 46
▁practically 46
▁prank 46
▁raising 46
▁rebel 46
▁rebels 46
▁recording 46
▁relief 46
▁rick 46
▁rom 46
▁rubbish 46
▁sacred 46
▁shoulders 46
▁singhania 46
▁sounded 46
▁spl 46
▁studies 46
▁ter 46
▁teri 46
▁terminal 46
▁testing 46
▁traditional 46
▁tragedy 46
▁treason 46
▁umm 46
▁vaccine 46
▁veins 46
▁vey 46
▁wars 46
▁western 46
▁worker 46
▁worn 46
▁worries 46
▁අගනුවර 46
▁අදම 46
▁අපතයා 46
▁අවද 46
▁ඇතුළ 46
▁ඇඳන 46
▁ඇරඹ 46
▁ඇරෝ 46
▁ඉතුරුවෙලා 46
▁උපදේශක 46
▁උසාවියට 46
▁එර 46
▁කථ 46
▁කථාව 46
▁කනෙ 46
▁කමු 46
▁කඹ 46
▁කැතයි 46
▁කිරිමක 46
▁කිසිකෙනෙක 46
▁කුක 46
▁කෘත 46
▁ගාර 46
▁ගීත 46
▁ගුරුවරයා 46
▁ගෙඩියක 46
▁ගොඩනගන 46
▁ගෞරවයෙන 46
▁ජාව 46
▁ජීවන 46
▁ජෝෂ 46
▁ටඩ 46
▁ටිමස 46
▁ටීම 46
▁ටෙරී 46
▁ඩයනා 46
▁ඩොයිල 46
▁දවන 46
▁දවසකින 46
▁දුඹුරු 46
▁දුවෙන 46
▁දෙයකින 46
▁දේශීය 46
▁දොත 46
▁ධාර 46
▁නංගිගේ 46
▁නෙමයි 46
▁නොකල 46
▁පනිනවා 46
▁පපුව 46
▁පවුලම 46
▁පිටස 46
▁පුදුමයට 46
▁පුවක 46
▁පූසෙක 46
▁ඵල 46
▁බහිරවා 46
▁බාධක 46
▁බැදපු 46
▁බේබද 46
▁බොහොමයක 46
▁මගීන 46
▁මඟහැර 46
▁මරණයක 46
▁මාසෙකට 46
▁මැනේජර 46
▁මීමැස 46
▁මුවා 46
▁මෙයින 46
▁රගන 46
▁රටින 46
▁රථමාධාර 46
▁රමුඛ 46
▁රවේශපත 46
▁රාතිහාර 46
▁රීඩාව 46
▁රෙනාටස 46
▁ලගම 46
▁ලඟම 46
▁ලාගේ 46
▁ලාබ 46
▁ලිපින 46
▁ලේෂණය 46
▁ලොත 46
▁වයිරස 46
▁වශී 46
▁වැටුණා 46
▁වැම 46
▁විකට 46
▁විශාලතම 46
▁විශේෂඥයෙක 46
▁විසඳගන 46
▁වීදිය 46
▁ශිතයි 46
▁සංචාරයක 46
▁සලක 46
▁සහෝදරයෝ 46
▁සාවෙන 46
▁සූද 46
▁හතයි 46
▁හමුදාපති 46
▁හසුරවන 46
▁හුරේ 46
▁හෙක 46
▁හෝඩුවාවක 46
▁ෙප 46
arian 45
cc 45
cer 45
gle 45
het 45
ices 45
ko 45
ously 45
pping 45
rie 45
ude 45
zz 45
එයාට 45
කුත 45
ගයි 45
ජි 45
ටිය 45
තැන 45
නන 45
භාවය 45
යගෙ 45
රින 45
ලියා 45
වේවා 45
සික 45
ැනි 45
ුලට 45
ූල 45
ෝඩ 45
▁04 45
▁ang 45
▁argument 45
▁assigned 45
▁attacking 45
▁ay 45
▁bastards 45
▁belonged 45
▁benny 45
▁bothering 45
▁charity 45
▁chin 45
▁closet 45
▁clouds 45
▁clown 45
▁clu 45
▁communications 45
▁conduct 45
▁conscience 45
▁containment 45
▁crewes 45
▁dates 45
▁denied 45
▁deposit 45
▁detect 45
▁develop 45
▁diamond 45
▁dock 45
▁element 45
▁erdogan 45
▁ext 45
▁fastest 45
▁fathers 45
▁fields 45
▁figures 45
▁fled 45
▁fucker 45
▁gathered 45
▁gentle 45
▁gotya 45
▁greg 45
▁ian 45
▁inch 45
▁infection 45
▁interrogation 45
▁jeep 45
▁komali 45
▁lawyers 45
▁lip 45
▁ln 45
▁lndu 45
▁lobby 45
▁luggage 45
▁maximum 45
▁maze 45
▁muslim 45
▁negotiate 45
▁obsessed 45
▁occasion 45
▁optimus 45
▁ouch 45
▁paradise 45
▁pays 45
▁poetry 45
▁previous 45
▁primary 45
▁prototype 45
▁rebuild 45
▁reception 45
▁recovery 45
▁reject 45
▁remaining 45
▁returns 45
▁rio 45
▁ron 45
▁scr 45
▁session 45
▁shared 45
▁southern 45
▁stabbed 45
▁stare 45
▁stepped 45
▁sunny 45
▁sutter 45
▁tensed 45
▁torn 45
▁tortured 45
▁travelling 45
▁waist 45
▁wally 45
▁zombies 45
▁අඩුමගානෙ 45
▁අතිශය 45
▁අදර 45
▁අනතුරුදායකයි 45
▁අඳුනගන 45
▁අයියට 45
▁අවසානයට 45
▁අවාසනාව 45
▁ඇතිකරන 45
▁ඇහැගහගෙන 45
▁ඇහෙනව 45
▁ඉංජිනේරු 45
▁ඉයන 45
▁ඉහලම 45
▁උදාර 45
▁උපා 45
▁උමග 45
▁එකටද 45
▁එමු 45
▁කඩුවක 45
▁කතාබහ 45
▁කඳවුරු 45
▁කරගමු 45
▁කරදරේක 45
▁කරුන 45
▁කලන 45
▁කාණ 45
▁කුළ 45
▁කෝනර 45
▁ඛණ 45
▁ගුණ 45
▁ගෝස 45
▁චල 45
▁චික 45
▁චොපර 45
▁ටයා 45
▁ටැංකි 45
▁තමාවියනි 45
▁තියද 45
▁තියනවාද 45
▁තුරයක 45
▁තුවාලයි 45
▁තේරෙයි 45
▁ථාවේ 45
▁දැමුවා 45
▁දුරයි 45
▁දුවත 45
▁දොල 45
▁නගේ 45
▁නැතුවම 45
▁නෙල 45
▁පණගන 45
▁පපුවේ 45
▁පහලින 45
▁පාළුයි 45
▁පැනි 45
▁පැයට 45
▁පැරද 45
▁පැළ 45
▁පිහ 45
▁පිළිවෙල 45
▁පෙළඹ 45
▁පොලීසියේ 45
▁බරක 45
▁බලපු 45
▁බැංක 45
▁බීජ 45
▁බෙහෙතක 45
▁බෝන 45
▁මාවයි 45
▁මිතුර 45
▁මිරැන 45
▁මීනා 45
▁මෙට 45
▁මෙයයි 45
▁මේර 45
▁යාවට 45
▁රමාන 45
▁රයිස 45
▁රවී 45
▁රියදුරා 45
▁රියාකාරකම 45
▁රීට 45
▁රොහාන 45
▁රොෆෙසර 45
▁ලගයි 45
▁වැලක 45
▁වුනහම 45
▁වෙඩින 45
▁ශාලාවට 45
▁ෂණිකව 45
▁ෂෙ 45
▁සාධාරණයි 45
▁සෝපාන 45
▁හනී 45
▁හඳුනාගන 45
▁හමුවීමක 45
▁හැකිය 45
▁හිතුන 45
▁ෆෙල 45
▁ෙනමයි 45
▁ෙවනුෙවන 45
aff 44
arth 44
ata 44
ba 44
gin 44
have 44
ict 44
ison 44
ja 44
lu 44
oring 44
orm 44
ract 44
rr 44
rt 44
str 44
une 44
ඔවුන 44
කරමින 44
ටික 44
ටු 44
ඨ 44
නේද 44
බද 44
යිනි 44
වනේන 44
ශීලි 44
සිට 44
සු 44
ියාට 44
ිවා 44
ීගේ 44
▁101 44
▁acc 44
▁affect 44
▁amberle 44
▁applied 44
▁ari 44
▁arrangement 44
▁atmosphere 44
▁august 44
▁blamed 44
▁blanket 44
▁boats 44
▁bre 44
▁canada 44
▁catching 44
▁centuries 44
▁charu 44
▁chips 44
▁climbing 44
▁completed 44
▁controls 44
▁cooperate 44
▁corrupt 44
▁creepy 44
▁darhk 44
▁dc 44
▁dep 44
▁diet 44
▁discover 44
▁display 44
▁distress 44
▁drops 44
▁dull 44
▁email 44
▁enforcement 44
▁existed 44
▁experienced 44
▁feast 44
▁fond 44
▁georgia 44
▁gnomeo 44
▁granted 44
▁harrison 44
▁harvest 44
▁henri 44
▁hyp 44
▁imf 44
▁instincts 44
▁issued 44
▁kiddo 44
▁lang 44
▁liber 44
▁loc 44
▁marines 44
▁meenamma 44
▁motive 44
▁nate 44
▁needle 44
▁ninja 44
▁outfit 44
▁peeta 44
▁ple 44
▁pockets 44
▁polite 44
▁promotion 44
▁quill 44
▁racing 44
▁raw 44
▁rayna 44
▁rhyme 44
▁romance 44
▁ru 44
▁rudy 44
▁salad 44
▁saroja 44
▁sauron 44
▁scheduled 44
▁sequence 44
▁shaking 44
▁shar 44
▁shikre 44
▁shine 44
▁sites 44
▁stable 44
▁storage 44
▁stream 44
▁structure 44
▁surprises 44
▁syndicate 44
▁theatre 44
▁thr 44
▁treating 44
▁twitter 44
▁upload 44
▁upper 44
▁veronica 44
▁walker 44
▁wednesday 44
▁wha 44
▁wondered 44
▁wrapped 44
▁yell 44
▁අඩුමතරමේ 44
▁අතනට 44
▁අපරාද 44
▁අපායක 44
▁ආහාරය 44
▁ඉවරකරන 44
▁උඹෙ 44
▁උෙඕ 44
▁එයාවත 44
▁එලාම 44
▁ඒකකයක 44
▁ඔතැන 44
▁ඔයාවම 44
▁කඩු 44
▁කපු 44
▁කමිස 44
▁කරලයි 44
▁කලාප 44
▁කලිං 44
▁කවුරුද 44
▁කාගෙවත 44
▁කාලකණ 44
▁කිරිල 44
▁කීපයකින 44
▁කීයටවත 44
▁කුඹ 44
▁කෙලව 44
▁කොහොමටවත 44
▁කෝර 44
▁ගඟට 44
▁ගුප 44
▁ගුරුතුමා 44
▁ගෙට 44
▁ඟ 44
▁ජනපදය 44
▁ටමට 44
▁ටරය 44
▁ටෙඩී 44
▁ඩත 44
▁ඩෙනිස 44
▁තනන 44
▁තාරකා 44
▁තැනැත 44
▁තෙරුම 44
▁දඟලන 44
▁දරයි 44
▁දැමීම 44
▁දියානු 44
▁දිහ 44
▁දීමක 44
▁දෙනකේ 44
▁දේසියක 44
▁නවන 44
▁නසාගන 44
▁නැතිවුණා 44
▁නිතිය 44
▁නිදහසක 44
▁නේක 44
▁නොමග 44
▁පඩ 44
▁පාලුයි 44
▁පාළ 44
▁පැහැදිළිවම 44
▁පියක 44
▁පිහි 44
▁පුතාගේ 44
▁පෝන 44
▁බාහිර 44
▁බිලා 44
▁බූර 44
▁බොහෝදුරට 44
▁බෝයි 44
▁භූමියට 44
▁මතට 44
▁මනසේ 44
▁මයේ 44
▁මැගී 44
▁මැච 44
▁මිතුරා 44
▁මුට 44
▁මෙතනයි 44
▁මෝඩයො 44
▁යාය 44
▁යො 44
▁රුස 44
▁රෙවර 44
▁රේඩාර 44
▁රොබින 44
▁ලබාද 44
▁ලිපිය 44
▁ලේඩ 44
▁ලෝස 44
▁වටපිටාව 44
▁වභාවය 44
▁වාභාවික 44
▁වැටීම 44
▁වැඩවලට 44
▁වැදුන 44
▁විදිහටයි 44
▁විසිකරන 44
▁වෙලාවෙදි 44
▁වෙවි 44
▁ශාලා 44
▁ශි 44
▁ෂාවෙන 44
▁ෂැම 44
▁සංවත 44
▁සභාව 44
▁සමලිංගික 44
▁සමාවන 44
▁සීකර 44
▁සීයාගේ 44
▁සුබපැතුම 44
▁සුළ 44
▁සේර 44
▁හදමු 44
▁හයයි 44
▁හරිනෙ 44
▁හලේ 44
▁හාවෙක 44
▁හිමින 44
▁හිරිහැරයක 44
▁හොඳයිද 44
▁ෙඩාන 44
49 43
anda 43
ases 43
box 43
eth 43
four 43
gie 43
iding 43
ification 43
inal 43
jo 43
key 43
sto 43
කලේ 43
ගැ 43
ඩුවක 43
ධාන 43
නව 43
වේද 43
හූ 43
ිකාරයෙක 43
ිමත 43
ිමි 43
ිමෙන 43
ියොත 43
ිවර 43
ුවුනා 43
▁2,000 43
▁46 43
▁66 43
▁acts 43
▁aku 43
▁appeared 43
▁approve 43
▁approximately 43
▁bane 43
▁battles 43
▁bearing 43
▁beezus 43
▁bump 43
▁busted 43
▁carver 43
▁caution 43
▁cbi 43
▁chandu 43
▁colleague 43
▁confirmation 43
▁consent 43
▁contest 43
▁counts 43
▁cycle 43
▁deeply 43
▁devon 43
▁dignity 43
▁elderman 43
▁elise 43
▁embarrassing 43
▁experiments 43
▁fa 43
▁fatal 43
▁favourite 43
▁filed 43
▁fry 43
▁ga 43
▁graduation 43
▁grip 43
▁grounds 43
▁halloween 43
▁headquarters 43
▁holds 43
▁introduced 43
▁jude 43
▁julie 43
▁katie 43
▁lannister 43
▁linc 43
▁lovers 43
▁maiden 43
▁medication 43
▁meena 43
▁metres 43
▁nandini 43
▁october 43
▁orchid 43
▁pac 43
▁packing 43
▁pages 43
▁papi 43
▁pepper 43
▁photographs 43
▁politicians 43
▁proved 43
▁quantico 43
▁questioning 43
▁ramse 43
▁receiving 43
▁recon 43
▁rein 43
▁renautas 43
▁rookie 43
▁satan 43
▁scooby 43
▁signals 43
▁slapped 43
▁somethin 43
▁sorts 43
▁sticking 43
▁superman 43
▁switched 43
▁tanks 43
▁temper 43
▁tha 43
▁tin 43
▁tina 43
▁toby 43
▁tools 43
▁traced 43
▁trauma 43
▁unexpected 43
▁villages 43
▁wealth 43
▁whereabouts 43
▁worthless 43
▁අංගන 43
▁අපතයෙක 43
▁අපරාධකාරයෝ 43
▁අපාය 43
▁අරම 43
▁අලංකාර 43
▁අවකාශය 43
▁ආයතනයේ 43
▁ආවාම 43
▁ඇඟවීමක 43
▁ඉරලා 43
▁ඉරිදා 43
▁උඩු 43
▁උලව 43
▁උසාවිය 43
▁එග 43
▁ඒන 43
▁ඔබතුම 43
▁ඔහේලා 43
▁ඕකව 43
▁කටුව 43
▁කටුස 43
▁කඩනවා 43
▁කපටි 43
▁කයට 43
▁කළුවර 43
▁කාපු 43
▁කැරකෙන 43
▁කුයිල 43
▁කූප 43
▁කූල 43
▁කොහේටද 43
▁කෝක 43
▁ගනිමින 43
▁ගාලා 43
▁ගෑනියෙක 43
▁ගිනික 43
▁චිකන 43
▁ජාලය 43
▁ජීප 43
▁ජූල 43
▁ටාන 43
▁ඩිංගක 43
▁තකාල 43
▁තිබිය 43
▁තූරය 43
▁තේරුණේ 43
▁දවසින 43
▁දිලිසෙන 43
▁දිහාද 43
▁දෙවියො 43
▁නලෙ 43
▁නැඟිට 43
▁නිති 43
▁නොලැබ 43
▁පටවන 43
▁පාලනයෙන 43
▁පිං 43
▁පිටේ 43
▁පිසාච 43
▁පිළිකාවක 43
▁පිළිපදින 43
▁පෙබරවාරි 43
▁පෙරල 43
▁බරේ 43
▁බලයට 43
▁බළ 43
▁බාධ 43
▁බාරදෙන 43
▁බාස 43
▁බැගින 43
▁බැර 43
▁බිට 43
▁බීසස 43
▁බෝංචි 43
▁බෝනික 43
▁බෲනෝ 43
▁මායාව 43
▁මැට 43
▁මිදෙන 43
▁මිනිහගෙ 43
▁මිර 43
▁මුක 43
▁මුණු 43
▁මුදුනට 43
▁මෙසේ 43
▁මොළය 43
▁යබහුලයි 43
▁යාහ 43
▁යෝජනාව 43
▁යෝජනාවක 43
▁රතුපාට 43
▁රයෙක 43
▁රවේශම 43
▁රහනය 43
▁රිවර 43
▁ලියාගන 43
▁ලුස 43
▁වගයි 43
▁වාට 43
▁වැහ 43
▁විරෝධී 43
▁විශේෂත 43
▁වීදුරුව 43
▁ශූර 43
▁ශේන 43
▁ශේප 43
▁ෂණාගාර 43
▁ෂයේ 43
▁සයිට 43
▁සහකාර 43
▁සහෝදරයට 43
▁සාවට 43
▁සිනහ 43
▁සූට 43
▁සෙව 43
▁හාදයෙක 43
▁හැකියා 43
▁හැදිලද 43
▁හැදුනුම 43
▁හැදෙනවා 43
▁හැමෝ 43
▁හැරියා 43
▁ෆැක 43
▁ෆැරඩේ 43
▁ෙතන 43
10 42
ald 42
athi 42
eration 42
ern 42
ero 42
fer 42
gi 42
gl 42
handed 42
ii 42
iles 42
inc 42
inder 42
ool 42
rep 42
rom 42
sha 42
uce 42
ජනකයි 42
පය 42
බාද 42
රස 42
රිට 42
ලර 42
සො 42
හොදයි 42
ානයේ 42
ාවෙනවා 42
ාශ 42
ිරිය 42
ුකාරයෙක 42
ුනාට 42
ෙනා 42
▁acqu 42
▁adam 42
▁affection 42
▁amjad 42
▁announcement 42
▁anushka 42
▁arrangements 42
▁arriving 42
▁asgard 42
▁assets 42
▁associate 42
▁aud 42
▁award 42
▁baker 42
▁bangkok 42
▁batteries 42
▁bombing 42
▁brake 42
▁buff 42
▁burst 42
▁cass 42
▁charming 42
▁checks 42
▁cheeks 42
▁cheer 42
▁chuck 42
▁cle 42
▁coin 42
▁collection 42
▁collins 42
▁committee 42
▁constant 42
▁cord 42
▁corporate 42
▁deon 42
▁destroying 42
▁driven 42
▁farhan 42
▁fascinating 42
▁fighter 42
▁gabriel 42
▁gandhi 42
▁germany 42
▁gotham 42
▁hacked 42
▁hammer 42
▁harper 42
▁heather 42
▁humor 42
▁interests 42
▁iran 42
▁jersey 42
▁jumping 42
▁kam 42
▁killers 42
▁labor 42
▁leland 42
▁limited 42
▁lmmy 42
▁madge 42
▁manny 42
▁mansion 42
▁meredith 42
▁mist 42
▁mordor 42
▁mortal 42
▁mutant 42
▁mutants 42
▁nanny 42
▁narrow 42
▁nic 42
▁orb 42
▁pakistan 42
▁pancakes 42
▁ped 42
▁policeman 42
▁prayer 42
▁recognition 42
▁recommend 42
▁relation 42
▁ren 42
▁represent 42
▁requesting 42
▁residence 42
▁ripped 42
▁romeo 42
▁sachin 42
▁saito 42
▁salt 42
▁samantha 42
▁satellites 42
▁sav 42
▁severe 42
▁shove 42
▁slide 42
▁slightly 42
▁suff 42
▁surgeon 42
▁swat 42
▁talkin 42
▁terribly 42
▁tess 42
▁thor 42
▁thumb 42
▁tits 42
▁tum 42
▁ungli 42
▁unre 42
▁var 42
▁visitors 42
▁whats 42
▁whit 42
▁wicked 42
▁wounds 42
▁ye 42
▁අංශයට 42
▁අදුරගන 42
▁අපහසුතාවයට 42
▁අරලිය 42
▁අවජාතක 42
▁ඇවටර 42
▁ඇහුවද 42
▁ඉදලම 42
▁ඉඳියි 42
▁ඉපදිලා 42
▁උඹයි 42
▁එපාද 42
▁ඒකෝ 42
▁ඔහුයි 42
▁කටට 42
▁කමකට 42
▁කාගෙද 42
▁කාමරෙන 42
▁කැර 42
▁කැරකෙනවා 42
▁කැරලිකාර 42
▁කිලෝමීටර 42
▁කිවුවද 42
▁කිසිදා 42
▁කුවට 42
▁ගබඩාවක 42
▁ගයි 42
▁ගුට 42
▁ජලිස 42
▁ජූලියා 42
▁ටිල 42
▁ඩැනී 42
▁ඩිවීඩි 42
▁තටද 42
▁තනව 42
▁තාපසතුමන 42
▁තැබ 42
▁තැබීම 42
▁තැම 42
▁තිරය 42
▁තුකාරයෙක 42
▁දමෙව 42
▁දාඩිය 42
▁දැවැන 42
▁දෙබස 42
▁ධතියේ 42
▁ධනාගාර 42
▁නගරෙන 42
▁නටනවා 42
▁නැහැනෙ 42
▁නීතීඥ 42
▁නුවණ 42
▁නොකිව 42
▁නොපෙනෙන 42
▁නොවැම 42
▁පථ 42
▁පශ 42
▁පහරදීම 42
▁පැවර 42
▁පිරිසිදුයි 42
▁පීච 42
▁පීඩනයක 42
▁පුපුරණ 42
▁පොද 42
▁බයද 42
▁බැංකුවක 42
▁බැරිවෙන 42
▁බෙරි 42
▁බෙලික 42
▁භූමි 42
▁මියගිහින 42
▁මියයන 42
▁මුතු 42
▁මුලික 42
▁මුළින 42
▁මොලය 42
▁මොලී 42
▁යුනිට 42
▁රටවල 42
▁රප 42
▁රැවැට 42
▁රූගත 42
▁රෙට 42
▁ලය 42
▁ලිංගිකව 42
▁ලියෝ 42
▁ලුණු 42
▁ලෝකයෙ 42
▁ලෝකයෙන 42
▁වයිල 42
▁වහම 42
▁වැසියෙක 42
▁විසඳුමක 42
▁වෛ 42
▁වෝඩ 42
▁ෂාකාරී 42
▁සගයා 42
▁සජීවී 42
▁සලර 42
▁සහායකයා 42
▁සිංදුවක 42
▁සිතුවම 42
▁සිදුවීමක 42
▁සුවේ 42
▁සෙයි 42
▁සෙරෙප 42
▁හංගගෙන 42
▁හවසට 42
▁හාව 42
▁හිඟ 42
▁හිටන 42
▁හෙණ 42
▁හෙළ 42
▁හොයාගනී 42
▁ෆරාස 42
.4 41
aid 41
arn 41
asa 41
aster 41
ented 41
gan 41
hold 41
icated 41
ires 41
looking 41
mont 41
ote 41
oud 41
ough 41
pers 41
place 41
ressed 41
uct 41
umber 41
vel 41
ways 41
කරවන 41
ටෝ 41
ණක 41
තුමනි 41
නැ 41
පති 41
යුත 41
ලත 41
වගත 41
වාවි 41
ශීලී 41
සෝ 41
හාර 41
හින 41
ළේ 41
ාවර 41
ැබ 41
ැලි 41
ිකරුවන 41
ියෙම 41
ුකාරයා 41
ෙනක 41
ෞ 41
▁aare 41
▁accelerator 41
▁affairs 41
▁affected 41
▁ambush 41
▁announce 41
▁asses 41
▁bitches 41
▁blackmail 41
▁booked 41
▁bored 41
▁bout 41
▁brandon 41
▁burden 41
▁ca 41
▁carla 41
▁chuckles 41
▁coconut 41
▁colour 41
▁commercial 41
▁congress 41
▁couch 41
▁crushed 41
▁dinosaur 41
▁discussion 41
▁dollar 41
▁donald 41
▁doomed 41
▁expose 41
▁fiance 41
▁fibonacci 41
▁fiddle 41
▁flaps 41
▁flooded 41
▁forgetting 41
▁freezing 41
▁goon 41
▁heist 41
▁hen 41
▁hol 41
▁jury 41
▁learnt 41
▁libby 41
▁loop 41
▁magical 41
▁mariko 41
▁mcc 41
▁mexican 41
▁mindy 41
▁murphy 41
▁nano 41
▁naturally 41
▁ng 41
▁niece 41
▁patty 41
▁personality 41
▁peterson 41
▁physics 41
▁pistol 41
▁pitch 41
▁prof 41
▁proven 41
▁pulse 41
▁regarding 41
▁rejected 41
▁religion 41
▁replaced 41
▁sack 41
▁scientific 41
▁stash 41
▁statue 41
▁steam 41
▁stevens 41
▁string 41
▁suitcase 41
▁suite 41
▁tang 41
▁tej 41
▁troubles 41
▁understands 41
▁verma 41
▁visited 41
▁winston 41
▁yea 41
▁අගෞරව 41
▁අදට 41
▁අනු 41
▁අබිරහස 41
▁ආකාරයක 41
▁ආදරණිය 41
▁ආදරියේ 41
▁ආලෝක 41
▁ඇනවුම 41
▁ඇමරිකානුවන 41
▁ඉදිවි 41
▁ඉවසිල 41
▁ඉසබෙල 41
▁ඊවෝ 41
▁උබෙ 41
▁උඹගෙ 41
▁උසාවි 41
▁එතකන 41
▁ඒම 41
▁ඒරන 41
▁ඕනෑවට 41
▁ඖෂධ 41
▁කනෙක 41
▁කාලගුණ 41
▁කැළය 41
▁කිරණ 41
▁කෙනකේව 41
▁කෙලවර 41
▁කොහෙට 41
▁ගැලප 41
▁ගෝතම 41
▁ගෝර 41
▁ඝාතක 41
▁චලා 41
▁චැනල 41
▁චෙ 41
▁ජනක 41
▁ජනපදයේ 41
▁ජනේල 41
▁ජීනියස 41
▁ඥ 41
▁ටීනා 41
▁ටෙඩි 41
▁ණා 41
▁තගෙන 41
▁තලක 41
▁දරු 41
▁දරුවට 41
▁දශ 41
▁දාදුවන 41
▁දැනිලා 41
▁දිවුරන 41
▁දිශ 41
▁දෙගුණ 41
▁දෙගොල 41
▁දෙම 41
▁ධතාව 41
▁නයේ 41
▁නිකමෙක 41
▁නියපොතු 41
▁නිවහන 41
▁නිසාවෙන 41
▁නුඹලා 41
▁නේම 41
▁පහරදුන 41
▁පාටට 41
▁පාවෙන 41
▁පැරදුනා 41
▁පිහිටයි 41
▁පුරුෂ 41
▁පේල 41
▁පෝස 41
▁බිරිදට 41
▁බිලි 41
▁බේරුණා 41
▁මලු 41
▁මාංශ 41
▁මාලිගාව 41
▁මාළ 41
▁මිරිස 41
▁මුදු 41
▁මුහුණට 41
▁මෙහා 41
▁මොනවගේද 41
▁යල 41
▁යවර 41
▁යාළු 41
▁රදේශයක 41
▁රඳවා 41
▁රාබාද 41
▁රැය 41
▁රීයයි 41
▁රොත 41
▁රෝසා 41
▁ලේලන 41
▁වගකිව 41
▁වලම 41
▁වාත 41
▁වැඩී 41
▁වීදි 41
▁වෙව 41
▁වෙළෙන 41
▁වේලාව 41
▁වොලස 41
▁වෝන 41
▁සතියකින 41
▁සයිබර 41
▁සිදුරු 41
▁සුදුස 41
▁සුරංගනා 41
▁හක 41
▁හාපර 41
▁හාල 41
▁හැකිව 41
▁හැතැම 41
▁හිතෙයි 41
▁හූඩි 41
▁හෙම 41
▁හොදයිද 41
▁ෆොල 41
▁ෙපන 41
aded 40
ame 40
away 40
berg 40
di 40
ef 40
ese 40
ette 40
fall 40
gil 40
got 40
hem 40
ional 40
iring 40
ital 40
ito 40
itting 40
oma 40
oses 40
rs 40
then 40
thing 40
ua 40
uel 40
was 40
කියන 40
ගාම 40
ණී 40
දය 40
රණය 40
වරියක 40
වුණා 40
වෙක 40
වෙත 40
සීම 40
හොඳයි 40
ාවයි 40
ැසි 40
ිතා 40
ිහා 40
ුගෙන 40
ුමන 40
ොයිස 40
ෝලා 40
▁abhay 40
▁admire 40
▁adorable 40
▁aggressive 40
▁alike 40
▁attempted 40
▁avenge 40
▁barrier 40
▁benji 40
▁bible 40
▁brickton 40
▁bum 40
▁callie 40
▁carries 40
▁ceiling 40
▁chapter 40
▁contacts 40
▁courier 40
▁customers 40
▁demands 40
▁determine 40
▁disturbing 40
▁drawn 40
▁drum 40
▁eastern 40
▁eats 40
▁educated 40
▁elves 40
▁et 40
▁explained 40
▁faced 40
▁farmer 40
▁fir 40
▁fugitive 40
▁gambling 40
▁govt 40
▁grows 40
▁hush 40
▁incredibly 40
▁industries 40
▁invest 40
▁jammed 40
▁larger 40
▁laundry 40
▁laurie 40
▁lawn 40
▁linus 40
▁luther 40
▁maggie 40
▁marked 40
▁mere 40
▁method 40
▁origin 40
▁pale 40
▁patterson 40
▁perfume 40
▁pu 40
▁remarkable 40
▁riva 40
▁rumors 40
▁sang 40
▁shah 40
▁sheet 40
▁shephard 40
▁sins 40
▁sketch 40
▁slay 40
▁spill 40
▁spoon 40
▁spr 40
▁struggling 40
▁stuffed 40
▁surya 40
▁suspected 40
▁tab 40
▁therefore 40
▁tool 40
▁trains 40
▁untie 40
▁vest 40
▁vow 40
▁worm 40
▁worrying 40
▁අනාගතේ 40
▁අපිටම 40
▁අමාරුද 40
▁අමුතුම 40
▁අයද 40
▁අවසරයක 40
▁අසනීපයි 40
▁අසුන 40
▁ආශාව 40
▁ඇරිලා 40
▁ඈස 40
▁ඉති 40
▁ඉදී 40
▁උදාව 40
▁උදැසනක 40
▁උබලට 40
▁එනකං 40
▁ඔතනට 40
▁ඔහෝ 40
▁කඩාකප 40
▁කදවුරට 40
▁කරැණාකරලා 40
▁කරුවා 40
▁කලබලයක 40
▁කලාව 40
▁කාලෙදි 40
▁කැඩිල 40
▁කැලේට 40
▁කියනකම 40
▁කියවනවද 40
▁කෙරුවා 40
▁කොටසට 40
▁ගැහිලා 40
▁ගුයින 40
▁ගුරුතුමණි 40
▁ගොදුරක 40
▁ජුන 40
▁ටොර 40
▁ටෝස 40
▁ඩියෝන 40
▁ඩේල 40
▁ණේ 40
▁තබාගන 40
▁තිවෙන 40
▁දයියනේ 40
▁දරුවො 40
▁දැනං 40
▁දේකටම 40
▁දේත 40
▁ධියට 40
▁නළුවෙක 40
▁නිකංම 40
▁නිලදාර 40
▁නුඹව 40
▁නෙයිනා 40
▁නේහා 40
▁නොදකින 40
▁නොදැක 40
▁නොවුනොත 40
▁පටල 40
▁පමනයි 40
▁පාළු 40
▁පිහාටු 40
▁පුංච 40
▁පෙනුනා 40
▁පෙනේ 40
▁බෙනවා 40
▁භාෂා 40
▁මටෙෙ 40
▁මාරාන 40
▁මැරනෙ 40
▁මෘදුකාංග 40
▁මොකකට 40
▁යතුරක 40
▁යනවාද 40
▁යමාන 40
▁යාපෘති 40
▁යෑම 40
▁යෝග 40
▁රඩ 40
▁රතිජීවක 40
▁රාපොලිස 40
▁රැද 40
▁රැවටිල 40
▁ලිපියක 40
▁ලිලී 40
▁ලුවොත 40
▁ලේලි 40
▁වටිනවද 40
▁වරා 40
▁වාරයක 40
▁වැළ 40
▁විකුණනවා 40
▁විජ 40
▁වීරයෝ 40
▁වුණෙ 40
▁වුවමනාවක 40
▁වූයේ 40
▁වේදිකාවට 40
▁ශාස 40
▁ෂබ 40
▁ෂයක 40
▁ෂේ 40
▁සංකේත 40
▁සජ 40
▁සදා 40
▁සනද 40
▁සමස 40
▁සමාජය 40
▁සමාවෙයන 40
▁සාහසික 40
▁හතුරා 40
▁හයේ 40
▁හැදුනේ 40
▁හැදුවද 40
▁හැරිසන 40
▁හිතමින 40
▁ෆෙරෙඩ 40
▁ෆෝඩ 40
,8 39
ays 39
bound 39
cent 39
cut 39
dad 39
hello 39
ille 39
mmm 39
ography 39
ole 39
rating 39
ree 39
ston 39
su 39
three 39
wa 39
wait 39
කයින 39
කරනව 39
ගොඩක 39
නාවක 39
නෙවා 39
යනය 39
වගේ 39
වැ 39
විච 39
වෝ 39
ළට 39
ායක 39
ෑර 39
ිකයින 39
ිතිය 39
ියේදි 39
ිවුනා 39
ුමට 39
ෘතිය 39
ේටර 39
▁40,000 39
▁50,000 39
▁56 39
▁adv 39
▁aj 39
▁aleya 39
▁auction 39
▁authorized 39
▁barbie 39
▁bats 39
▁boarding 39
▁brakes 39
▁burns 39
▁claimed 39
▁cm 39
▁com 39
▁compete 39
▁computers 39
▁confession 39
▁conscious 39
▁cont 39
▁convenient 39
▁cou 39
▁cracked 39
▁creative 39
▁cried 39
▁cue 39
▁cynthia 39
▁deacon 39
▁dent 39
▁destination 39
▁dil 39
▁dip 39
▁dish 39
▁dummy 39
▁embarrass 39
▁encounter 39
▁erase 39
▁es 39
▁felicity 39
▁fits 39
▁fold 39
▁foundation 39
▁fre 39
▁freaked 39
▁gap 39
▁gently 39
▁gimme 39
▁gre 39
▁guardian 39
▁guerrero 39
▁handled 39
▁hom 39
▁inches 39
▁income 39
▁injustice 39
▁intended 39
▁isaac 39
▁jar 39
▁jokes 39
▁kicking 39
▁lap 39
▁lar 39
▁lessons 39
▁lions 39
▁lu 39
▁madhavgarh 39
▁miami 39
▁miserable 39
▁occup 39
▁outbreak 39
▁pace 39
▁particle 39
▁penguins 39
▁piano 39
▁ping 39
▁poem 39
▁poker 39
▁pole 39
▁predators 39
▁provided 39
▁pursuit 39
▁rap 39
▁rav 39
▁reform 39
▁repay 39
▁reporting 39
▁risks 39
▁robin 39
▁sayin 39
▁scaring 39
▁scientists 39
▁scum 39
▁seeking 39
▁shields 39
▁smiley 39
▁snakes 39
▁sparrow 39
▁theft 39
▁torturing 39
▁tube 39
▁uhh 39
▁values 39
▁vengeance 39
▁viral 39
▁wagon 39
▁whisper 39
▁අකමැත 39
▁අතීතයේ 39
▁අභිප 39
▁අමතනවා 39
▁අවමාන 39
▁ආවනම 39
▁ඇෆ 39
▁උපදෙසක 39
▁ඔළු 39
▁කනගාටු 39
▁කමින 39
▁කරක 39
▁කරනවානම 39
▁කවන 39
▁කියවල 39
▁කියාගෙන 39
▁කුරු 39
▁කුරුමිට 39
▁කුරුස 39
▁කුළුණු 39
▁කූඩුවට 39
▁කොමල 39
▁කොමසාරිස 39
▁කොලුවෝ 39
▁ගනේ 39
▁ගලයන 39
▁ගලවනවා 39
▁ගැඹුර 39
▁ගැහැණියක 39
▁ගැහුව 39
▁ගෙදරදි 39
▁ජග 39
▁ජාඩ 39
▁ජාලයට 39
▁ජිමී 39
▁ටද 39
▁ටනවා 39
▁ටවන 39
▁ටියේ 39
▁ටීන 39
▁ඩයිනසෝර 39
▁ඩාන 39
▁තශාලා 39
▁තියපන 39
▁තියෙ 39
▁දැකීමක 39
▁දැනුත 39
▁දෑත 39
▁දිනා 39
▁දීපං 39
▁දුරකථනයක 39
▁දූවිලි 39
▁දෙනාට 39
▁දේවස 39
▁ධතාවයක 39
▁නමවත 39
▁නැවතුනේ 39
▁නොට 39
▁නොර 39
▁පතුර 39
▁පමණි 39
▁පරිසර 39
▁පලතුරු 39
▁පවතී 39
▁පැටර 39
▁පැර 39
▁පැස 39
▁පිවිස 39
▁පිළිබද 39
▁පෙනෙයි 39
▁පේජ 39
▁පෝෂ 39
▁බසින 39
▁බැඳිලා 39
▁බෙකා 39
▁බේබි 39
▁මටද 39
▁මදිවට 39
▁මරාවි 39
▁මැතිව 39
▁මැනී 39
▁මැරි 39
▁මේකෙදි 39
▁මේවත 39
▁මොනාවත 39
▁යතුමා 39
▁යවරයා 39
▁යේධ 39
▁යොමුකරන 39
▁රතිඵලය 39
▁රමයට 39
▁රාජධානියේ 39
▁රාධේ 39
▁රුම 39
▁ලඩ 39
▁ලබාගෙන 39
▁ලයිස 39
▁ලියල 39
▁ලියි 39
▁ලේම 39
▁ලෝරන 39
▁විදිනවා 39
▁ශුක 39
▁ෂින 39
▁ෂෝක 39
▁සතුටුද 39
▁සප 39
▁සමගම 39
▁සමාවක 39
▁සමුගන 39
▁සැකස 39
▁සැමිය 39
▁සැරදේවා 39
▁සිංහල 39
▁සිදුවූ 39
▁සියෝ 39
▁සීසිල 39
▁සුයි 39
▁සුවිශේෂ 39
▁සුස 39
▁සුසුම 39
▁සූම 39
▁සේවකයන 39
▁සේවයට 39
▁සේවයේ 39
▁හිතනවට 39
▁හිද 39
▁හෙය 39
▁හේතුවකට 39
▁හොලිවුඩ 39
,2 38
.9 38
aging 38
ann 38
aries 38
ask 38
bal 38
bert 38
bot 38
hic 38
ider 38
ika 38
ior 38
lets 38
phone 38
pr 38
sc 38
set 38
sts 38
ugs 38
අහන 38
ඇය 38
කටද 38
ජය 38
ඩිය 38
තරම 38
දක 38
බො 38
රෙනවා 38
ලගේ 38
ලිලා 38
හෙම 38
හො 38
ිකරලා 38
▁68 38
▁^ 38
▁alu 38
▁annunzio 38
▁arts 38
▁attractive 38
▁awkward 38
▁barn 38
▁basis 38
▁bothered 38
▁bounty 38
▁bp 38
▁cats 38
▁chairman 38
▁circ 38
▁climate 38
▁confusing 38
▁consult 38
▁conver 38
▁coo 38
▁dean 38
▁dressing 38
▁electrical 38
▁eli 38
▁emotion 38
▁employer 38
▁estate 38
▁exhausted 38
▁fires 38
▁forests 38
▁gerry 38
▁glen 38
▁goodwin 38
▁greedy 38
▁helpful 38
▁herd 38
▁hobbs 38
▁homeland 38
▁hooker 38
▁hovv 38
▁il 38
▁illusion 38
▁infect 38
▁insisted 38
▁jenna 38
▁judges 38
▁judging 38
▁jupiter 38
▁kabir 38
▁krypton 38
▁kung 38
▁leap 38
▁louise 38
▁luca 38
▁madame 38
▁manner 38
▁meanwhile 38
▁nom 38
▁notebook 38
▁orca 38
▁overnight 38
▁precisely 38
▁quarantine 38
▁restricted 38
▁ronal 38
▁satisfied 38
▁schultz 38
▁shr 38
▁specifically 38
▁sri 38
▁stroke 38
▁stuart 38
▁surf 38
▁tan 38
▁tanya 38
▁targeting 38
▁teachers 38
▁telugu 38
▁tide 38
▁tire 38
▁tons 38
▁tradition 38
▁trent 38
▁trucks 38
▁types 38
▁vew 38
▁volunteer 38
▁vulnerable 38
▁waking 38
▁whiskey 38
▁wick 38
▁yg 38
▁zoo 38
▁අකුණු 38
▁අගේ 38
▁අඩුගානෙ 38
▁අඩුගානේ 38
▁අතැරලා 38
▁අයිරිස 38
▁අරෙහෙ 38
▁අසරුවන 38
▁ආකල 38
▁ආකාරයේ 38
▁ආදරයට 38
▁ආලියා 38
▁ඇහිලා 38
▁ඊමේල 38
▁උරා 38
▁එකටයි 38
▁එකී 38
▁එලිසබෙත 38
▁එෙහනම 38
▁ඕනාවට 38
▁ඕනෙක 38
▁ඕනෙවට 38
▁කටුක 38
▁කඩල 38
▁කඩාවැට 38
▁කතාකරමු 38
▁කනවද 38
▁කපට 38
▁කරණ 38
▁කරපං 38
▁කරලත 38
▁කලානේ 38
▁කවදාකවත 38
▁කැරලි 38
▁කීවෙ 38
▁කුප 38
▁කුරුම 38
▁කෘතඥ 38
▁කෝමලී 38
▁ගංග 38
▁ගජෙන 38
▁ගණිකාවක 38
▁ගනිං 38
▁ගැහුවෙ 38
▁චාලී 38
▁ටලා 38
▁ඩරිස 38
▁ඩාමු 38
▁තදට 38
▁තාවකාලිකව 38
▁තුකාර 38
▁තුමාට 38
▁ථයක 38
▁ථීර 38
▁දළ 38
▁දාමරික 38
▁දැනුමක 38
▁දිනක 38
▁දියුණ 38
▁දුවගෙන 38
▁දෙතුන 38
▁දො 38
▁නනෙ 38
▁නලු 38
▁නවතම 38
▁නාගේ 38
▁නාසා 38
▁නැනෝ 38
▁නිවා 38
▁නෙර 38
▁නේන 38
▁නොබ 38
▁පංත 38
▁පලයල 38
▁පාසැල 38
▁පැහැදිල 38
▁පිඩ 38
▁පියර 38
▁පිලිගත 38
▁පිලිවෙල 38
▁පුටුවක 38
▁පුදුමාකාරයි 38
▁පුරවලා 38
▁පුලුවම 38
▁බවෙයි 38
▁බාධකයක 38
▁බැටළ 38
▁බැරුව 38
▁බිරිදව 38
▁බීප 38
▁බොමු 38
▁බෲක 38
▁මතුපිටට 38
▁මනක 38
▁මනසට 38
▁මයන 38
▁මැග 38
▁මැයි 38
▁මැරුණට 38
▁මිහිරි 38
▁මීන 38
▁මූඩ 38
▁මෙත 38
▁යතා 38
▁යනවට 38
▁යයනය 38
▁යාපෘත 38
▁රිංග 38
▁රියාවන 38
▁රිශ 38
▁ලමයව 38
▁ලැබුණෙ 38
▁ලැබුනු 38
▁ලෙඩෙක 38
▁ලේඛ 38
▁වමනේ 38
▁වයකට 38
▁වරදවා 38
▁වලෙේම 38
▁වාදය 38
▁වාසවන 38
▁වැටහ 38
▁වැහිලා 38
▁විශේෂඥ 38
▁විසදුමක 38
▁වීරයන 38
▁වේටර 38
▁වේදිකාව 38
▁වොව 38
▁සමබර 38
▁සමුරායි 38
▁සීමාවෙන 38
▁සුරතල 38
▁සේම 38
▁සොයමින 38
▁හතරවෙනි 38
▁හමුවීමට 38
▁හමුවුනේ 38
▁හමුවේ 38
▁හවුස 38
▁හසුරුවන 38
▁හැග 38
▁හැදුන 38
▁හැපී 38
▁හැල 38
▁හිසට 38
▁හෙඩ 38
▁හෙතුව 38
▁ෆොර 38
▁ෙස 38
.0 37
43 37
aces 37
acks 37
amm 37
ared 37
car 37
ences 37
free 37
gging 37
icks 37
itated 37
kan 37
kes 37
lf 37
lling 37
mat 37
mates 37
pat 37
pper 37
rin 37
sec 37
ues 37
uous 37
urs 37
zo 37
කොටම 37
ගමෙ 37
ගහ 37
ගිහින 37
ජා 37
ධාර 37
වුර 37
ෂන 37
හිර 37
ෆර 37
ෆී 37
ාවෙලා 37
ිටර 37
ිබ 37
ියේදී 37
▁03 37
▁110 37
▁180 37
▁193 37
▁abby 37
▁abilities 37
▁admiral 37
▁allergic 37
▁altitude 37
▁anonymous 37
▁appearance 37
▁areas 37
▁armaan 37
▁astronaut 37
▁attach 37
▁az 37
▁balloon 37
▁bellick 37
▁bells 37
▁blessings 37
▁blonde 37
▁broadcast 37
▁carol 37
▁cartel 37
▁casey 37
▁causing 37
▁cease 37
▁cemetery 37
▁centre 37
▁chew 37
▁closely 37
▁collar 37
▁const 37
▁consultant 37
▁cookie 37
▁correctly 37
▁cris 37
▁curtis 37
▁dallas 37
▁dennis 37
▁depth 37
▁dimension 37
▁directions 37
▁discovery 37
▁diss 37
▁distant 37
▁distracted 37
▁dor 37
▁dot 37
▁doubts 37
▁dri 37
▁einstein 37
▁ellie 37
▁envelope 37
▁ew 37
▁exams 37
▁extraction 37
▁faint 37
▁farewell 37
▁florida 37
▁fri 37
▁hamilton 37
▁honesty 37
▁hustle 37
▁incomplete 37
▁initial 37
▁initiate 37
▁intentions 37
▁kathryn 37
▁knots 37
▁lamb 37
▁lewis 37
▁lori 37
▁louder 37
▁magnificent 37
▁manhattan 37
▁masks 37
▁merely 37
▁monica 37
▁moses 37
▁nan 37
▁nightmares 37
▁oi 37
▁oops 37
▁pand 37
▁patriot 37
▁peaceful 37
▁peep 37
▁permit 37
▁phantom 37
▁plates 37
▁production 37
▁proposed 37
▁pub 37
▁pun 37
▁puzzle 37
▁sacrificed 37
▁select 37
▁senses 37
▁sharma 37
▁shreya 37
▁snatch 37
▁sour 37
▁spencer 37
▁spinning 37
▁spreading 37
▁stig 37
▁suggestion 37
▁taller 37
▁tars 37
▁temp 37
▁testify 37
▁toe 37
▁tops 37
▁troubled 37
▁wand 37
▁wandering 37
▁whip 37
▁wr 37
▁අගුලු 37
▁අදත 37
▁අනුන 37
▁අයයි 37
▁අයරිස 37
▁අලු 37
▁අලුතින 37
▁අවුරැදු 37
▁ආලූ 37
▁ආසාවෙන 37
▁ඇමක 37
▁ඇමරිකා 37
▁ඇමෙරිකානු 37
▁ඇරගෙන 37
▁ඇහැරෙන 37
▁ඇහුවම 37
▁ඉවසීම 37
▁ඊවෝල 37
▁ඊශ 37
▁එකටත 37
▁එකේම 37
▁එතැනට 37
▁එලි 37
▁එලීස 37
▁ඕටෝබෝට 37
▁කටම 37
▁කටේ 37
▁කබ 37
▁කරණය 37
▁කාමරයෙන 37
▁කැතරින 37
▁කැද 37
▁කැරොල 37
▁කැලි 37
▁කිරන 37
▁කුහර 37
▁කෙතරම 37
▁කෙලවන 37
▁කේසි 37
▁ගනෙියන 37
▁ගබඩාවට 37
▁ගලිකත 37
▁ගලිකවම 37
▁ගාණකට 37
▁ගැහුවොත 37
▁චමත 37
▁ජනා 37
▁ජපන 37
▁ජයවේවා 37
▁ජෙඩයි 37
▁ටවුම 37
▁ටිකකුත 37
▁ඩසෝමන 37
▁ඩිකේට 37
▁ඩුවට 37
▁තයෙන 37
▁තරලා 37
▁තරුන 37
▁තරෙන 37
▁තාපල 37
▁තායි 37
▁තිකාර 37
▁තිබෙනව 37
▁තිරිංග 37
▁තොගේ 37
▁දහයකට 37
▁දිනයේ 37
▁දෙගුණයක 37
▁දෙද 37
▁දේපලක 37
▁දේවලුත 37
▁නිකොලස 37
▁නීතිඥයෙක 37
▁නුවන 37
▁නොදුන 37
▁පඩිපෙළ 37
▁පහේ 37
▁පැකේජය 37
▁පිංතූර 37
▁පියාට 37
▁පිලිබද 37
▁පෙනෙනවා 37
▁ඵලකය 37
▁බලකොටුව 37
▁බවුන 37
▁බහිමු 37
▁බැංකොක 37
▁බැලීම 37
▁බියා 37
▁බිරිඳක 37
▁බේරගෙන 37
▁භාෂාවෙන 37
▁මකලා 37
▁මගනේ 37
▁මරිකෝ 37
▁මහළු 37
▁මාණයක 37
▁මුනගැහෙන 37
▁මුලස 37
▁මූනට 37
▁මෙයාද 37
▁මෙහෙමද 37
▁මෙහෙයුමට 37
▁මෙහෙයුමේ 37
▁මේකි 37
▁යාපන 37
▁රච 37
▁රටකජු 37
▁රණශූර 37
▁රතිවිපාක 37
▁රතිශක 37
▁රමාදයි 37
▁රයිෆල 37
▁රවටන 37
▁රෂ 37
▁රාදේශීය 37
▁රියේදී 37
▁රුසියන 37
▁රෝනල 37
▁රෝහලකට 37
▁රෝහි 37
▁ලගදි 37
▁ලගා 37
▁ලජ 37
▁වගර 37
▁වටය 37
▁වපු 37
▁වාහනේට 37
▁විනාඩියෙන 37
▁විශේෂයක 37
▁වුවමන 37
▁වේච 37
▁වෛරය 37
▁ෂකයො 37
▁ෂෝල 37
▁සගන 37
▁සභික 37
▁සරාගී 37
▁සෑ 37
▁සිටීම 37
▁සුට 37
▁සූක 37
▁සෙනග 37
▁සෙබළ 37
▁සෙවනැලි 37
▁සොයාගැනීම 37
▁හදිසියක 37
▁හසු 37
▁හිමීට 37
▁හිය 37
▁හිලක 37
▁හෙළි 37
13 36
aka 36
ava 36
cle 36
cub 36
eds 36
een 36
hel 36
hib 36
ila 36
ishes 36
izes 36
light 36
lock 36
long 36
mark 36
mate 36
ns 36
rent 36
rum 36
ular 36
used 36
usion 36
uts 36
water 36
අප 36
කරේ 36
කාරියක 36
ගුණ 36
ඟු 36
ඩක 36
තියි 36
නයි 36
පුර 36
මාර 36
යකෙ 36
ලෝක 36
විශ 36
වුනොත 36
ශිල 36
හනේ 36
හරිද 36
ායන 36
ිටින 36
ියලා 36
ිරීමක 36
ීනා 36
ුකමක 36
ුණට 36
ුදෙන 36
ුරුද 36
▁3000 36
▁abbott 36
▁accent 36
▁accomplice 36
▁accomplish 36
▁acted 36
▁admitted 36
▁application 36
▁asc 36
▁avenue 36
▁ax 36
▁bab 36
▁bingo 36
▁bloom 36
▁bradshaw 36
▁brazil 36
▁brenda 36
▁bunker 36
▁buzz 36
▁caa 36
▁cactus 36
▁cant 36
▁chand 36
▁cigarettes 36
▁civilian 36
▁classes 36
▁compromise 36
▁concrete 36
▁consciousness 36
▁cotton 36
▁crow 36
▁dealt 36
▁delete 36
▁depression 36
▁deserved 36
▁disguise 36
▁dreamed 36
▁dubai 36
▁dumped 36
▁emb 36
▁engineers 36
▁error 36
▁excuses 36
▁explains 36
▁fantasy 36
▁flank 36
▁flee 36
▁flip 36
▁forsaken 36
▁genuine 36
▁globe 36
▁gollum 36
▁harsh 36
▁hartley 36
▁harvey 36
▁haul 36
▁heavily 36
▁hitler 36
▁hobbit 36
▁horns 36
▁hostiles 36
▁independent 36
▁install 36
▁joong 36
▁kadam 36
▁kissing 36
▁lafleur 36
▁lawrence 36
▁leah 36
▁lecture 36
▁lure 36
▁marc 36
▁martha 36
▁mccall 36
▁minimum 36
▁neighbors 36
▁nigger 36
▁nit 36
▁optim 36
▁owned 36
▁paranoid 36
▁passenger 36
▁pigs 36
▁pinky 36
▁powder 36
▁pred 36
▁prep 36
▁pressed 36
▁programmed 36
▁qual 36
▁queens 36
▁quote 36
▁rack 36
▁radius 36
▁rang 36
▁relationships 36
▁respected 36
▁rite 36
▁sanctuary 36
▁sarge 36
▁seas 36
▁seeds 36
▁selected 36
▁sends 36
▁sexual 36
▁shel 36
▁shire 36
▁signing 36
▁skye 36
▁slam 36
▁slaves 36
▁spaceship 36
▁squeeze 36
▁surround 36
▁thou 36
▁thursday 36
▁tow 36
▁translate 36
▁troll 36
▁ultimate 36
▁villagers 36
▁visitor 36
▁vo 36
▁voices 36
▁wed 36
▁wives 36
▁yeong 36
▁£ 36
▁අඩෙ 36
▁අඩේ 36
▁අමර 36
▁අඹ 36
▁අයදිනවා 36
▁අයදුම 36
▁අයිරිෂ 36
▁අරුම 36
▁අවාසනාවකට 36
▁අසනීපෙන 36
▁අහගෙනද 36
▁අහනව 36
▁අෑත 36
▁ආයතනයක 36
▁ඇඳගන 36
▁ඇඳලා 36
▁ඇබට 36
▁ඇයයි 36
▁ඇයිද 36
▁ඇහුනෙ 36
▁ඉතුර 36
▁ඉරාන 36
▁උගත 36
▁උදෙන 36
▁උබත 36
▁උඹෙන 36
▁උරුමක 36
▁උරුමය 36
▁එකාට 36
▁එමිල 36
▁එයාටම 36
▁එලා 36
▁එහනමේ 36
▁ඒකනං 36
▁ඔනද 36
▁ඔයායි 36
▁ඔහුගෝ 36
▁ඔෙහගේ 36
▁ඕනේම 36
▁ඕර 36
▁කබීර 36
▁කාලෙට 36
▁කෑගැහ 36
▁කියලාවත 36
▁කිවුවනේ 36
▁කීපාරක 36
▁කෙනී 36
▁කෙසෙල 36
▁කොරල 36
▁කෝතු 36
▁කෞතුකාගාර 36
▁ගණුදෙන 36
▁ගමක 36
▁ගායි 36
▁ගාවින 36
▁ගැටුම 36
▁ගැරි 36
▁ගැහැන 36
▁ගැහෙනවා 36
▁ගුහාවට 36
▁ගෙදරද 36
▁ගොට 36
▁ගොයින 36
▁ගෝලය 36
▁චු 36
▁ජනෙල 36
▁ජලා 36
▁ජෝඩුවක 36
▁ටයිප 36
▁ටැංකිය 36
▁ටෙට 36
▁ටේෂන 36
▁ඩාංක 36
▁තඩංගුවට 36
▁තණ 36
▁තනියෙම 36
▁තබනවා 36
▁තරයේ 36
▁තුමේන 36
▁තෘණ 36
▁තොරතුර 36
▁ථාවට 36
▁ථාවන 36
▁ථිරයි 36
▁දැනේවි 36
▁දුයි 36
▁දුරකථනයෙන 36
▁දුරද 36
▁ධයට 36
▁නඩත 36
▁නමු 36
▁නාමෙන 36
▁නිමා 36
▁නිවාඩුව 36
▁නිවැරදිව 36
▁නුව 36
▁නූ 36
▁නෙවෙයිනෙ 36
▁නොකලොත 36
▁නොද 36
▁නොපෙනී 36
▁නොයා 36
▁පඩිපෙල 36
▁පමනක 36
▁පලයං 36
▁පවුම 36
▁පහසුයි 36
▁පළාත 36
▁පැතිරෙන 36
▁පැමිනෙන 36
▁පැවස 36
▁පිප 36
▁පුරව 36
▁පෙදෙස 36
▁පේනහැටියට 36
▁බලපාන 36
▁බලහන 36
▁බහු 36
▁බාගෙට 36
▁බාබු 36
▁බැලුන 36
▁බිඳින 36
▁බීමක 36
▁බුර 36
▁බේංචි 36
▁බොරුකාරයා 36
▁බෝතලේ 36
▁මගහැරුනා 36
▁මැරුනෙ 36
▁මිකයෙක 36
▁මිරාල 36
▁යසාර 36
▁යාගය 36
▁යානාවක 36
▁යාමක 36
▁රයින 36
▁රයෝජනයට 36
▁රහසිගතයි 36
▁රහසේ 36
▁රාහ 36
▁රැප 36
▁රියයි 36
▁රියාවල 36
▁රීවා 36
▁රුවල 36
▁රොව 36
▁රෝවර 36
▁ලෆුවර 36
▁ලාට 36
▁ලිපිනයක 36
▁ලොකේ 36
▁ලොයි 36
▁වංශ 36
▁වහලේ 36
▁වහින 36
▁වාඩිව 36
▁වාසයිද 36
▁වැඩිපුරම 36
▁වැඩිවෙලා 36
▁වුනානේ 36
▁වෘකයෙක 36
▁වෙලයි 36
▁වෙලාවකින 36
▁ශාර 36
▁සතයක 36
▁සමඟයි 36
▁සාහයක 36
▁සිමන 36
▁සෙමින 36
▁හැදිල 36
▁හෙද 36
▁හේතුවෙන 36
▁ෆීලික 36
▁ෆෙ 36
▁ෙකල 36
▁ෙකාච 36
▁ෙෂ 36
ains 35
ait 35
atch 35
gg 35
hee 35
hood 35
illa 35
iness 35
ining 35
ira 35
ization 35
lines 35
mit 35
nu 35
oming 35
oster 35
pd 35
reat 35
rit 35
stick 35
tes 35
think 35
ulating 35
walk 35
win 35
â 35
ඊ 35
කරුවෝ 35
ගොඩ 35
පද 35
පොඩ 35
පොළ 35
යකුත 35
යු 35
වැන 35
වෙදි 35
වෙනව 35
ාධ 35
ිතුමා 35
ුරෝ 35
ෙයින 35
ෙළ 35
▁` 35
▁advise 35
▁agnes 35
▁alternative 35
▁association 35
▁bhairava 35
▁buckle 35
▁calthrop 35
▁campus 35
▁collecting 35
▁comb 35
▁constantly 35
▁consum 35
▁controlled 35
▁cookies 35
▁copies 35
▁crab 35
▁craft 35
▁crashing 35
▁creation 35
▁cubs 35
▁dale 35
▁dammit 35
▁deals 35
▁delivering 35
▁depart 35
▁depend 35
▁download 35
▁electronic 35
▁escaping 35
▁eta 35
▁execute 35
▁expand 35
▁fears 35
▁felix 35
▁filling 35
▁fulfilled 35
▁gerrard 35
▁goat 35
▁goines 35
▁handling 35
▁headache 35
▁hector 35
▁hence 35
▁honored 35
▁immy 35
▁investigating 35
▁involve 35
▁iz 35
▁japan 35
▁kale 35
▁kamu 35
▁landlord 35
▁legion 35
▁lend 35
▁malcolm 35
▁manners 35
▁meets 35
▁native 35
▁nowadays 35
▁oak 35
▁ol 35
▁oldest 35
▁operational 35
▁outer 35
▁paige 35
▁parade 35
▁peacefully 35
▁pearl 35
▁photographer 35
▁pil 35
▁pile 35
▁poll 35
▁precinct 35
▁predict 35
▁produce 35
▁qureshi 35
▁religious 35
▁risky 35
▁rotten 35
▁rousseau 35
▁rover 35
▁rumor 35
▁scarlet 35
▁schools 35
▁selene 35
▁shining 35
▁shotgun 35
▁shutting 35
▁slipper 35
▁smashed 35
▁snack 35
▁soda 35
▁sorrow 35
▁sport 35
▁stall 35
▁strict 35
▁subconscious 35
▁sue 35
▁sunni 35
▁swell 35
▁sworn 35
▁tal 35
▁thadeous 35
▁tig 35
▁tips 35
▁underestimate 35
▁vanished 35
▁volume 35
▁vows 35
▁withdraw 35
▁zaya 35
▁අනාගතයට 35
▁අපිවත 35
▁අමාරුම 35
▁අරය 35
▁අවමන 35
▁අවසානයේදි 35
▁අහසට 35
▁අහුවුනොත 35
▁ආදරයේ 35
▁ආයා 35
▁ඇමතිතුමා 35
▁ඇවිදලා 35
▁ඇහුවට 35
▁ඉංජිනේරුවෙක 35
▁ඉංද 35
▁ඉහළට 35
▁ඉහළින 35
▁ඊතල 35
▁උකුස 35
▁උනහම 35
▁උපදවන 35
▁උමතු 35
▁එදාට 35
▁එළියක 35
▁එළියෙන 35
▁ඔයාගනේ 35
▁ඔයාගෙද 35
▁කවුරැ 35
▁කාලයම 35
▁කාලෙටම 35
▁කැඩපත 35
▁කැඩුනා 35
▁කෑවේ 35
▁කිසිමදෙයක 35
▁කෙනෙකු 35
▁කේතයක 35
▁කොරියා 35
▁කොහොද 35
▁කෝලෙට 35
▁කෝෆි 35
▁ගසා 35
▁ගහනවද 35
▁ගහයි 35
▁ගිනිගන 35
▁ගොටයා 35
▁ජාතිකයෙක 35
▁ජීවීන 35
▁ජෙලි 35
▁ඨික 35
▁ඩුකාර 35
▁ණනා 35
▁තටයි 35
▁තදයි 35
▁තාපස 35
▁තැනටම 35
▁තිගැස 35
▁තිමේට 35
▁තියනවො 35
▁තියුණු 35
▁තීරණේ 35
▁තුරේ 35
▁දයාබර 35
▁දරම 35
▁දැනුනෙ 35
▁දීපා 35
▁දුරකතනය 35
▁ධයේ 35
▁නඩුවට 35
▁නයිපර 35
▁නවයක 35
▁නවීන 35
▁නැක 35
▁නැවතියන 35
▁නියමෙටම 35
▁නිලූ 35
▁නීතිමය 35
▁නීතියෙන 35
▁නීල 35
▁පණිවුඩ 35
▁පණිවුඩය 35
▁පරයා 35
▁පලාත 35
▁පාටක 35
▁පාලකයා 35
▁පාවා 35
▁පාසලක 35
▁පියාණන 35
▁පීඩන 35
▁පොලීස 35
▁බයට 35
▁බරොව 35
▁බූරු 35
▁බේරුමක 35
▁භටයෙක 35
▁භීතයි 35
▁මඟින 35
▁මනසක 35
▁මරාගන 35
▁මහලේ 35
▁මාරම 35
▁මැදට 35
▁මුණගැහෙමු 35
▁මුළ 35
▁මොහොතෙ 35
▁මෝග 35
▁යනය 35
▁යාවත 35
▁යාවන 35
▁යුග 35
▁යුන 35
▁යොම 35
▁රණයක 35
▁රතිස 35
▁රමාණයේ 35
▁රයිට 35
▁රයෙන 35
▁රර 35
▁රසංග 35
▁රාහකයෙක 35
▁රිකාවට 35
▁රියාවිරහිත 35
▁රේඩ 35
▁රේමීන 35
▁රේසර 35
▁ලැබේ 35
▁ලොග 35
▁වනවිට 35
▁වරම 35
▁වායුගෝල 35
▁වැඩිද 35
▁විතරනේ 35
▁විමස 35
▁විව 35
▁විවාහයක 35
▁විහිළුයි 35
▁වීදුරුවක 35
▁වෙතත 35
▁වෙනවනේ 35
▁වෙලානේ 35
▁වේගෙ 35
▁ශම 35
▁ශාරීරික 35
▁ෂනයක 35
▁ෂල 35
▁සංවේදක 35
▁සකසන 35
▁සයිස 35
▁සස 35
▁සහෝදරී 35
▁සාගර 35
▁සාධාර 35
▁සුරදූත 35
▁සොර 35
▁හතුරෙක 35
▁හසුර 35
▁හිටපං 35
▁හුවමාරුව 35
▁හෙදර 35
▁හෙරොයින 35
▁හොඳේ 35
40 34
ability 34
ashing 34
atics 34
aya 34
bar 34
bat 34
berry 34
eline 34
esh 34
fect 34
gard 34
hn 34
iar 34
iet 34
inated 34
itation 34
ku 34
made 34
night 34
ode 34
oid 34
ological 34
oni 34
ox 34
rian 34
rick 34
ually 34
ule 34
vent 34
vert 34
when 34
wn 34
අහ 34
කෙනෙක 34
කොහෙද 34
ඩිත 34
නේට 34
බස 34
විම 34
හද 34
ාවය 34
ැරි 34
ෑස 34
ීමකට 34
ුණාද 34
ුවීම 34
ෙප 34
ොග 34
ෝෂ 34
▁05 34
▁09 34
▁2005 34
▁25,000 34
▁51 34
▁abruzzi 34
▁absolute 34
▁afghanistan 34
▁ai 34
▁aihara 34
▁albi 34
▁angela 34
▁anne 34
▁ants 34
▁aravind 34
▁arrives 34
▁atm 34
▁axe 34
▁bachelor 34
▁backs 34
▁barbarians 34
▁beef 34
▁bir 34
▁bonds 34
▁bot 34
▁bottles 34
▁breed 34
▁budget 34
▁bugs 34
▁bush 34
▁chicks 34
▁cloth 34
▁collapse 34
▁contin 34
▁corporation 34
▁couples 34
▁cred 34
▁damsel 34
▁deb 34
▁devasena 34
▁digital 34
▁disorder 34
▁dramatic 34
▁erased 34
▁explore 34
▁extinct 34
▁feeds 34
▁fighters 34
▁flames 34
▁flights 34
▁footprints 34
▁forbidden 34
▁forms 34
▁forthe 34
▁fragile 34
▁gary 34
▁gasps 34
▁glow 34
▁gratitude 34
▁greet 34
▁hawk 34
▁hay 34
▁hiro 34
▁horus 34
▁hunted 34
▁ii 34
▁include 34
▁instant 34
▁interfere 34
▁invasion 34
▁italian 34
▁japanese 34
▁jer 34
▁jinx 34
▁kilos 34
▁laughs 34
▁lor 34
▁loses 34
▁lp 34
▁magazine 34
▁maid 34
▁malvika 34
▁management 34
▁marrying 34
▁marsh 34
▁mas 34
▁mav 34
▁methods 34
▁mig 34
▁mild 34
▁mowgli 34
▁myth 34
▁natalie 34
▁nelson 34
▁organic 34
▁pacific 34
▁petrol 34
▁pillow 34
▁pilots 34
▁plug 34
▁pound 34
▁profession 34
▁projects 34
▁promises 34
▁quarters 34
▁rahl 34
▁rank 34
▁rebellion 34
▁register 34
▁relay 34
▁reply 34
▁retire 34
▁reverend 34
▁ricky 34
▁rises 34
▁roam 34
▁ruled 34
▁script 34
▁setup 34
▁sig 34
▁skinny 34
▁sniff 34
▁soccer 34
▁sor 34
▁spared 34
▁speaker 34
▁spiritual 34
▁spots 34
▁straw 34
▁superior 34
▁tales 34
▁tastes 34
▁tat 34
▁technical 34
▁teresa 34
▁tet 34
▁tokyo 34
▁tone 34
▁tragic 34
▁tropical 34
▁truce 34
▁turkey 34
▁vib 34
▁visa 34
▁weed 34
▁yah 34
▁yank 34
▁yay 34
▁අඩෝ 34
▁අතකට 34
▁අතිරේක 34
▁අනෙකුත 34
▁අපතයෝ 34
▁අපතේ 34
▁අපූරුයි 34
▁අරමුණු 34
▁අරිනව 34
▁අවියක 34
▁අවුට 34
▁ආයෝජනය 34
▁ආරංචියි 34
▁ආසාවක 34
▁ඇඬ 34
▁ඇමරිකාවෙ 34
▁ඇමෙරික 34
▁ඉදීවි 34
▁ඉරා 34
▁උදෙසා 34
▁උවමන 34
▁ඌත 34
▁එතැනදී 34
▁එලී 34
▁එවරස 34
▁එළදෙන 34
▁ඔබගෙ 34
▁ඔරලොසු 34
▁ඕඩර 34
▁කටවහගෙන 34
▁කරනකන 34
▁කරවලා 34
▁කරුණක 34
▁කරුණාව 34
▁කාදම 34
▁කාපාත 34
▁කාරක 34
▁කුටිය 34
▁කුවෙන 34
▁කෙනෙකුගේ 34
▁කෙලවෙයන 34
▁කොටි 34
▁කොලුවා 34
▁කොහොමවුනත 34
▁ගනු 34
▁ගමුද 34
▁ගැහැණිය 34
▁ගිර 34
▁ගෘහ 34
▁ගෙනයන 34
▁ගෙනිහින 34
▁ගේල 34
▁චලනය 34
▁චොක 34
▁ඡේද 34
▁ජාලයේ 34
▁ජීවිතයම 34
▁ජූඩි 34
▁ටැංක 34
▁ටියත 34
▁ටිව 34
▁ඩිසෙප 34
▁ඩුබායි 34
▁ඩුයි 34
▁ඩෝර 34
▁තලය 34
▁තිමටම 34
▁තුතිවන 34
▁තුනෙන 34
▁තොටුපල 34
▁තෝන 34
▁ථකාමී 34
▁ථානයෙන 34
▁දනා 34
▁දැඩිව 34
▁දිගුකල 34
▁දිවුරුම 34
▁දෙනෙත 34
▁දෙමාපියෝ 34
▁නංග 34
▁නවයෙි 34
▁නැතිවම 34
▁නැතිවයි 34
▁නිරුවත 34
▁නිළධාරියා 34
▁නුවෙ 34
▁නොගෙන 34
▁පඹ 34
▁පවක 34
▁පහතට 34
▁පාගන 34
▁පැටවු 34
▁පැවරුම 34
▁පිහින 34
▁පුලුවනි 34
▁බටහිරට 34
▁බලමුකෝ 34
▁බලාගනෙ 34
▁බාහු 34
▁බෑනෙ 34
▁බූරුවෝ 34
▁බෙට 34
▁මකරෙක 34
▁මාලිග 34
▁මැදිරියට 34
▁මිතුරෙක 34
▁මෙහෝ 34
▁මේවගෙන 34
▁යතාවයක 34
▁යවපු 34
▁යාපෘතියක 34
▁යාලුවට 34
▁රජතුමනි 34
▁රපාත 34
▁රමයෙන 34
▁රාවක 34
▁රාශ 34
▁රැෆික 34
▁රුක 34
▁රෙනේ 34
▁රේෂණය 34
▁රෝගියා 34
▁ලයක 34
▁ලැට 34
▁ලිහ 34
▁ලෙකුට 34
▁ලෙසින 34
▁ලේසර 34
▁වගමෙ 34
▁වටයක 34
▁වනවො 34
▁වරෙළ 34
▁වසංගත 34
▁වහලෙක 34
▁වාසයෙන 34
▁විකුණලා 34
▁විකුන 34
▁විවා 34
▁වීදුර 34
▁වීමකි 34
▁වෙරි 34
▁ශණයක 34
▁ෂුද 34
▁සචින 34
▁සතුටට 34
▁සබන 34
▁සමරමු 34
▁සයන 34
▁සයව 34
▁සහාය 34
▁සැනස 34
▁සිටිමි 34
▁සෘත 34
▁සෝලෝ 34
▁සෝවියට 34
▁හංස 34
▁හදිසියේම 34
▁හරිනවා 34
▁හිටියනේ 34
▁හිතුවත 34
▁හිෙතන 34
▁ළමුන 34
▁ෆියෝනා 34
▁ෙව 34
▁ෙහා 34
ami 33
body 33
brien 33
cat 33
form 33
gal 33
gas 33
iner 33
ipe 33
oes 33
oor 33
osh 33
power 33
san 33
sir 33
zed 33
ංජ 33
එස 33
එහෙනම 33
කමට 33
කාම 33
ගානක 33
ගෙට 33
ජිත 33
ජේ 33
ඩුව 33
දීලා 33
දෙනා 33
මෙතන 33
යකි 33
යේම 33
රනවා 33
ලිය 33
වික 33
සමාවෙන 33
සියක 33
හෙයි 33
ාගාර 33
ෑවා 33
ිකිරීම 33
ුකූල 33
ෝධ 33
ෝනා 33
▁02 33
▁10- 33
▁700 33
▁86 33
▁allah 33
▁aman 33
▁ange 33
▁angels 33
▁antidote 33
▁author 33
▁babji 33
▁bedtime 33
▁belief 33
▁bender 33
▁betting 33
▁bitter 33
▁blackwell 33
▁blocking 33
▁bra 33
▁brah 33
▁bucket 33
▁buddies 33
▁butterfly 33
▁carey 33
▁chains 33
▁champ 33
▁clearing 33
▁cloak 33
▁controlling 33
▁cooked 33
▁courtesy 33
▁daren 33
▁darn 33
▁deadly 33
▁decor 33
▁derail 33
▁dimpy 33
▁din 33
▁douche 33
▁dozens 33
▁drowned 33
▁dudes 33
▁elf 33
▁elope 33
▁elsewhere 33
▁emerald 33
▁emma 33
▁entertain 33
▁executed 33
▁financial 33
▁follows 33
▁freckles 33
▁freighter 33
▁hallelujah 33
▁halt 33
▁harbor 33
▁houston 33
▁improve 33
▁inbound 33
▁indians 33
▁injuries 33
▁injury 33
▁investment 33
▁jadalla 33
▁ji 33
▁journal 33
▁jur 33
▁karan 33
▁kau 33
▁lethal 33
▁letty 33
▁ling 33
▁loading 33
▁madras 33
▁magician 33
▁magnet 33
▁mann 33
▁marker 33
▁mott 33
▁oscar 33
▁permanent 33
▁pindaris 33
▁poo 33
▁presentation 33
▁qualified 33
▁que 33
▁raining 33
▁ranjana 33
▁rash 33
▁reasonable 33
▁reef 33
▁reynolds 33
▁rone 33
▁roommate 33
▁rusty 33
▁samurai 33
▁seated 33
▁sel 33
▁shaggy 33
▁shane 33
▁slit 33
▁sniper 33
▁sory 33
▁stan 33
▁strain 33
▁subjects 33
▁suggesting 33
▁surrounding 33
▁sway 33
▁swore 33
▁termin 33
▁thrust 33
▁tink 33
▁todd 33
▁vent 33
▁vessel 33
▁vetri 33
▁vince 33
▁walsh 33
▁washing 33
▁whack 33
▁අකීකරු 33
▁අගෙයි 33
▁අතෙන 33
▁අභියෝගයක 33
▁අයෙ 33
▁අසන 33
▁අහඹු 33
▁ආමෙන 33
▁ඇරෝන 33
▁ඉටිපන 33
▁ඉදලද 33
▁ඉදිරිපිට 33
▁ඉදිවී 33
▁ඉරාක 33
▁උපදේශකයෙක 33
▁උඹලව 33
▁ඌර 33
▁එකතුවක 33
▁එයාලාව 33
▁එවල 33
▁ඒප 33
▁ඔයාලාගේ 33
▁ඕනනේ 33
▁කමයි 33
▁කරගැනීමට 33
▁කලබ 33
▁කලිසමක 33
▁කසාදය 33
▁කාරයින 33
▁කාරුණික 33
▁කාලයත 33
▁කාලසටහන 33
▁කැමැතියි 33
▁කුද 33
▁කෙනත 33
▁කෙෙනක 33
▁කේබ 33
▁ගලවගන 33
▁ගැලෙව 33
▁ගෙඩි 33
▁ගොඩට 33
▁ගොර 33
▁ඝාතකයෙක 33
▁චතුර 33
▁ජොශ 33
▁ඩවුන 33
▁ඩෝවර 33
▁තරයට 33
▁තිබූ 33
▁තුම 33
▁තුවකට 33
▁ථායි 33
▁දිශාවට 33
▁දෙනවාද 33
▁ධිමතෙක 33
▁නතරකරන 33
▁නවය 33
▁නැතිවුනේ 33
▁නිකිල 33
▁නිපදවන 33
▁නියමම 33
▁නියෝජිතයින 33
▁නිරාවරණය 33
▁නිළධාරීන 33
▁නීච 33
▁නූල 33
▁නෙවේද 33
▁පටු 33
▁පරිපථ 33
▁පාමර 33
▁පාරම 33
▁පාරයි 33
▁පාළුව 33
▁පෑම 33
▁පිදුරු 33
▁පියාණෙනි 33
▁පියාඹ 33
▁පිරිතාලේ 33
▁පිලිබඳ 33
▁පිළිතුරක 33
▁පුට 33
▁බංකොලොත 33
▁බරපතලයි 33
▁බැංකුවට 33
▁බැයිද 33
▁බිරිඳව 33
▁බොරුකාර 33
▁භාෂ 33
▁භුම 33
▁භූමියේ 33
▁මගක 33
▁මායාකර 33
▁මැරුවට 33
▁මෑතක 33
▁මීයෝ 33
▁මේසයක 33
▁මොකෙන 33
▁යාළුවකේ 33
▁යුරෝප 33
▁යොද 33
▁රජුට 33
▁රටාව 33
▁රටාවක 33
▁රනවා 33
▁රපටය 33
▁රයිනා 33
▁රහාරක 33
▁රළු 33
▁රාජාල 33
▁රෑකම 33
▁රුත 33
▁රෝමය 33
▁ලටම 33
▁ලබාදෙනවා 33
▁ලියවිල 33
▁ලොකර 33
▁වරුනේ 33
▁වරෙං 33
▁වරෙල 33
▁වානර 33
▁වානරයන 33
▁වාසන 33
▁වැඩද 33
▁වැසිකිල 33
▁විටෙක 33
▁විධ 33
▁විධාන 33
▁විනිසුරු 33
▁විභාගය 33
▁වෘ 33
▁වෙනකොටත 33
▁වෙලාවෙද 33
▁වෙවී 33
▁ෂෙන 33
▁සංචාරක 33
▁සංවර 33
▁සමුද 33
▁සමුළ 33
▁සයට 33
▁සරහම 33
▁සහෝදරයන 33
▁සැකසුම 33
▁සිංහානියා 33
▁සිරුරක 33
▁සීමාවන 33
▁සූදු 33
▁සොලවන 33
▁සෝවක 33
▁හලෙ 33
▁හාවා 33
▁හැගෙන 33
▁හීරෝ 33
▁හුදකලා 33
▁හුදෙකලා 33
▁ළඟටම 33
▁ෆන 33
▁ෆීල 33
▁ෆෙරේඩ 33
▁ෙකා 33
abad 32
anne 32
antly 32
coming 32
destruct 32
did 32
eet 32
hab 32
heads 32
icate 32
life 32
look 32
nie 32
now 32
pes 32
rah 32
raj 32
rant 32
ration 32
rell 32
rov 32
safe 32
ship 32
ss 32
utes 32
à 32
ංගන 32
ඉක 32
උනා 32
ඌ 32
කියලා 32
ගැහ 32
ඥයෙක 32
ටනෙ 32
තාක 32
පැත 32
බායි 32
යුතුයි 32
රේට 32
වකො 32
වෙමින 32
ාලය 32
ෑමට 32
ිණ 32
ුකිරීම 32
ුළුවන 32
ෙලි 32
ේනා 32
▁155 32
▁2012 32
▁96 32
▁activate 32
▁aer 32
▁african 32
▁ally 32
▁altered 32
▁analysis 32
▁angie 32
▁anyways 32
▁arrogant 32
▁auspicious 32
▁austen 32
▁autopsy 32
▁bansal 32
▁brick 32
▁britain 32
▁cabe 32
▁cable 32
▁calf 32
▁canyon 32
▁celebrating 32
▁certificate 32
▁chemicals 32
▁choong 32
▁choudhary 32
▁cleaner 32
▁clinic 32
▁colors 32
▁commun 32
▁confessed 32
▁contained 32
▁crawl 32
▁creek 32
▁cyber 32
▁deadline 32
▁defeated 32
▁depths 32
▁described 32
▁dessert 32
▁detonate 32
▁disconnect 32
▁distract 32
▁dose 32
▁dup 32
▁dur 32
▁editor 32
▁elements 32
▁everest 32
▁evolution 32
▁exits 32
▁fiancé 32
▁fig 32
▁forehead 32
▁forensic 32
▁frankly 32
▁gaines 32
▁gangster 32
▁gathering 32
▁gem 32
▁gener 32
▁gordon 32
▁handful 32
▁hauser 32
▁heavens 32
▁hereby 32
▁hip 32
▁hostel 32
▁hunch 32
▁immortal 32
▁immune 32
▁independence 32
▁industry 32
▁inspired 32
▁jesse 32
▁johanssen 32
▁kay 32
▁kipps 32
▁kree 32
▁labeaux 32
▁len 32
▁les 32
▁lousy 32
▁lucas 32
▁luke 32
▁mammoth 32
▁miracles 32
▁mithra 32
▁momose 32
▁mont 32
▁mult 32
▁murali 32
▁mutual 32
▁nails 32
▁nancy 32
▁obey 32
▁obsession 32
▁olivia 32
▁opp 32
▁organized 32
▁phd 32
▁pirates 32
▁plains 32
▁pointed 32
▁pret 32
▁protest 32
▁punk 32
▁radi 32
▁rally 32
▁ransom 32
▁reckless 32
▁reminded 32
▁remotely 32
▁reznik 32
▁ridge 32
▁ros 32
▁scram 32
▁seattle 32
▁sens 32
▁shallow 32
▁sits 32
▁smash 32
▁snacks 32
▁soviet 32
▁stalk 32
▁strongest 32
▁submarine 32
▁surviving 32
▁tense 32
▁terrified 32
▁tj 32
▁toxic 32
▁tre 32
▁triggered 32
▁unlock 32
▁unnecessarily 32
▁upside 32
▁urgently 32
▁vacuum 32
▁varun 32
▁vickers 32
▁vs 32
▁wheeler 32
▁wires 32
▁wong 32
▁workers 32
▁අගමැති 32
▁අතනින 32
▁අදෘශ 32
▁අධිවේගී 32
▁අධීක 32
▁අඳුනන 32
▁අපූර 32
▁අරාබි 32
▁ආවනේ 32
▁ඇරගන 32
▁ඇලී 32
▁ඉංජිනේර 32
▁ඉඟ 32
▁උක 32
▁උඩටම 32
▁උණත 32
▁උසාව 32
▁එතනම 32
▁එනම 32
▁එනවාද 32
▁ඒකනෙ 32
▁ඒකව 32
▁ඒතරම 32
▁ඔම 32
▁ඔයි 32
▁ඕනේනම 32
▁ඕවන 32
▁කටවහන 32
▁කබල 32
▁කමිසය 32
▁කලාපය 32
▁කළමනා 32
▁කාරයකේ 32
▁කාලගුණය 32
▁කිමිද 32
▁කුතුහල 32
▁කුරුළු 32
▁කුසලාන 32
▁කූඩුවක 32
▁කොංග 32
▁කොමලා 32
▁කොව 32
▁ගැටළු 32
▁ගැහුවද 32
▁ගියානේ 32
▁ගෙත 32
▁ගෙරාඩ 32
▁ගොඩබාන 32
▁චිල 32
▁චීනය 32
▁ජාලයෙන 32
▁ජූලි 32
▁ජොර 32
▁ටගන 32
▁ටීල 32
▁ටේට 32
▁ටොයිලට 32
▁ටෝම 32
▁ඩිල 32
▁ඩීන 32
▁ඩූ 32
▁තණකොළ 32
▁තැල 32
▁තියමු 32
▁තුරුම 32
▁තොටුපලට 32
▁ථානයකට 32
▁ථි 32
▁දකම 32
▁දඩයමේ 32
▁දරුණ 32
▁දරුවව 32
▁දාපං 32
▁දැනුණා 32
▁දිගයි 32
▁දියර 32
▁දෙනාගේ 32
▁දේශපාල 32
▁දොඩවන 32
▁ධනවත 32
▁ධී 32
▁නනව 32
▁නයේමි 32
▁නවානම 32
▁නිකලස 32
▁නිදර 32
▁නිලධාරින 32
▁නෙමෙයිනේ 32
▁නෙව 32
▁නේනෑ 32
▁නොන 32
▁පහට 32
▁පැටවා 32
▁පැමිනෙනවා 32
▁පිටවෙනවා 32
▁පියතුමනි 32
▁පියාගේ 32
▁පිවිසෙන 32
▁පුරුදුවෙලා 32
▁පුවරුව 32
▁පුළුවං 32
▁පොයින 32
▁බරෙ 32
▁බැඳීම 32
▁බැරන 32
▁බිමක 32
▁බිලාල 32
▁භූතයෙක 32
▁මංදා 32
▁මනහර 32
▁මනේ 32
▁මයිලි 32
▁මානයක 32
▁මාලේ 32
▁මාළුන 32
▁මීයා 32
▁මුනගැ 32
▁මුළුමුනින 32
▁මෙතනද 32
▁මෙයාගෙන 32
▁මේතරම 32
▁මොනාටද 32
▁යනකල 32
▁යානයෙන 32
▁යෙදෙන 32
▁රගප 32
▁රතිඵලයක 32
▁රමාණ 32
▁රාකේෂ 32
▁රිකාවෙ 32
▁රිකාවේ 32
▁රියදුරෙක 32
▁රියාකාර 32
▁රෙකෝඩ 32
▁රෙඩිට 32
▁රේගල 32
▁රොබර 32
▁රෝහියෙක 32
▁ලනි 32
▁ලමයිනේ 32
▁ලයිකන 32
▁ලැබී 32
▁ලියෙක 32
▁ලිහිල 32
▁ලූක 32
▁ලොට 32
▁වංච 32
▁වච 32
▁වදේදී 32
▁වයිකින 32
▁වලහා 32
▁වසීර 32
▁වාරෙ 32
▁වාෂ 32
▁වැඩිවෙන 32
▁වැරදිද 32
▁වැලැක 32
▁වැසුම 32
▁විදි 32
▁විනාඩියකට 32
▁විවේකය 32
▁වීදියේ 32
▁වෙලාවත 32
▁ශයක 32
▁ශාලාවක 32
▁ෂපාතී 32
▁ෂිප 32
▁ෂී 32
▁සංවේද 32
▁සතුර 32
▁සයිකල 32
▁සරවෙලා 32
▁සහභාගි 32
▁සහොදර 32
▁සාත 32
▁සාදයට 32
▁සායා 32
▁සැබවින 32
▁සැරස 32
▁සැලකිය 32
▁සැලස 32
▁සිංග 32
▁සිටීමට 32
▁සිනේ 32
▁සිරි 32
▁සීමාවේ 32
▁සේනාව 32
▁සොඩ 32
▁සොෆී 32
▁සෝඩා 32
▁හතුරන 32
▁හරවලා 32
▁හරිත 32
▁හරියෙ 32
▁හාදය 32
▁හාදුවක 32
▁හැකර 32
▁හික 32
▁හිතින 32
▁හීනය 32
▁හුකර 32
▁හෙලි 32
▁හොදා 32
▁ෆිය 32
▁ෆොන 32
▁ෙනවයෙි 32
.50 31
ables 31
ady 31
aker 31
ality 31
aut 31
ction 31
ference 31
foot 31
inda 31
itor 31
itude 31
kers 31
leton 31
nes 31
osing 31
outs 31
ple 31
ras 31
rem 31
shirt 31
shit 31
sm 31
term 31
uth 31
wan 31
í 31
ඔවු 31
කමින 31
කොල 31
ජනයක 31
ඩෝන 31
ණයන 31
ණා 31
ණෙ 31
තිත 31
නියමයි 31
පුරුද 31
වැඩ 31
වුමක 31
හං 31
හාට 31
ාගැන 31
ිදා 31
ීවී 31
ුවනවා 31
ුවාට 31
ුවාද 31
ෙලා 31
ොවේ 31
▁1977 31
▁aal 31
▁additional 31
▁administ 31
▁alabama 31
▁allows 31
▁anderson 31
▁anxious 31
▁anyhow 31
▁appeal 31
▁aqu 31
▁architect 31
▁attempting 31
▁attracted 31
▁bac 31
▁balli 31
▁bets 31
▁blend 31
▁blond 31
▁boris 31
▁breached 31
▁calc 31
▁calculations 31
▁candidate 31
▁cav 31
▁channels 31
▁chemistry 31
▁claiming 31
▁coffin 31
▁colin 31
▁coll 31
▁colleagues 31
▁committing 31
▁conflict 31
▁constable 31
▁continued 31
▁corporal 31
▁crop 31
▁cuts 31
▁dang 31
▁destined 31
▁dialogue 31
▁difficulty 31
▁ditch 31
▁dvd 31
▁enc 31
▁errand 31
▁eternity 31
▁evert 31
▁extract 31
▁flavor 31
▁fog 31
▁fortress 31
▁freed 31
▁frequency 31
▁galaxy 31
▁gale 31
▁google 31
▁hacker 31
▁horace 31
▁importantly 31
▁increased 31
▁indicate 31
▁infirmary 31
▁inquiry 31
▁inspiration 31
▁jenkins 31
▁july 31
▁kennedy 31
▁kragle 31
▁kravid 31
▁lakh 31
▁lance 31
▁laser 31
▁latif 31
▁limb 31
▁linguini 31
▁locations 31
▁luc 31
▁lun 31
▁mart 31
▁matthew 31
▁meter 31
▁militia 31
▁moira 31
▁moran 31
▁nearest 31
▁neil 31
▁nikhil 31
▁novel 31
▁nur 31
▁omar 31
▁orbit 31
▁oxford 31
▁painted 31
▁panel 31
▁peacock 31
▁perspective 31
▁physically 31
▁poisoning 31
▁potato 31
▁programs 31
▁prometheus 31
▁protocols 31
▁psychology 31
▁raina 31
▁recognise 31
▁reign 31
▁relations 31
▁rider 31
▁ripley 31
▁sally 31
▁sammy 31
▁scale 31
▁scares 31
▁scenes 31
▁scotch 31
▁seals 31
▁secured 31
▁servants 31
▁shuttle 31
▁significant 31
▁sippy 31
▁ski 31
▁smallest 31
▁smugg 31
▁spain 31
▁sports 31
▁stalking 31
▁starboard 31
▁static 31
▁ster 31
▁stir 31
▁sunlight 31
▁suv 31
▁tattooed 31
▁terrain 31
▁tessa 31
▁thirst 31
▁thri 31
▁ti 31
▁tracker 31
▁twisted 31
▁typical 31
▁various 31
▁vera 31
▁versus 31
▁viol 31
▁virginia 31
▁wazir 31
▁website 31
▁whispering 31
▁wink 31
▁අඩංගුවේ 31
▁අතීතයට 31
▁අතුග 31
▁අධම 31
▁අනතුරකට 31
▁අඳ 31
▁අඳුරේ 31
▁අපරාදේ 31
▁අමනුෂ 31
▁අරයව 31
▁අවිශ 31
▁අසභ 31
▁අහුර 31
▁අහුවෙනවා 31
▁ඇඟෙව 31
▁ඇදේ 31
▁ඇනන 31
▁ඇවිදන 31
▁ඉදිකිරීම 31
▁ඊටවඩා 31
▁උනු 31
▁එරෙහි 31
▁ඒකාබද 31
▁ඔඩ 31
▁ඔබලාව 31
▁ඔයාමයි 31
▁ඔලුවෙ 31
▁ඔහුගේම 31
▁ඔළුවෙ 31
▁ඕනවුනේ 31
▁කකුලට 31
▁කටකතා 31
▁කටවල 31
▁කණගා 31
▁කථාවක 31
▁කනව 31
▁කඳවුරේ 31
▁කමිට 31
▁කයිලි 31
▁කරාවිද 31
▁කලවම 31
▁කලානම 31
▁කහම 31
▁කාරණාවක 31
▁කාරයි 31
▁කාලයයි 31
▁කාස 31
▁කැඩෙන 31
▁කැලෝ 31
▁කෑමත 31
▁කුත 31
▁කුමාරිය 31
▁කෙනෙකුත 31
▁කෙරෙනවා 31
▁කොකේන 31
▁කෝනි 31
▁කෝෂ 31
▁ගඳයි 31
▁ගබ 31
▁ගලිකයි 31
▁ගවේශ 31
▁ගවේෂණය 31
▁ගැහැණ 31
▁ගිලෙන 31
▁ගෝණා 31
▁චාරිකාවක 31
▁ජාතීන 31
▁ජීවිතයෙන 31
▁ජීවිතෙන 31
▁ටයෙක 31
▁ටැප 31
▁ටිකන 31
▁ටෙම 31
▁ටෙසා 31
▁ඩිප 31
▁ඩොර 31
▁තබ 31
▁තමාන 31
▁තෑ 31
▁තුයි 31
▁තුළින 31
▁තූරේ 31
▁තොම 31
▁ථකව 31
▁දගලන 31
▁දාදුවෝ 31
▁දුපතට 31
▁දුවමු 31
▁දෙකේම 31
▁දෙනවනම 31
▁නංගී 31
▁නිගමනය 31
▁නියෝජිතයන 31
▁නුබට 31
▁නුබේ 31
▁නේට 31
▁නොතේරෙන 31
▁නොනැසි 31
▁නොල 31
▁පතල 31
▁පරදිනවා 31
▁පරිණාමය 31
▁පලක 31
▁පවුලෙන 31
▁පළි 31
▁පැතිරිලා 31
▁පිටරට 31
▁පියතුමා 31
▁පියානෝ 31
▁පිරිසිඳු 31
▁පීඩා 31
▁පුපුරලා 31
▁පෘතුවිය 31
▁පෙනේවි 31
▁පොළව 31
▁පෝර 31
▁බඩේ 31
▁බඳිනවා 31
▁බලයි 31
▁බලයේ 31
▁බලශක 31
▁බහුල 31
▁බාගේ 31
▁බාරගත 31
▁බිර 31
▁බිරා 31
▁බීර 31
▁බුවක 31
▁බෘස 31
▁මංද 31
▁මැඩපවත 31
▁මිනිමර 31
▁මිරික 31
▁මුදවා 31
▁මූත 31
▁මූලපත 31
▁මෙතනදී 31
▁මෙයට 31
▁මේහෙ 31
▁යමෙක 31
▁රකාශයට 31
▁රතිපල 31
▁රධානම 31
▁රභ 31
▁රභවය 31
▁රමානය 31
▁රහයක 31
▁රාවිඩ 31
▁රාෆ 31
▁රිච 31
▁රියන 31
▁රුවත 31
▁රෝහලෙන 31
▁ලගමු 31
▁ලමු 31
▁ලයිලා 31
▁ලෝකයා 31
▁වටිනව 31
▁වහගනින 31
▁වාකර 31
▁විධිය 31
▁විනෝදජනක 31
▁විභ 31
▁විමක 31
▁වියට 31
▁විශේශ 31
▁විහිළුව 31
▁වීටර 31
▁වීඩියෝව 31
▁වෙලාවටද 31
▁වෙසෙන 31
▁ශකය 31
▁ශේෂ 31
▁ෂයන 31
▁සනක 31
▁සමනල 31
▁සමහරුන 31
▁සමූහාණ 31
▁සලකුනු 31
▁සාමකාම 31
▁සැස 31
▁සැළකිල 31
▁සිතා 31
▁සිලා 31
▁සිසිර 31
▁සුරංගනාවි 31
▁සේවයෙන 31
▁සෝස 31
▁හංග 31
▁හදගැස 31
▁හරියනවා 31
▁හාදයෝ 31
▁හාම 31
▁හැංගුවා 31
▁හැමදේකින 31
▁හැරෙව 31
▁හිනාවෙනවා 31
▁හීත 31
▁හේවා 31
▁හොයගන 31
▁හොරුන 31
▁හෝන 31
▁ළඟයි 31
▁ළමයො 31
▁ෆැල 31
▁ෙසායාගන 31
70 30
alled 30
amed 30
amy 30
asy 30
cker 30
cri 30
des 30
eable 30
endra 30
ense 30
enses 30
erson 30
ffe 30
headed 30
ida 30
imeter 30
ips 30
lings 30
mic 30
olved 30
play 30
please 30
rid 30
rod 30
ued 30
ulated 30
uled 30
ura 30
á 30
අනේ 30
අපේ 30
එයාල 30
දායි 30
පුරුදු 30
මිනි 30
යකු 30
වනං 30
වමු 30
වුල 30
ශී 30
ෂර 30
ාවී 30
ෑමක 30
ිපත 30
ුවෙයි 30
ූව 30
ෙකා 30
ෙයිද 30
▁....... 30
▁15,000 30
▁300,000 30
▁79 30
▁abducted 30
▁adults 30
▁alt 30
▁ape 30
▁appropriate 30
▁approved 30
▁aria 30
▁article 30
▁atlantic 30
▁basil 30
▁beep 30
▁begged 30
▁benefits 30
▁bennet 30
▁bolt 30
▁bomber 30
▁broker 30
▁buttons 30
▁canon 30
▁capacity 30
▁causes 30
▁chandni 30
▁clar 30
▁cour 30
▁covers 30
▁cri 30
▁custom 30
▁dealers 30
▁defending 30
▁dem 30
▁devices 30
▁divya 30
▁dizzy 30
▁drain 30
▁efficient 30
▁employ 30
▁endless 30
▁endure 30
▁episode 30
▁essential 30
▁explode 30
▁exploded 30
▁facial 30
▁fails 30
▁fairies 30
▁fist 30
▁flor 30
▁framed 30
▁fridge 30
▁fugly 30
▁galen 30
▁generations 30
▁genie 30
▁gesture 30
▁gi 30
▁grenade 30
▁gum 30
▁hallway 30
▁handcuffs 30
▁healing 30
▁heartbeat 30
▁hills 30
▁hind 30
▁imag 30
▁initiating 30
▁inn 30
▁inspect 30
▁intact 30
▁intern 30
▁invent 30
▁ironic 30
▁ist 30
▁jacq 30
▁jewel 30
▁jun 30
▁jyn 30
▁kitty 30
▁ladder 30
▁lancelot 30
▁las 30
▁laurel 30
▁legally 30
▁lifted 30
▁mafia 30
▁mai 30
▁manual 30
▁meals 30
▁melissa 30
▁memorial 30
▁mika 30
▁minus 30
▁mla 30
▁motel 30
▁motherland 30
▁mutation 30
▁nag 30
▁newspapers 30
▁nod 30
▁nova 30
▁nu 30
▁occur 30
▁ooo 30
▁oxenby 30
▁panda 30
▁paths 30
▁payback 30
▁peggy 30
▁pippin 30
▁pittman 30
▁politician 30
▁pork 30
▁predator 30
▁proc 30
▁promoted 30
▁pur 30
▁quantum 30
▁rancchoddas 30
▁rarely 30
▁reaches 30
▁recruit 30
▁reduce 30
▁regardless 30
▁rickman 30
▁rox 30
▁screams 30
▁senpai 30
▁sensational 30
▁sentimental 30
▁sentinel 30
▁serum 30
▁shipping 30
▁shops 30
▁slaughter 30
▁sleepy 30
▁solar 30
▁spicy 30
▁spine 30
▁sponsor 30
▁steep 30
▁stepping 30
▁strikes 30
▁strongly 30
▁stu 30
▁sunshine 30
▁superb 30
▁surprising 30
▁sympathy 30
▁tactical 30
▁tens 30
▁thus 30
▁tissue 30
▁titus 30
▁tong 30
▁tore 30
▁traces 30
▁transp 30
▁tune 30
▁unarmed 30
▁unin 30
▁virtually 30
▁wa 30
▁wander 30
▁xi 30
▁yadav 30
▁۩ 30
▁අටයි 30
▁අඩංගු 30
▁අඩුවක 30
▁අදුන 30
▁අදුනගන 30
▁අනුක 30
▁අපරාධය 30
▁අපායේ 30
▁අමාරුවෙ 30
▁අහවර 30
▁ආකෘති 30
▁ආතතිය 30
▁ආබාධ 30
▁ආරාධ 30
▁ආසාත 30
▁ඇතිවුනා 30
▁ඇතුලෙදි 30
▁ඇදගත 30
▁ඇමෙරිකා 30
▁ඇහැරවන 30
▁ඇහෙනවාද 30
▁ඉගෙනගෙන 30
▁ඉදිරියටම 30
▁උගුලකට 30
▁උට 30
▁එනවනම 30
▁එලියෙන 30
▁ඒවයින 30
▁ඔබතුමාට 30
▁ඔරං 30
▁ඔවන 30
▁ඔෆිසර 30
▁ඕනැ 30
▁කටවහනවා 30
▁කදුළු 30
▁කයේ 30
▁කලියෙන 30
▁කාබන 30
▁කාලයෙන 30
▁කාසි 30
▁කැඩිච 30
▁කියලනම 30
▁කියවෙනවා 30
▁කීවොත 30
▁කුමරු 30
▁කූඩුවේ 30
▁කොහාට 30
▁ගංජා 30
▁ගනිස 30
▁ගමනාන 30
▁ගැඹුරට 30
▁ගියර 30
▁ගෙඩිය 30
▁ගෙනෙන 30
▁ගෙවත 30
▁ගොඩනැඟිල 30
▁ඝාතකයා 30
▁චිම 30
▁ජීවය 30
▁ටයිටස 30
▁ටාට 30
▁ටැ 30
▁ටැංකියක 30
▁ඩලයේ 30
▁ඩායමෙන 30
▁ඩාල 30
▁ඩෙම 30
▁ඩේට 30
▁ණි 30
▁තනියමද 30
▁තයාගේ 30
▁තරමින 30
▁තවද 30
▁තාගෙ 30
▁තිබනෙවා 30
▁තිහක 30
▁තේරැම 30
▁තෝරාගැනීමක 30
▁තෝල 30
▁දරුනු 30
▁දිනපොත 30
▁දුරකට 30
▁ධකාරය 30
▁ධාවක 30
▁නප 30
▁නැවෙන 30
▁නෑදෑ 30
▁නෙනෑ 30
▁නෙමි 30
▁නේත 30
▁පරිච 30
▁පලයක 30
▁පවුලත 30
▁පසුතැවෙන 30
▁පිටතින 30
▁පිටුව 30
▁පිපුර 30
▁පුතත 30
▁පුළුල 30
▁පොටෝ 30
▁පොස 30
▁බදාගන 30
▁බනම 30
▁බයානක 30
▁බරයක 30
▁බැංකුවෙන 30
▁බැවින 30
▁බිඳවැට 30
▁බුරුල 30
▁බේට 30
▁බෝලයක 30
▁භිත 30
▁මකරා 30
▁මකරු 30
▁මදක 30
▁මදුර 30
▁මනාල 30
▁මරණව 30
▁මාතෘ 30
▁මානසිකව 30
▁මායාවන 30
▁මාලාවක 30
▁මාලුවෙක 30
▁මැරියන 30
▁මැහුම 30
▁මුණගැහුනා 30
▁මෘගයා 30
▁මෙනෙවිය 30
▁මෙව 30
▁මේකනේ 30
▁මේකව 30
▁මොලයක 30
▁යවල 30
▁යාවෙනි 30
▁යැයි 30
▁යොදාගෙන 30
▁රංග 30
▁රතිසංස 30
▁රථයකට 30
▁රබන 30
▁රමික 30
▁රවුන 30
▁රහල 30
▁රහලෝකය 30
▁රැට 30
▁රීඩකයෙක 30
▁ලකට 30
▁ලිබි 30
▁ලිල 30
▁ලුහුබඳිනවා 30
▁ලූකා 30
▁වගක 30
▁වතුරයි 30
▁වදේශ 30
▁වනවද 30
▁වයිෆ 30
▁වශ 30
▁වසරකට 30
▁වළල 30
▁වාය 30
▁වැඩසටහනේ 30
▁වැර 30
▁වැරදී 30
▁විදියටද 30
▁විදියෙ 30
▁විධියක 30
▁විනීත 30
▁විලේ 30
▁විහිල 30
▁වීප 30
▁වෙරෝනිකා 30
▁වේදන 30
▁සතුරෙක 30
▁සමාගමෙන 30
▁සමාජයට 30
▁සාධාරණය 30
▁සියවස 30
▁සිවා 30
▁සීයයි 30
▁සේවාදායකයෙක 30
▁හදිසියේ 30
▁හපා 30
▁හමාර 30
▁හඹා 30
▁හලට 30
▁හලෙන 30
▁හලෙෝ 30
▁හානිය 30
▁හැගිම 30
▁හැත 30
▁හීතල 30
▁හුක 30
▁හුත 30
▁හෙනම 30
▁ෆුට 30
▁★ 30
,500 29
,7 29
.- 29
aches 29
aze 29
bor 29
bu 29
him 29
iel 29
iers 29
ikes 29
ingly 29
itive 29
lands 29
lar 29
list 29
lla 29
lon 29
low 29
maker 29
master 29
mi 29
mile 29
new 29
oles 29
omed 29
sters 29
ules 29
ult 29
urn 29
ushing 29
uted 29
ංගු 29
ඒකට 29
ණීය 29
දායක 29
දියි 29
පාන 29
මොනවද 29
රියන 29
ලස 29
ලො 29
වෙම 29
වොත 29
ශා 29
ශීල 29
සින 29
සුම 29
හරින 29
ාරය 29
ිවට 29
ුටම 29
ුවකෝ 29
ෙේ 29
▁160 29
▁57 29
▁76 29
▁95 29
▁actors 29
▁ahaana 29
▁amb 29
▁ancestors 29
▁aragorn 29
▁arif 29
▁audio 29
▁backyard 29
▁badass 29
▁banana 29
▁barrel 29
▁basket 29
▁bilal 29
▁billions 29
▁ble 29
▁blueprints 29
▁boon 29
▁builder 29
▁butcher 29
▁buyer 29
▁cabinet 29
▁cinema 29
▁cobra 29
▁cod 29
▁colon 29
▁compartment 29
▁cooperation 29
▁corps 29
▁cro 29
▁crystal 29
▁cuba 29
▁cuffs 29
▁dagger 29
▁dash 29
▁decepticons 29
▁delicate 29
▁descend 29
▁designer 29
▁determined 29
▁diner 29
▁disable 29
▁disappoint 29
▁discussed 29
▁dishes 29
▁dismissed 29
▁dodi 29
▁dolan 29
▁doom 29
▁dough 29
▁drowning 29
▁dy 29
▁ell 29
▁equ 29
▁evo 29
▁excitement 29
▁execution 29
▁executive 29
▁feared 29
▁females 29
▁finance 29
▁finn 29
▁fleece 29
▁floors 29
▁folk 29
▁foul 29
▁funding 29
▁furious 29
▁giants 29
▁goose 29
▁graduate 29
▁grenouille 29
▁hacking 29
▁happier 29
▁hardware 29
▁hesitate 29
▁hilarious 29
▁hoff 29
▁imlay 29
▁industrial 29
▁irs 29
▁jelly 29
▁jumps 29
▁karr 29
▁kilo 29
▁kong 29
▁laila 29
▁lakshmi 29
▁lean 29
▁magistrate 29
▁makeup 29
▁malfunction 29
▁measures 29
▁mem 29
▁messy 29
▁mock 29
▁mortgage 29
▁mus 29
▁mutton 29
▁naz 29
▁neat 29
▁ned 29
▁neutral 29
▁ni 29
▁ny 29
▁organize 29
▁outstanding 29
▁packs 29
▁palm 29
▁paralyzed 29
▁patterns 29
▁pencil 29
▁philly 29
▁pops 29
▁pos 29
▁prayed 29
▁products 29
▁pul 29
▁purcell 29
▁questioned 29
▁ramsey 29
▁realised 29
▁reduced 29
▁reese 29
▁referring 29
▁refusing 29
▁regain 29
▁relieved 29
▁roar 29
▁rode 29
▁ross 29
▁saya 29
▁seasons 29
▁secretly 29
▁seize 29
▁shade 29
▁sheer 29
▁snatched 29
▁squadron 29
▁steele 29
▁stunt 29
▁sucker 29
▁sund 29
▁supper 29
▁swagger 29
▁taco 29
▁tarr 29
▁terry 29
▁thrilled 29
▁tires 29
▁topic 29
▁troy 29
▁turner 29
▁tying 29
▁uk 29
▁unicorn 29
▁unpredictable 29
▁va 29
▁vain 29
▁violation 29
▁vis 29
▁waitress 29
▁wakes 29
▁wang 29
▁warren 29
▁wasim 29
▁wat 29
▁wilhemina 29
▁williams 29
▁winterfell 29
▁worship 29
▁youtube 29
▁zapata 29
▁¿ 29
▁අගනුවරට 29
▁අණක 29
▁අතරමන 29
▁අදුරන 29
▁අනාත 29
▁අනුෂ 29
▁අයිතිකාර 29
▁අරගල 29
▁අරයට 29
▁අසර 29
▁අසා 29
▁අහවරයි 29
▁අහුව 29
▁ආරියා 29
▁ඇඩම 29
▁ඉලව 29
▁උදුර 29
▁උනානේ 29
▁උපය 29
▁එකගත 29
▁එකවත 29
▁එකිනෙක 29
▁එයිද 29
▁එලෙව 29
▁එවගේම 29
▁එහාපැත 29
▁ඔබගෙන 29
▁ඔයගෙ 29
▁ඔරොත 29
▁ඕකම 29
▁ඕනෙත 29
▁කඳවුරක 29
▁කරපල 29
▁කරමි 29
▁කරලම 29
▁කහපාට 29
▁කාබනික 29
▁කැඳවන 29
▁කියනවට 29
▁කිසිවෙකුට 29
▁කිහිපය 29
▁කීව 29
▁කුංග 29
▁කුණාටු 29
▁කෙනාගෙ 29
▁කොතන 29
▁කොලයක 29
▁කොහොමටත 29
▁කෝකියෙක 29
▁කෝබ 29
▁ගඟේ 29
▁ගඩොල 29
▁ගනිවි 29
▁ගනුදෙන 29
▁ගබඩාවේ 29
▁ගවේශනය 29
▁ගාම 29
▁ගැනිම 29
▁ගුරුතුම 29
▁ගෘට 29
▁ගොනාට 29
▁චැට 29
▁චෙෆ 29
▁ජනාධිපතිතුම 29
▁ජනේලෙන 29
▁ජම 29
▁ජාවට 29
▁ජිවතුන 29
▁ජෙල 29
▁ජේත 29
▁ටනය 29
▁ටෙජ 29
▁ටෝරි 29
▁ඩබල 29
▁ඩලයට 29
▁තයව 29
▁තාල 29
▁තාවට 29
▁තාවේ 29
▁තිබුනනම 29
▁තියනෙවද 29
▁තිරිසන 29
▁තුවාලද 29
▁තෘ 29
▁තේම 29
▁තොගයක 29
▁දිනපතා 29
▁දුමක 29
▁දුසිමක 29
▁දූපෙතන 29
▁දෙනකොට 29
▁දෙනාටම 29
▁දේමයි 29
▁දෛව 29
▁නඟ 29
▁නමය 29
▁නැඟ 29
▁නැහැදිච 29
▁නිවැරද 29
▁නෙමේනේ 29
▁නෙවයිද 29
▁නොකිය 29
▁පටෙ 29
▁පහුවෙලා 29
▁පළමුවෙන 29
▁පාකර 29
▁පැකට 29
▁පැකේජ 29
▁පැතිරෙනවා 29
▁පැනගෙන 29
▁පැරොව 29
▁පැසිෆික 29
▁පියාපත 29
▁පියුටර 29
▁පිරිච 29
▁පිරිසිදුව 29
▁පිළි 29
▁පිළිතුර 29
▁පීර 29
▁පුනරුත 29
▁පුවෙන 29
▁පෙනුමෙන 29
▁පෝෂණය 29
▁ඵක 29
▁බයකරන 29
▁බරපතළ 29
▁බලහත 29
▁බහුලයි 29
▁බාරයි 29
▁බැම 29
▁බීන 29
▁බෘක 29
▁බේරුනේ 29
▁බොරැ 29
▁භූතයා 29
▁මනේන 29
▁මයාට 29
▁මහද 29
▁මාකට 29
▁මාරුව 29
▁මාරුවෙන 29
▁මාවතේ 29
▁මාළුවෙක 29
▁මැරෙනකම 29
▁මිකී 29
▁මිනිමරුවෙක 29
▁මුදුව 29
▁මුව 29
▁මෙකට 29
▁මොළයේ 29
▁මෝරු 29
▁යතාර 29
▁යමත 29
▁යවමු 29
▁යවරු 29
▁යවස 29
▁යේහ 29
▁යොන 29
▁රජන 29
▁රජාතන 29
▁රඳා 29
▁රපටයක 29
▁රවේසම 29
▁රැලි 29
▁රිචර 29
▁රියද 29
▁රියාන 29
▁ලකුණ 29
▁ලගුවාර 29
▁ලයිනස 29
▁ලිබ 29
▁ලීන 29
▁ලූකස 29
▁ලෙඩේ 29
▁ලෙසට 29
▁වංචාවක 29
▁වතාවකට 29
▁වතෙක 29
▁වවුල 29
▁වැටුනු 29
▁වැටෙයි 29
▁වැරදිකාර 29
▁විකුණුවා 29
▁විචාර 29
▁විදිහටද 29
▁වියලි 29
▁විරැද 29
▁වෙඩිතැබ 29
▁වෙනුවන 29
▁වෙලාම 29
▁වෙලාවේම 29
▁වේලක 29
▁වේවී 29
▁ශත 29
▁ෂණයෙන 29
▁ෂණයේ 29
▁ෂේක 29
▁සංවාද 29
▁සදාකාලිකවම 29
▁සඳුදා 29
▁සමගයි 29
▁සරස 29
▁සලකනවා 29
▁සලකලා 29
▁සළකුණක 29
▁සාමයෙන 29
▁සාමාජිකයන 29
▁සිකානු 29
▁සිලය 29
▁සීමාවට 29
▁සුනේ 29
▁සුළං 29
▁සේවයක 29
▁සොන 29
▁හරකා 29
▁හිතනවනම 29
▁හොයාගනෙ 29
▁ෙකාෙහ 29
▁ෙෆ 29
,6 28
-12 28
acted 28
akin 28
anes 28
anger 28
asures 28
athy 28
atory 28
aur 28
blem 28
born 28
cal 28
cking 28
den 28
dog 28
eau 28
ees 28
ently 28
hard 28
hered 28
ien 28
ifies 28
itate 28
keeper 28
mann 28
most 28
omy 28
ores 28
quet 28
ral 28
run 28
tan 28
tech 28
ten 28
uit 28
ulator 28
wife 28
එම 28
ඔය 28
කරුවො 28
කාගාර 28
කාරියි 28
ගැනිම 28
ගෙදර 28
චන 28
චි 28
තකට 28
තිබ 28
දිග 28
දිනවා 28
නමුත 28
පාල 28
යුම 28
යෙහි 28
රට 28
වමින 28
වො 28
ෂි 28
හනයක 28
හැන 28
හෙල 28
ාමය 28
ැටි 28
ියගෙ 28
ියාවෙ 28
ුරුත 28
ෙදිම 28
ෙනාත 28
ොලි 28
ෲ 28
▁1.5 28
▁194 28
▁2011 28
▁44 28
▁67 28
▁74 28
▁78 28
▁92 28
▁accidents 28
▁adapt 28
▁adm 28
▁adopt 28
▁adrenaline 28
▁aff 28
▁afterlife 28
▁amahl 28
▁antenna 28
▁antibiotics 28
▁arab 28
▁aris 28
▁ark 28
▁artery 28
▁aut 28
▁baron 28
▁beth 28
▁blackout 28
▁blaze 28
▁bonzo 28
▁boost 28
▁borrowed 28
▁bradley 28
▁bravery 28
▁bully 28
▁cad 28
▁carpet 28
▁casualties 28
▁ccpd 28
▁cere 28
▁chalk 28
▁chit 28
▁choke 28
▁cinderella 28
▁circuit 28
▁clues 28
▁comms 28
▁compare 28
▁compl 28
▁concerns 28
▁contacted 28
▁conversations 28
▁cooler 28
▁countries 28
▁cows 28
▁crawling 28
▁cunning 28
▁customs 28
▁decade 28
▁decides 28
▁deeds 28
▁deepa 28
▁detected 28
▁dh 28
▁dieter 28
▁disappointment 28
▁discussing 28
▁diversion 28
▁divine 28
▁dominic 28
▁dover 28
▁eagles 28
▁envy 28
▁escal 28
▁established 28
▁eternal 28
▁explaining 28
▁explosive 28
▁ey 28
▁february 28
▁filming 28
▁finishing 28
▁flick 28
▁flows 28
▁fluid 28
▁forged 28
▁fried 28
▁fright 28
▁funds 28
▁fuss 28
▁gifted 28
▁gill 28
▁guardia 28
▁guidance 28
▁gunfire 28
▁gunshot 28
▁hamm 28
▁handy 28
▁hatred 28
▁hears 28
▁horror 28
▁hun 28
▁ibrahim 28
▁ignition 28
▁infinite 28
▁insight 28
▁isolated 28
▁jud 28
▁kali 28
▁kansas 28
▁kilometers 28
▁kisses 28
▁kneel 28
▁korean 28
▁kylie 28
▁lame 28
▁languages 28
▁lighter 28
▁logic 28
▁lon 28
▁lorraine 28
▁lycans 28
▁lydon 28
▁malaysian 28
▁maps 28
▁mardon 28
▁mayfair 28
▁meetings 28
▁memor 28
▁metro 28
▁misery 28
▁mith 28
▁miyazaki 28
▁models 28
▁moral 28
▁morgue 28
▁morphine 28
▁nadia 28
▁neri 28
▁nerves 28
▁ninth 28
▁ntsb 28
▁objects 28
▁occupied 28
▁odessa 28
▁operative 28
▁orcs 28
▁overcome 28
▁owl 28
▁partnership 28
▁passage 28
▁performed 28
▁permanently 28
▁pierce 28
▁pigeon 28
▁pipes 28
▁pod 28
▁por 28
▁porter 28
▁pour 28
▁practicing 28
▁praying 28
▁prior 28
▁psychological 28
▁quicker 28
▁rains 28
▁raped 28
▁rapunzel 28
▁recipe 28
▁recognized 28
▁remembers 28
▁reset 28
▁respons 28
▁restore 28
▁retrieve 28
▁rightful 28
▁robbers 28
▁rodney 28
▁rolled 28
▁sailor 28
▁salas 28
▁sau 28
▁savings 28
▁scaven 28
▁scold 28
▁scoob 28
▁señor 28
▁shave 28
▁shifts 28
▁sho 28
▁sixteen 28
▁sixty 28
▁skies 28
▁slopes 28
▁sore 28
▁spect 28
▁spite 28
▁stein 28
▁stink 28
▁sudheer 28
▁sunrise 28
▁tas 28
▁tender 28
▁tolerate 28
▁tomb 28
▁trophy 28
▁troubling 28
▁unfair 28
▁unlikely 28
▁unp 28
▁vanish 28
▁videos 28
▁vigil 28
▁visible 28
▁voltage 28
▁wo 28
▁yu 28
▁අඩිපාරවල 28
▁අතඇරලා 28
▁අදුනා 28
▁අනවසරයෙන 28
▁අනූ 28
▁අපගාම 28
▁අමතකද 28
▁අමනයා 28
▁අමාල 28
▁අයදින 28
▁අයියෙ 28
▁අයුතු 28
▁අවබෝධයක 28
▁අහිමිව 28
▁ආදරෙයිද 28
▁ආධුනික 28
▁ආලෝකයක 28
▁ආලෝකයට 28
▁ආසද 28
▁ආහාරයක 28
▁ඇදට 28
▁ඇනලා 28
▁ඇරුනා 28
▁ඇව 28
▁ඇවිස 28
▁ඉතිරිව 28
▁ඉඳී 28
▁ඉරිද 28
▁උගුර 28
▁උපකරන 28
▁එකගයි 28
▁එකඟතාව 28
▁එකින 28
▁එකිනෙකට 28
▁එතකොටයි 28
▁එයාලාගේ 28
▁එහෙමමයි 28
▁එළි 28
▁එළිදරව 28
▁ඒකනිසා 28
▁ඔටෝබෝට 28
▁ඔනා 28
▁ඔයතරම 28
▁ඔරලෝසුවක 28
▁ඔලිව 28
▁ඔළුවේ 28
▁ඕල 28
▁කකුලක 28
▁කකුලේ 28
▁කරානම 28
▁කැමතියිද 28
▁කියවීම 28
▁කුනු 28
▁කොහනේද 28
▁ගැටලුවක 28
▁ගිණුමක 28
▁ගිලින 28
▁ගිලිහ 28
▁ගුහාවක 28
▁ගෙනියනව 28
▁චාව 28
▁චාවේ 28
▁ජැන 28
▁ජීවිතේටම 28
▁ටප 28
▁ටීචර 28
▁ටෝකියෝ 28
▁ඩිට 28
▁ඩෙව 28
▁ඩෝලන 28
▁තකන 28
▁තමින 28
▁තඹ 28
▁තහ 28
▁තැටිය 28
▁තිකර 28
▁තියනවනේ 28
▁තියෙනවානේ 28
▁තිරණයක 28
▁තුළට 28
▁තෙද 28
▁තේරුන 28
▁තොරයි 28
▁තෝස 28
▁ථාවරයි 28
▁දනෝන 28
▁දරේ 28
▁දාදුවා 28
▁දිනකට 28
▁දෙමින 28
▁ධවුනා 28
▁නකල 28
▁නගරයම 28
▁නඩුවේ 28
▁නලාව 28
▁නැතිවේවි 28
▁නැවති 28
▁නියෝජ 28
▁නියෝජිතයා 28
▁නියෝජිතයෝ 28
▁නීතීඥයා 28
▁නෙඩ 28
▁නෙද 28
▁නේවත 28
▁නොපෙන 28
▁පංතියේ 28
▁පටං 28
▁පටියක 28
▁පරා 28
▁පසුබ 28
▁පහෙන 28
▁පාසලෙන 28
▁පිපිරීමක 28
▁පියයුරු 28
▁පීටා 28
▁පුපුරවලා 28
▁පෙපර 28
▁පෙරළ 28
▁පොරවල 28
▁පොළඹ 28
▁බදාදා 28
▁බාගත 28
▁බැරිවේවි 28
▁බෙත 28
▁බෝලේ 28
▁භාවිතය 28
▁භූතයි 28
▁මඟුලයි 28
▁මච 28
▁මටවත 28
▁මරනය 28
▁මවාගන 28
▁මාටි 28
▁මායාකාරියන 28
▁මැව 28
▁මියාසකි 28
▁මීස 28
▁මුතුන 28
▁මුදාහරින 28
▁මූර 28
▁මෘත 28
▁මේෆයර 28
▁මොරාන 28
▁මෝට 28
▁යලි 28
▁යානුකූලව 28
▁යෙෂ 28
▁රංජනා 28
▁රඟපෑම 28
▁රජතුමණි 28
▁රවන 28
▁රවේසමෙන 28
▁රශංසා 28
▁රසිකයන 28
▁රසීල 28
▁රහසින 28
▁රළ 28
▁රාට 28
▁රිකී 28
▁රෝගයක 28
▁ලැබයි 28
▁ලැබූ 28
▁ලිංගා 28
▁ලුවෙ 28
▁ලේල 28
▁ලොරේන 28
▁වකුටු 28
▁වලාකුළු 28
▁වහා 28
▁වැග 28
▁වැටහීමක 28
▁වැටුණ 28
▁වැඩසටහනට 28
▁වැදුණා 28
▁වැරැදි 28
▁වැළඳ 28
▁විජේ 28
▁විදිහකින 28
▁විනොද 28
▁විසඳුම 28
▁විහිලුවට 28
▁වීමයි 28
▁වෙඩිතිබ 28
▁වෙයල 28
▁වේද 28
▁වේදනාවෙන 28
▁වේලාවක 28
▁ශව 28
▁ශාපයක 28
▁ෂකයිනි 28
▁ෂැගී 28
▁ෂෝව 28
▁සගර 28
▁සනී 28
▁සපයනවා 28
▁සමතලා 28
▁සමූහ 28
▁සමෙ 28
▁සයිබ 28
▁සරෝජා 28
▁සවල 28
▁සහායකයෙක 28
▁සහෝදරියක 28
▁සාතන 28
▁සාහය 28
▁සිකන 28
▁සිරකරුවන 28
▁සුලඟ 28
▁සෘජු 28
▁සෙවනැල 28
▁සෙවීම 28
▁සේවාදායකයා 28
▁සොෆ 28
▁හතලිස 28
▁හතුරෝ 28
▁හපනා 28
▁හමුවුණා 28
▁හාඩ 28
▁හාදයව 28
▁හැදෙයි 28
▁හැමොටම 28
▁හැමෝගෙන 28
▁හිටලා 28
▁හිතුනෙ 28
▁හිනාවක 28
▁හුළඟ 28
▁හෙවන 28
▁හෙවනැල 28
▁හොරකමක 28
▁ෆයි 28
▁ෙනා 28
▁ෙබ 28
▁ෙසායාගත 28
-10 27
.7 27
02 27
19 27
aby 27
ached 27
agers 27
ander 27
appy 27
bear 27
bell 27
bling 27
bone 27
bridge 27
burg 27
cept 27
cess 27
chers 27
chester 27
ebersole 27
ended 27
fort 27
iana 27
icking 27
ience 27
iful 27
iter 27
ived 27
joy 27
ken 27
lder 27
lex 27
lli 27
mails 27
mal 27
net 27
ocation 27
ounced 27
py 27
rist 27
seven 27
six 27
stand 27
talk 27
tle 27
uced 27
ums 27
vere 27
wise 27
Ç 27
ංශය 27
ඇති 27
ඔක 27
ඔයාගෙ 27
කරුණාකර 27
කිං 27
කෙ 27
ජෝ 27
ඩයි 27
ණයට 27
ණුම 27
ධා 27
නී 27
නෝ 27
බත 27
බලා 27
භාව 27
භූම 27
මී 27
යාන 27
යාවි 27
යිඩ 27
යිනා 27
වතාවක 27
වුනත 27
ශයෙන 27
සත 27
සල 27
හනය 27
හැක 27
හොඳ 27
ෆි 27
ාමි 27
ිතුමනි 27
ියං 27
ියාගේ 27
ිලිස 27
ිවෙල 27
ුණත 27
▁108 27
▁1999 27
▁2015 27
▁89 27
▁abbie 27
▁absence 27
▁acceler 27
▁accurate 27
▁annoying 27
▁appreciated 27
▁approached 27
▁arrows 27
▁atlanta 27
▁audrey 27
▁beau 27
▁bishop 27
▁blessing 27
▁bodyguard 27
▁breaths 27
▁canceled 27
▁caste 27
▁catches 27
▁celia 27
▁clam 27
▁clicks 27
▁cocaine 27
▁cockpit 27
▁cocktail 27
▁combined 27
▁concl 27
▁confront 27
▁convincing 27
▁cortez 27
▁cruise 27
▁crystals 27
▁curry 27
▁dag 27
▁decades 27
▁delighted 27
▁departure 27
▁devika 27
▁diplom 27
▁disarm 27
▁discount 27
▁disgrace 27
▁disturbance 27
▁disturbed 27
▁dope 27
▁duncan 27
▁eas 27
▁ec 27
▁eliminated 27
▁est 27
▁evaluation 27
▁everly 27
▁evey 27
▁exhibit 27
▁extinction 27
▁fi 27
▁fireworks 27
▁flare 27
▁flaw 27
▁flowing 27
▁forensics 27
▁formed 27
▁franck 27
▁frustrated 27
▁gajender 27
▁ger 27
▁glorious 27
▁goods 27
▁guessed 27
▁habits 27
▁horri 27
▁hospitals 27
▁hyd 27
▁identification 27
▁implant 27
▁imple 27
▁inject 27
▁ink 27
▁installed 27
▁jodi 27
▁joffrey 27
▁jose 27
▁kap 27
▁kh 27
▁khal 27
▁knives 27
▁ksenia 27
▁ledger 27
▁locks 27
▁longest 27
▁losers 27
▁lunatic 27
▁luthorcorp 27
▁magn 27
▁males 27
▁matheson 27
▁maurice 27
▁mecha 27
▁mentor 27
▁minions 27
▁moab 27
▁modest 27
▁modified 27
▁monk 27
▁nagar 27
▁nikita 27
▁observation 27
▁orleans 27
▁outcome 27
▁outis 27
▁override 27
▁panditji 27
▁peak 27
▁phrase 27
▁pickup 27
▁pointless 27
▁practical 27
▁pressing 27
▁proves 27
▁publicity 27
▁pus 27
▁railly 27
▁ramal 27
▁ranvir 27
▁realm 27
▁rehab 27
▁remy 27
▁restless 27
▁rewind 27
▁rigged 27
▁rivai 27
▁ruining 27
▁saruman 27
▁sathya 27
▁scenario 27
▁scholarship 27
▁shattered 27
▁shiv 27
▁sixth 27
▁sleeps 27
▁sole 27
▁solomon 27
▁sorrows 27
▁spec 27
▁specs 27
▁spectacular 27
▁spying 27
▁stray 27
▁suitable 27
▁tables 27
▁tam 27
▁targeted 27
▁technique 27
▁tequila 27
▁theater 27
▁thrill 27
▁touches 27
▁towers 27
▁transl 27
▁traveled 27
▁turbo 27
▁ug 27
▁unnecessary 27
▁weep 27
▁welfare 27
▁whichever 27
▁wished 27
▁woodsman 27
▁xavier 27
▁zahir 27
▁zampa 27
▁zod 27
▁° 27
▁අකුර 27
▁අගෝස 27
▁අතරම 27
▁අතෑරල 27
▁අධිකාර 27
▁අනාවැකිය 27
▁අපරාධකරුවන 27
▁අපිම 27
▁අපිරිසිදු 27
▁අයැද 27
▁අවල 27
▁අවුටිස 27
▁අසාධාරණ 27
▁අසාධාරණයි 27
▁අහනවද 27
▁අහමු 27
▁අහයි 27
▁අහා 27
▁ආරිෆ 27
▁ආසා 27
▁ඇඟවීම 27
▁ඇතිකරගන 27
▁ඇදෙන 27
▁ඇසිඩ 27
▁ඉතාලි 27
▁ඉදිරිපස 27
▁ඉඳං 27
▁උකස 27
▁උපස 27
▁උමගක 27
▁උසාවියේ 27
▁ඌරො 27
▁එතුමා 27
▁එයාපෝට 27
▁එහිදී 27
▁එහෙකටද 27
▁ඒකටයි 27
▁ඒමි 27
▁ඕනමෙ 27
▁කඩියා 27
▁කපොල 27
▁කයන 27
▁කරකවන 27
▁කරනන 27
▁කවදාද 27
▁කවමදාවත 27
▁කාච 27
▁කාරනාව 27
▁කාලක 27
▁කාලොස 27
▁කාශ 27
▁කැබලි 27
▁කැවිලි 27
▁කෑව 27
▁කියනවාද 27
▁කිවුවම 27
▁කිසිදාක 27
▁කුණාට 27
▁කුහරය 27
▁කූඩාරම 27
▁කූඹ 27
▁කොටසින 27
▁කොඩ 27
▁කොලොම 27
▁ගතක 27
▁ගමම 27
▁ගලනවා 27
▁ගවේෂ 27
▁ගාත 27
▁ගැටෙන 27
▁ගිණ 27
▁ගුන 27
▁ගුයිනි 27
▁ගුරේරෝ 27
▁ගෞරවනීය 27
▁ඡාවක 27
▁ජනාධිපතිතුමනි 27
▁ජයගන 27
▁ජිවිතයට 27
▁ජෙරල 27
▁ටිකේ 27
▁ටිනල 27
▁ටුඩියෝ 27
▁ටොඩ 27
▁ඩලස 27
▁ඩියොක 27
▁තටමයි 27
▁තදබද 27
▁තමට 27
▁තමුස 27
▁තයාට 27
▁තයෙ 27
▁තරක 27
▁තලන 27
▁තියෙයිද 27
▁තිවෙලා 27
▁තෙරේසා 27
▁තොටුප 27
▁තෝරගෙන 27
▁ථනාව 27
▁දකියි 27
▁දකීවි 27
▁දගාමී 27
▁දවෙනවා 27
▁දහසක 27
▁දැනටත 27
▁දුවපන 27
▁දූත 27
▁දූපතක 27
▁දූෂිත 27
▁දේවතාව 27
▁දේශය 27
▁දේසිය 27
▁දෝශ 27
▁දෝෂයක 27
▁ධාත 27
▁නවානෙ 27
▁නාකියා 27
▁නාග 27
▁නාසි 27
▁නැගෙනහිරට 27
▁නැඟිටිනවා 27
▁නැතිකරන 27
▁නෑලු 27
▁නිවෙස 27
▁නුවොත 27
▁නෙකුට 27
▁නෝමියෝ 27
▁පටලැවිල 27
▁පදිංචි 27
▁පනස 27
▁පබ 27
▁පරාව 27
▁පරිඝනක 27
▁පරිති 27
▁පවිත 27
▁පසුත 27
▁පසුපසින 27
▁පහරද 27
▁පැහැදිලිද 27
▁පිංතූරයක 27
▁පිණිස 27
▁පිපිරුම 27
▁පිරිමින 27
▁පිරෙන 27
▁පිලා 27
▁පිලිබදව 27
▁පිහිටි 27
▁පිළිගැනීමේ 27
▁පීලි 27
▁පුටුව 27
▁පුනා 27
▁පුරාණ 27
▁පුවතක 27
▁පුවර 27
▁පෙනවා 27
▁පේනවනෙ 27
▁පේළ 27
▁පොරව 27
▁පොලොව 27
▁බටන 27
▁බයවුනා 27
▁බලකා 27
▁බවුණේ 27
▁බාපු 27
▁බැහ 27
▁බිරිදක 27
▁බෙදිලා 27
▁බෙනී 27
▁බෙරිහන 27
▁මකා 27
▁මකින 27
▁මනෝවිද 27
▁මරනව 27
▁මවිත 27
▁මහෙස 27
▁මැතිසන 27
▁මෑ 27
▁මෙහිදී 27
▁මෙහෙයුමකට 27
▁මෙෙහට 27
▁මොකකද 27
▁මොකෙද 27
▁මොනද 27
▁මොහොතකින 27
▁මෝසෙස 27
▁යනගමන 27
▁යාඝ 27
▁යාවිද 27
▁යාස 27
▁යාළුකම 27
▁යැවුවා 27
▁රංචුවක 27
▁රකාශයක 27
▁රචාර 27
▁රදේශයට 27
▁රවර 27
▁රවේශමෙන 27
▁රාප 27
▁රැඳ 27
▁රිකානු 27
▁රිදෙනවද 27
▁රිපල 27
▁රේඩියේ 27
▁රේලියා 27
▁ලකෝ 27
▁ලයිඩන 27
▁ලාව 27
▁ලැබිය 27
▁ලියකිවිලි 27
▁ලුවක 27
▁ලුසියා 27
▁ලුහුබදින 27
▁ලෙඩින 27
▁ලෙසයි 27
▁වටිනාම 27
▁වනයෙ 27
▁වඳුරා 27
▁වමින 27
▁වමු 27
▁වයලීන 27
▁වයෝ 27
▁වරන 27
▁වරප 27
▁වලෙ 27
▁වසංගතය 27
▁වාශ 27
▁වැඩිහිටි 27
▁වැරදීමකින 27
▁වෑල 27
▁විදියෙන 27
▁විසදුම 27
▁වෙඩ 27
▁වෙලාවටම 27
▁වෙළ 27
▁වෙළාවක 27
▁ශය 27
▁ශෝ 27
▁ෂිකාර 27
▁සංකේතය 27
▁සඟ 27
▁සටනකට 27
▁සදාචාර 27
▁සමානව 27
▁සරාග 27
▁සහෝදරයව 27
▁සහෝදරියන 27
▁සාමාජික 27
▁සෑන 27
▁සිකුරාද 27
▁සිරස 27
▁සුදීර 27
▁සුරේෂ 27
▁සෙද 27
▁සේට 27
▁සේවාව 27
▁සෝන 27
▁සෝයි 27
▁හැසිරෙනවා 27
▁හිතං 27
▁හිතුවක 27
▁හිරකාරයෙක 27
▁හෙමිහිට 27
▁හොරකං 27
▁හොරකන 27
▁හෝටලයක 27
▁හෝටලයට 27
▁හෝටලේට 27
▁ෆෙලසිටි 27
▁ෆෝස 27
▁ෙපාඩි 27
,3 26
.10 26
14 26
adu 26
ails 26
alk 26
anna 26
bc 26
block 26
die 26
fic 26
gar 26
hot 26
ifying 26
ike 26
ipping 26
itty 26
ively 26
leg 26
lle 26
lying 26
lyn 26
may 26
nan 26
nder 26
nel 26
oe 26
oir 26
ount 26
po 26
sive 26
sty 26
umes 26
under 26
unts 26
urity 26
view 26
wara 26
ඃ 26
කටවත 26
කාරයින 26
ගක 26
ගද 26
ජනයට 26
ණෙනි 26
තු 26
තෙක 26
දැක 26
පාක 26
පාද 26
මේල 26
රයේ 26
ලාගේ 26
ලාන 26
වයක 26
වරිය 26
වියන 26
වෙමු 26
සාන 26
සුභ 26
හකට 26
හරිනවා 26
හැකිද 26
හික 26
හිල 26
හෙද 26
හෙලෝ 26
ාලයේ 26
ාවම 26
ිපති 26
ියාවෙන 26
ිරිලා 26
ුනහම 26
ුලන 26
ුවාම 26
ුවෙච 26
▁112 26
▁2006 26
▁21- 26
▁3- 26
▁62 26
▁85 26
▁aang 26
▁abrasax 26
▁accompany 26
▁acknowledge 26
▁activities 26
▁addiction 26
▁afterwards 26
▁alfredo 26
▁alter 26
▁alternate 26
▁analyze 26
▁artificial 26
▁asap 26
▁associates 26
▁awfully 26
▁bark 26
▁batch 26
▁bench 26
▁bennett 26
▁bio 26
▁booty 26
▁brandt 26
▁brant 26
▁breakthrough 26
▁breat 26
▁bul 26
▁bypass 26
▁chambers 26
▁checkmate 26
▁civilization 26
▁claudia 26
▁clay 26
▁clears 26
▁clip 26
▁clothing 26
▁clyde 26
▁comet 26
▁commitment 26
▁complaining 26
▁connections 26
▁conv 26
▁coral 26
▁corners 26
▁costumes 26
▁counsel 26
▁countdown 26
▁cra 26
▁crook 26
▁cuckoo 26
▁curiosity 26
▁damien 26
▁deceit 26
▁declare 26
▁defendant 26
▁democracy 26
▁descent 26
▁discipline 26
▁donit 26
▁donor 26
▁drank 26
▁drugged 26
▁dutch 26
▁dwell 26
▁elect 26
▁eleven 26
▁encrypted 26
▁evac 26
▁expressed 26
▁fabric 26
▁fairly 26
▁fal 26
▁farther 26
▁feather 26
▁fitting 26
▁fle 26
▁floating 26
▁freely 26
▁gamble 26
▁generally 26
▁girlhouse 26
▁groot 26
▁grounded 26
▁grunting 26
▁grunts 26
▁hansen 26
▁heights 26
▁hermes 26
▁hermione 26
▁hodor 26
▁holly 26
▁hong 26
▁humble 26
▁idol 26
▁ifs 26
▁insulting 26
▁integrity 26
▁intent 26
▁interpol 26
▁interrupting 26
▁interviews 26
▁jarrah 26
▁jeopard 26
▁joes 26
▁junkie 26
▁juvenile 26
▁kgb 26
▁laughed 26
▁laying 26
▁leezar 26
▁lick 26
▁listed 26
▁manip 26
▁marketing 26
▁mba 26
▁mechanical 26
▁minho 26
▁mint 26
▁missions 26
▁mord 26
▁nakamura 26
▁nations 26
▁nazi 26
▁newly 26
▁newton 26
▁norrie 26
▁noted 26
▁objection 26
▁observe 26
▁oct 26
▁operator 26
▁overhe 26
▁overs 26
▁owners 26
▁pap 26
▁patrick 26
▁perpet 26
▁pimp 26
▁pip 26
▁poke 26
▁potatoes 26
▁presents 26
▁processing 26
▁purchase 26
▁rail 26
▁ramp 26
▁reckon 26
▁recogn 26
▁refuge 26
▁remained 26
▁reminder 26
▁rendezvous 26
▁repeating 26
▁reservation 26
▁resur 26
▁rex 26
▁risked 26
▁roast 26
▁ropes 26
▁scam 26
▁scheme 26
▁scores 26
▁scrub 26
▁shrimp 26
▁sights 26
▁sip 26
▁slippers 26
▁slowing 26
▁sofi 26
▁som 26
▁sook 26
▁southeast 26
▁spies 26
▁stain 26
▁starve 26
▁steadman 26
▁stores 26
▁stressed 26
▁striking 26
▁subtle 26
▁superstar 26
▁sustain 26
▁sweater 26
▁sylvia 26
▁tac 26
▁tailor 26
▁tapes 26
▁tighter 26
▁tourists 26
▁tranqu 26
▁transformation 26
▁twin 26
▁unh 26
▁ups 26
▁vas 26
▁vegetarian 26
▁vet 26
▁vietnam 26
▁viper 26
▁waiter 26
▁warmth 26
▁wiggin 26
▁willingly 26
▁willoughby 26
▁wolff 26
▁yashida 26
▁අංශු 26
▁අගමැත 26
▁අඟහරුවාදා 26
▁අඩව 26
▁අඩුකරන 26
▁අඬනවා 26
▁අතෑරියා 26
▁අනුප 26
▁අමත 26
▁අමනාප 26
▁අයක 26
▁අයිත 26
▁අවධාන 26
▁අවධානෙන 26
▁අවොත 26
▁ආදී 26
▁ආධ 26
▁ආවරනය 26
▁ඇකඩම 26
▁ඇතිවෙයි 26
▁ඇදුමට 26
▁ඉතිරිය 26
▁උදුරගන 26
▁උපදසෝ 26
▁ඌහ 26
▁එකකම 26
▁එකෙත 26
▁එඩිතර 26
▁එනතුරු 26
▁එයලා 26
▁එයාගනේ 26
▁එලියක 26
▁එහම 26
▁ඔටං 26
▁ඔබල 26
▁ඔරලෝසු 26
▁ඔලුවෙන 26
▁ඔහෙගේ 26
▁ඔහේලට 26
▁ඕනවටත 26
▁ඕනිනම 26
▁කනත 26
▁කරුවෝ 26
▁කසාදයක 26
▁කාරයක 26
▁කාලට 26
▁කාලතුවක 26
▁කැලී 26
▁කෑගසයි 26
▁කිමද 26
▁කෙත 26
▁කොමාන 26
▁ගනිද 26
▁ගහේ 26
▁ගානවා 26
▁ගැනුම 26
▁ගැඹුරින 26
▁ගෑණියෙක 26
▁ගෑවිලා 26
▁ගොවිප 26
▁ගෝනා 26
▁චාරිකාව 26
▁චිව 26
▁චෝද 26
▁ජජ 26
▁ජපාන 26
▁ජිවින 26
▁ජීවිතෙත 26
▁ජුනියර 26
▁ජේකොබ 26
▁ජෝඩු 26
▁ඥා 26
▁ඩායමකට 26
▁ඩොමිනික 26
▁ණයගැතියි 26
▁ණවත 26
▁තණකොල 26
▁තමක 26
▁තරට 26
▁තරෙ 26
▁තානාපතිතුමා 26
▁තැග 26
▁තැනිතලා 26
▁තෑන 26
▁තුනී 26
▁තුවකින 26
▁තූරෙ 26
▁දකිද 26
▁දමාවි 26
▁දාට 26
▁දාව 26
▁දැකිය 26
▁දැකීමට 26
▁දැනීම 26
▁දැනුනද 26
▁දිවින 26
▁දෙමල 26
▁දෙයියො 26
▁දේවරාජ 26
▁දොඩම 26
▁දොරකඩ 26
▁නකමුරා 26
▁නගරෙම 26
▁නරුම 26
▁නැගල 26
▁නැතිවීම 26
▁නිගමන 26
▁නියෝජනය 26
▁නිවේදනයක 26
▁නිසානේ 26
▁නිසැකයෙන 26
▁නිළධාර 26
▁නිළධාරින 26
▁නොහිත 26
▁නෝනට 26
▁පපුවට 26
▁පයන 26
▁පරාජිත 26
▁පලිගැනීම 26
▁පලිය 26
▁පසුතැවිලි 26
▁පහස 26
▁පැටළ 26
▁පැමිණීමට 26
▁පැහැති 26
▁පැහැදිළියි 26
▁පිටවීමේ 26
▁පිරිල 26
▁පුතාගෙ 26
▁පුෂ 26
▁පූසා 26
▁පෙගී 26
▁පොතට 26
▁පොරොත 26
▁පෞර 26
▁බංක 26
▁බනි 26
▁බයිසිකල 26
▁බරෙන 26
▁බලකොට 26
▁බලමින 26
▁බලමුද 26
▁බලෝල 26
▁බවෙනවා 26
▁බැජ 26
▁බැහැනේ 26
▁බැහැල 26
▁බැළ 26
▁බූරුවෙක 26
▁භාෂාවක 26
▁මගුලකටද 26
▁මඟහැ 26
▁මතුරා 26
▁මහේන 26
▁මාතා 26
▁මාලිම 26
▁මිටර 26
▁මිළ 26
▁මුහුණක 26
▁මෙතැනදී 26
▁මෙයාලගේ 26
▁මෙහෙද 26
▁මේකප 26
▁මේගොල 26
▁මොලයේ 26
▁මෝඩකම 26
▁මෝඩය 26
▁යමුකෝ 26
▁යහළුවන 26
▁යෙදෙව 26
▁රදීප 26
▁රමන 26
▁රයෝග 26
▁රාජකාරියට 26
▁රාජධාන 26
▁රාය 26
▁රැකවලාගෙ 26
▁රැසැක 26
▁රියාකාරිත 26
▁රීසියෙන 26
▁රුසියානුවන 26
▁රූපවාහිනී 26
▁රෙම 26
▁රෝමයේ 26
▁රෝසි 26
▁රෝහියා 26
▁ලංවෙලා 26
▁ලගනින 26
▁ලබපු 26
▁ලිහන 26
▁ලෙට 26
▁ලෝකෙක 26
▁ලෝරල 26
▁වංචාකාරයෙක 26
▁වටේම 26
▁වනන 26
▁වාමීනි 26
▁වායුව 26
▁වැක 26
▁වැඩත 26
▁වැඩිහිට 26
▁වැඩුනේ 26
▁වැදුනේ 26
▁වැහුවා 26
▁විකේතනය 26
▁විගින 26
▁විනාඩ 26
▁විසදගන 26
▁විසිරිලා 26
▁විහිලුව 26
▁වීසා 26
▁වෘකයින 26
▁වෙනු 26
▁වෙරළේ 26
▁වෙලඳ 26
▁වේදනාකාරී 26
▁ශෙරිෆ 26
▁ෂතාවය 26
▁සංකිර 26
▁සංකේතයක 26
▁සතිඅන 26
▁සපාටා 26
▁සහන 26
▁සහොදරයා 26
▁සාමකාමී 26
▁සාහා 26
▁සැමවිටම 26
▁සුදුමැලි 26
▁සුනඛ 26
▁සූප 26
▁සෙඩ 26
▁සෝයා 26
▁හංඟ 26
▁හමුවිම 26
▁හයවෙනි 26
▁හානය 26
▁හැටන 26
▁හැටියෙම 26
▁හැඩයි 26
▁හැමතැන 26
▁හැසිරීමක 26
▁හිසේ 26
▁හෙලයි 26
▁හොයනවද 26
▁හෝටලය 26
▁හෝටලයේ 26
▁ළු 26
▁ෆයර 26
▁ෆෙඩ 26
▁ෙසා 26
▁ෙහ 26
about 25
agger 25
ano 25
bird 25
bon 25
bro 25
course 25
dam 25
dr 25
eak 25
fuck 25
hill 25
hit 25
icing 25
igh 25
ilized 25
inating 25
ipped 25
irect 25
itted 25
laws 25
lot 25
minute 25
mond 25
oof 25
ork 25
oun 25
pan 25
ression 25
rish 25
shot 25
state 25
style 25
town 25
tw 25
very 25
අල 25
ආරක 25
ඔබට 25
කයකේ 25
ගාරය 25
ගැනිමට 25
ගොල 25
ඞ 25
ජැක 25
තට 25
තව 25
දෙව 25
ධර 25
නවාද 25
පහර 25
බේර 25
යටම 25
යටයි 25
රාට 25
ලටෙ 25
ලාස 25
වැට 25
වෙයන 25
සෙ 25
ාටත 25
ාරම 25
ැඩ 25
ිඩ 25
ිවලින 25
ුටි 25
ුණාම 25
ුවෙදි 25
ෘති 25
ොවක 25
▁.......... 25
▁195 25
▁1996 25
▁2014 25
▁4000 25
▁58 25
▁900 25
▁absurd 25
▁abused 25
▁accomplished 25
▁accusing 25
▁adoption 25
▁alaska 25
▁alfred 25
▁alongside 25
▁anchor 25
▁ares 25
▁banker 25
▁bassam 25
▁bathe 25
▁behaving 25
▁betrayal 25
▁beverly 25
▁bharathi 25
▁blaring 25
▁blo 25
▁blur 25
▁boiling 25
▁bombed 25
▁boundaries 25
▁bran 25
▁briefcase 25
▁briggs 25
▁bubbles 25
▁busan 25
▁businesses 25
▁businessman 25
▁cassandra 25
▁casual 25
▁celebration 25
▁challenging 25
▁christy 25
▁collabor 25
▁communicating 25
▁compassion 25
▁conce 25
▁concentration 25
▁confidential 25
▁conj 25
▁convoy 25
▁correspond 25
▁coven 25
▁crank 25
▁critic 25
▁crucial 25
▁decorated 25
▁dentist 25
▁ding 25
▁diplomatic 25
▁div 25
▁drift 25
▁dw 25
▁dwarves 25
▁elections 25
▁eliminate 25
▁elrond 25
▁emmett 25
▁ens 25
▁entr 25
▁ess 25
▁etc 25
▁expectations 25
▁fac 25
▁factor 25
▁faked 25
▁fellows 25
▁fluffy 25
▁footsteps 25
▁forcing 25
▁fortunate 25
▁garrick 25
▁ghajini 25
▁gina 25
▁gise 25
▁gloans 25
▁gondor 25
▁grad 25
▁greed 25
▁growth 25
▁hanka 25
▁harness 25
▁hav 25
▁herr 25
▁homicide 25
▁honorable 25
▁hopeless 25
▁humiliated 25
▁hydrogen 25
▁illness 25
▁importance 25
▁indistinct 25
▁individuals 25
▁inevitable 25
▁inhaler 25
▁innocence 25
▁insects 25
▁interference 25
▁invested 25
▁irrelevant 25
▁jatin 25
▁jessica 25
▁judes 25
▁kang 25
▁kashmir 25
▁katia 25
▁keller 25
▁kindly 25
▁korea 25
▁lac 25
▁legends 25
▁lens 25
▁leon 25
▁leonard 25
▁lic 25
▁lid 25
▁lifeboat 25
▁limp 25
▁locking 25
▁loki 25
▁loosen 25
▁lorca 25
▁luckily 25
▁lycan 25
▁martial 25
▁martinez 25
▁mathura 25
▁mend 25
▁millionaire 25
▁mog 25
▁momma 25
▁mossi 25
▁nailed 25
▁nathan 25
▁nicky 25
▁nin 25
▁nuke 25
▁obst 25
▁offended 25
▁offers 25
▁opponent 25
▁osiris 25
▁parcher 25
▁parithi 25
▁penis 25
▁pennsylvania 25
▁philosophy 25
▁pier 25
▁pose 25
▁presented 25
▁procedures 25
▁randall 25
▁rathod 25
▁rays 25
▁receipt 25
▁recovering 25
▁region 25
▁remembering 25
▁retard 25
▁rhys 25
▁rickshaw 25
▁riddick 25
▁roaming 25
▁sacrifices 25
▁scanning 25
▁scope 25
▁sew 25
▁shelf 25
▁shells 25
▁sickness 25
▁siding 25
▁sie 25
▁skyler 25
▁smuggling 25
▁spaniard 25
▁spear 25
▁stamp 25
▁stealth 25
▁stew 25
▁stinking 25
▁storms 25
▁summoned 25
▁symptoms 25
▁taxes 25
▁texted 25
▁thanking 25
▁transmitter 25
▁travels 25
▁trumpets 25
▁trusts 25
▁una 25
▁unhappy 25
▁uploaded 25
▁vari 25
▁ven 25
▁verify 25
▁visions 25
▁vlad 25
▁vot 25
▁weibo 25
▁whis 25
▁wield 25
▁wit 25
▁wont 25
▁wren 25
▁wrest 25
▁අකැම 25
▁අඟුලු 25
▁අඩනවා 25
▁අතරමග 25
▁අතෑර 25
▁අනවසර 25
▁අනාගතයේ 25
▁අපකීර 25
▁අපහස 25
▁අවකාශ 25
▁ආග 25
▁ආඥ 25
▁ආතත 25
▁ආයතනයට 25
▁ආයිමත 25
▁ආරන 25
▁ආවාද 25
▁ඇගෙව 25
▁ඇතැම 25
▁ඇතිවෙනවා 25
▁ඇදිලා 25
▁ඇලබාමා 25
▁ඇහැරිලා 25
▁ඇහුනනේ 25
▁ඉංදියාව 25
▁ඉඳිමු 25
▁ඉවරවෙලා 25
▁උඩේ 25
▁උඹලාට 25
▁එතනදී 25
▁එපිට 25
▁ඒකකයේ 25
▁ඒවගෙ 25
▁ඔබටත 25
▁ඔබටයි 25
▁ඔයාගෙත 25
▁කටවහපන 25
▁කයිලර 25
▁කරැ 25
▁කරුනාකර 25
▁කවුරැත 25
▁කවුළ 25
▁කාරයට 25
▁කාරිය 25
▁කාරියක 25
▁කෑවද 25
▁කිපයක 25
▁කුණ 25
▁කුරේෂි 25
▁කුවෙ 25
▁කෙම 25
▁කෝපර 25
▁ගං 25
▁ගජිණි 25
▁ගනිල 25
▁ගඳක 25
▁ගමනට 25
▁ගෙදරදී 25
▁ගෙවීමක 25
▁ගොඩයි 25
▁ගොඩේ 25
▁ගොපල 25
▁ගෝලීය 25
▁චිගේ 25
▁චිරාජු 25
▁චෙට 25
[...]
